<unk>	0
<s>	0
</s>	0
▁the	-3.02901
.	-3.07212
,	-3.0867
▁a	-3.81777
▁to	-3.8518
▁of	-3.90867
▁and	-4.00114
s	-4.01327
▁in	-4.01613
’	-4.4481
▁that	-4.59066
▁“	-4.69526
▁for	-4.81815
▁said	-4.90508
-	-4.9347
▁on	-4.97082
▁he	-5.02103
▁is	-5.10487
▁was	-5.12107
▁it	-5.2236
▁with	-5.23313
▁mr	-5.32762
▁at	-5.38532
▁his	-5.46045
▁as	-5.47139
,”	-5.48614
▁by	-5.58559
▁from	-5.63857
▁have	-5.64648
▁but	-5.66889
▁not	-5.67565
.”	-5.69292
▁has	-5.70098
▁an	-5.70763
▁be	-5.70992
▁had	-5.7724
▁who	-5.7839
▁are	-5.82664
▁they	-5.87551
▁—	-5.89975
t	-6.10397
▁i	-6.11882
▁their	-6.14078
▁were	-6.15187
▁new	-6.16464
▁more	-6.18329
▁this	-6.18792
▁would	-6.1935
▁one	-6.20359
▁about	-6.22745
i	-6.24992
▁been	-6.25271
▁or	-6.26474
▁will	-6.30306
▁which	-6.32052
▁its	-6.32375
▁after	-6.39259
▁she	-6.39903
▁when	-6.43177
▁you	-6.5286
m	-6.52967
▁out	-6.54014
▁we	-6.54232
▁two	-6.54477
▁than	-6.55425
▁her	-6.57256
▁up	-6.58047
▁last	-6.61996
▁like	-6.63095
▁year	-6.65344
▁there	-6.65906
▁also	-6.66692
▁some	-6.66886
▁all	-6.67249
▁people	-6.67255
▁other	-6.68757
▁first	-6.7104
▁over	-6.711
▁can	-6.72227
a	-6.72371
:	-6.73742
▁no	-6.74029
”	-6.74776
▁so	-6.76542
▁what	-6.78584
▁years	-6.81147
▁if	-6.81899
▁time	-6.82362
▁could	-6.82394
▁into	-6.82949
▁him	-6.86087
▁state	-6.9113
ing	-6.91661
▁percent	-6.95841
▁them	-6.97124
;	-6.97985
▁do	-7.00964
▁because	-7.01115
▁many	-7.01992
▁now	-7.02435
▁government	-7.03225
▁just	-7.03636
▁ms	-7.03944
▁most	-7.04322
d	-7.04637
the	-7.05999
ed	-7.06696
re	-7.08418
▁only	-7.11005
▁united	-7.11841
▁city	-7.12858
▁,	-7.12869
▁did	-7.13761
▁before	-7.14365
it	-7.14506
▁three	-7.14652
▁company	-7.15572
▁president	-7.16018
▁states	-7.16089
▁even	-7.16438
▁through	-7.17572
▁where	-7.18203
we	-7.21976
▁york	-7.22118
▁million	-7.23036
▁those	-7.26595
▁back	-7.26639
▁how	-7.26762
▁against	-7.2719
▁game	-7.28553
▁team	-7.30366
▁made	-7.33374
▁still	-7.33806
▁while	-7.33937
▁since	-7.34907
▁get	-7.35587
▁say	-7.36104
▁may	-7.36396
▁world	-7.37597
▁officials	-7.37811
▁american	-7.38235
▁much	-7.3892
▁then	-7.39385
▁make	-7.39636
▁off	-7.43046
▁way	-7.44013
▁long	-7.44534
▁down	-7.45134
▁any	-7.45841
▁group	-7.47127
▁day	-7.47509
▁week	-7.47562
▁(	-7.48202
▁home	-7.48545
▁my	-7.50008
▁going	-7.50236
▁police	-7.5125
e	-7.52949
y	-7.53106
▁under	-7.53373
▁another	-7.54164
▁p	-7.55057
c	-7.55194
▁work	-7.55383
▁during	-7.56797
▁including	-7.56911
▁well	-7.57694
▁our	-7.58024
▁being	-7.58631
▁country	-7.59953
▁part	-7.6022
▁	-7.60338
▁public	-7.60788
▁season	-7.6133
▁here	-7.61413
ly	-7.62025
▁former	-7.62227
▁four	-7.62395
▁me	-7.63022
▁times	-7.63175
▁go	-7.6344
▁second	-7.63934
▁n	-7.63948
▁court	-7.64472
▁don	-7.65562
▁take	-7.66496
▁according	-7.67776
▁next	-7.69463
▁high	-7.69683
▁think	-7.69874
▁obama	-7.70795
er	-7.70874
▁national	-7.71048
?	-7.71458
l	-7.72492
▁left	-7.72499
▁.	-7.73268
▁house	-7.74686
▁good	-7.7502
▁right	-7.7581
▁called	-7.75844
▁school	-7.76667
▁credit	-7.77065
▁business	-7.77281
▁around	-7.77425
▁billion	-7.77581
▁between	-7.77751
▁10	-7.77812
▁money	-7.7783
▁law	-7.78021
ve	-7.78534
▁case	-7.78757
▁both	-7.79064
▁want	-7.79915
in	-7.7997
▁same	-7.80176
▁very	-7.8024
▁center	-7.80518
▁news	-7.82464
▁these	-7.82675
▁told	-7.83453
▁end	-7.83749
▁should	-7.84214
▁chief	-7.84275
▁know	-7.84792
▁five	-7.85268
▁federal	-7.85443
▁see	-7.85617
▁among	-7.85897
▁might	-7.85959
▁own	-7.86221
▁companies	-7.8661
▁month	-7.87102
b	-7.87999
▁political	-7.88456
▁few	-7.88478
▁several	-7.8942
▁big	-7.89562
r	-7.89645
▁play	-7.8968
th	-7.89738
▁too	-7.90656
o	-7.90884
▁university	-7.91185
▁help	-7.91591
▁street	-7.91862
year	-7.91912
▁such	-7.92089
▁tuesday	-7.92587
▁come	-7.92738
▁family	-7.93042
▁party	-7.93181
▁monday	-7.94862
▁used	-7.95016
▁department	-7.95113
▁players	-7.9513
▁friday	-7.95403
▁thursday	-7.9544
▁man	-7.95544
▁china	-7.95583
▁campaign	-7.95839
▁little	-7.9591
▁far	-7.96021
▁office	-7.96042
▁wednesday	-7.9618
▁found	-7.96184
▁recent	-7.96191
▁added	-7.96521
▁never	-7.96782
▁run	-7.97113
n	-7.97185
▁use	-7.97313
▁ago	-7.97653
'	-7.97754
▁days	-7.97901
▁came	-7.97924
▁won	-7.98739
▁e	-7.98953
▁took	-7.9944
▁games	-7.99563
▁whether	-7.99649
▁image	-7.99665
▁market	-7.9992
)	-8.00265
▁later	-8.00427
▁bank	-8.00514
▁months	-8.00831
▁your	-8.00897
▁members	-8.01033
▁top	-8.02024
▁though	-8.02638
▁dr	-8.02746
▁executive	-8.0328
▁night	-8.03475
▁each	-8.03624
▁put	-8.04441
▁set	-8.05421
▁without	-8.06223
▁military	-8.06241
▁general	-8.06394
▁security	-8.06921
▁least	-8.07115
▁washington	-8.07625
he	-8.07732
▁place	-8.07852
▁children	-8.08242
▁early	-8.08477
▁women	-8.0867
▁need	-8.08716
▁life	-8.08897
▁health	-8.09237
▁every	-8.0974
▁less	-8.09979
▁lot	-8.10091
▁us	-8.10106
▁system	-8.10502
▁south	-8.10854
▁asked	-8.11257
▁best	-8.11624
▁deal	-8.118
▁sunday	-8.11853
▁got	-8.12052
▁‘	-8.12214
▁win	-8.12243
▁program	-8.12323
▁third	-8.12465
▁financial	-8.12582
▁power	-8.12706
▁u	-8.12972
▁white	-8.12996
▁report	-8.13116
p	-8.13245
▁show	-8.1344
▁major	-8.13781
▁six	-8.1421
▁until	-8.15344
▁past	-8.15384
▁better	-8.15651
▁men	-8.1594
▁really	-8.1626
▁points	-8.1635
▁become	-8.17705
▁open	-8.18055
▁north	-8.18188
▁league	-8.18534
f	-8.187
▁says	-8.18998
▁point	-8.1913
▁international	-8.1975
▁support	-8.19781
▁director	-8.19824
▁does	-8.19964
▁began	-8.20359
▁free	-8.20704
▁agency	-8.20837
▁number	-8.20898
▁often	-8.21577
▁already	-8.21717
▁start	-8.21719
▁half	-8.21734
▁once	-8.21985
▁away	-8.22543
▁republican	-8.22673
▁something	-8.22935
▁local	-8.22983
▁known	-8.23116
▁20	-8.23151
▁pay	-8.23566
▁change	-8.23647
▁small	-8.24259
▁european	-8.25088
to	-8.25178
and	-8.25301
▁went	-8.25393
▁plan	-8.26411
▁de	-8.26684
▁job	-8.26899
▁economic	-8.26934
▁union	-8.27194
▁expected	-8.28943
▁statement	-8.28949
▁administration	-8.28995
▁saying	-8.29046
▁war	-8.29812
▁media	-8.29849
▁lead	-8.29875
▁trying	-8.31079
▁5	-8.31183
▁hard	-8.31759
old	-8.31782
▁making	-8.3194
k	-8.32372
▁yet	-8.32418
▁things	-8.32419
▁coach	-8.32508
▁again	-8.32623
▁young	-8.3277
▁1	-8.32813
▁service	-8.32821
▁trump	-8.33164
▁decision	-8.33249
▁nearly	-8.33955
▁whose	-8.34083
▁enough	-8.344
▁official	-8.34973
▁c	-8.351
▁re	-8.35426
▁led	-8.35549
▁john	-8.36039
▁saturday	-8.36336
▁line	-8.36684
/	-8.36859
▁lost	-8.3727
▁head	-8.37295
▁others	-8.37349
man	-8.37764
▁industry	-8.37876
▁final	-8.38054
▁hit	-8.38135
▁interview	-8.38283
▁tax	-8.38732
▁working	-8.38788
▁late	-8.39065
▁care	-8.39249
▁keep	-8.39277
▁s	-8.39328
ll	-8.39817
▁series	-8.39832
▁different	-8.39873
▁minister	-8.40429
▁policy	-8.40469
▁great	-8.40726
▁field	-8.41533
▁workers	-8.41781
if	-8.41909
g	-8.42148
▁conference	-8.42496
▁bill	-8.42653
▁economy	-8.42726
▁building	-8.42928
▁find	-8.4305
▁across	-8.43102
▁move	-8.43555
▁played	-8.43596
▁"	-8.43641
▁give	-8.43659
▁weeks	-8.44118
▁j	-8.4428
h	-8.44814
▁close	-8.45134
▁real	-8.45178
▁11	-8.45268
▁car	-8.45635
you	-8.46226
▁near	-8.46246
▁information	-8.46256
▁large	-8.4631
▁g	-8.46467
▁water	-8.467
▁always	-8.46701
▁call	-8.46785
▁outside	-8.46803
▁f	-8.47257
this	-8.47351
▁look	-8.47683
▁behind	-8.47822
▁leaders	-8.47874
there	-8.48004
▁held	-8.481
▁3	-8.48156
they	-8.48206
▁sales	-8.48542
but	-8.48627
▁2	-8.48667
es	-8.48723
▁site	-8.48836
▁east	-8.49208
▁judge	-8.49398
▁countries	-8.50105
▁race	-8.50199
▁board	-8.50248
▁along	-8.50316
▁killed	-8.50346
▁college	-8.50397
▁started	-8.50409
▁became	-8.5055
▁west	-8.50622
▁foreign	-8.50898
u	-8.51056
▁old	-8.51185
▁record	-8.51491
▁oil	-8.51753
▁player	-8.51841
▁face	-8.52207
▁issue	-8.52288
▁recently	-8.52451
▁clinton	-8.52454
▁history	-8.5275
▁rights	-8.52769
▁defense	-8.52794
▁research	-8.5289
▁side	-8.53048
▁chinese	-8.53115
▁4	-8.53193
▁almost	-8.53314
▁wrote	-8.53463
▁given	-8.54182
▁black	-8.54275
▁victory	-8.54415
▁having	-8.54459
▁m	-8.54546
▁meeting	-8.54614
▁reported	-8.55211
▁central	-8.55343
▁students	-8.55676
▁park	-8.55907
ers	-8.56002
▁father	-8.56128
?”	-8.56134
com	-8.56153
▁name	-8.56196
▁important	-8.56355
▁leader	-8.56384
▁senior	-8.56815
▁why	-8.56909
▁likely	-8.57316
▁death	-8.57708
▁control	-8.57739
▁12	-8.57776
▁capital	-8.57899
▁data	-8.57902
▁taken	-8.58219
▁15	-8.58223
▁red	-8.58262
▁o	-8.58419
▁video	-8.58424
on	-8.5856
▁area	-8.58744
▁clear	-8.58803
▁committee	-8.58934
▁seven	-8.58991
▁based	-8.59034
▁able	-8.59157
▁election	-8.59253
▁announced	-8.59583
▁march	-8.59731
▁shot	-8.59787
▁wanted	-8.59927
▁seen	-8.60262
▁kind	-8.60354
▁officer	-8.604
▁private	-8.60462
▁plans	-8.60535
▁30	-8.60822
▁television	-8.61045
▁fund	-8.61407
▁groups	-8.61947
▁hours	-8.61965
▁career	-8.61995
▁d	-8.62307
▁force	-8.62504
▁energy	-8.62773
▁done	-8.62783
▁thing	-8.63008
▁taking	-8.63055
▁air	-8.63055
▁thought	-8.63266
▁earlier	-8.63503
▁doing	-8.63531
▁using	-8.63664
▁al	-8.63772
▁quarter	-8.64126
▁social	-8.64345
▁himself	-8.64667
▁didn	-8.64757
▁officers	-8.64771
▁worked	-8.64861
▁spokesman	-8.65011
▁return	-8.65225
▁full	-8.65261
▁must	-8.65546
▁san	-8.65633
▁8	-8.65722
▁low	-8.65935
▁future	-8.66374
▁room	-8.66394
▁services	-8.66461
▁trade	-8.66461
▁cost	-8.66798
▁however	-8.66906
▁ever	-8.6706
▁vote	-8.67291
▁legal	-8.674
▁growth	-8.67409
▁justice	-8.6755
▁mayor	-8.67611
▁coming	-8.67862
▁food	-8.68118
▁america	-8.68613
▁europe	-8.68687
▁russia	-8.68905
▁lawyer	-8.69116
▁district	-8.69179
▁running	-8.6935
▁playing	-8.69457
▁helped	-8.69752
▁short	-8.69824
▁although	-8.69921
▁son	-8.69931
▁share	-8.69934
▁community	-8.70235
▁18	-8.70322
▁june	-8.70419
▁instead	-8.70747
▁teams	-8.708
▁firm	-8.70854
▁question	-8.70982
▁problem	-8.7115
▁role	-8.71207
▁manager	-8.71499
▁price	-8.71573
▁cases	-8.71699
▁minutes	-8.71855
▁global	-8.72041
▁cut	-8.72138
▁japan	-8.72288
▁human	-8.72346
▁goal	-8.72363
▁seemed	-8.72372
▁gave	-8.72588
▁attack	-8.72758
▁front	-8.72803
▁feel	-8.7285
▁co	-8.72939
▁investigation	-8.72941
▁prices	-8.73395
▁current	-8.73406
▁nation	-8.73963
▁despite	-8.74
▁toward	-8.74211
▁getting	-8.7433
▁course	-8.74364
▁democratic	-8.7488
▁investors	-8.74935
▁problems	-8.74942
▁effort	-8.74953
▁ball	-8.75078
▁interest	-8.75296
▁received	-8.75353
▁st	-8.75745
▁process	-8.75783
▁crisis	-8.76006
▁increase	-8.76064
▁eight	-8.76171
▁turned	-8.76221
▁fans	-8.76488
▁live	-8.76613
▁david	-8.76761
▁senate	-8.77096
▁technology	-8.77138
an	-8.77267
▁try	-8.77438
▁died	-8.77618
▁banks	-8.77752
▁july	-8.77755
▁issues	-8.77811
▁press	-8.77965
al	-8.78073
▁jobs	-8.78245
▁senator	-8.78273
▁person	-8.78421
▁looking	-8.78431
▁island	-8.78739
▁county	-8.78887
▁authorities	-8.78994
▁web	-8.79053
▁art	-8.79206
▁spent	-8.79319
▁possible	-8.79424
▁fire	-8.79436
▁together	-8.79449
▁6	-8.79541
▁congress	-8.7955
▁prime	-8.79763
▁believe	-8.80223
▁within	-8.80392
▁online	-8.80449
▁spending	-8.80488
▁mother	-8.80596
▁april	-8.80626
▁continue	-8.80726
▁road	-8.80778
▁wall	-8.80873
▁r	-8.80891
▁forces	-8.80926
▁summer	-8.81074
▁released	-8.81135
▁nations	-8.81197
▁charges	-8.81318
▁governor	-8.81597
▁today	-8.8164
▁strong	-8.81863
▁tried	-8.82166
▁yankees	-8.82931
▁post	-8.83015
▁efforts	-8.83037
▁scored	-8.83059
▁hand	-8.83184
▁main	-8.83196
▁organization	-8.83244
▁michael	-8.83612
▁medical	-8.83617
▁rate	-8.83663
▁california	-8.83816
▁needed	-8.84016
▁republicans	-8.84139
▁iran	-8.84157
▁drug	-8.84194
▁wife	-8.84205
▁probably	-8.84226
▁member	-8.84329
▁sent	-8.8437
▁council	-8.84621
▁staff	-8.84833
▁7	-8.84922
▁woman	-8.84956
▁questions	-8.85122
that	-8.85236
▁morning	-8.85407
▁democrats	-8.85576
▁middle	-8.85604
▁soon	-8.85649
▁project	-8.85681
▁town	-8.8571
▁residents	-8.85748
▁budget	-8.85813
▁revenue	-8.86103
▁professor	-8.86155
▁turn	-8.86297
▁commission	-8.86454
▁sports	-8.86481
▁france	-8.86481
▁higher	-8.86582
▁employees	-8.86667
▁cup	-8.86822
▁un	-8.86938
no	-8.87026
▁fourth	-8.87138
▁mets	-8.87145
▁”	-8.87358
▁rules	-8.87466
▁texas	-8.87628
▁let	-8.87694
▁b	-8.87837
▁position	-8.88292
org	-8.89149
▁investment	-8.89149
▁evidence	-8.89218
▁9	-8.89447
▁chairman	-8.89554
▁agreement	-8.89883
▁average	-8.89949
▁manhattan	-8.90554
▁allowed	-8.90619
▁analysts	-8.90765
▁lower	-8.90868
▁fall	-8.91176
▁example	-8.91224
▁single	-8.91315
▁development	-8.91467
en	-8.91702
▁paid	-8.91843
▁buy	-8.9187
▁potential	-8.91956
▁especially	-8.92105
▁inside	-8.92342
▁voters	-8.92403
▁rather	-8.92433
▁fell	-8.9261
▁14	-8.92653
▁nothing	-8.92679
▁safety	-8.92719
▁showed	-8.92773
▁similar	-8.9292
▁football	-8.92984
▁loss	-8.93051
▁sure	-8.93067
▁fact	-8.93073
▁church	-8.93099
▁anything	-8.93169
▁appeared	-8.93173
▁gas	-8.93273
▁matter	-8.93284
▁stop	-8.93317
▁declined	-8.93421
▁friends	-8.93581
▁l	-8.93598
▁difficult	-8.93693
▁perhaps	-8.93706
▁moved	-8.93736
▁bad	-8.93939
▁level	-8.93975
▁book	-8.94013
▁brooklyn	-8.94059
▁nuclear	-8.94212
▁rose	-8.94237
▁involved	-8.94238
▁talk	-8.94381
▁james	-8.94427
▁saw	-8.94491
▁13	-8.94518
▁provide	-8.94531
up	-8.94646
▁runs	-8.94763
▁phone	-8.94953
▁include	-8.95264
▁leave	-8.95439
▁idea	-8.95872
▁leading	-8.95914
▁per	-8.95956
▁largest	-8.96061
▁forward	-8.96102
▁club	-8.96292
▁internet	-8.96331
▁w	-8.96755
▁special	-8.96758
▁order	-8.96829
▁period	-8.97099
▁region	-8.97113
▁trial	-8.97138
▁17	-8.97237
▁association	-8.97565
or	-8.97641
▁offer	-8.97653
▁hope	-8.9766
▁further	-8.97687
▁costs	-8.97759
▁hospital	-8.97788
▁decades	-8.98314
▁sometimes	-8.98475
▁french	-8.98652
▁growing	-8.98661
▁thousands	-8.9881
▁baseball	-8.98866
▁t	-8.98983
▁risk	-8.98987
▁agreed	-8.99237
▁fight	-8.99366
▁longer	-8.99433
▁network	-8.99523
▁debt	-8.99536
▁themselves	-8.99743
▁pressure	-8.99861
▁attacks	-8.99905
▁stock	-9.00059
▁british	-9.00097
▁biggest	-9.00181
▁described	-9.00309
▁israel	-9.00334
▁25	-9.00385
▁50	-9.00428
▁quickly	-9.00457
▁iraq	-9.0047
▁study	-9.00718
▁met	-9.00836
▁sign	-9.00852
▁green	-9.00919
▁16	-9.01042
▁chance	-9.01098
▁round	-9.01405
▁someone	-9.01426
▁list	-9.01537
▁raised	-9.01601
▁russian	-9.017
▁opposition	-9.02052
▁museum	-9.02176
▁training	-9.02223
▁changes	-9.0227
▁mark	-9.02296
▁comes	-9.02413
▁adding	-9.02463
▁army	-9.02631
▁prison	-9.0264
▁lawyers	-9.02744
▁calls	-9.02888
▁step	-9.02922
▁result	-9.03365
▁makes	-9.03424
▁brought	-9.03478
▁ground	-9.03495
▁americans	-9.03499
▁felt	-9.0369
▁hold	-9.03691
▁education	-9.03789
▁comment	-9.03897
▁act	-9.04033
▁markets	-9.04067
▁space	-9.04153
▁action	-9.04162
▁music	-9.04241
▁secretary	-9.04264
▁ended	-9.04353
▁lives	-9.04419
▁parents	-9.04557
▁included	-9.04627
▁remain	-9.04628
▁event	-9.04644
▁miles	-9.04862
▁authority	-9.04994
▁london	-9.05003
▁winning	-9.05071
▁google	-9.0513
▁bush	-9.0515
▁bring	-9.05361
▁&	-9.0541
▁test	-9.05547
▁schools	-9.06023
▁labor	-9.06088
▁jersey	-9.06599
▁allow	-9.06609
▁vice	-9.06711
▁attention	-9.06823
▁view	-9.07048
▁hall	-9.07084
▁remains	-9.07099
▁beat	-9.07168
▁results	-9.07209
▁chicago	-9.07275
▁age	-9.07331
▁accused	-9.07343
▁particularly	-9.07885
▁experience	-9.07902
▁customers	-9.0802
2	-9.08056
▁everything	-9.08387
▁presidential	-9.08396
▁personal	-9.08426
▁germany	-9.08517
is	-9.08797
▁base	-9.0886
▁practice	-9.08934
▁message	-9.09427
▁doesn	-9.09528
▁families	-9.09546
▁continued	-9.09589
▁sense	-9.09708
▁nine	-9.09841
▁housing	-9.1019
▁40	-9.10308
▁management	-9.10333
as	-9.10499
.)	-9.10514
▁h	-9.10562
▁britain	-9.10649
▁johnson	-9.10694
▁rest	-9.10742
▁debate	-9.10867
▁knew	-9.1089
▁tell	-9.10999
▁reports	-9.1105
▁korea	-9.11112
▁stay	-9.11576
▁avenue	-9.11587
▁seems	-9.11601
time	-9.11712
▁living	-9.1206
▁previous	-9.1208
▁itself	-9.12217
▁focus	-9.12332
▁100	-9.12435
▁situation	-9.12487
▁brown	-9.12846
▁decided	-9.12895
▁failed	-9.1291
▁prosecutors	-9.13041
▁los	-9.13072
▁moment	-9.13184
▁experts	-9.13223
▁sell	-9.13364
▁florida	-9.13416
▁sold	-9.13446
▁$1	-9.13562
▁total	-9.13591
z	-9.13631
▁love	-9.1366
▁meet	-9.13673
▁body	-9.13749
▁offered	-9.13785
▁violence	-9.13851
▁products	-9.13879
▁reason	-9.14189
▁considered	-9.14273
▁pass	-9.14277
▁create	-9.1432
▁reached	-9.14339
▁cannot	-9.14403
▁giants	-9.14446
▁ahead	-9.14619
▁syria	-9.14692
▁built	-9.14735
▁areas	-9.14805
▁starting	-9.14886
▁works	-9.15006
▁programs	-9.15085
5	-9.15165
▁story	-9.15576
▁available	-9.15628
▁latest	-9.1581
▁williams	-9.15839
▁bar	-9.16272
▁land	-9.16353
j	-9.16427
▁build	-9.16527
▁feet	-9.16714
▁attorney	-9.17286
▁named	-9.17357
▁criminal	-9.17474
able	-9.17785
▁bit	-9.17791
▁reach	-9.17995
▁events	-9.18051
▁performance	-9.18058
▁means	-9.18246
▁match	-9.18253
▁rates	-9.18293
▁reporters	-9.18437
▁operations	-9.18511
▁popular	-9.18641
▁executives	-9.18844
▁smith	-9.18922
▁apple	-9.19085
▁child	-9.1913
▁boston	-9.19181
▁tournament	-9.19216
▁businesses	-9.19257
▁drive	-9.19343
▁19	-9.19406
▁ran	-9.19453
▁seeking	-9.1951
▁concerns	-9.19638
▁dollars	-9.19697
▁western	-9.19786
▁january	-9.19804
▁either	-9.19807
▁everyone	-9.1987
▁response	-9.19999
▁civil	-9.20226
▁hundreds	-9.20237
v	-9.20263
▁title	-9.20271
3	-9.20273
▁border	-9.20275
▁success	-9.20345
▁contract	-9.20492
▁beyond	-9.20687
▁created	-9.20691
▁angeles	-9.20702
▁class	-9.2082
at	-9.2096
▁significant	-9.20984
▁value	-9.21015
▁afghanistan	-9.2117
▁paul	-9.2144
▁challenge	-9.21908
▁yards	-9.21935
▁approach	-9.21956
▁access	-9.21974
▁grand	-9.21975
▁ways	-9.22066
▁spoke	-9.22428
▁talks	-9.22618
▁star	-9.22867
▁pro	-9.23011
▁charged	-9.23048
▁insurance	-9.23373
▁decade	-9.23591
▁knicks	-9.23632
▁watch	-9.23681
▁needs	-9.23791
▁cash	-9.23906
▁majority	-9.24008
▁suggested	-9.2406
▁division	-9.24206
▁happened	-9.24521
▁whom	-9.24676
▁store	-9.24778
▁signed	-9.2481
▁returned	-9.24904
▁certain	-9.24917
▁annual	-9.24944
▁bay	-9.25169
▁spring	-9.25303
▁cars	-9.2549
▁india	-9.25538
,"	-9.25825
▁kept	-9.25956
▁couple	-9.26085
▁islamic	-9.26177
),	-9.26315
▁student	-9.26318
▁seem	-9.26357
▁actually	-9.26378
▁crowd	-9.26392
▁huge	-9.26417
▁conservative	-9.26442
7	-9.26485
▁light	-9.26562
▁championship	-9.26594
▁term	-9.26686
▁terms	-9.2673
▁else	-9.26789
▁v	-9.26821
▁opened	-9.26855
▁visit	-9.26919
▁anti	-9.26981
▁whole	-9.2703
▁shows	-9.27209
▁looked	-9.27231
▁tour	-9.27355
▁charge	-9.27404
▁democrat	-9.27537
▁break	-9.2756
▁funds	-9.2765
▁track	-9.27655
▁shooting	-9.27697
▁gone	-9.27769
▁raise	-9.27837
▁robert	-9.27868
▁arrested	-9.28116
▁poor	-9.28306
▁planned	-9.28387
).	-9.2843
▁rise	-9.28506
el	-9.2862
▁heard	-9.28728
▁candidate	-9.28797
▁stadium	-9.28863
▁blue	-9.28898
4	-9.29014
when	-9.29321
▁am	-9.29357
▁believed	-9.29458
▁heart	-9.29541
▁speech	-9.2959
▁finished	-9.29593
▁jan	-9.29626
▁politics	-9.29746
▁consumers	-9.29881
▁release	-9.29898
▁largely	-9.30007
▁anyone	-9.30078
▁effect	-9.30099
▁giving	-9.30108
▁demand	-9.30259
▁serious	-9.30273
term	-9.30296
▁passed	-9.30342
▁december	-9.30359
▁la	-9.30473
▁george	-9.30474
▁computer	-9.30537
▁served	-9.30741
▁income	-9.30796
▁worth	-9.30877
▁friend	-9.3089
▁intelligence	-9.30904
▁letter	-9.3096
▁november	-9.30991
▁dead	-9.31027
▁supporters	-9.31041
▁search	-9.31273
▁aid	-9.3168
▁leaving	-9.31867
▁rule	-9.32054
▁account	-9.32104
▁september	-9.32221
▁numbers	-9.3223
▁finance	-9.32514
▁forced	-9.32527
▁supreme	-9.32551
▁candidates	-9.32586
▁southern	-9.32692
▁fighting	-9.32711
▁mrs	-9.32757
▁host	-9.32931
ness	-9.32985
▁opportunity	-9.33011
▁weekend	-9.33035
▁representative	-9.33049
▁institute	-9.33075
▁wants	-9.33077
▁exchange	-9.33426
▁closed	-9.33614
▁theater	-9.33629
▁twitter	-9.33638
what	-9.33687
▁common	-9.33815
▁compared	-9.33916
▁followed	-9.33985
▁regular	-9.34003
▁issued	-9.34128
▁figure	-9.34128
▁station	-9.34135
▁neighborhood	-9.34165
▁review	-9.3426
▁daughter	-9.34476
▁sept	-9.34525
▁german	-9.34553
▁facebook	-9.34624
▁cause	-9.3474
▁production	-9.34748
▁provided	-9.34878
▁mostly	-9.34957
1	-9.34977
▁bonds	-9.35068
▁hands	-9.35104
▁read	-9.35199
my	-9.35204
▁square	-9.35311
▁mind	-9.35434
▁amount	-9.35466
▁begin	-9.35647
▁ability	-9.35656
▁changed	-9.35724
▁independent	-9.3581
▁shares	-9.35957
▁consumer	-9.35963
▁increased	-9.35987
▁opening	-9.36247
▁scheduled	-9.36357
▁ryan	-9.36471
▁guard	-9.36483
▁21	-9.36515
▁basketball	-9.3652
▁strategy	-9.36604
▁filed	-9.36604
▁grew	-9.36717
▁self	-9.36784
▁jets	-9.36827
▁owner	-9.36957
▁sea	-9.37049
▁double	-9.3713
▁construction	-9.3724
▁owners	-9.37256
▁afternoon	-9.37285
▁hearing	-9.37305
▁deep	-9.37439
▁simply	-9.37488
▁address	-9.37532
▁homes	-9.37646
▁moving	-9.37656
▁remained	-9.37666
▁arrived	-9.37801
▁society	-9.37959
6	-9.38156
▁movement	-9.3816
▁stage	-9.38396
▁super	-9.38523
▁required	-9.38563
one	-9.38679
▁straight	-9.38687
▁newspaper	-9.38879
▁easy	-9.38986
▁sport	-9.38989
▁crime	-9.3904
▁population	-9.39136
▁ban	-9.39205
▁fed	-9.39213
▁jr	-9.39234
▁eventually	-9.39646
▁gold	-9.39918
▁advertising	-9.39994
▁cuts	-9.40042
▁killing	-9.4017
▁joined	-9.40177
▁thomas	-9.40211
▁ask	-9.40228
▁lawmakers	-9.40261
▁includes	-9.40293
ton	-9.40298
."	-9.40359
▁elections	-9.40488
▁gun	-9.40579
▁corporate	-9.4082
▁impact	-9.40838
son	-9.40849
▁noted	-9.40924
▁mike	-9.40928
▁guy	-9.40991
▁japanese	-9.41041
▁k	-9.41066
▁soldiers	-9.41097
▁happen	-9.41117
▁daily	-9.41132
▁husband	-9.4121
▁fast	-9.413
te	-9.41356
do	-9.41377
▁ready	-9.41383
▁october	-9.41434
▁mexico	-9.41471
▁pick	-9.41693
8	-9.41794
▁avoid	-9.41972
▁proposed	-9.41972
▁24	-9.42015
▁competition	-9.42031
ta	-9.42158
▁benefits	-9.42184
▁sought	-9.42237
▁rangers	-9.4224
▁apartment	-9.42276
▁tough	-9.42327
▁travel	-9.42376
▁science	-9.42397
▁beginning	-9.42468
▁weapons	-9.42518
▁losing	-9.42556
▁estate	-9.42576
▁beijing	-9.42727
for	-9.42774
▁parliament	-9.42937
▁unit	-9.43008
▁product	-9.43012
▁hotel	-9.43014
▁plant	-9.43116
▁francisco	-9.43122
▁august	-9.43149
▁cities	-9.43283
▁stand	-9.4346
▁above	-9.43572
▁paper	-9.43575
▁domestic	-9.43654
▁leadership	-9.43925
▁film	-9.4395
▁addition	-9.43962
▁commercial	-9.44151
▁wrong	-9.44289
▁goes	-9.44336
▁environmental	-9.44377
▁ruling	-9.44387
▁pakistan	-9.44452
le	-9.44539
▁finally	-9.44694
▁guys	-9.44708
▁words	-9.44836
▁parties	-9.44938
▁understand	-9.44989
▁brother	-9.44991
▁camp	-9.45055
▁additional	-9.45136
▁key	-9.45169
▁bought	-9.45216
▁seconds	-9.45405
▁taxes	-9.45417
▁injury	-9.45418
▁calling	-9.45459
▁olympic	-9.45594
▁measure	-9.45706
▁concern	-9.45761
▁push	-9.45786
▁river	-9.45901
▁israeli	-9.45913
▁brand	-9.4594
▁england	-9.46007
▁sites	-9.46018
▁door	-9.46077
▁records	-9.46115
▁battle	-9.46138
▁radio	-9.46164
▁expect	-9.46233
9	-9.46586
▁relationship	-9.46589
▁agencies	-9.46675
▁born	-9.46678
▁spot	-9.46693
▁proposal	-9.46747
▁soccer	-9.46836
▁natural	-9.47115
w	-9.4722
▁pretty	-9.4723
▁goals	-9.47383
▁victims	-9.47427
▁ministry	-9.47536
▁2008	-9.47727
▁fear	-9.47738
▁fifth	-9.47799
▁trip	-9.47848
▁claims	-9.48009
▁non	-9.4803
▁enforcement	-9.4837
▁dropped	-9.48402
▁increasingly	-9.48441
▁loans	-9.48453
▁profit	-9.48454
our	-9.48596
▁details	-9.48612
▁talking	-9.48657
▁zone	-9.48748
▁property	-9.48867
▁hour	-9.48969
▁bloomberg	-9.4899
▁consider	-9.49066
▁trading	-9.49145
▁romney	-9.49181
▁primary	-9.49203
▁telephone	-9.4928
▁mean	-9.4931
▁form	-9.49368
▁protect	-9.49484
▁immediately	-9.49574
▁powerful	-9.49587
▁twice	-9.49719
▁analyst	-9.49732
▁floor	-9.49835
▁february	-9.49935
▁legislation	-9.50012
▁peace	-9.50045
▁digital	-9.50342
▁measures	-9.50379
▁dec	-9.5047
▁rising	-9.505
so	-9.50534
▁arts	-9.50537
ar	-9.5056
ley	-9.50564
▁traffic	-9.50624
▁parts	-9.50748
▁stopped	-9.50758
▁reduce	-9.50804
▁taliban	-9.50838
▁carolina	-9.50968
▁spend	-9.50984
▁published	-9.51095
day	-9.51305
▁takes	-9.51308
▁selling	-9.51363
based	-9.51563
▁train	-9.51762
▁threat	-9.51909
▁martin	-9.51933
▁lack	-9.5214
▁mass	-9.52155
▁gay	-9.52191
of	-9.52228
▁troops	-9.52693
▁software	-9.52787
▁usually	-9.5308
▁eastern	-9.53104
▁africa	-9.53116
▁struck	-9.5328
▁recalled	-9.53286
▁images	-9.53397
▁holding	-9.53429
▁lose	-9.53471
▁traditional	-9.53542
▁immigration	-9.53608
▁laws	-9.53622
▁22	-9.53638
▁policies	-9.5365
▁critics	-9.53705
▁appear	-9.53745
by	-9.53825
mail	-9.54022
▁el	-9.54064
▁bowl	-9.54186
▁hill	-9.54765
▁condition	-9.54772
▁word	-9.54925
▁earned	-9.5494
▁maybe	-9.54995
▁paris	-9.55002
ling	-9.55072
▁projects	-9.55075
▁afghan	-9.55079
▁intended	-9.55198
▁model	-9.55209
▁african	-9.55261
▁climate	-9.55293
▁northern	-9.55295
▁speaking	-9.55324
▁patients	-9.55427
ist	-9.55663
▁users	-9.5568
▁nearby	-9.55711
▁cover	-9.55745
▁23	-9.55947
▁focused	-9.55961
▁learned	-9.56004
▁lee	-9.56031
▁professional	-9.56083
▁documents	-9.56282
▁retired	-9.56395
▁fine	-9.56412
▁limited	-9.56432
▁60	-9.5646
▁doctors	-9.56487
▁referring	-9.56539
▁relations	-9.56562
0	-9.56571
▁richard	-9.56602
▁millions	-9.56706
▁speak	-9.56865
▁king	-9.56891
▁tv	-9.56903
▁commissioner	-9.57042
▁lived	-9.57085
▁spokeswoman	-9.57198
▁village	-9.57201
▁true	-9.57224
▁marketing	-9.57296
▁investigators	-9.57347
na	-9.57419
x	-9.57474
us	-9.57595
▁receive	-9.57671
▁marriage	-9.5771
▁emergency	-9.57747
▁acknowledged	-9.57755
▁restaurant	-9.57765
▁operating	-9.57832
▁culture	-9.57979
▁standard	-9.58056
▁older	-9.58205
▁drugs	-9.58267
▁conditions	-9.58371
be	-9.58464
▁signs	-9.58506
less	-9.58527
▁choice	-9.58618
▁fuel	-9.5865
▁dozen	-9.58655
▁bronx	-9.58714
▁jones	-9.58919
▁euro	-9.58997
▁wasn	-9.59001
▁score	-9.59041
she	-9.5905
▁smaller	-9.59103
▁fired	-9.59113
▁partner	-9.59266
▁illegal	-9.59295
all	-9.59377
▁net	-9.59546
▁coalition	-9.5964
▁lines	-9.59642
▁q	-9.59642
▁champion	-9.59684
▁walk	-9.59828
▁mid	-9.59881
▁missed	-9.59887
▁sale	-9.59917
▁highest	-9.60025
▁alone	-9.60068
ity	-9.60118
▁cross	-9.60275
▁greater	-9.60291
▁save	-9.60384
▁caused	-9.60405
▁english	-9.60519
ry	-9.60689
▁coast	-9.60771
▁flight	-9.60917
▁voice	-9.60993
▁range	-9.61024
▁stores	-9.61042
▁hear	-9.61062
▁target	-9.61144
▁religious	-9.61149
▁serve	-9.61182
▁larger	-9.6124
un	-9.61264
▁davis	-9.61316
▁negotiations	-9.61514
ic	-9.6153
▁critical	-9.61594
▁airport	-9.61628
▁foundation	-9.61654
▁meant	-9.61658
▁losses	-9.61746
▁korean	-9.61818
▁quite	-9.61818
!”	-9.6187
▁answer	-9.61904
▁entire	-9.62262
▁advantage	-9.62454
▁wide	-9.62665
▁assistant	-9.62759
▁boy	-9.62867
▁send	-9.62913
▁gov	-9.62923
▁buildings	-9.6315
▁estimated	-9.63299
de	-9.63339
▁treatment	-9.63341
▁pitch	-9.6344
▁golf	-9.6347
▁criticism	-9.63499
▁securities	-9.63553
▁appears	-9.63588
▁facing	-9.63665
▁aug	-9.63732
▁offering	-9.63903
▁places	-9.63971
▁drop	-9.64045
▁require	-9.6406
▁complex	-9.64061
▁scott	-9.64073
▁identified	-9.64234
▁approved	-9.64245
▁appeal	-9.64262
ie	-9.64289
▁size	-9.64452
▁happy	-9.64454
▁2010	-9.64647
▁draft	-9.6468
▁certainly	-9.64748
▁driver	-9.64872
▁levels	-9.64903
▁winter	-9.64905
▁pre	-9.64987
▁throughout	-9.64995
▁lawsuit	-9.6505
▁app	-9.65093
▁evening	-9.65145
▁following	-9.65237
▁expressed	-9.65261
▁nor	-9.65408
▁individual	-9.6541
▁argued	-9.6553
▁protests	-9.65578
▁bus	-9.65598
▁version	-9.65726
▁block	-9.65869
▁figures	-9.65899
▁helping	-9.6598
▁operation	-9.66018
▁books	-9.66056
▁deputy	-9.66071
led	-9.66208
▁thinking	-9.66288
▁strike	-9.66328
▁particular	-9.6633
▁improve	-9.66395
▁prevent	-9.66433
▁worst	-9.66522
▁positive	-9.66565
▁syrian	-9.66684
▁oct	-9.66703
▁joe	-9.66735
▁follow	-9.66796
▁streets	-9.66821
▁faced	-9.66844
▁chris	-9.66889
▁denied	-9.66954
▁spain	-9.67059
▁fair	-9.67087
▁magazine	-9.67219
▁arrest	-9.6727
run	-9.67302
▁card	-9.67351
▁progress	-9.67363
▁hopes	-9.67396
▁posted	-9.6745
▁below	-9.67455
▁panel	-9.67473
▁elected	-9.67538
▁broke	-9.67624
▁carry	-9.67731
▁sat	-9.67785
▁subject	-9.67809
▁waiting	-9.67921
▁slow	-9.67937
▁anthony	-9.67977
▁stood	-9.6807
▁quarterback	-9.68124
▁systems	-9.68225
▁italy	-9.68241
▁seek	-9.68315
▁accounts	-9.6835
▁assets	-9.68354
▁carried	-9.68377
▁mo	-9.68381
ra	-9.68536
foot	-9.68801
▁paying	-9.68805
▁gallery	-9.68836
▁mobile	-9.68905
▁mortgage	-9.68936
▁standing	-9.68976
▁plane	-9.68977
▁sun	-9.69019
▁queens	-9.69034
ne	-9.69054
▁confidence	-9.69084
▁protection	-9.69129
▁inning	-9.69131
▁showing	-9.69148
▁miami	-9.6931
▁add	-9.69402
▁sides	-9.69477
▁decline	-9.69503
▁concerned	-9.6957
▁haven	-9.69579
▁conflict	-9.69661
▁putting	-9.6973
▁driving	-9.698
▁detroit	-9.69918
▁visiting	-9.69965
▁garden	-9.70016
▁extra	-9.70142
co	-9.70181
▁guilty	-9.70189
ap	-9.70199
▁ice	-9.70275
▁$2	-9.70387
▁successful	-9.70416
▁philadelphia	-9.70463
▁caught	-9.70514
▁shots	-9.70742
▁various	-9.70745
▁influence	-9.70779
▁studies	-9.70853
▁nov	-9.70939
per	-9.70979
▁trust	-9.71052
▁bid	-9.71077
▁2012	-9.71091
▁rodriguez	-9.71249
▁scientists	-9.71335
▁article	-9.71337
▁$5	-9.7136
▁widely	-9.71393
▁ohio	-9.71472
▁heat	-9.71495
ro	-9.71516
▁planning	-9.71583
▁blood	-9.71604
▁playoff	-9.71773
▁1990	-9.7181
▁vehicles	-9.7192
▁injured	-9.71931
▁publicly	-9.71971
▁steps	-9.72111
ner	-9.72151
▁separate	-9.72212
land	-9.72222
▁turkey	-9.7238
▁van	-9.7239
▁complete	-9.72437
▁names	-9.72448
▁roughly	-9.72484
▁partners	-9.72492
▁watching	-9.72493
▁status	-9.72616
ch	-9.72836
▁beach	-9.72907
▁drew	-9.72956
▁protesters	-9.73019
▁asking	-9.73156
▁attempt	-9.7323
▁citizens	-9.7342
▁clients	-9.73433
▁willing	-9.735
▁warned	-9.73563
▁allowing	-9.73659
▁virginia	-9.73662
▁associated	-9.73678
▁greece	-9.73681
▁table	-9.73703
▁join	-9.73729
▁hurt	-9.73741
il	-9.73972
▁shift	-9.73979
▁ordered	-9.74023
▁innings	-9.74043
▁regional	-9.74057
rs	-9.74097
da	-9.74188
▁opponents	-9.74253
▁faces	-9.744
▁indian	-9.74405
▁ad	-9.74531
▁transportation	-9.74535
▁mission	-9.74553
▁equipment	-9.74633
▁rare	-9.74767
▁hong	-9.74785
▁standards	-9.74838
▁written	-9.74936
▁27	-9.74956
▁generally	-9.75006
game	-9.7502
▁spread	-9.75057
▁cuomo	-9.75081
▁damage	-9.75089
▁eye	-9.75144
▁injuries	-9.75175
▁corruption	-9.75178
ion	-9.75237
▁related	-9.75247
▁amid	-9.75262
▁resources	-9.7529
▁safe	-9.75388
▁sound	-9.75391
▁becoming	-9.75396
▁jackson	-9.75424
▁request	-9.75442
▁directly	-9.75458
▁offense	-9.7558
▁2009	-9.75826
▁immigrants	-9.75847
▁seasons	-9.75876
la	-9.75923
▁nature	-9.75944
ma	-9.76043
▁speed	-9.761
▁suit	-9.7612
▁28	-9.76185
▁buying	-9.76239
▁overall	-9.7625
▁defensive	-9.7628
▁sort	-9.7631
▁decisions	-9.76323
▁coverage	-9.76326
▁fan	-9.76446
▁fiscal	-9.7646
▁3-	-9.76464
▁arm	-9.76492
▁audience	-9.76495
▁seat	-9.76529
▁cable	-9.76636
▁heavy	-9.76696
▁olympics	-9.76711
people	-9.76757
▁settlement	-9.76795
ri	-9.76871
▁26	-9.76884
off	-9.76941
▁offers	-9.76992
▁trouble	-9.77129
▁presence	-9.77149
▁original	-9.77195
▁ads	-9.77282
▁corporation	-9.77291
▁murder	-9.77415
▁relatively	-9.77455
go	-9.77476
▁microsoft	-9.77488
▁learn	-9.77503
▁payments	-9.77526
▁movie	-9.77535
▁wait	-9.77549
▁language	-9.77576
▁finding	-9.777
▁donald	-9.77735
▁environment	-9.77778
▁jury	-9.77878
▁present	-9.77902
▁none	-9.77948
▁fellow	-9.78018
▁finish	-9.78038
▁owned	-9.78048
▁editor	-9.78068
▁design	-9.78068
▁athletes	-9.78206
▁storm	-9.78249
▁province	-9.78262
▁walked	-9.78375
▁abuse	-9.78388
▁port	-9.78399
▁valley	-9.78403
▁quality	-9.78437
▁70	-9.78457
▁feb	-9.78474
▁plays	-9.78476
▁draw	-9.785
▁criticized	-9.78531
field	-9.78609
▁protest	-9.7865
▁comments	-9.78689
▁recession	-9.78723
▁tied	-9.78772
▁cancer	-9.78789
▁sexual	-9.78963
▁rock	-9.78993
▁asia	-9.79005
▁missing	-9.79015
▁era	-9.79106
▁benefit	-9.79265
▁fewer	-9.79439
▁muslim	-9.79458
▁discuss	-9.79493
▁direct	-9.79625
▁prominent	-9.79676
▁fox	-9.79703
▁actions	-9.79778
▁check	-9.79783
▁scene	-9.7985
▁developed	-9.79944
▁path	-9.80001
▁century	-9.8008
▁kim	-9.80119
▁library	-9.8014
▁approval	-9.80151
▁knows	-9.80162
out	-9.80213
▁reform	-9.80257
▁closer	-9.80293
▁kong	-9.80295
▁brazil	-9.8032
▁dozens	-9.80329
▁hired	-9.80337
▁bridge	-9.80415
▁pace	-9.80461
▁iraqi	-9.80483
▁gets	-9.80654
▁claim	-9.80675
▁canada	-9.80945
▁feeling	-9.80963
ian	-9.80998
▁bigger	-9.81151
▁responsibility	-9.81188
▁pushed	-9.81198
▁arizona	-9.81344
▁previously	-9.81421
▁organizations	-9.81464
point	-9.81481
▁responsible	-9.81502
▁grow	-9.81523
▁committed	-9.81567
called	-9.81621
▁introduced	-9.81723
▁2011	-9.81753
▁gain	-9.81753
▁modern	-9.81833
▁fraud	-9.81868
▁regulators	-9.8189
▁william	-9.81894
▁watched	-9.81921
▁younger	-9.81953
▁content	-9.82087
▁2007	-9.82109
▁$10	-9.82113
▁researchers	-9.82124
▁weather	-9.82139
▁longtime	-9.8225
▁produce	-9.8234
▁congressional	-9.82487
▁isn	-9.82578
▁giant	-9.8281
▁broad	-9.8286
▁raising	-9.8288
▁cast	-9.82909
▁michigan	-9.82939
▁kids	-9.83097
▁mccain	-9.83176
▁ukraine	-9.83317
▁prepared	-9.83339
▁instance	-9.83346
▁woods	-9.83375
▁confirmed	-9.83468
▁miller	-9.83499
▁politicians	-9.8352
▁offensive	-9.83558
▁balance	-9.83614
▁struggling	-9.83619
▁clearly	-9.8374
▁financing	-9.83779
▁winner	-9.8382
▁wind	-9.83888
ter	-9.84057
▁hot	-9.84176
▁refused	-9.84267
▁voted	-9.8439
▁tennis	-9.84394
▁le	-9.84405
▁agents	-9.84412
▁agent	-9.84469
▁coaches	-9.84507
▁andrew	-9.84571
▁hits	-9.84603
▁earnings	-9.84614
▁expensive	-9.84775
▁announcement	-9.84779
▁australia	-9.84918
▁percentage	-9.85006
▁possibility	-9.85172
▁ties	-9.8529
▁initial	-9.85294
▁recovery	-9.8532
▁onto	-9.8532
▁worse	-9.8539
▁supported	-9.85469
▁challenges	-9.85495
▁houston	-9.85499
▁2006	-9.85709
▁looks	-9.85784
▁deficit	-9.85809
▁quick	-9.8587
▁pulled	-9.86065
▁connecticut	-9.86077
▁convicted	-9.86203
▁fees	-9.86248
▁worried	-9.86321
▁cold	-9.8647
▁necessary	-9.86474
▁accept	-9.86522
▁unemployment	-9.86559
▁tests	-9.86593
▁difference	-9.86674
▁bo	-9.86748
▁sitting	-9.86783
▁adviser	-9.86825
▁louis	-9.86845
▁1980	-9.86894
▁produced	-9.86895
▁hoped	-9.86901
ism	-9.86913
▁seats	-9.86927
ment	-9.86989
▁shown	-9.87007
▁advocates	-9.87015
▁creating	-9.87066
▁favor	-9.8707
▁affairs	-9.87182
▁peter	-9.87265
▁wearing	-9.87266
▁failure	-9.87337
▁ultimately	-9.87407
▁eyes	-9.87423
▁shop	-9.87429
▁respond	-9.87465
▁highly	-9.87483
▁devices	-9.87536
me	-9.87585
▁simple	-9.87604
▁keeping	-9.87625
▁cents	-9.87656
▁female	-9.87753
▁80	-9.87774
ation	-9.87775
▁secret	-9.87839
▁reality	-9.87921
▁bond	-9.87939
▁reasons	-9.8797
▁calif	-9.88013
▁armed	-9.88088
like	-9.88095
▁bills	-9.88137
▁picture	-9.88192
american	-9.88262
▁reserve	-9.88298
▁disease	-9.88588
▁wild	-9.88799
▁internal	-9.88843
▁box	-9.88957
▁votes	-9.88976
▁italian	-9.88985
▁whatever	-9.88996
▁source	-9.89083
▁treasury	-9.89242
▁neither	-9.89327
▁remaining	-9.8933
▁limit	-9.89358
▁increasing	-9.89413
▁rival	-9.89515
▁agree	-9.8953
▁behavior	-9.89649
▁arms	-9.89665
▁clean	-9.8967
▁continuing	-9.89706
▁doubt	-9.89842
▁palestinian	-9.89948
▁jewish	-9.89981
▁options	-9.89989
▁unlikely	-9.90047
▁corner	-9.90137
▁farm	-9.90189
▁saudi	-9.90219
▁1,	-9.90228
▁fresh	-9.90317
▁colleagues	-9.90398
▁seeing	-9.90475
▁repeatedly	-9.90493
▁messages	-9.90536
▁sector	-9.90601
▁completed	-9.90637
▁unusual	-9.90728
▁loan	-9.90761
▁fla	-9.90846
▁entered	-9.90902
▁pointed	-9.90943
▁spanish	-9.91019
▁drivers	-9.91073
▁note	-9.91117
▁decide	-9.91172
▁meetings	-9.91214
yard	-9.91219
▁turning	-9.91272
▁page	-9.91316
▁egypt	-9.91373
▁competitive	-9.91427
▁cap	-9.91466
▁putin	-9.91538
▁captain	-9.91588
▁apparently	-9.91647
▁deals	-9.91665
▁fun	-9.91692
▁threw	-9.91733
▁tokyo	-9.91831
▁firms	-9.91872
▁supposed	-9.91892
▁90	-9.91939
men	-9.91992
▁typically	-9.92032
▁35	-9.9211
▁liberal	-9.92219
▁grown	-9.92269
▁screen	-9.92288
▁survey	-9.92376
▁sundays	-9.92377
▁voting	-9.92451
▁moscow	-9.92552
▁banking	-9.92577
star	-9.92579
▁rich	-9.92591
▁specific	-9.92717
▁terrorist	-9.92776
▁placed	-9.92919
not	-9.92986
▁determine	-9.93016
▁penalty	-9.93088
▁managed	-9.93088
▁generation	-9.93146
lin	-9.93183
▁telling	-9.93196
▁miss	-9.93207
▁charles	-9.9325
▁involving	-9.93306
!	-9.93338
▁god	-9.9335
▁sox	-9.93389
▁begun	-9.93392
▁setting	-9.93478
▁dispute	-9.93494
▁date	-9.93527
▁favorite	-9.93548
▁freedom	-9.9362
ier	-9.9364
▁ensure	-9.93697
▁airlines	-9.93712
▁designed	-9.93718
▁nets	-9.93736
▁exactly	-9.93826
▁$3	-9.93952
▁sixth	-9.94006
▁institutions	-9.94108
▁familiar	-9.94164
▁blasio	-9.94167
▁200	-9.94251
▁2008,	-9.94326
▁fish	-9.94334
▁index	-9.94361
ted	-9.94364
▁con	-9.94433
▁bureau	-9.94489
▁founder	-9.94577
▁networks	-9.94633
▁minute	-9.94748
▁degree	-9.94762
▁type	-9.94783
▁activity	-9.94794
▁shut	-9.95029
ia	-9.95065
▁sit	-9.95086
▁girl	-9.95098
▁due	-9.95139
▁militants	-9.95196
▁sanctions	-9.95281
▁expand	-9.95325
▁declared	-9.95333
▁hoping	-9.95336
▁prosecutor	-9.95365
▁joseph	-9.95455
▁li	-9.95461
▁band	-9.95518
▁bottom	-9.95579
▁promised	-9.95596
▁remember	-9.95692
▁nonprofit	-9.957
▁everybody	-9.95818
▁ruled	-9.95884
▁consecutive	-9.95888
▁shared	-9.95917
ting	-9.96037
▁supply	-9.96041
▁broken	-9.96097
▁plants	-9.96122
▁rally	-9.9613
▁rejected	-9.962
▁conduct	-9.96296
▁unclear	-9.96314
▁sister	-9.96419
▁racing	-9.96451
▁inflation	-9.96513
▁teachers	-9.96564
▁assault	-9.96568
▁occurred	-9.96596
▁attended	-9.96609
▁31	-9.96717
▁silver	-9.96754
▁arab	-9.96847
▁crucial	-9.96851
▁physical	-9.96856
▁style	-9.96906
▁fighters	-9.96942
▁joint	-9.97002
▁crimes	-9.97213
▁streak	-9.97241
▁yesterday	-9.97242
ish	-9.9732
▁activities	-9.97322
▁elsewhere	-9.97325
▁opinion	-9.97429
ka	-9.97466
▁brothers	-9.97538
▁develop	-9.976
é	-9.976
▁filled	-9.97608
▁atlanta	-9.97699
▁iowa	-9.97728
▁channel	-9.97809
▁stake	-9.97943
▁currently	-9.97948
▁noon	-9.97956
▁2014	-9.97966
▁scandal	-9.97975
▁bomb	-9.9798
&	-9.98029
▁dallas	-9.98032
▁playoffs	-9.98193
▁industrial	-9.98195
▁steve	-9.98281
▁testing	-9.98353
▁surgery	-9.98609
▁session	-9.98655
▁29	-9.98768
▁respect	-9.98783
▁easily	-9.98814
▁en	-9.98826
▁qaeda	-9.98874
▁headquarters	-9.98893
ke	-9.98905
▁kennedy	-9.98927
▁communications	-9.98981
▁jail	-9.99046
▁conversation	-9.99075
▁veteran	-9.99109
▁dan	-9.99147
▁vehicle	-9.99147
▁kevin	-9.99212
▁dangerous	-9.99235
▁allies	-9.99267
▁cited	-9.99276
ized	-9.99279
▁saturdays	-9.99317
▁views	-9.99349
▁throw	-9.9946
▁analysis	-9.99491
▁indeed	-9.99538
▁carrying	-9.99632
▁jim	-9.99689
▁matt	-9.99704
▁fully	-9.99833
▁aides	-9.99833
▁claimed	-9.99846
▁combined	-9.99922
▁relief	-9.99928
▁determined	-9.99938
▁ben	-9.99956
▁suicide	-10.0012
▁journalists	-10.0017
▁governments	-10.002
▁conducted	-10.0024
▁scoring	-10.0025
line	-10.0031
▁teammates	-10.0031
▁ex	-10.0031
▁dollar	-10.0042
▁equity	-10.0044
ko	-10.0045
▁par	-10.0045
▁christian	-10.005
▁kill	-10.005
▁speaker	-10.0052
▁closing	-10.0065
▁aimed	-10.007
▁dark	-10.0072
▁responded	-10.0083
▁multiple	-10.009
▁option	-10.0091
▁opposed	-10.0096
▁sharp	-10.0108
▁tech	-10.0112
▁reputation	-10.0113
▁auto	-10.0117
▁continues	-10.0128
▁providing	-10.0141
▁compete	-10.0146
▁georgia	-10.0149
▁eric	-10.0151
▁advance	-10.0151
▁catch	-10.0165
▁horse	-10.0168
▁row	-10.0168
▁pain	-10.0172
▁perfect	-10.0173
▁easier	-10.0175
▁starts	-10.0189
▁wounded	-10.0194
▁married	-10.0207
▁--	-10.0209
▁knee	-10.021
▁considering	-10.0212
▁touchdown	-10.0222
▁suspended	-10.0224
▁crash	-10.0234
▁closely	-10.0239
▁girls	-10.0247
▁prove	-10.0249
▁initially	-10.0253
▁bankruptcy	-10.0259
▁established	-10.0259
▁basic	-10.0265
▁risks	-10.0265
▁seventh	-10.0267
▁brian	-10.0269
▁stories	-10.0272
▁heavily	-10.0273
▁interests	-10.0276
▁stuff	-10.0278
▁gives	-10.0294
▁foot	-10.032
▁changing	-10.0331
▁struggled	-10.0342
▁2007,	-10.0345
hour	-10.0355
▁effective	-10.0383
▁core	-10.0388
season	-10.0395
▁represents	-10.0397
▁2009,	-10.0398
ty	-10.0412
▁edge	-10.0422
▁activists	-10.0424
▁worry	-10.0428
▁economist	-10.0431
▁expectations	-10.0433
back	-10.0436
▁collection	-10.0436
▁via	-10.0441
▁emerged	-10.0447
▁reading	-10.0447
▁accident	-10.0457
mo	-10.0464
▁removed	-10.0468
▁positions	-10.0483
▁cleveland	-10.0484
▁task	-10.0485
▁aggressive	-10.0486
▁vast	-10.0486
▁writing	-10.0497
▁upper	-10.0506
▁warning	-10.0508
▁economists	-10.0509
▁stars	-10.0524
▁frank	-10.0524
▁windows	-10.0526
round	-10.0536
▁cultural	-10.0539
▁falling	-10.0541
▁couldn	-10.0548
▁contrast	-10.0553
▁practices	-10.0562
▁drove	-10.0564
now	-10.0565
▁count	-10.0565
▁iranian	-10.0567
▁earth	-10.0572
▁eighth	-10.0577
▁active	-10.0577
▁assembly	-10.059
ad	-10.0593
▁slightly	-10.0594
▁discovered	-10.0598
▁brain	-10.0602
▁sex	-10.0606
▁surprise	-10.0607
▁schedule	-10.0612
▁urban	-10.0616
▁retirement	-10.0616
▁sentence	-10.062
▁amazon	-10.0627
▁write	-10.0629
▁normal	-10.0632
▁direction	-10.0657
▁meanwhile	-10.0671
▁hole	-10.0675
▁unlike	-10.0682
▁author	-10.0686
▁rain	-10.0688
▁items	-10.0691
▁strength	-10.0693
▁shortly	-10.0693
▁fly	-10.0695
▁replace	-10.0701
▁kansas	-10.0703
▁deaths	-10.0719
▁pension	-10.072
▁2013	-10.0722
▁wouldn	-10.0723
▁wilson	-10.0735
▁limits	-10.0747
▁urged	-10.0749
▁reporter	-10.0751
▁collins	-10.0752
▁ill	-10.0752
▁contracts	-10.0758
ir	-10.076
▁nbc	-10.0762
▁doctor	-10.0769
▁piece	-10.0771
bo	-10.0771
▁camera	-10.0774
▁upon	-10.0786
▁daniel	-10.0787
ies	-10.0788
ine	-10.0794
▁happens	-10.0795
▁connection	-10.0805
▁lake	-10.0814
▁developing	-10.0815
▁truck	-10.0824
▁houses	-10.0827
▁hillary	-10.083
▁tie	-10.0831
▁gen	-10.0831
▁pushing	-10.0833
▁poll	-10.0837
▁fit	-10.0849
▁catholic	-10.0852
▁2010,	-10.0865
▁terrorism	-10.0872
ak	-10.0875
▁remarks	-10.088
▁2005	-10.088
▁journal	-10.089
▁unable	-10.0894
▁factory	-10.0896
▁talked	-10.0901
▁serving	-10.0904
▁appeals	-10.0913
▁visitors	-10.0914
▁dog	-10.092
▁interviews	-10.092
▁material	-10.0924
▁increases	-10.0924
age	-10.0924
▁rebounds	-10.0929
▁nice	-10.0938
▁myself	-10.0938
▁touch	-10.094
▁covered	-10.0946
▁complaint	-10.0953
▁attend	-10.0954
▁hockey	-10.0976
est	-10.0983
▁passengers	-10.0984
▁kelly	-10.0987
▁$8	-10.1002
▁currency	-10.1015
▁section	-10.1018
▁glass	-10.1028
▁ali	-10.1029
▁communities	-10.1031
di	-10.1034
▁artists	-10.104
▁retail	-10.1042
ten	-10.1044
▁relatives	-10.1046
▁pittsburgh	-10.1049
▁polls	-10.1052
▁defeat	-10.1057
▁device	-10.107
▁harvard	-10.1077
▁orders	-10.1081
▁partly	-10.1082
▁expert	-10.1093
▁managers	-10.1095
▁contact	-10.1095
ville	-10.1098
▁talent	-10.1107
▁australian	-10.1114
▁minor	-10.1115
▁threatened	-10.1116
▁estimates	-10.1116
▁wave	-10.112
▁inquiry	-10.1121
▁investments	-10.1123
▁hair	-10.1126
▁tight	-10.1127
▁columbia	-10.1127
▁stands	-10.1128
▁employee	-10.1133
▁campus	-10.1135
▁ship	-10.1136
▁weight	-10.1154
▁explain	-10.1154
▁crew	-10.1155
▁broader	-10.1156
▁hitting	-10.116
▁allegations	-10.116
▁delivered	-10.1167
▁complaints	-10.1169
▁broadcast	-10.118
▁harder	-10.1187
▁1970	-10.119
▁nato	-10.1193
▁seattle	-10.1195
class	-10.1198
▁gaza	-10.1203
▁ii	-10.1208
os	-10.1218
▁collapse	-10.1219
▁route	-10.122
▁asian	-10.1221
▁legislature	-10.1227
▁worker	-10.1234
▁passing	-10.1234
▁proved	-10.1235
▁brief	-10.1235
▁courts	-10.1236
▁races	-10.1236
▁rice	-10.1243
▁sending	-10.1245
▁leg	-10.125
▁regulations	-10.1258
▁knowledge	-10.1259
▁stocks	-10.1262
▁civilians	-10.1275
▁bringing	-10.1275
▁chain	-10.1277
▁baby	-10.1279
▁hedge	-10.128
▁alex	-10.1281
▁testimony	-10.1281
▁reduced	-10.1281
▁veterans	-10.1282
▁ho	-10.1287
va	-10.1293
▁insisted	-10.1299
▁interested	-10.1299
▁fill	-10.1299
▁alternative	-10.1306
▁struggle	-10.1308
▁colorado	-10.131
ful	-10.1311
▁picked	-10.1312
▁rebels	-10.132
▁$4	-10.1322
▁neighbors	-10.1326
▁x	-10.1331
▁tim	-10.1334
▁anonymity	-10.1341
▁yes	-10.1346
▁aware	-10.1347
▁appearance	-10.1347
▁managing	-10.1348
▁10-	-10.1355
der	-10.1358
▁dream	-10.1362
▁convention	-10.1365
▁bell	-10.1366
let	-10.1374
ny	-10.1375
▁presented	-10.1383
▁suffered	-10.1385
▁visited	-10.1386
▁rescue	-10.1386
▁pool	-10.1389
den	-10.1395
▁gathered	-10.14
▁potentially	-10.1402
▁herself	-10.1409
▁jordan	-10.1416
▁email	-10.1421
▁citing	-10.1421
▁statements	-10.1429
well	-10.1438
▁wood	-10.1443
▁text	-10.1451
▁accusations	-10.1459
▁rent	-10.146
▁stephen	-10.1462
▁founded	-10.1481
▁2004	-10.1494
▁drawn	-10.1495
▁ninth	-10.1498
▁goldman	-10.1504
sex	-10.1505
▁photos	-10.1506
▁offices	-10.151
▁minnesota	-10.1512
▁teacher	-10.1516
▁aside	-10.1521
▁ocean	-10.1527
▁shareholders	-10.1529
▁bob	-10.1539
▁2011,	-10.1542
▁bodies	-10.1543
▁extended	-10.1543
▁concluded	-10.1548
▁immediate	-10.1551
▁code	-10.1556
ca	-10.1558
▁package	-10.156
▁snow	-10.1568
▁performing	-10.1576
don	-10.1583
ous	-10.1586
▁suspect	-10.1587
▁2006,	-10.1587
▁window	-10.1593
▁counter	-10.1601
▁discussion	-10.1616
▁choose	-10.162
▁ford	-10.1624
ler	-10.1636
▁affected	-10.1638
▁stretch	-10.1648
ni	-10.1653
▁enter	-10.1659
▁walking	-10.1674
▁na	-10.1682
▁boys	-10.1684
▁cutting	-10.1693
▁secure	-10.1697
some	-10.1699
▁entertainment	-10.1707
▁treated	-10.1709
▁makers	-10.1713
▁carbon	-10.1721
▁basis	-10.1721
ey	-10.1723
▁organized	-10.173
▁ideas	-10.1736
▁assistance	-10.1737
▁website	-10.1747
▁photo	-10.1749
▁opportunities	-10.1751
▁display	-10.1752
▁cards	-10.1764
▁advanced	-10.1768
▁farmers	-10.1772
lo	-10.1773
▁democracy	-10.1775
▁wins	-10.178
▁kentucky	-10.1783
▁replaced	-10.1785
▁existing	-10.1786
▁profits	-10.179
▁venture	-10.1793
▁pull	-10.1793
▁pakistani	-10.1793
▁faith	-10.1799
▁elite	-10.18
▁prospect	-10.1803
end	-10.181
▁aircraft	-10.1811
▁ride	-10.1812
▁electric	-10.1816
▁expansion	-10.1817
▁argument	-10.1832
▁alliance	-10.1838
▁native	-10.184
▁rivals	-10.1848
▁youth	-10.1851
▁mac	-10.1853
▁die	-10.1855
▁dismissed	-10.1856
▁passes	-10.1859
▁2012,	-10.1863
▁surprised	-10.1867
▁judges	-10.1867
ce	-10.1872
▁di	-10.1881
▁accepted	-10.1884
▁dinner	-10.1892
▁allows	-10.1897
▁maintain	-10.1907
month	-10.1907
▁handle	-10.1917
▁exhibition	-10.1918
▁transition	-10.1926
▁fallen	-10.1939
▁effects	-10.1941
▁mental	-10.1942
▁rookie	-10.1946
▁prompted	-10.1953
▁photographs	-10.196
▁split	-10.1965
▁manning	-10.1967
▁explained	-10.1986
▁weak	-10.1986
▁centers	-10.1991
▁45	-10.1992
▁500	-10.1997
▁returning	-10.2001
▁$7	-10.2021
▁subway	-10.2029
▁32	-10.2031
▁sources	-10.2032
▁otherwise	-10.2032
▁commander	-10.2039
▁hospitals	-10.2042
▁holiday	-10.2052
▁canadian	-10.2053
▁hudson	-10.2053
▁athletic	-10.2063
▁headed	-10.2065
▁oklahoma	-10.2068
▁argue	-10.2073
▁solution	-10.2077
▁maker	-10.2081
▁mountain	-10.2082
pe	-10.2086
▁representatives	-10.2093
▁suggest	-10.2094
li	-10.21
▁republic	-10.2102
ya	-10.2108
▁violent	-10.2111
▁healthy	-10.2114
▁units	-10.2114
▁improved	-10.2131
▁wright	-10.2134
▁sam	-10.2143
▁civilian	-10.2148
▁morgan	-10.2157
▁massachusetts	-10.2162
ize	-10.2165
▁manufacturing	-10.2187
▁advisers	-10.219
▁emissions	-10.219
ha	-10.2191
▁franchise	-10.2194
▁lineup	-10.2196
▁cellphone	-10.2201
▁pitcher	-10.2201
▁requires	-10.2201
▁customer	-10.2205
▁witnesses	-10.2214
▁coal	-10.2214
▁greek	-10.222
▁shopping	-10.2223
▁lo	-10.2239
▁gap	-10.2239
these	-10.2242
▁downtown	-10.2244
▁learning	-10.2247
▁ones	-10.2248
▁moves	-10.2255
▁receiving	-10.2262
▁tickets	-10.2266
▁stayed	-10.2266
▁opponent	-10.2267
▁bench	-10.2268
▁gains	-10.2272
▁scale	-10.2276
▁uses	-10.2278
▁delay	-10.2279
▁disaster	-10.228
▁machine	-10.2288
▁restrictions	-10.2288
▁del	-10.2299
▁advice	-10.2303
▁ticket	-10.231
▁formula	-10.2313
▁matters	-10.2315
▁da	-10.2316
▁quiet	-10.2317
▁episode	-10.2319
▁represented	-10.2321
▁faster	-10.2339
▁cruz	-10.2347
▁possibly	-10.2353
▁minority	-10.2361
▁unless	-10.2371
▁agenda	-10.2373
▁steel	-10.2373
▁ambassador	-10.2375
▁impossible	-10.2391
▁gulf	-10.2392
nd	-10.2394
▁location	-10.2396
▁thompson	-10.2398
▁overseas	-10.2399
fi	-10.24
▁moments	-10.2403
▁tea	-10.2407
mer	-10.2411
▁worldwide	-10.2412
▁client	-10.2413
▁pennsylvania	-10.2431
▁ending	-10.2442
▁jeff	-10.2443
ham	-10.2445
▁compensation	-10.2446
▁junior	-10.2446
ex	-10.2449
▁deeply	-10.2451
▁victim	-10.2463
▁bag	-10.2463
▁deliver	-10.2472
▁pounds	-10.2489
▁girardi	-10.249
▁tiny	-10.2496
▁classic	-10.2503
▁honor	-10.2504
▁linked	-10.2508
▁chase	-10.2509
▁stanley	-10.251
▁suspected	-10.2511
▁capacity	-10.2511
▁purchase	-10.2513
▁negative	-10.2528
▁christie	-10.2533
▁memorial	-10.2533
am	-10.2539
▁75	-10.2543
▁governing	-10.255
▁iphone	-10.2552
▁lay	-10.2557
over	-10.2563
▁except	-10.2571
▁promise	-10.2572
▁combat	-10.2575
▁features	-10.2577
con	-10.2586
▁bear	-10.2589
▁electricity	-10.2591
▁yahoo	-10.2593
▁territory	-10.2597
▁academy	-10.2616
▁flat	-10.2625
▁eat	-10.2626
▁commitment	-10.2626
▁...	-10.2637
▁leads	-10.2637
▁gained	-10.2639
▁skills	-10.2642
▁rarely	-10.2643
▁afford	-10.2649
▁toronto	-10.265
▁pope	-10.2651
▁coffee	-10.2652
▁stepped	-10.266
▁tend	-10.2666
▁soviet	-10.2671
▁upset	-10.2672
▁jack	-10.2688
▁proposals	-10.2692
▁completely	-10.2695
how	-10.2697
▁questioned	-10.2697
▁hardly	-10.2704
▁ma	-10.2706
▁mc	-10.2711
▁command	-10.2718
▁grant	-10.2736
▁sanders	-10.2743
▁sharply	-10.2758
▁infrastructure	-10.2778
▁boat	-10.2782
▁fashion	-10.2785
▁plenty	-10.2788
▁failing	-10.279
▁provides	-10.2803
▁sentenced	-10.2806
▁backed	-10.2813
ci	-10.2814
▁restaurants	-10.2815
▁1,000	-10.282
▁scores	-10.2821
ally	-10.2822
▁widespread	-10.2822
▁represent	-10.2827
▁creative	-10.283
▁baltimore	-10.2831
▁constitution	-10.2841
▁turns	-10.2844
way	-10.2844
▁ratings	-10.2847
▁identity	-10.2847
▁file	-10.2857
▁blame	-10.2857
▁stations	-10.286
▁studio	-10.2862
▁legislative	-10.2862
▁viewed	-10.2863
▁shoulder	-10.2866
▁illinois	-10.2866
▁goods	-10.2867
▁definitely	-10.2875
▁tens	-10.2876
▁apart	-10.2879
▁privacy	-10.2886
high	-10.2887
▁award	-10.2891
▁orange	-10.2893
▁surface	-10.2897
▁diplomatic	-10.2897
▁admitted	-10.2898
▁howard	-10.2899
▁individuals	-10.29
▁jump	-10.2904
▁fears	-10.2907
▁jason	-10.2913
▁plate	-10.2916
▁mixed	-10.2918
▁mar	-10.2926
dy	-10.2926
▁technical	-10.2931
▁patrick	-10.2935
▁driven	-10.2938
associated	-10.294
▁ko	-10.2947
ber	-10.2948
▁atlantic	-10.2948
▁empty	-10.2959
▁matches	-10.2962
▁pa	-10.2963
▁truth	-10.2967
▁survived	-10.2971
▁confident	-10.2978
car	-10.2981
▁wear	-10.2985
▁modest	-10.2987
▁300	-10.2993
▁baghdad	-10.2995
▁abroad	-10.2996
▁owns	-10.2996
▁navy	-10.3
ate	-10.3002
▁va	-10.3006
▁federation	-10.3008
▁viewers	-10.301
▁lu	-10.3011
▁anger	-10.3014
▁minimum	-10.3019
▁unions	-10.3032
▁$100	-10.3047
▁affect	-10.3048
▁facilities	-10.3051
▁arena	-10.3054
ge	-10.3056
ov	-10.3058
▁emerging	-10.3068
▁animals	-10.3073
um	-10.3073
▁solar	-10.3077
▁diego	-10.3081
▁forecast	-10.31
▁gray	-10.3102
▁returns	-10.3121
ga	-10.3124
▁comfortable	-10.3134
▁mary	-10.3138
▁pop	-10.314
▁videos	-10.314
minute	-10.3141
▁revolution	-10.3145
▁mix	-10.3152
▁fields	-10.316
▁chose	-10.3161
▁y	-10.3161
▁sleep	-10.3161
▁structure	-10.3165
her	-10.3165
▁factor	-10.3166
▁greatest	-10.3172
▁parking	-10.3178
down	-10.3178
▁plastic	-10.3181
em	-10.3186
▁tensions	-10.3189
▁kerry	-10.319
▁nomination	-10.3191
▁regulation	-10.3192
▁discussions	-10.3192
▁rebel	-10.3196
▁chemical	-10.3198
▁medal	-10.3201
▁beating	-10.3202
▁meaning	-10.3205
▁airline	-10.3217
right	-10.3218
▁remove	-10.3226
▁defend	-10.3226
▁male	-10.3229
▁vision	-10.323
▁incident	-10.3235
▁alabama	-10.3236
▁espn	-10.3238
▁cameras	-10.3244
▁expanded	-10.3245
▁character	-10.3249
▁suddenly	-10.3251
▁patriots	-10.3257
▁heads	-10.3258
▁$9	-10.3259
▁smart	-10.3269
▁bat	-10.3279
▁background	-10.3282
▁abortion	-10.3285
▁earn	-10.3285
▁2005,	-10.329
▁sky	-10.3291
▁49	-10.3293
▁pentagon	-10.3294
▁famous	-10.3299
▁usual	-10.33
▁complicated	-10.3307
▁madison	-10.331
▁reporting	-10.3312
▁independence	-10.3319
▁chances	-10.3323
▁christmas	-10.3332
▁reaction	-10.3334
▁outcome	-10.3337
▁historic	-10.3339
▁constitutional	-10.3339
▁supporting	-10.3348
▁appointed	-10.3348
▁frequently	-10.3355
▁effectively	-10.3356
▁boom	-10.336
▁significantly	-10.336
▁computers	-10.3364
▁buyers	-10.3369
election	-10.3384
house	-10.3387
▁locker	-10.339
▁complained	-10.3398
▁federer	-10.3399
▁grass	-10.3404
▁$20	-10.3406
▁overtime	-10.3408
▁severe	-10.3409
▁ring	-10.3409
▁laid	-10.3412
▁$6	-10.3413
▁postseason	-10.342
▁cabinet	-10.3422
▁angry	-10.3424
▁revealed	-10.3425
▁shape	-10.3427
▁drawing	-10.3431
▁se	-10.3434
▁bed	-10.3435
▁indicated	-10.3436
▁barely	-10.3445
ists	-10.3446
▁brands	-10.3452
▁hiring	-10.3452
▁savings	-10.3453
▁recorded	-10.3457
▁species	-10.3459
▁trend	-10.3462
long	-10.3463
▁patient	-10.3468
ard	-10.3471
▁identify	-10.3474
▁apply	-10.3475
▁interior	-10.3477
▁statistics	-10.3487
▁settled	-10.3492
▁directed	-10.3506
▁intense	-10.3506
▁attacked	-10.3514
▁resolution	-10.3516
▁trees	-10.3519
▁roster	-10.3522
wood	-10.3532
▁valuable	-10.3532
▁eager	-10.3533
▁artist	-10.3535
▁lewis	-10.3538
▁regulatory	-10.3541
▁refugees	-10.3543
▁taylor	-10.3545
▁victories	-10.3548
▁stronger	-10.3553
▁warner	-10.3559
▁allen	-10.3563
▁somebody	-10.3564
▁troubled	-10.3569
▁ireland	-10.357
▁pictures	-10.3571
▁essentially	-10.3579
▁acquired	-10.3579
▁euros	-10.3581
▁strategic	-10.3586
▁hamas	-10.3591
▁33	-10.3594
▁2000	-10.36
▁models	-10.3603
▁equal	-10.3605
▁wake	-10.3608
▁mine	-10.3609
▁contest	-10.361
ek	-10.3621
▁las	-10.3624
▁discussed	-10.3631
▁34	-10.3633
ger	-10.3634
▁demands	-10.3645
▁golden	-10.3659
ated	-10.3672
▁payment	-10.3683
▁entering	-10.3686
▁holds	-10.3687
les	-10.3688
▁suggests	-10.3693
tic	-10.3697
making	-10.3698
pa	-10.3699
▁seriously	-10.3712
▁temporary	-10.3713
▁bright	-10.3714
▁platform	-10.3722
▁promote	-10.3725
op	-10.375
▁ethnic	-10.3751
▁murray	-10.3755
ah	-10.3756
▁fought	-10.3758
▁nobody	-10.3762
▁partnership	-10.3764
side	-10.3766
▁du	-10.377
▁master	-10.3771
▁wealth	-10.3771
▁inter	-10.3778
▁birth	-10.3781
▁mexican	-10.3781
▁surrounding	-10.3785
▁circuit	-10.3789
▁cardinals	-10.3792
▁preparing	-10.3792
quarter	-10.3794
▁pitching	-10.3795
▁tampa	-10.3796
▁motion	-10.3801
▁experienced	-10.3801
ur	-10.3803
▁flag	-10.3803
free	-10.3804
▁acting	-10.3805
▁threats	-10.3806
▁overhaul	-10.381
▁predicted	-10.3822
▁breaking	-10.383
▁marathon	-10.3837
▁formal	-10.3838
▁mis	-10.384
▁escape	-10.3842
▁scrutiny	-10.3845
▁afterward	-10.3847
▁$15	-10.3849
▁bailout	-10.3854
▁document	-10.3863
▁employment	-10.387
▁wage	-10.3872
▁operate	-10.388
ary	-10.3881
▁regularly	-10.3886
▁memory	-10.3887
▁aren	-10.389
▁desire	-10.3896
▁2003	-10.3897
▁color	-10.3898
▁cuba	-10.3904
▁appointment	-10.3911
▁cool	-10.3913
▁values	-10.3913
▁cooperation	-10.3915
▁salary	-10.392
▁historical	-10.3924
▁letters	-10.3925
▁cbs	-10.3925
style	-10.3925
▁prize	-10.393
▁denver	-10.3937
▁targets	-10.3955
▁principal	-10.3956
ol	-10.397
▁wisconsin	-10.397
▁wine	-10.397
related	-10.3972
▁seized	-10.3974
ho	-10.3977
▁tree	-10.3978
▁flow	-10.398
▁graduate	-10.398
izing	-10.3981
▁rural	-10.3984
▁dealing	-10.3985
▁adam	-10.3991
bar	-10.3992
▁libya	-10.3993
▁variety	-10.3997
▁festival	-10.3997
▁entirely	-10.3999
▁abu	-10.4009
▁warm	-10.4009
id	-10.4011
▁newly	-10.4012
▁dance	-10.4014
▁initiative	-10.402
▁pursue	-10.4024
ig	-10.4032
▁jeter	-10.4034
ant	-10.404
▁song	-10.4046
▁zero	-10.406
▁facility	-10.4068
▁electronic	-10.4074
▁medicine	-10.4075
▁investor	-10.4076
▁youtube	-10.4087
▁wealthy	-10.4087
ating	-10.4089
▁neighborhoods	-10.4094
▁captured	-10.41
▁newspapers	-10.4105
▁papers	-10.4114
▁tom	-10.4119
▁cook	-10.4121
▁animal	-10.4124
▁flying	-10.4125
▁helps	-10.4126
▁pleaded	-10.4131
rd	-10.4133
▁2013,	-10.4137
▁blow	-10.4139
▁extremely	-10.4143
▁print	-10.4144
▁controlled	-10.4144
▁fame	-10.4145
▁adopted	-10.4146
with	-10.4152
▁combination	-10.4156
▁funding	-10.4168
▁fee	-10.417
▁consultant	-10.4172
▁albany	-10.4172
▁investigating	-10.4173
▁express	-10.4176
▁representing	-10.4181
▁monetary	-10.4187
▁happening	-10.4188
▁guards	-10.4188
▁personnel	-10.4196
▁welcome	-10.4198
▁commerce	-10.4203
▁filing	-10.4203
berg	-10.4211
▁swing	-10.4213
level	-10.4213
▁classes	-10.4221
po	-10.4223
▁investigations	-10.4224
▁behalf	-10.4226
▁nick	-10.4229
▁monthly	-10.423
▁championships	-10.4237
▁highway	-10.4238
▁gross	-10.4241
▁luxury	-10.4254
▁trillion	-10.4255
▁reaching	-10.4258
▁manage	-10.4259
kin	-10.4262
▁hurricane	-10.4263
▁supplies	-10.4267
▁transfer	-10.4268
▁guns	-10.4269
▁36	-10.4272
▁pacific	-10.4272
▁granted	-10.4273
▁competing	-10.4276
za	-10.4278
ization	-10.4282
▁believes	-10.4286
▁prosecution	-10.4286
▁champions	-10.4289
▁stone	-10.4299
▁bin	-10.4299
wa	-10.43
▁senators	-10.4306
▁witness	-10.4312
▁irish	-10.4318
▁exports	-10.4326
▁circumstances	-10.4332
▁false	-10.4334
▁walker	-10.4344
▁feature	-10.4353
▁communist	-10.4372
▁proud	-10.4376
▁deadline	-10.4377
▁powers	-10.439
▁tested	-10.4394
▁traveling	-10.4399
▁notice	-10.4401
▁gotten	-10.4404
▁mention	-10.4405
▁rush	-10.4405
▁tony	-10.4413
▁ceremony	-10.4415
▁jay	-10.4416
▁feels	-10.4418
▁blocked	-10.442
▁extend	-10.4426
▁summit	-10.4429
▁understanding	-10.4435
▁1960	-10.4436
▁slam	-10.4445
▁universities	-10.4446
▁donors	-10.4446
▁anderson	-10.4446
▁mistake	-10.445
▁listed	-10.4451
▁permanent	-10.4452
▁leaves	-10.4454
mon	-10.4456
▁2008.	-10.4456
can	-10.4468
▁kitchen	-10.4468
▁walls	-10.4468
▁robinson	-10.4472
▁materials	-10.4473
▁rio	-10.4482
▁handful	-10.4486
▁2015	-10.449
▁attempts	-10.4502
▁competitors	-10.4506
▁license	-10.4507
tz	-10.4509
▁traveled	-10.451
▁somewhat	-10.4516
▁traded	-10.4525
▁counsel	-10.4526
▁notes	-10.4535
▁distance	-10.4536
▁forest	-10.454
▁fix	-10.4541
ba	-10.4546
▁findings	-10.4548
ina	-10.4549
▁politically	-10.4558
▁royal	-10.4559
▁invest	-10.456
▁receiver	-10.4566
▁sets	-10.457
▁carter	-10.4575
▁ranked	-10.4576
▁surveillance	-10.4578
▁violations	-10.4579
▁medicare	-10.4581
ja	-10.4586
ino	-10.4592
bi	-10.4596
▁waste	-10.4605
▁detention	-10.4606
▁merkel	-10.4609
▁solid	-10.4609
▁affordable	-10.461
▁suggesting	-10.4612
▁indiana	-10.4617
▁debut	-10.4621
▁institution	-10.4629
▁defeated	-10.4641
mar	-10.4643
▁formed	-10.4649
?’	-10.4664
▁henry	-10.4667
▁madrid	-10.467
▁parent	-10.4671
▁berlin	-10.4681
▁defending	-10.4683
ney	-10.4693
▁lift	-10.4697
▁challenging	-10.4697
▁branch	-10.4702
▁titles	-10.4702
▁advocacy	-10.4704
▁muslims	-10.4711
ent	-10.4725
▁ease	-10.4732
▁tradition	-10.4732
▁danger	-10.4732
▁dna	-10.4733
▁65	-10.4739
▁pitched	-10.4748
▁wal	-10.4749
▁pieces	-10.4755
▁tap	-10.4758
▁industries	-10.4759
▁ka	-10.476
▁arabia	-10.4764
▁recall	-10.4764
state	-10.4766
▁fled	-10.4773
▁chosen	-10.4773
▁realized	-10.4773
▁migrants	-10.4778
▁bombing	-10.4779
▁starter	-10.4782
ster	-10.4786
ji	-10.4789
▁signal	-10.4794
▁prisoners	-10.4796
▁marine	-10.4797
▁z	-10.4799
▁nominee	-10.4803
▁turkish	-10.4806
▁gates	-10.4807
▁2002	-10.4817
▁encourage	-10.4819
▁striking	-10.4825
▁referred	-10.4826
▁testified	-10.4829
▁academic	-10.483
▁asset	-10.4835
▁begins	-10.4835
ron	-10.4835
▁lending	-10.4841
▁consulting	-10.4842
▁steven	-10.4843
▁requests	-10.4843
▁realize	-10.4846
▁brussels	-10.4853
▁manufacturers	-10.4855
▁connected	-10.4857
"	-10.4858
▁throwing	-10.4859
▁departure	-10.4862
▁ku	-10.4863
▁guide	-10.4868
▁engine	-10.4869
▁calm	-10.487
▁devils	-10.4871
▁purpose	-10.4871
▁reducing	-10.4873
▁flights	-10.4874
▁moore	-10.4875
▁cell	-10.4875
▁slowly	-10.4879
▁coaching	-10.4888
▁orleans	-10.489
▁retailers	-10.4897
▁surge	-10.4906
▁xi	-10.4908
▁pair	-10.4908
▁conservatives	-10.4914
▁momentum	-10.4918
▁mount	-10.4921
▁prince	-10.4926
▁repeated	-10.4928
are	-10.4934
▁trucks	-10.4942
▁wore	-10.4943
▁dogs	-10.495
▁blocks	-10.4951
▁ends	-10.4953
more	-10.4958
▁edward	-10.4959
▁sustained	-10.496
▁link	-10.4962
▁peak	-10.4963
▁engineering	-10.4964
▁mail	-10.4964
▁obvious	-10.4964
▁marijuana	-10.4967
▁disney	-10.497
▁ed	-10.4971
▁poverty	-10.4978
▁presidency	-10.4982
▁tower	-10.4983
▁duke	-10.499
▁toyota	-10.499
▁settle	-10.4991
▁transit	-10.4996
chi	-10.4998
▁yellow	-10.4999
▁campaigns	-10.5004
▁pat	-10.5007
▁typical	-10.5014
▁triple	-10.5016
▁nadal	-10.5024
▁metal	-10.5027
mile	-10.5033
▁2004,	-10.5036
▁engaged	-10.5041
▁scientific	-10.5044
▁pilot	-10.5046
▁joining	-10.505
▁imagine	-10.506
▁nationwide	-10.5062
▁assad	-10.5066
▁stimulus	-10.5068
▁movies	-10.5069
▁alive	-10.509
▁anybody	-10.5091
▁parks	-10.5097
▁phones	-10.5097
▁reuters	-10.5097
▁cameron	-10.5101
▁numerous	-10.5101
▁jet	-10.5101
▁absence	-10.5102
▁estimate	-10.5109
▁sunni	-10.5111
▁pitches	-10.5112
▁francis	-10.5117
▁strikes	-10.5122
▁buffalo	-10.5122
▁loved	-10.5124
▁wing	-10.5129
▁rick	-10.513
▁recognize	-10.5134
ons	-10.5138
▁37	-10.514
▁divided	-10.5146
▁steady	-10.5148
▁pages	-10.5149
▁notion	-10.5156
▁tennessee	-10.5159
▁hire	-10.5161
▁arguing	-10.5161
▁vulnerable	-10.5165
▁detained	-10.5168
▁banned	-10.5168
▁doors	-10.5181
▁stick	-10.5188
▁landscape	-10.5192
▁bulls	-10.5192
▁bp	-10.5193
▁emotional	-10.5197
▁dominated	-10.5198
▁perry	-10.52
▁handling	-10.5201
▁survive	-10.5205
▁suspects	-10.5206
law	-10.5208
▁rail	-10.5215
▁48	-10.5215
▁blog	-10.5217
et	-10.5225
▁priority	-10.5227
▁pan	-10.5228
▁tools	-10.5238
▁42	-10.5238
▁shelter	-10.5239
▁2014,	-10.524
sen	-10.5241
▁employers	-10.5246
▁2016	-10.5246
▁carlos	-10.5247
▁shiite	-10.5247
▁associate	-10.5251
▁newark	-10.5252
fire	-10.5261
▁lunch	-10.5262
▁interesting	-10.5264
▁perform	-10.5273
▁amendment	-10.5275
▁exit	-10.5283
▁rating	-10.5283
▁sha	-10.5285
▁prospects	-10.5286
▁activist	-10.5287
▁consequences	-10.5298
▁prepare	-10.5305
▁fridays	-10.5306
▁mainly	-10.5308
▁interviewed	-10.5308
▁theory	-10.5309
▁virtually	-10.5309
▁austin	-10.5311
▁enormous	-10.5314
income	-10.5316
▁aide	-10.5323
▁sweet	-10.5342
because	-10.5343
▁expanding	-10.5344
▁chi	-10.5349
▁oversight	-10.5355
week	-10.5357
▁stability	-10.5363
▁shock	-10.5366
▁legacy	-10.5368
▁gathering	-10.5375
▁planes	-10.5381
▁clubs	-10.5385
oh	-10.5387
▁lane	-10.5388
▁noting	-10.5388
▁trained	-10.5392
▁routine	-10.5393
▁praised	-10.5395
▁antonio	-10.5395
▁meat	-10.5397
▁drama	-10.5398
▁stuck	-10.54
▁signing	-10.54
▁stanford	-10.5405
▁resident	-10.5412
▁describe	-10.5413
just	-10.5415
even	-10.5428
▁obviously	-10.5433
known	-10.5434
▁detailed	-10.5437
▁embassy	-10.5441
▁appropriate	-10.5445
que	-10.5446
▁applications	-10.5447
▁ranks	-10.5455
-10	-10.5457
▁wish	-10.5463
▁resigned	-10.5465
▁applied	-10.5465
▁ra	-10.5468
▁43	-10.5468
▁accounting	-10.5469
▁roger	-10.547
▁approached	-10.5479
▁ten	-10.5492
▁collected	-10.5494
▁lowest	-10.5497
▁districts	-10.5498
▁capitol	-10.5503
▁su	-10.5504
▁sa	-10.5504
▁assists	-10.5506
▁militant	-10.5508
▁defendants	-10.5509
▁map	-10.5511
▁bases	-10.5513
▁enjoy	-10.5515
▁billions	-10.5529
▁tone	-10.5529
▁39	-10.553
▁ski	-10.5533
▁religion	-10.5535
▁apps	-10.5538
▁clock	-10.554
▁invited	-10.5544
▁dodgers	-10.5553
▁sons	-10.5566
▁cubs	-10.5572
▁compromise	-10.5577
▁0	-10.5577
▁kid	-10.5578
▁importance	-10.5581
▁reflect	-10.5584
▁toll	-10.5585
▁soft	-10.5587
▁kick	-10.5593
▁horses	-10.5593
▁roll	-10.5599
▁requirements	-10.56
▁cells	-10.5605
cha	-10.5618
mart	-10.5618
▁announce	-10.5619
▁pride	-10.5625
▁involvement	-10.5634
▁treat	-10.5636
▁oakland	-10.5636
▁wonder	-10.5643
▁yorkers	-10.5649
20	-10.565
▁$50	-10.5653
▁neck	-10.5656
▁stewart	-10.5657
▁teaching	-10.5661
▁2009.	-10.5663
▁destroyed	-10.5665
▁economics	-10.5665
▁dean	-10.5668
▁spots	-10.567
▁beer	-10.567
han	-10.5674
▁vietnam	-10.5677
▁attract	-10.568
▁necessarily	-10.5683
▁studied	-10.5687
▁relative	-10.5689
▁creation	-10.5691
▁chrysler	-10.5695
▁towns	-10.5706
▁400	-10.5707
ul	-10.5711
▁factors	-10.5715
▁boeing	-10.572
▁auction	-10.5727
▁netanyahu	-10.5728
50	-10.5732
▁smoke	-10.5732
▁grounds	-10.5732
ac	-10.5737
▁plus	-10.574
art	-10.5745
▁tigers	-10.5746
▁heading	-10.5751
handed	-10.5751
▁col	-10.5757
▁performed	-10.5759
▁uncertainty	-10.5763
▁inspired	-10.5766
▁gang	-10.5767
▁wages	-10.5767
▁controls	-10.5768
▁investigate	-10.577
▁extension	-10.5773
▁concrete	-10.5773
▁ken	-10.5779
ze	-10.5781
▁quoted	-10.5783
▁properties	-10.5784
gen	-10.5787
▁boss	-10.5787
▁arrests	-10.5801
▁cat	-10.5811
q	-10.5813
▁contributed	-10.5814
▁exercise	-10.5822
new	-10.5825
▁homeless	-10.5834
▁selection	-10.5836
▁damaged	-10.5837
ups	-10.5842
▁hu	-10.5843
▁merger	-10.5844
▁monitor	-10.5848
▁achieve	-10.5849
▁yemen	-10.5864
▁premier	-10.5868
▁yale	-10.5868
▁killings	-10.5868
▁roof	-10.5872
▁weekly	-10.5874
▁ballot	-10.5874
▁contributions	-10.5876
▁liberty	-10.5878
▁apparent	-10.5881
▁explosion	-10.5889
▁38	-10.5889
▁jumped	-10.5898
▁handed	-10.5903
▁becomes	-10.5905
▁warren	-10.5905
▁hamilton	-10.5915
▁registered	-10.5924
▁adults	-10.5926
▁har	-10.5931
▁phil	-10.5931
▁westchester	-10.5938
▁wireless	-10.5941
▁unique	-10.5943
▁inches	-10.5969
▁conviction	-10.5975
era	-10.5977
▁oregon	-10.5983
▁vegas	-10.5988
▁christopher	-10.5996
▁establish	-10.5996
century	-10.5999
▁rooms	-10.5999
▁developers	-10.5999
▁jose	-10.6022
▁chamber	-10.6024
▁taught	-10.6025
▁resolve	-10.6027
▁harlem	-10.6029
▁stress	-10.6029
▁ray	-10.6031
au	-10.6033
ana	-10.6034
▁citigroup	-10.6045
▁broadway	-10.605
▁encouraged	-10.6054
▁weapon	-10.6056
▁opposite	-10.6059
pro	-10.6064
▁jonathan	-10.6068
▁finals	-10.6071
▁fate	-10.6073
▁corn	-10.6074
▁extreme	-10.6077
raising	-10.6078
▁55	-10.6078
▁strongly	-10.6078
▁touchdowns	-10.6083
▁shore	-10.6086
▁recognized	-10.6087
ow	-10.6091
▁imposed	-10.61
▁blamed	-10.61
▁2001	-10.6101
▁rapidly	-10.6101
▁egyptian	-10.6102
▁2010.	-10.6108
▁expenses	-10.6109
▁yankee	-10.6113
▁anymore	-10.6114
▁swiss	-10.6121
▁succeed	-10.6129
min	-10.613
▁harris	-10.6131
▁suspension	-10.6133
▁defended	-10.6136
▁gordon	-10.6136
▁inmates	-10.6137
▁journalist	-10.6138
▁alongside	-10.614
▁mentioned	-10.6144
▁capture	-10.6144
▁dry	-10.615
▁44	-10.615
▁bryant	-10.6153
▁thanks	-10.6157
▁chancellor	-10.6157
▁medicaid	-10.6157
town	-10.6157
▁selected	-10.6159
che	-10.6162
▁guess	-10.6171
▁abe	-10.6171
▁crown	-10.6171
▁maryland	-10.6177
▁anywhere	-10.618
▁homer	-10.6181
▁differences	-10.6182
▁hollywood	-10.6182
▁missile	-10.6182
▁switch	-10.6188
▁utah	-10.6188
▁dutch	-10.6193
▁rely	-10.6193
▁hotels	-10.6195
▁machines	-10.6202
▁gift	-10.6203
▁sand	-10.6206
▁thus	-10.6214
▁murphy	-10.6217
▁bird	-10.6219
▁runners	-10.6219
▁busy	-10.622
▁coordinator	-10.6224
▁smile	-10.6229
▁trail	-10.623
▁substantial	-10.6231
▁improving	-10.6233
▁types	-10.6233
▁2011.	-10.6236
▁writer	-10.624
▁jean	-10.6243
▁degrees	-10.6247
▁wa	-10.6249
▁hate	-10.6249
▁sub	-10.625
▁collect	-10.6254
▁moderate	-10.6254
▁rev	-10.6255
▁luck	-10.6255
▁rob	-10.6259
▁abandoned	-10.6259
set	-10.6262
▁ross	-10.6264
▁jerry	-10.6267
▁ron	-10.6267
▁spirit	-10.6272
▁thrown	-10.6275
▁harbor	-10.6277
▁producer	-10.6279
▁actual	-10.6281
▁jon	-10.6281
▁stable	-10.6294
▁musical	-10.6297
▁funeral	-10.6298
▁$25	-10.6298
▁islam	-10.6304
▁counts	-10.6305
▁edwards	-10.6309
▁earthquake	-10.6309
▁extent	-10.6316
▁sergeant	-10.6319
▁advocate	-10.6321
▁roads	-10.6322
▁surprising	-10.6324
most	-10.6329
-1	-10.6329
▁tackle	-10.6329
▁ethics	-10.6331
▁hunt	-10.6338
▁sight	-10.6338
his	-10.634
▁frustration	-10.6341
▁sees	-10.6346
▁lenders	-10.6348
▁sony	-10.6354
▁requiring	-10.6356
▁atmosphere	-10.6358
▁riders	-10.6361
▁lynch	-10.6362
▁hundred	-10.6364
▁feed	-10.6369
▁mall	-10.637
▁spoken	-10.6382
▁rape	-10.6386
owned	-10.6388
▁2007.	-10.6388
▁arguments	-10.6391
▁keeps	-10.6397
▁paintings	-10.6399
▁jazz	-10.6431
▁insurgents	-10.6432
▁generate	-10.6433
▁amounts	-10.6435
▁promising	-10.6438
under	-10.6439
▁manuel	-10.6439
▁municipal	-10.644
▁immigrant	-10.6441
▁circle	-10.6443
▁participate	-10.6444
▁tracks	-10.6447
▁remote	-10.6455
▁barcelona	-10.6458
▁bruce	-10.646
▁forcing	-10.6462
▁conversations	-10.6463
mr	-10.6465
▁resistance	-10.6466
▁officially	-10.647
▁duty	-10.647
▁technologies	-10.6476
▁originally	-10.6479
board	-10.648
▁anniversary	-10.6483
▁application	-10.6488
▁argentina	-10.6492
▁jerusalem	-10.6493
▁biden	-10.6495
▁tenure	-10.6509
▁demanding	-10.6511
▁satellite	-10.6513
▁briefly	-10.6513
▁teammate	-10.6521
▁citizen	-10.6525
▁demanded	-10.6526
40	-10.6531
▁engineers	-10.6534
▁fail	-10.6545
▁metropolitan	-10.6548
▁motor	-10.6551
▁penalties	-10.6551
ford	-10.6552
▁referendum	-10.6553
▁verdict	-10.6553
▁liked	-10.6553
▁speculation	-10.6557
▁recover	-10.656
▁rocket	-10.6574
▁checks	-10.6575
ran	-10.6576
io	-10.6576
▁mistakes	-10.6576
▁tool	-10.6578
▁kabul	-10.6578
▁error	-10.658
▁controversy	-10.6586
▁narrow	-10.6592
▁donations	-10.6598
▁rein	-10.6602
▁absolutely	-10.6608
▁tourists	-10.6611
▁lin	-10.6618
▁tries	-10.662
▁sharing	-10.6624
▁bags	-10.6625
▁41	-10.6629
▁custody	-10.663
ut	-10.6632
▁charter	-10.6638
▁latin	-10.6638
▁kinds	-10.6643
▁slide	-10.6644
▁disclosed	-10.6645
▁pledged	-10.6647
▁2012.	-10.6651
▁resort	-10.6651
▁gary	-10.6652
▁jews	-10.6652
00	-10.6653
▁phoenix	-10.6657
▁equivalent	-10.6663
▁roman	-10.6663
▁perspective	-10.6667
▁pet	-10.6672
▁ministers	-10.6673
▁yourself	-10.6675
▁utility	-10.668
▁indictment	-10.6681
place	-10.6691
▁sad	-10.6697
▁te	-10.6701
▁delayed	-10.6702
▁elements	-10.6705
▁150	-10.671
▁penn	-10.6711
▁volunteers	-10.6712
▁eligible	-10.6716
▁expects	-10.6717
5,000	-10.6722
▁recovered	-10.6723
▁consistent	-10.6726
▁72	-10.6727
▁drink	-10.6729
▁seemingly	-10.6732
▁improvement	-10.6734
▁bears	-10.6735
▁karzai	-10.6741
▁staying	-10.6742
▁heights	-10.6743
▁posts	-10.6754
▁answers	-10.6759
▁writes	-10.6762
▁readers	-10.6763
▁scheme	-10.6764
▁listen	-10.6764
▁journey	-10.6765
▁rapid	-10.6772
▁soldier	-10.6786
▁portion	-10.6792
▁clothes	-10.6794
seeded	-10.6799
▁economies	-10.6801
rate	-10.6801
page	-10.6802
▁engineer	-10.6804
ong	-10.6811
▁collapsed	-10.6814
▁holes	-10.6817
▁producers	-10.6817
▁fifa	-10.6819
▁delivery	-10.6822
▁islanders	-10.6832
▁palestinians	-10.6836
▁afraid	-10.6837
▁lawsuits	-10.6839
hi	-10.6842
▁knowing	-10.6842
▁harm	-10.6843
▁legs	-10.6845
ki	-10.685
▁fixed	-10.6851
▁clinic	-10.6854
▁76	-10.6856
▁frequent	-10.686
▁louisiana	-10.6862
▁princeton	-10.6863
▁chicken	-10.6867
▁parade	-10.6868
▁extensive	-10.6868
▁treaty	-10.6871
▁universal	-10.6871
▁milk	-10.6879
▁chelsea	-10.6882
▁racial	-10.6886
▁plot	-10.689
▁clothing	-10.6894
▁carl	-10.6896
▁sick	-10.6898
▁deadly	-10.6899
▁exposed	-10.6899
▁resulted	-10.6901
▁landed	-10.6901
▁cincinnati	-10.6903
▁shell	-10.6905
▁disabled	-10.6905
▁lab	-10.6906
▁reflected	-10.6911
▁ownership	-10.6916
▁vatican	-10.6918
▁santa	-10.6922
▁iron	-10.6922
▁pattern	-10.6951
▁djokovic	-10.6953
▁ver	-10.6965
▁visits	-10.6968
▁promises	-10.6974
har	-10.6975
lan	-10.6976
▁attracted	-10.6977
▁bull	-10.698
▁po	-10.6981
▁2001,	-10.6982
▁burden	-10.6989
▁pressed	-10.6991
▁disappointed	-10.6995
▁islamist	-10.6996
▁drinking	-10.6996
▁normally	-10.6997
▁subsidies	-10.6998
▁paterson	-10.7003
▁sued	-10.7006
red	-10.7008
▁bail	-10.7011
▁diplomats	-10.7014
▁shi	-10.7021
▁curb	-10.7023
▁suffering	-10.7025
▁tactics	-10.7027
▁apartments	-10.7028
▁obtained	-10.7029
▁cloud	-10.7033
▁sheriff	-10.7035
▁colonel	-10.7035
▁dies	-10.7036
ez	-10.7039
▁causing	-10.7041
▁assessment	-10.7045
▁teenager	-10.7047
▁ha	-10.7049
▁timing	-10.7051
▁taiwan	-10.7055
▁rough	-10.7058
▁ya	-10.7059
mann	-10.7063
▁backing	-10.7064
▁dis	-10.7065
▁welfare	-10.7067
▁noticed	-10.7082
▁quit	-10.7082
▁wi	-10.7083
▁vowed	-10.7086
▁ward	-10.7089
▁besides	-10.7091
▁bloc	-10.7092
▁forget	-10.7102
▁feared	-10.7102
▁authorized	-10.7102
▁comedy	-10.7103
▁invested	-10.7105
▁hispanic	-10.7106
▁excited	-10.7108
▁ally	-10.7108
▁chapter	-10.711
▁mortgages	-10.7114
▁2,	-10.7116
▁ukrainian	-10.7119
▁armstrong	-10.7121
▁flood	-10.7122
▁addressed	-10.7126
▁entry	-10.7134
▁hip	-10.7135
ski	-10.7141
▁challenged	-10.7145
▁sanchez	-10.715
▁featuring	-10.7153
▁sounds	-10.7155
ker	-10.7158
▁featured	-10.716
sky	-10.7166
will	-10.7166
▁mile	-10.7167
▁violated	-10.7173
▁lights	-10.7174
▁guidelines	-10.7175
▁shoot	-10.7175
jo	-10.7178
▁aim	-10.7181
▁establishment	-10.7182
▁rome	-10.7183
▁distribution	-10.7183
why	-10.7187
▁justin	-10.7196
ang	-10.7199
▁profile	-10.72
dis	-10.72
▁taxpayers	-10.7204
▁participants	-10.7205
▁firing	-10.721
▁waited	-10.7212
▁usa	-10.722
▁monitoring	-10.7222
▁borders	-10.7226
▁simon	-10.7227
▁greg	-10.7227
▁terry	-10.7228
▁odds	-10.7237
▁impose	-10.724
10	-10.7246
▁rivera	-10.7246
zi	-10.7256
▁beautiful	-10.7261
▁essential	-10.7263
▁concert	-10.7268
▁waters	-10.7273
▁nelson	-10.7274
▁spill	-10.7277
▁maintained	-10.728
▁portfolio	-10.7283
▁user	-10.7285
▁persuade	-10.7287
▁factories	-10.7293
▁specifically	-10.7294
▁pen	-10.7297
▁corps	-10.73
▁possession	-10.7306
low	-10.7319
▁neighbor	-10.7324
▁carries	-10.7325
▁foul	-10.7327
▁category	-10.7328
▁choices	-10.7331
▁hampshire	-10.7363
▁tex	-10.7366
▁bars	-10.7378
▁embrace	-10.7378
▁mill	-10.7379
▁beaten	-10.738
▁nasa	-10.738
▁seed	-10.738
25	-10.7384
▁reference	-10.7384
▁marc	-10.7386
▁radical	-10.7386
▁negotiating	-10.7387
▁2003,	-10.7391
▁vi	-10.7393
▁salt	-10.7395
▁paint	-10.7399
▁popularity	-10.7403
▁strip	-10.7407
▁wang	-10.7408
net	-10.741
▁drilling	-10.7411
▁larry	-10.7414
▁daughters	-10.7415
▁mississippi	-10.7418
▁47	-10.7419
▁celebrated	-10.7422
▁pending	-10.7422
stein	-10.7423
▁frustrated	-10.7427
▁mitchell	-10.7428
▁everywhere	-10.744
▁agriculture	-10.7441
▁6-	-10.7441
▁lebanon	-10.7442
▁battery	-10.7451
▁batting	-10.7459
▁teenagers	-10.746
▁za	-10.7463
▁sandy	-10.7464
▁20-	-10.7466
ring	-10.7468
▁josh	-10.747
ball	-10.7472
▁myanmar	-10.7473
▁fisher	-10.7476
▁yu	-10.7485
▁studying	-10.7489
▁51	-10.7489
▁46	-10.7491
▁articles	-10.7494
▁ordinary	-10.7495
▁detail	-10.7497
▁crack	-10.7498
▁dominant	-10.7499
▁negotiate	-10.7503
▁truly	-10.7505
▁saved	-10.7509
▁canceled	-10.7513
▁handled	-10.7514
▁shoes	-10.7515
▁■	-10.7516
▁quinn	-10.7519
▁(“	-10.752
▁restore	-10.7525
▁palm	-10.7532
▁crazy	-10.754
▁grade	-10.7543
▁rabbi	-10.7546
▁vital	-10.7547
▁brady	-10.7551
▁adult	-10.7554
▁guarantee	-10.7559
▁generated	-10.7563
▁cheap	-10.7565
▁understood	-10.7566
▁menu	-10.7568
▁collective	-10.7569
born	-10.7571
▁phase	-10.7573
▁12-	-10.7577
▁chip	-10.7578
▁stakes	-10.7581
▁switzerland	-10.7587
▁cha	-10.7592
▁ni	-10.7593
▁membership	-10.7598
▁manchester	-10.7605
▁capable	-10.7609
▁string	-10.7611
▁wimbledon	-10.7618
▁cease	-10.7624
thirds	-10.7627
▁khan	-10.7629
who	-10.7637
▁replied	-10.7639
▁carefully	-10.7648
▁couples	-10.7655
▁serves	-10.7656
▁uniform	-10.7657
▁phillies	-10.7658
▁venezuela	-10.7661
▁shake	-10.7665
very	-10.7666
▁alcohol	-10.767
▁exposure	-10.7673
ou	-10.7674
▁passage	-10.7675
▁forms	-10.7676
▁export	-10.7676
▁morris	-10.7679
▁packed	-10.7686
▁math	-10.7689
▁hat	-10.7693
▁falls	-10.7693
▁ja	-10.7693
ik	-10.7695
▁anyway	-10.7695
▁preserve	-10.7695
▁resignation	-10.7698
▁arrive	-10.7698
▁85	-10.77
▁reluctant	-10.7704
ning	-10.7707
▁squad	-10.771
▁gu	-10.7712
▁recommended	-10.7714
▁urging	-10.7715
▁primarily	-10.7717
▁15-	-10.7722
▁rounds	-10.7725
▁acts	-10.7725
▁sells	-10.7727
▁marked	-10.7735
▁introduce	-10.774
▁staten	-10.7745
▁seeks	-10.7746
▁purchases	-10.775
▁ambitious	-10.7751
▁tuesdays	-10.7755
▁causes	-10.7757
ck	-10.7758
▁trains	-10.7764
port	-10.7765
▁stern	-10.7769
▁eliminate	-10.7769
tro	-10.7776
▁accord	-10.7776
▁disputed	-10.7776
▁sudan	-10.7776
32	-10.7777
▁sch	-10.7779
▁birthday	-10.778
▁pitchers	-10.7786
▁catcher	-10.7788
▁roberts	-10.7792
▁roots	-10.78
▁optimistic	-10.78
▁links	-10.7802
▁organizers	-10.7807
▁answered	-10.7811
▁wells	-10.7811
▁punishment	-10.7813
▁bankers	-10.7817
ab	-10.7822
▁empire	-10.7822
▁birds	-10.7824
▁downturn	-10.7835
▁giuliani	-10.7837
▁badly	-10.7838
▁stance	-10.7844
▁developer	-10.7845
▁regime	-10.7845
▁margin	-10.7851
▁successor	-10.7851
▁manner	-10.7853
▁singapore	-10.7854
▁missouri	-10.786
▁2006.	-10.7861
▁1950	-10.7862
▁magic	-10.7862
▁¶	-10.7869
▁advertisers	-10.7873
▁courtroom	-10.7876
▁cleared	-10.7876
▁requested	-10.7887
▁trials	-10.7887
▁celebration	-10.789
▁discovery	-10.7891
ped	-10.7892
rich	-10.7897
▁derby	-10.7897
▁celebrate	-10.7899
▁foster	-10.7899
▁fairly	-10.7907
▁occasionally	-10.7909
▁freshman	-10.7911
▁patrol	-10.7912
▁acquisition	-10.7913
▁reduction	-10.7916
▁conspiracy	-10.7919
▁lifted	-10.7922
▁bombs	-10.7922
▁maximum	-10.7922
▁repair	-10.7923
▁tall	-10.7932
reuters	-10.7934
▁focusing	-10.7938
▁films	-10.794
▁'	-10.7941
▁curry	-10.7944
gi	-10.7946
▁crackdown	-10.7949
▁virus	-10.7953
▁mood	-10.7958
▁describing	-10.7971
▁arrival	-10.7972
▁procedures	-10.7973
▁obtain	-10.7978
▁emphasized	-10.7979
▁residential	-10.7981
▁abc	-10.7983
vin	-10.7985
▁corporations	-10.7985
▁premium	-10.7987
▁correct	-10.7988
▁landing	-10.7991
▁jo	-10.7992
▁disclose	-10.7994
▁operators	-10.7998
tu	-10.8008
▁violation	-10.8009
▁judgment	-10.8015
every	-10.8015
▁trips	-10.8016
▁sugar	-10.8018
▁skeptical	-10.8023
▁crowded	-10.8029
▁mutual	-10.803
▁indians	-10.8033
▁eating	-10.8034
▁moon	-10.8041
▁coup	-10.8042
▁cohen	-10.8044
▁disclosure	-10.8044
▁scientist	-10.8048
getty	-10.8049
▁innovation	-10.8053
▁cuban	-10.8054
▁mcdonald	-10.8058
▁impressive	-10.8062
▁brings	-10.8063
▁concept	-10.8066
▁elizabeth	-10.8067
▁bike	-10.8068
head	-10.807
▁harvey	-10.8072
▁passenger	-10.8076
▁iii	-10.8076
▁household	-10.808
▁lieutenant	-10.808
lu	-10.8087
▁sudden	-10.8089
▁locations	-10.8091
▁outlook	-10.8092
mp	-10.8092
▁flew	-10.8096
▁quietly	-10.8096
▁zealand	-10.81
▁temple	-10.8102
▁overcome	-10.8102
▁10,000	-10.8103
▁fake	-10.8103
cher	-10.8104
▁promoted	-10.8106
▁symbol	-10.8115
▁poland	-10.8118
▁convinced	-10.8118
▁puerto	-10.8121
▁bullpen	-10.8121
▁promoting	-10.8121
▁neighboring	-10.8123
▁contemporary	-10.8125
▁delays	-10.8127
▁ga	-10.8128
▁madoff	-10.8134
▁silicon	-10.8137
▁thick	-10.8137
profile	-10.8144
▁finishing	-10.8145
▁visible	-10.8149
▁laboratory	-10.8166
▁writers	-10.8167
.1	-10.8169
-4	-10.8183
▁amazing	-10.8188
▁covering	-10.8189
▁crowds	-10.819
▁pointing	-10.819
▁30-	-10.8196
▁dressed	-10.8198
▁han	-10.8203
was	-10.8204
▁tip	-10.8205
▁comeback	-10.8206
▁gasoline	-10.8207
▁burned	-10.821
▁personally	-10.8213
▁specialist	-10.8218
▁constant	-10.8233
▁rushed	-10.8236
▁reforms	-10.8241
▁eagles	-10.8241
▁lessons	-10.8243
wing	-10.8244
▁encouraging	-10.8245
▁lehman	-10.8248
▁$30	-10.8251
▁sessions	-10.8252
▁hide	-10.8256
▁bi	-10.8256
▁travelers	-10.8258
▁agreements	-10.826
▁raises	-10.826
▁surrounded	-10.8261
backed	-10.8261
▁lobbying	-10.8262
▁2014.	-10.8262
▁backup	-10.8266
▁deeper	-10.827
▁android	-10.8271
▁politician	-10.8271
▁briefed	-10.8272
▁trophy	-10.8278
▁54	-10.8278
▁belief	-10.8279
▁casino	-10.8281
▁awarded	-10.8283
▁favored	-10.8289
ding	-10.8295
▁pipeline	-10.8296
▁holdings	-10.8297
▁threatening	-10.8314
▁directors	-10.8319
▁basically	-10.8321
▁tribal	-10.8323
▁lady	-10.8325
ping	-10.8329
▁approve	-10.8329
▁northeast	-10.833
▁forum	-10.8332
▁palace	-10.8333
▁cycle	-10.8333
▁questioning	-10.8333
▁risen	-10.8334
▁nevada	-10.8335
▁replacement	-10.8336
▁2,000	-10.8336
▁hills	-10.8337
▁worries	-10.8338
▁default	-10.834
▁relationships	-10.8341
▁plea	-10.8342
▁entrance	-10.8342
▁warming	-10.8344
▁kings	-10.8344
▁finds	-10.835
▁theme	-10.8351
▁mouth	-10.8351
made	-10.8354
▁appearances	-10.8355
▁aviation	-10.8358
▁barack	-10.836
▁linebacker	-10.8361
▁photograph	-10.8365
▁survivors	-10.8366
▁contribute	-10.8368
▁graham	-10.8368
▁unknown	-10.837
▁careful	-10.8373
ging	-10.8374
▁operated	-10.8375
▁acres	-10.8377
▁multi	-10.8384
▁merely	-10.8385
▁weren	-10.8386
▁dress	-10.8389
▁protecting	-10.8389
▁guests	-10.839
▁exist	-10.8393
▁dame	-10.8395
▁voter	-10.8396
▁rutgers	-10.84
▁isis	-10.8401
▁protected	-10.8404
▁producing	-10.8406
iv	-10.8408
▁hunter	-10.841
▁volume	-10.8413
▁lots	-10.8414
▁locked	-10.8415
▁formally	-10.8421
▁installed	-10.8421
▁detective	-10.8422
▁friendly	-10.8423
▁firefighters	-10.8426
▁fantasy	-10.8429
vis	-10.8432
▁camps	-10.8433
▁intent	-10.8436
▁regarding	-10.844
▁hasn	-10.8442
▁privately	-10.8445
gan	-10.8447
▁storage	-10.8449
▁charity	-10.8451
ung	-10.8451
▁halt	-10.8452
▁aaron	-10.8458
▁belt	-10.8459
-2	-10.8459
▁balls	-10.8461
▁preferred	-10.8461
▁ebola	-10.8463
▁rubio	-10.8464
▁lakers	-10.8466
▁baseman	-10.8471
▁illegally	-10.8483
▁susan	-10.8487
▁ki	-10.8488
▁programming	-10.8497
-20	-10.8498
▁2013.	-10.85
▁ke	-10.8507
▁administrative	-10.8509
▁doubled	-10.8509
▁contain	-10.8509
▁clark	-10.851
val	-10.8517
▁parliamentary	-10.8517
▁sweeping	-10.852
▁athlete	-10.852
▁recognition	-10.852
ick	-10.8527
▁skin	-10.8528
▁noise	-10.8529
▁consumption	-10.853
▁islands	-10.8536
▁ri	-10.8539
▁shanghai	-10.8541
▁homeland	-10.8541
▁mom	-10.8544
▁thin	-10.8547
▁sachs	-10.855
▁controversial	-10.855
▁intervention	-10.8553
▁pressing	-10.8555
▁gender	-10.8568
▁hartford	-10.8571
▁regardless	-10.8577
▁legislators	-10.8584
ee	-10.8589
▁indication	-10.8591
▁ourselves	-10.8591
▁solve	-10.8601
ver	-10.8603
▁indonesia	-10.8604
ins	-10.8605
▁pollution	-10.8607
▁array	-10.8607
ance	-10.8619
▁stream	-10.8621
▁leagues	-10.8621
▁marshall	-10.8622
▁mining	-10.8623
▁fundamental	-10.8623
▁acknowledge	-10.8629
▁ages	-10.8633
▁mosque	-10.8635
bel	-10.8636
ship	-10.8638
▁discrimination	-10.864
▁influential	-10.8641
fa	-10.8641
▁lie	-10.8645
▁publishing	-10.8646
▁explanation	-10.8648
▁declining	-10.865
▁1.	-10.8655
▁uncertain	-10.8657
▁confirm	-10.8657
▁sensitive	-10.866
▁raid	-10.8662
▁tape	-10.8664
▁blast	-10.867
▁devoted	-10.8687
▁breaks	-10.8688
▁chair	-10.8689
▁dedicated	-10.8696
▁gi	-10.8703
▁assigned	-10.8704
▁russell	-10.8715
▁discipline	-10.8716
▁runner	-10.8721
▁announcing	-10.8724
▁consensus	-10.8731
▁inspector	-10.8732
after	-10.874
▁investing	-10.874
ranked	-10.8741
▁gear	-10.8747
use	-10.8748
▁engage	-10.875
▁shops	-10.875
▁reid	-10.8751
▁useful	-10.8751
▁seoul	-10.8755
▁ge	-10.8756
▁discussing	-10.8758
▁fence	-10.8763
▁copy	-10.8768
▁memories	-10.8769
▁muhammad	-10.8771
▁passion	-10.8772
▁fishing	-10.8773
▁ca	-10.8773
story	-10.8774
▁extraordinary	-10.8779
vi	-10.8788
▁soul	-10.8791
▁riding	-10.8797
▁fred	-10.8799
▁douglas	-10.8802
▁associates	-10.8807
▁defender	-10.8807
▁barred	-10.881
▁operator	-10.8811
▁permission	-10.8813
▁providers	-10.8814
▁unexpected	-10.8816
ru	-10.8817
▁$12	-10.8821
▁trainer	-10.8825
▁tenants	-10.8829
▁brazilian	-10.883
▁ancient	-10.8833
▁buried	-10.8841
▁publisher	-10.8841
▁smartphone	-10.8845
▁mu	-10.8845
▁stolen	-10.8846
▁vacation	-10.8858
▁lucky	-10.8859
▁informed	-10.8859
▁preliminary	-10.8861
▁fortune	-10.8861
▁qualify	-10.8868
▁remembered	-10.8872
▁verizon	-10.8874
▁conclusion	-10.8875
air	-10.8878
play	-10.8883
▁alaska	-10.8885
▁tehran	-10.8886
▁welcomed	-10.8887
▁expense	-10.8887
▁virtual	-10.8893
▁gene	-10.8895
▁si	-10.89
▁kurdish	-10.8907
▁rockets	-10.8909
-5	-10.891
▁judicial	-10.8911
center	-10.8911
▁samsung	-10.8912
▁regions	-10.8914
▁loose	-10.8917
▁tri	-10.8918
▁cnn	-10.892
fer	-10.892
▁insurers	-10.8922
▁teach	-10.8927
▁proceedings	-10.894
▁taste	-10.8941
▁remarkable	-10.8946
▁odd	-10.8946
▁proper	-10.8949
▁struggles	-10.895
▁payroll	-10.896
▁attending	-10.8962
▁takeover	-10.8964
▁renewed	-10.8967
▁2002,	-10.897
▁56	-10.897
ell	-10.8975
ada	-10.898
▁sentiment	-10.8981
▁detainees	-10.8986
▁ankle	-10.8989
▁aging	-10.8992
▁oldest	-10.8994
▁provision	-10.8996
▁turmoil	-10.8996
▁bishop	-10.8999
▁bradley	-10.9002
aw	-10.9002
▁terrorists	-10.9003
▁harsh	-10.9006
▁alan	-10.9006
▁retire	-10.9009
▁somewhere	-10.9009
▁tired	-10.9011
▁fatal	-10.9015
▁lopez	-10.9016
▁jeffrey	-10.9018
▁connections	-10.9024
▁silence	-10.9024
▁contractors	-10.903
▁carriers	-10.9032
▁gate	-10.9036
▁ted	-10.9038
▁interim	-10.9046
▁pot	-10.9051
▁jpmorgan	-10.9055
▁enjoyed	-10.9058
▁fault	-10.9058
▁cowboys	-10.9059
▁depending	-10.906
▁graduated	-10.906
▁facts	-10.9063
▁thursdays	-10.9063
▁7:30	-10.9063
▁sweden	-10.9063
▁(19	-10.9064
▁clemens	-10.9067
▁borrowing	-10.9069
▁dave	-10.9076
▁songs	-10.9077
▁orlando	-10.9078
▁reserves	-10.908
ett	-10.9081
▁carrier	-10.9085
▁signature	-10.9087
▁;	-10.9088
▁conventional	-10.909
▁fat	-10.9092
▁mess	-10.9093
▁cairo	-10.9093
▁winners	-10.9097
▁searching	-10.9101
▁sal	-10.9104
▁admission	-10.9104
▁syracuse	-10.9106
▁railroad	-10.9108
▁disappeared	-10.9112
▁helicopter	-10.9113
▁liu	-10.9116
▁blind	-10.9121
▁adds	-10.9122
▁childhood	-10.9125
ani	-10.913
▁refugee	-10.9131
from	-10.9134
▁longest	-10.9142
▁gambling	-10.9142
▁milwaukee	-10.9146
▁meters	-10.9146
▁66	-10.9147
▁methods	-10.9147
,000	-10.9147
▁getty	-10.9148
▁accompanied	-10.9149
▁homeowners	-10.9149
▁laugh	-10.9152
▁taxi	-10.9153
▁scotland	-10.9155
▁bre	-10.9158
▁button	-10.916
par	-10.9171
▁wade	-10.9171
▁rays	-10.9172
▁pleased	-10.9173
▁desert	-10.9176
▁cooper	-10.9178
▁electronics	-10.918
▁proof	-10.9182
life	-10.9183
▁sounded	-10.9183
▁connect	-10.9185
▁educational	-10.9187
▁ferguson	-10.9191
▁nonetheless	-10.9191
▁franklin	-10.9198
▁plaintiffs	-10.92
45	-10.92
▁targeted	-10.9201
▁clubhouse	-10.9209
▁reverse	-10.9216
shi	-10.9216
▁harry	-10.9217
vo	-10.9223
▁hang	-10.9226
▁thousand	-10.9227
▁planet	-10.9233
▁financed	-10.9243
▁fi	-10.9246
▁documentary	-10.9249
▁tension	-10.9249
ot	-10.9255
▁aggressively	-10.9256
med	-10.9261
▁depression	-10.9264
▁max	-10.9264
▁tiger	-10.9266
▁operates	-10.9269
▁tomorrow	-10.9269
▁humanitarian	-10.9271
▁bra	-10.9272
▁contained	-10.9272
▁crossed	-10.9283
gg	-10.929
▁prefer	-10.9296
▁advised	-10.9297
▁chaos	-10.93
▁embraced	-10.9301
▁reasonable	-10.9305
▁motors	-10.9305
▁vladimir	-10.9308
▁gar	-10.9309
half	-10.9311
presse	-10.9312
▁visa	-10.9313
▁57	-10.9313
▁singer	-10.9314
▁raw	-10.9315
▁globe	-10.9315
▁philip	-10.9318
▁53	-10.9323
▁ships	-10.9323
▁3,	-10.9325
ph	-10.9325
▁demonstrations	-10.9329
▁derek	-10.9335
▁defined	-10.934
▁sits	-10.9342
▁costly	-10.9342
▁peaceful	-10.9345
▁comfort	-10.9347
▁pocket	-10.9348
▁communication	-10.935
▁coughlin	-10.935
▁finger	-10.9352
▁honest	-10.9353
▁nervous	-10.9354
▁rushing	-10.9356
ken	-10.9361
ray	-10.9361
▁sprint	-10.9363
15	-10.9365
▁somehow	-10.9367
▁earning	-10.9376
▁masters	-10.9376
▁thunder	-10.9379
▁files	-10.9381
▁spotlight	-10.9381
▁transactions	-10.9383
▁puts	-10.9384
▁properly	-10.9388
▁juan	-10.9389
▁ta	-10.939
size	-10.9393
▁recruiting	-10.9403
▁bound	-10.9405
▁designated	-10.9406
▁celebrity	-10.9406
pp	-10.9407
▁projected	-10.941
▁illness	-10.9412
▁legitimate	-10.9414
▁clay	-10.9416
▁attempted	-10.9418
▁tunnel	-10.9423
▁brad	-10.9428
▁boost	-10.9429
▁rolling	-10.9432
▁benjamin	-10.9433
▁sweep	-10.9433
▁editorial	-10.9434
▁output	-10.9436
▁acted	-10.9436
tion	-10.9437
▁bold	-10.9444
▁wedding	-10.9445
work	-10.9449
▁mandate	-10.945
▁barclays	-10.9452
▁publishers	-10.9453
▁bur	-10.9455
member	-10.9455
▁transaction	-10.9456
▁shirt	-10.9464
▁obligation	-10.9464
▁fighter	-10.9469
60	-10.947
▁arsenal	-10.9474
▁hidden	-10.9474
▁cheese	-10.948
▁explaining	-10.9481
▁diet	-10.9493
▁finances	-10.9493
tech	-10.9495
▁hook	-10.9505
ible	-10.9506
scale	-10.9508
▁provincial	-10.9511
▁attractive	-10.9513
▁length	-10.9514
▁jurors	-10.9522
▁crossing	-10.9524
▁reflects	-10.9527
sha	-10.9528
▁openly	-10.9531
▁67	-10.9533
▁channels	-10.9539
▁pilots	-10.9541
▁tear	-10.9541
▁parker	-10.9542
▁rolled	-10.9542
▁experiment	-10.9546
▁conn	-10.9547
▁celtics	-10.955
▁kenya	-10.9552
▁swept	-10.9552
▁climbed	-10.9555
ano	-10.9557
▁52	-10.956
book	-10.9561
▁attitude	-10.9562
▁ignored	-10.9566
▁knocked	-10.9566
▁closest	-10.9567
good	-10.9568
▁salaries	-10.957
▁ceiling	-10.9571
▁recording	-10.9572
▁tu	-10.9579
van	-10.9581
▁transport	-10.9588
▁overnight	-10.959
▁efficient	-10.9593
▁bet	-10.9595
▁warriors	-10.9596
▁bolster	-10.9598
▁successfully	-10.9602
▁62	-10.9607
▁gather	-10.9607
▁dow	-10.9609
▁tears	-10.9612
▁drone	-10.9613
▁moral	-10.9613
▁4,	-10.9616
▁underground	-10.9616
▁drafted	-10.9617
▁climb	-10.9617
▁foods	-10.9619
▁opposing	-10.962
▁stops	-10.962
▁requirement	-10.9622
▁pirates	-10.9623
▁imports	-10.9624
▁praise	-10.9625
ette	-10.9629
▁legally	-10.963
▁outlets	-10.9631
▁exception	-10.9633
▁cream	-10.9639
▁netherlands	-10.9645
▁baker	-10.9646
▁stem	-10.9646
▁thailand	-10.9646
▁sophisticated	-10.9647
▁defendant	-10.9648
▁lobby	-10.9649
▁permit	-10.965
▁classified	-10.965
market	-10.9654
▁hanging	-10.9656
card	-10.9659
▁brandon	-10.9659
▁ne	-10.9659
▁spin	-10.9662
▁boxes	-10.9664
▁fa	-10.9665
▁predecessor	-10.9665
elect	-10.9668
▁lawrence	-10.9669
▁malaysia	-10.967
founder	-10.967
▁rod	-10.968
des	-10.9683
▁considerable	-10.9684
▁mad	-10.9686
▁shouldn	-10.9688
▁brotherhood	-10.9689
▁trans	-10.9691
▁commit	-10.9691
▁jam	-10.9692
war	-10.9694
ial	-10.9694
ren	-10.9695
▁rotation	-10.9699
▁mi	-10.9701
▁oppose	-10.9701
▁letting	-10.9705
▁cardinal	-10.9705
▁hub	-10.971
▁sp	-10.9713
▁shootings	-10.9714
▁tourism	-10.9714
▁similarly	-10.9714
ice	-10.9714
30	-10.9715
▁18-	-10.9716
▁tons	-10.9718
▁southwest	-10.9718
▁span	-10.9722
▁plaza	-10.9725
▁alexander	-10.9725
hu	-10.9726
▁reed	-10.9732
▁desk	-10.9734
▁2000,	-10.9736
▁encounter	-10.9737
▁column	-10.9738
▁deemed	-10.9739
▁terminal	-10.974
▁profitable	-10.974
▁troubles	-10.974
▁halftime	-10.974
▁hearings	-10.9741
▁hernandez	-10.9743
▁strategist	-10.9751
▁submitted	-10.9751
rie	-10.9758
sch	-10.9759
▁painful	-10.9759
▁signals	-10.9759
▁semifinals	-10.9761
▁31,	-10.9762
▁painting	-10.9763
▁register	-10.9763
▁avoided	-10.9764
▁buses	-10.9765
than	-10.9768
▁steep	-10.9768
▁households	-10.9768
▁elbow	-10.9769
▁claiming	-10.9772
▁strange	-10.9773
▁hero	-10.9777
▁mainstream	-10.9782
▁assume	-10.9783
▁lesson	-10.9784
▁emails	-10.9787
▁matthew	-10.979
▁tar	-10.979
▁comparison	-10.9796
▁acquire	-10.9797
▁lies	-10.9798
99	-10.9803
▁litigation	-10.9803
▁drought	-10.9805
▁cafe	-10.9809
▁mitt	-10.9811
▁3,000	-10.9817
▁select	-10.982
▁generations	-10.9823
▁brook	-10.9823
▁dialogue	-10.9832
▁yield	-10.9834
▁ham	-10.9839
▁involve	-10.984
▁68	-10.9842
▁impression	-10.9842
▁southeast	-10.9844
▁annually	-10.9845
▁awards	-10.9845
▁fu	-10.9848
▁credibility	-10.9854
▁arriving	-10.9854
▁mondays	-10.9856
▁fruit	-10.9858
▁alert	-10.9862
▁flu	-10.9864
▁shadow	-10.9869
where	-10.987
▁drives	-10.9871
▁1999	-10.9872
▁tougher	-10.9873
▁dropping	-10.9873
▁posed	-10.9877
▁inc	-10.9881
▁lined	-10.9882
▁novel	-10.9883
▁castro	-10.9883
▁pulling	-10.9884
-3	-10.9884
▁topic	-10.9886
▁sean	-10.9888
▁1998	-10.9895
▁hughes	-10.9895
▁buck	-10.9897
▁dad	-10.9897
▁nassau	-10.9899
▁sarkozy	-10.9899
▁chest	-10.9907
▁incentives	-10.9922
▁petition	-10.9922
▁function	-10.9922
▁joy	-10.9926
▁attributed	-10.9929
▁grandchildren	-10.9931
▁reagan	-10.9932
▁beneath	-10.9933
▁demonstrators	-10.994
▁wars	-10.9943
▁73	-10.9945
▁des	-10.9946
gar	-10.9951
▁amateur	-10.9954
▁volunteer	-10.9955
cap	-10.9956
▁qualified	-10.9956
▁64	-10.9957
▁advisory	-10.9958
night	-10.9959
▁adopt	-10.996
▁eliminated	-10.9965
▁ranking	-10.9965
▁pursuing	-10.997
room	-10.9978
▁spurs	-10.9978
▁context	-10.9978
▁reveal	-10.9983
▁chen	-10.9984
▁personality	-10.9985
▁cal	-10.9991
▁borough	-10.9994
▁28,	-10.9996
▁slowed	-10.9997
▁barrel	-10.9997
▁lucrative	-11.0001
▁journalism	-11.0002
ola	-11.0009
▁fleet	-11.0013
ator	-11.0019
▁throws	-11.0019
▁swimming	-11.002
▁tribune	-11.002
len	-11.0021
ities	-11.0025
▁barry	-11.0026
▁reyes	-11.003
▁fierce	-11.0031
▁tells	-11.0033
▁tobacco	-11.0036
▁gym	-11.0036
▁philippines	-11.0045
▁picking	-11.0048
has	-11.0051
ini	-11.0053
ev	-11.0053
▁2005.	-11.006
▁puck	-11.0064
controlled	-11.0065
▁resume	-11.0069
▁responding	-11.007
du	-11.0078
any	-11.008
▁pastor	-11.0081
▁authors	-11.0082
▁deutsche	-11.0082
▁$200	-11.0084
▁hezbollah	-11.0086
▁hitter	-11.0087
▁loud	-11.0091
▁2015,	-11.0091
▁jimmy	-11.0092
80	-11.0094
▁dar	-11.0094
▁memo	-11.0098
▁ru	-11.0104
▁strict	-11.0106
▁marketplace	-11.0107
▁singles	-11.0109
iya	-11.0115
ris	-11.0116
hr	-11.0117
▁magazines	-11.0122
▁electoral	-11.0123
▁terrible	-11.0126
▁maine	-11.0126
▁shifted	-11.0134
▁residence	-11.0138
▁hung	-11.0138
▁cheaper	-11.0139
▁crude	-11.0143
▁lying	-11.0144
▁borrowers	-11.0146
▁predict	-11.0148
▁steelers	-11.0151
▁soil	-11.0151
▁$500	-11.0151
▁pac	-11.0157
▁angels	-11.016
▁desperate	-11.016
▁calendar	-11.0163
▁volkswagen	-11.0163
▁pose	-11.0164
▁pin	-11.0166
▁involves	-11.0166
▁patent	-11.0167
▁campbell	-11.0167
▁humans	-11.0167
▁uprising	-11.0168
▁method	-11.0168
▁offshore	-11.0171
▁bitter	-11.0171
▁dubai	-11.0178
▁duties	-11.0178
▁complain	-11.0179
▁doping	-11.018
▁difficulty	-11.0182
ari	-11.0183
▁nowhere	-11.0187
▁maria	-11.0193
water	-11.0194
▁fastball	-11.0201
▁brick	-11.0202
▁beef	-11.0207
▁2-1	-11.0208
nes	-11.0209
▁whistle	-11.0209
▁rodham	-11.0212
▁kan	-11.0218
▁businessman	-11.0226
▁58	-11.0226
▁todd	-11.0228
▁shipping	-11.0231
▁holder	-11.0235
rin	-11.0236
▁flash	-11.0239
▁lincoln	-11.0241
▁frame	-11.0242
▁airstrikes	-11.0248
▁attendance	-11.0252
▁glad	-11.0252
▁packers	-11.0252
▁rebound	-11.0254
▁oversees	-11.0257
▁merrill	-11.0272
▁notably	-11.0274
ries	-11.0277
▁colleges	-11.0278
▁airports	-11.028
▁theft	-11.0285
▁laden	-11.0286
▁sar	-11.0292
ile	-11.0298
▁covers	-11.0299
▁recommendations	-11.0299
▁ultimate	-11.0299
▁elaborate	-11.03
▁enemy	-11.03
▁creditors	-11.03
▁turner	-11.0303
▁rico	-11.031
▁routinely	-11.031
▁mountains	-11.0314
▁chocolate	-11.0315
edu	-11.0317
▁accusing	-11.0319
▁object	-11.0323
▁wound	-11.0326
today	-11.0326
▁pink	-11.0328
tor	-11.0333
▁outstanding	-11.0334
▁situations	-11.034
▁prayer	-11.0342
▁emerge	-11.0342
▁improvements	-11.0344
dollar	-11.0348
▁execution	-11.035
▁integrity	-11.0353
▁forever	-11.0353
▁tank	-11.0355
▁girlfriend	-11.0373
▁95	-11.0378
▁indianapolis	-11.0381
▁achieved	-11.0392
▁commercials	-11.0393
▁publication	-11.0398
rick	-11.0403
▁montreal	-11.0404
▁listening	-11.0405
▁characters	-11.0407
▁wildlife	-11.0407
▁briefing	-11.0409
▁ronald	-11.0409
▁outdoor	-11.041
▁attacking	-11.0411
▁warrant	-11.0419
▁dating	-11.0419
▁spitzer	-11.042
▁intel	-11.0422
▁conflicts	-11.0424
▁offset	-11.0426
▁initiatives	-11.0427
del	-11.0427
▁totally	-11.043
▁benchmark	-11.0432
▁revenues	-11.0433
▁26,	-11.0436
▁comprehensive	-11.0437
af	-11.0438
▁contend	-11.0439
▁followers	-11.044
▁indicate	-11.0445
▁nigeria	-11.0446
win	-11.0449
▁solutions	-11.045
▁temporarily	-11.0451
▁intention	-11.0453
▁suburban	-11.0455
▁retain	-11.0456
▁dig	-11.0457
▁participation	-11.0458
▁crashed	-11.0459
▁tonight	-11.046
▁robust	-11.046
▁slipped	-11.046
▁trick	-11.0461
▁opener	-11.0463
▁anxiety	-11.0465
▁reminder	-11.0469
▁shareholder	-11.0471
▁exchanges	-11.0472
▁permits	-11.0472
▁27,	-11.0475
▁suffer	-11.0475
▁priorities	-11.0475
▁mills	-11.0477
▁andy	-11.0482
▁portugal	-11.0484
▁chat	-11.0485
▁farms	-11.0491
ming	-11.0493
gu	-11.0496
▁candidacy	-11.0497
▁antitrust	-11.0497
,500	-11.0499
▁boehner	-11.0499
▁wrongdoing	-11.0508
▁austerity	-11.0508
▁transferred	-11.0508
▁mubarak	-11.051
▁muscle	-11.0511
▁twins	-11.0515
▁element	-11.0516
▁asylum	-11.0516
▁notre	-11.0518
▁prompting	-11.0519
▁innocent	-11.0521
▁strengthen	-11.0523
▁yard	-11.0526
▁grants	-11.0527
▁scenes	-11.0527
▁resign	-11.0529
▁bulk	-11.0532
▁villages	-11.0534
▁foreigners	-11.0537
▁massive	-11.0538
▁consistently	-11.0547
▁willingness	-11.055
▁louisville	-11.055
▁loaded	-11.0551
speed	-11.0553
▁citizenship	-11.0554
▁nursing	-11.0558
▁59	-11.0559
▁wider	-11.0564
▁walsh	-11.0571
▁regarded	-11.0574
▁repeat	-11.0574
get	-11.0578
▁addressing	-11.0579
▁dawn	-11.0579
▁fastest	-11.058
▁gra	-11.058
▁fines	-11.0581
▁ferry	-11.0588
▁renewable	-11.0593
ica	-11.0596
hy	-11.0598
▁click	-11.06
▁30,	-11.0602
light	-11.0603
ud	-11.0604
▁heritage	-11.0606
▁continent	-11.0608
▁lasted	-11.061
▁dust	-11.0611
▁skill	-11.0611
▁boards	-11.0612
▁screening	-11.0614
▁slip	-11.0614
▁diverse	-11.0618
▁waves	-11.062
▁cho	-11.0624
▁cellphones	-11.0629
▁deny	-11.0631
▁commanders	-11.0636
▁micro	-11.0641
▁evans	-11.0641
stone	-11.0641
pi	-11.0642
▁5,000	-11.0644
▁holy	-11.0646
pre	-11.0646
meter	-11.0649
▁beauty	-11.0652
largest	-11.0653
▁motivated	-11.0656
▁delhi	-11.0659
▁negotiated	-11.0659
▁principles	-11.0661
▁delta	-11.0668
▁landmark	-11.0671
▁charlotte	-11.0671
▁relevant	-11.0674
▁smoking	-11.0674
▁nurse	-11.0675
▁diversity	-11.0676
▁billionaire	-11.0677
▁$11	-11.0678
▁grave	-11.068
▁delegates	-11.0681
▁doubts	-11.0683
▁endorsed	-11.0692
▁sponsored	-11.0693
▁29,	-11.0697
▁delicate	-11.07
▁conservation	-11.07
▁secured	-11.0701
take	-11.0701
▁terror	-11.0703
▁burning	-11.0703
▁uber	-11.0703
▁charlie	-11.0705
▁churches	-11.0709
▁watson	-11.0711
▁depend	-11.0714
wan	-11.0715
▁mound	-11.072
▁23,	-11.0721
▁reliable	-11.0729
▁grim	-11.073
▁measured	-11.0732
▁procedure	-11.0732
▁practical	-11.0739
11	-11.0744
▁sullivan	-11.0745
▁royals	-11.0748
▁uncle	-11.075
▁professionals	-11.0757
▁ahmed	-11.0758
▁assist	-11.0759
▁er	-11.076
▁panic	-11.0762
hl	-11.0765
cost	-11.0767
▁pack	-11.0768
ach	-11.0769
only	-11.0774
▁bernard	-11.0777
▁kremlin	-11.078
▁battles	-11.078
▁rallied	-11.0786
▁jacob	-11.0787
yes	-11.079
▁northwest	-11.0792
▁counties	-11.0799
▁compound	-11.0799
▁demonstrated	-11.0801
ens	-11.0801
▁suits	-11.0808
▁atop	-11.0809
▁pit	-11.0809
▁16-	-11.0815
▁differently	-11.0817
▁ny	-11.0817
▁hometown	-11.0818
▁traditionally	-11.0821
▁escaped	-11.0821
▁bipartisan	-11.0822
hander	-11.0822
▁arkansas	-11.0824
▁observers	-11.0825
▁disputes	-11.0825
▁citi	-11.0826
▁suspicion	-11.0828
▁database	-11.083
▁concussion	-11.0831
▁bread	-11.0835
▁dirt	-11.0837
▁braves	-11.0839
ky	-11.084
▁82	-11.0842
▁governors	-11.0843
ence	-11.0843
▁speeches	-11.085
▁diplomat	-11.0851
▁smartphones	-11.0851
▁progressive	-11.0851
▁pursuit	-11.0851
▁shifting	-11.0854
court	-11.0856
▁74	-11.0856
▁100,000	-11.0857
▁torture	-11.0863
▁butler	-11.0864
▁saving	-11.0866
▁smooth	-11.0866
▁roy	-11.0867
▁tracking	-11.0877
▁bubble	-11.0879
▁elderly	-11.0881
▁disappointment	-11.0883
ium	-11.0883
▁talented	-11.0884
bu	-11.0886
▁sue	-11.0891
▁succeeded	-11.0894
while	-11.0894
▁efficiency	-11.0897
▁wings	-11.0897
▁saves	-11.0899
▁clashes	-11.0904
fe	-11.0905
▁bombings	-11.0906
ich	-11.0913
▁drag	-11.0913
▁employed	-11.0917
▁resulting	-11.0917
▁sh	-11.0918
▁divorce	-11.0921
▁provisions	-11.0924
▁disappointing	-11.0927
▁burst	-11.093
pin	-11.0933
▁basement	-11.0936
▁adams	-11.0938
▁rid	-11.0938
▁organic	-11.0942
▁tan	-11.0944
▁murdoch	-11.0946
▁designer	-11.0947
▁perception	-11.0947
▁plain	-11.0948
▁principle	-11.0952
▁licenses	-11.0953
▁$40	-11.0954
▁streaming	-11.0958
▁22,	-11.096
▁71	-11.096
▁broker	-11.0961
▁appreciate	-11.0964
▁temperatures	-11.0968
▁undermine	-11.0969
▁dramatic	-11.0975
▁posting	-11.0977
▁ram	-11.0978
▁bottle	-11.0978
▁abdul	-11.098
▁equally	-11.0983
tin	-11.0983
▁shocked	-11.0985
▁sponsor	-11.0987
▁ro	-11.0987
▁bone	-11.0988
▁2004.	-11.0992
▁31.	-11.0993
▁charging	-11.0994
▁doug	-11.0998
tle	-11.1
▁ideal	-11.1002
▁deciding	-11.1002
▁researcher	-11.1003
▁contentious	-11.1012
▁orioles	-11.1014
▁fare	-11.1016
▁chairwoman	-11.1019
▁wire	-11.102
▁alleged	-11.102
▁arrangement	-11.1021
▁pi	-11.1021
▁discount	-11.1022
▁sauce	-11.1022
ven	-11.1024
▁qatar	-11.1025
▁transparency	-11.1025
33	-11.1026
▁foreclosure	-11.1028
▁ipad	-11.1029
▁24,	-11.103
▁displayed	-11.1032
▁risky	-11.1034
▁painted	-11.1035
▁sum	-11.1035
▁ear	-11.1036
▁:	-11.1039
school	-11.1042
▁matchup	-11.1049
▁ann	-11.1049
▁brutal	-11.1049
▁testify	-11.1055
▁audio	-11.1056
▁solo	-11.106
▁rig	-11.1062
▁sponsors	-11.1067
▁hopeful	-11.1069
▁stark	-11.107
▁confrontation	-11.1073
▁sentences	-11.1073
▁emphasis	-11.1073
▁occur	-11.1074
▁starters	-11.1076
inch	-11.108
▁height	-11.1086
▁feelings	-11.1089
▁tee	-11.1091
▁trash	-11.1093
▁expecting	-11.1098
▁unfair	-11.1101
▁anticipated	-11.1103
▁99	-11.1103
▁retailer	-11.1105
70	-11.1106
die	-11.1106
37	-11.1106
▁longstanding	-11.1112
▁athens	-11.1112
▁copies	-11.1112
▁600	-11.1113
▁outbreak	-11.1113
▁speaks	-11.1114
▁loyal	-11.1118
▁25,	-11.1119
▁wooden	-11.1121
▁substance	-11.1121
▁rank	-11.1122
▁craig	-11.1124
▁automakers	-11.1125
▁wondered	-11.1133
▁intellectual	-11.1138
▁surely	-11.1143
▁samples	-11.1146
▁employer	-11.1147
▁label	-11.1147
▁anchor	-11.1148
▁nose	-11.1152
▁suburb	-11.1152
▁polling	-11.1158
▁shoppers	-11.1158
▁kicked	-11.1159
▁deployed	-11.116
▁destruction	-11.1161
▁invasion	-11.1161
▁mason	-11.1162
▁therefore	-11.1163
▁kar	-11.1164
▁twin	-11.1165
▁philosophy	-11.1165
▁61	-11.1167
▁11,	-11.1169
▁6,	-11.1176
▁guest	-11.1178
▁goalie	-11.1178
king	-11.1179
▁78	-11.118
▁collecting	-11.1183
▁perceived	-11.1186
▁divide	-11.1186
▁harassment	-11.1188
▁midnight	-11.1189
ending	-11.1189
▁boats	-11.1191
▁depth	-11.1198
▁pickup	-11.12
▁faculty	-11.12
▁difficulties	-11.1204
▁tremendous	-11.1205
▁resolved	-11.1205
▁enterprise	-11.1208
▁withdraw	-11.1211
▁investigated	-11.1212
▁breakfast	-11.1214
▁launch	-11.1218
▁traders	-11.1221
▁lap	-11.1226
▁brooks	-11.1229
▁twist	-11.1229
▁dealers	-11.123
▁ignore	-11.1231
▁exact	-11.1233
▁roles	-11.1235
▁raymond	-11.1237
▁milan	-11.1238
▁touched	-11.1239
▁yo	-11.1242
▁luis	-11.125
▁pledge	-11.1253
▁77	-11.1255
▁grip	-11.1256
▁colleague	-11.1262
▁versions	-11.1267
▁guaranteed	-11.1268
white	-11.1269
▁erdogan	-11.1272
▁enthusiasm	-11.1274
▁medals	-11.1275
▁bonus	-11.1278
▁bri	-11.1286
▁introduction	-11.1286
▁czech	-11.1288
▁bunch	-11.1289
▁gaining	-11.1289
▁rivers	-11.129
▁cole	-11.129
▁russians	-11.129
yn	-11.1293
▁maintenance	-11.1293
▁towers	-11.1295
▁opera	-11.1296
▁preseason	-11.1297
▁affair	-11.1298
▁consideration	-11.1304
▁colts	-11.1305
▁aboard	-11.1307
▁replacing	-11.131
▁walks	-11.131
▁mas	-11.131
▁sabathia	-11.1317
▁teenage	-11.1317
▁cavaliers	-11.1318
▁adjusted	-11.132
▁21,	-11.1322
▁wonderful	-11.1326
▁misconduct	-11.1326
▁assumed	-11.1329
tan	-11.1329
▁counted	-11.1334
▁relied	-11.1334
▁silent	-11.1335
▁tide	-11.1341
▁abdullah	-11.1343
▁contractor	-11.1345
ita	-11.1354
americans	-11.1358
▁che	-11.1359
▁strategies	-11.1361
75	-11.1365
▁63	-11.1367
▁thinks	-11.1367
▁appearing	-11.1369
ite	-11.1369
▁ace	-11.137
35	-11.1371
part	-11.1372
ston	-11.1374
▁defenders	-11.1378
▁hal	-11.1379
▁quarterly	-11.138
▁bonuses	-11.138
▁averaged	-11.1382
▁dell	-11.1383
▁bobby	-11.1384
▁69	-11.1387
▁coached	-11.1387
zer	-11.139
▁civic	-11.1394
▁expression	-11.1396
▁sin	-11.1397
▁martinez	-11.1398
▁evolution	-11.1399
▁aspects	-11.1403
▁mario	-11.1407
▁definition	-11.1408
▁temperature	-11.1409
▁palin	-11.1414
▁studios	-11.1417
▁routes	-11.1419
▁eve	-11.142
▁delegation	-11.1423
▁grace	-11.1424
pound	-11.1425
everyone	-11.1426
▁errors	-11.1433
▁2-0	-11.1437
▁spy	-11.1438
▁distributed	-11.144
▁sisters	-11.1446
▁tribute	-11.1449
ology	-11.1451
▁unity	-11.1451
▁chips	-11.1453
▁frozen	-11.1455
▁wednesdays	-11.1455
▁supports	-11.1456
▁coastal	-11.1461
▁minds	-11.1463
▁panthers	-11.1464
▁burn	-11.1465
▁queen	-11.1466
ble	-11.1466
▁chávez	-11.1468
▁episodes	-11.1469
▁24-	-11.147
▁missiles	-11.1471
▁counting	-11.1473
▁ubs	-11.1474
▁grandfather	-11.1476
▁gunman	-11.1476
▁conceded	-11.148
▁explosive	-11.1491
antoni	-11.1494
shot	-11.1495
▁ty	-11.1501
▁strain	-11.1503
▁maps	-11.1507
▁cab	-11.1507
iz	-11.1509
▁ze	-11.1513
ward	-11.1518
second	-11.1523
key	-11.1527
maybe	-11.1527
▁lists	-11.1528
▁reception	-11.1529
▁lately	-11.153
▁follows	-11.1532
▁cautious	-11.154
▁bro	-11.1543
ello	-11.1544
▁lundqvist	-11.1544
▁stroke	-11.1545
▁bernanke	-11.1554
▁winds	-11.1558
▁nancy	-11.1561
museum	-11.1563
▁existence	-11.1566
▁versus	-11.1571
▁devastating	-11.1571
▁accepting	-11.1572
range	-11.1576
▁griffin	-11.1576
▁$18	-11.1578
cal	-11.1578
▁tournaments	-11.1582
▁garcia	-11.1583
▁gifts	-11.1585
▁stated	-11.1588
▁permitted	-11.1591
▁leverage	-11.1592
▁occupied	-11.1593
▁mohammed	-11.1597
▁describes	-11.1598
▁libyan	-11.16
▁experiences	-11.1603
▁critic	-11.1604
▁tag	-11.1607
ise	-11.1612
▁guidance	-11.1612
▁supporter	-11.1618
▁	-11.1619
▁josé	-11.1619
▁elementary	-11.162
▁lengthy	-11.1623
elli	-11.163
▁highlighted	-11.1632
tri	-11.1634
12	-11.1638
▁examined	-11.164
▁picks	-11.1648
▁greenwich	-11.1651
▁morsi	-11.1653
▁census	-11.1658
illa	-11.1658
▁alarm	-11.1661
▁joke	-11.1666
▁vocal	-11.1668
▁grabbed	-11.1668
▁outrage	-11.1669
▁somalia	-11.1669
▁slowdown	-11.167
▁youngest	-11.167
▁converted	-11.1673
▁eggs	-11.1673
▁actor	-11.1676
fully	-11.1684
▁hussein	-11.1685
▁haiti	-11.1686
bra	-11.1687
▁reviewed	-11.169
▁weakness	-11.169
▁slowing	-11.1693
▁screens	-11.1697
▁ash	-11.1698
▁freddie	-11.17
▁barrels	-11.17
▁saints	-11.1702
gy	-11.1704
▁exciting	-11.1704
ical	-11.1704
▁bargaining	-11.1708
▁sheet	-11.1709
hit	-11.1711
▁grab	-11.1711
▁recalls	-11.1715
az	-11.1716
▁boxing	-11.1719
▁optimism	-11.1721
▁warnings	-11.1722
ng	-11.1726
bed	-11.1733
wi	-11.1736
▁lt	-11.1737
▁revised	-11.1738
▁vermont	-11.1739
sson	-11.1742
▁electrical	-11.1743
▁shouted	-11.1746
▁unusually	-11.1746
▁conducting	-11.1749
▁attached	-11.1749
ash	-11.1749
▁torn	-11.1752
▁administrator	-11.1755
▁meal	-11.1756
▁incentive	-11.1757
▁bottles	-11.1761
▁suburbs	-11.1767
▁signaled	-11.1772
ably	-11.1779
action	-11.1779
▁pregnant	-11.178
▁casualties	-11.1788
bat	-11.1788
▁launched	-11.1789
▁kyle	-11.1791
▁harrison	-11.1793
zo	-11.1795
▁800	-11.1795
▁lions	-11.1796
▁columbus	-11.1797
▁engines	-11.18
▁narrative	-11.18
▁constantly	-11.1802
tel	-11.1804
▁sarah	-11.1805
▁86	-11.1806
▁leak	-11.1809
▁wrist	-11.1811
▁presentation	-11.1817
▁invitation	-11.1818
▁2015.	-11.1818
▁contacted	-11.1819
▁blocking	-11.1819
▁colombia	-11.1823
▁phillips	-11.1824
▁reviews	-11.1824
▁sideline	-11.1827
▁regard	-11.1828
▁gonzalez	-11.1832
▁explosives	-11.1833
▁trends	-11.1836
▁telecommunicati	-11.1836
▁dennis	-11.1837
▁lease	-11.1838
▁depends	-11.1845
▁delivering	-11.1847
▁debris	-11.1849
▁250	-11.185
▁prevented	-11.1855
▁headline	-11.1858
stock	-11.1861
▁klein	-11.1863
then	-11.1871
▁•	-11.1872
▁indicted	-11.1876
▁whenever	-11.1876
▁omar	-11.1876
▁unrest	-11.1877
”)	-11.1878
▁phelps	-11.1879
▁shook	-11.1882
ious	-11.1884
▁dates	-11.1885
▁techniques	-11.1887
▁donated	-11.189
▁prefecture	-11.1891
▁confusion	-11.1894
▁penguins	-11.1898
▁hollande	-11.1898
degree	-11.1899
▁audit	-11.1902
▁lone	-11.1908
▁defenseman	-11.1909
ria	-11.1914
▁caution	-11.1915
those	-11.1916
▁shed	-11.1918
eh	-11.1918
▁craft	-11.192
▁greenhouse	-11.1922
▁samuel	-11.1923
▁17-	-11.1924
▁cousin	-11.1926
▁hawaii	-11.193
▁$13	-11.1932
look	-11.1933
agence	-11.1934
had	-11.1938
▁priest	-11.1939
tter	-11.1939
▁overseeing	-11.194
▁ambitions	-11.1943
pping	-11.1944
▁shortstop	-11.1945
cy	-11.1945
▁isolated	-11.1946
hand	-11.1947
▁pizza	-11.1949
▁barbara	-11.1951
▁figured	-11.1956
▁generous	-11.1957
ged	-11.1957
▁assess	-11.1959
▁entrepreneurs	-11.1959
▁awareness	-11.1961
ative	-11.1968
66	-11.1974
▁fielder	-11.1977
▁nights	-11.1978
▁detectives	-11.1981
▁alter	-11.1988
▁bullet	-11.1989
▁aftermath	-11.1991
▁thank	-11.1994
▁mystery	-11.1994
▁examine	-11.1998
▁comptroller	-11.1999
▁erupted	-11.2001
▁phrase	-11.2003
▁demonstrate	-11.2005
▁justices	-11.2005
▁120	-11.2007
▁organize	-11.2009
▁bbc	-11.2011
▁qualifying	-11.2012
▁historically	-11.2013
▁subsequent	-11.2014
▁jeremy	-11.2019
▁portland	-11.2019
▁stages	-11.202
▁pound	-11.2021
two	-11.2028
▁surprisingly	-11.2033
▁lock	-11.2035
▁pricing	-11.2042
▁adjust	-11.2044
▁lend	-11.2045
cur	-11.2045
▁reminded	-11.2049
▁betting	-11.205
▁manufacturer	-11.2055
▁rumors	-11.2059
▁confront	-11.2061
▁pierce	-11.2062
▁hosted	-11.2065
square	-11.2065
▁appealing	-11.207
iest	-11.2071
▁1996	-11.2072
▁lifetime	-11.2074
▁geneva	-11.2076
▁scope	-11.2077
once	-11.2078
▁arranged	-11.2081
▁rugby	-11.2082
▁wayne	-11.2085
▁dakota	-11.2087
▁folks	-11.2088
party	-11.2088
▁den	-11.2089
▁accurate	-11.2093
▁compliance	-11.2095
▁santana	-11.2096
▁wary	-11.2097
▁violating	-11.2097
home	-11.21
dale	-11.2101
▁ratio	-11.2104
▁organizing	-11.2105
rated	-11.211
▁val	-11.2111
▁hart	-11.2114
▁koch	-11.2114
view	-11.2114
▁highlight	-11.2118
▁preparation	-11.2121
38	-11.2122
▁nissan	-11.2123
▁sentencing	-11.2123
enberg	-11.2124
▁stepping	-11.2125
ura	-11.2127
pointer	-11.213
▁genetic	-11.213
▁judiciary	-11.213
▁dynamic	-11.2132
nt	-11.2138
▁mcilroy	-11.2138
world	-11.2138
▁cry	-11.2143
▁divisions	-11.2146
▁purposes	-11.215
▁mickelson	-11.2151
▁occasional	-11.2152
▁promotion	-11.2158
▁cargo	-11.2159
▁proceed	-11.216
▁mainland	-11.216
pl	-11.216
▁oak	-11.2161
▁ballots	-11.2162
▁eli	-11.2162
▁sorry	-11.2162
▁toxic	-11.2165
▁$14	-11.2166
ay	-11.2167
▁inevitable	-11.2169
▁fe	-11.2169
▁pie	-11.2171
▁funny	-11.2173
▁dining	-11.2173
hard	-11.2173
▁$10.	-11.2175
▁quarters	-11.2176
▁uranium	-11.2176
▁yen	-11.2177
▁sufficient	-11.2177
▁tables	-11.2178
▁expertise	-11.2179
▁grandmother	-11.2182
▁liquid	-11.2183
▁basket	-11.2184
▁overwhelming	-11.2189
▁arthur	-11.219
▁je	-11.2192
▁flip	-11.2195
▁persuaded	-11.2198
▁reportedly	-11.22
▁greeted	-11.2203
▁corrupt	-11.2207
ella	-11.2207
▁lightning	-11.2209
▁courses	-11.221
▁88	-11.2211
▁voices	-11.2215
▁concessions	-11.2216
▁hunting	-11.2217
▁agricultural	-11.222
▁evident	-11.2223
▁explore	-11.2224
▁mentor	-11.2227
▁flags	-11.2229
24	-11.223
▁shifts	-11.2234
ala	-11.2237
▁withdrawal	-11.224
▁sporting	-11.2241
▁respected	-11.2248
01	-11.2249
▁exploded	-11.2251
bert	-11.2253
▁swift	-11.2256
▁semifinal	-11.2256
▁dam	-11.2257
▁mon	-11.226
▁mich	-11.226
▁accountability	-11.2262
▁$300	-11.2263
bound	-11.2266
▁breach	-11.228
▁belgium	-11.2284
▁chef	-11.2285
▁blunt	-11.2287
▁shin	-11.2288
▁memphis	-11.229
▁netflix	-11.2292
▁thai	-11.2293
▁victor	-11.2295
▁kenneth	-11.2295
▁cor	-11.2296
lon	-11.2301
▁pc	-11.2301
▁fannie	-11.2303
▁mohamed	-11.2305
▁bon	-11.2306
▁root	-11.2309
▁dissent	-11.2311
▁nickname	-11.2315
▁strongest	-11.2317
▁12,	-11.2318
▁hell	-11.2319
▁gil	-11.2321
▁84	-11.2322
▁nevertheless	-11.2323
base	-11.2324
▁accomplished	-11.2324
▁maintaining	-11.233
▁metro	-11.233
▁impressed	-11.2331
▁pettitte	-11.2331
▁gradually	-11.2333
▁fueled	-11.2333
gle	-11.2334
▁developments	-11.2334
▁inner	-11.2336
▁majors	-11.2338
tier	-11.2338
▁teixeira	-11.2339
▁rogers	-11.234
▁condemned	-11.2342
▁declare	-11.2343
▁cornerback	-11.2346
▁mcconnell	-11.2349
▁gunmen	-11.235
▁automatic	-11.2352
qui	-11.2353
▁filling	-11.2354
▁mal	-11.2357
▁comply	-11.2358
▁socialist	-11.2358
ara	-11.2359
ag	-11.236
▁stevens	-11.236
growing	-11.2363
▁anonymous	-11.2363
▁benefited	-11.2363
▁assured	-11.2367
oli	-11.2369
▁richardson	-11.2371
▁survival	-11.2373
▁angel	-11.2373
▁batted	-11.2374
▁dealt	-11.2375
▁smell	-11.2375
▁choosing	-11.2375
▁athletics	-11.2379
▁damages	-11.2382
▁rallies	-11.2383
▁convert	-11.2384
see	-11.2385
▁partisan	-11.2388
om	-11.2389
▁81	-11.239
▁hardware	-11.239
▁nobel	-11.2391
▁pact	-11.2392
▁eu	-11.24
▁5,	-11.2401
▁bargain	-11.2402
▁mode	-11.2405
▁2001.	-11.2405
▁mounting	-11.2406
▁admit	-11.2407
hol	-11.2408
▁blew	-11.2409
cut	-11.241
▁argues	-11.2412
▁radar	-11.2412
ering	-11.2418
▁recovering	-11.2419
▁beside	-11.2421
everybody	-11.2425
▁performances	-11.2428
▁lord	-11.2432
bank	-11.2434
▁flowers	-11.2434
▁79	-11.244
▁smiling	-11.2441
ero	-11.2441
▁garage	-11.2441
▁horizon	-11.2443
-8	-11.2443
▁marks	-11.2444
▁14-	-11.2445
▁hi	-11.2447
▁fo	-11.2449
▁rear	-11.2451
din	-11.2458
▁cricket	-11.2459
▁counterterroris	-11.246
▁19,	-11.2464
▁sooner	-11.2465
▁reviewing	-11.2466
▁instant	-11.2468
▁chu	-11.2469
▁freeze	-11.2472
▁1.5	-11.2476
▁broncos	-11.248
▁grocery	-11.2481
▁sprawling	-11.2481
▁shutdown	-11.2488
▁hay	-11.2488
▁5-	-11.2489
many	-11.2489
▁prior	-11.249
▁patterns	-11.2491
▁sidewalk	-11.2491
▁laptop	-11.2496
▁oh	-11.2496
▁lacked	-11.25
▁tale	-11.2506
▁historian	-11.2509
ert	-11.2514
▁destroy	-11.2518
▁competitor	-11.2519
minded	-11.252
▁1-0	-11.2521
▁sole	-11.2522
▁polish	-11.2523
▁militias	-11.2523
▁volatile	-11.2525
▁mini	-11.2526
▁gut	-11.2528
▁vick	-11.2535
▁ph	-11.2537
too	-11.2538
▁stopping	-11.2538
▁unprecedented	-11.2539
▁symptoms	-11.2541
▁$1.5	-11.2541
sometimes	-11.2541
third	-11.2541
▁cape	-11.2542
▁triumph	-11.2543
ered	-11.2545
▁michelle	-11.2547
ability	-11.2553
bin	-11.2556
▁boulevard	-11.2557
▁slight	-11.2557
cent	-11.2559
▁lifting	-11.2559
▁abbas	-11.256
tur	-11.256
▁damascus	-11.2568
▁ger	-11.2568
▁mars	-11.2569
▁bal	-11.257
▁wheel	-11.2574
▁duncan	-11.2576
▁matched	-11.2577
▁steam	-11.2578
▁tre	-11.2581
▁destination	-11.2585
▁excessive	-11.2587
▁sample	-11.259
▁ravens	-11.2591
▁objects	-11.2592
cho	-11.2594
▁dominican	-11.2595
▁folk	-11.2596
▁imp	-11.2596
held	-11.2598
▁architect	-11.2598
winning	-11.2599
▁bearing	-11.2605
▁checked	-11.2606
▁rental	-11.2609
gallery	-11.261
▁mil	-11.261
▁oversee	-11.2612
▁emanuel	-11.2613
▁meyer	-11.2617
▁restructuring	-11.2618
▁credited	-11.2619
▁engagement	-11.262
▁counterparts	-11.262
▁guantánamo	-11.2621
lie	-11.2622
▁austria	-11.2623
▁separately	-11.2625
▁midtown	-11.2628
▁obligations	-11.2632
cker	-11.2632
▁chemicals	-11.2634
▁considers	-11.2635
▁marlins	-11.2637
▁helicopters	-11.264
▁bomber	-11.2647
▁bryan	-11.265
▁demonstration	-11.2652
▁singled	-11.2656
▁cashman	-11.2657
▁veto	-11.2658
▁endorsement	-11.2661
▁precisely	-11.2663
▁cow	-11.2664
▁perez	-11.2669
▁dreams	-11.267
▁pays	-11.2671
▁peninsula	-11.2672
▁medium	-11.2672
▁layoffs	-11.2673
▁1994	-11.2676
burg	-11.2679
▁please	-11.2682
▁tourist	-11.2683
▁inspectors	-11.2685
▁declaration	-11.2685
▁formerly	-11.2687
▁deck	-11.2688
▁suggestion	-11.2695
▁comcast	-11.2696
▁moreover	-11.2699
▁underlying	-11.2703
▁tragedy	-11.271
▁ruth	-11.2711
cu	-11.2714
▁confidential	-11.2715
▁physically	-11.2717
▁garbage	-11.2718
▁apologized	-11.2719
▁grid	-11.2722
68	-11.2723
gin	-11.2723
▁shortage	-11.2724
▁ti	-11.2727
▁serena	-11.273
▁subprime	-11.2731
grade	-11.2731
▁$60	-11.2736
▁occasion	-11.2741
▁nationally	-11.2745
ide	-11.2746
▁wash	-11.2749
▁meaningful	-11.275
▁cooperate	-11.275
▁excellent	-11.275
▁courthouse	-11.2751
▁ebay	-11.2752
▁wu	-11.2754
▁echoed	-11.2755
▁furniture	-11.2756
▁colon	-11.2756
▁contribution	-11.2759
top	-11.2762
▁blacks	-11.2764
▁subscribers	-11.2764
▁cooking	-11.2765
▁enforce	-11.2769
▁participating	-11.2769
▁fairfield	-11.2769
▁tyler	-11.2772
▁buyer	-11.2775
▁seal	-11.2778
▁aims	-11.2779
á	-11.2781
▁hitters	-11.2783
▁awaiting	-11.2783
▁panels	-11.2785
▁tense	-11.2787
▁$100,000	-11.2789
▁lawmaker	-11.2791
▁retreat	-11.2792
▁universe	-11.2794
▁automatically	-11.2794
▁notable	-11.2797
▁cleaning	-11.2798
▁sorts	-11.2799
eau	-11.2804
bro	-11.2805
uk	-11.2805
▁83	-11.2807
▁chad	-11.2809
▁nascar	-11.281
▁revolutionary	-11.2811
▁snap	-11.2813
▁shu	-11.2814
▁steadily	-11.2815
▁christ	-11.2816
▁removing	-11.2822
ku	-11.2825
▁dick	-11.2825
▁poorly	-11.2826
▁confirmation	-11.283
▁cautioned	-11.2833
▁blues	-11.2833
▁artificial	-11.2835
▁contention	-11.2837
▁cam	-11.2844
▁diamond	-11.2846
▁margins	-11.2848
▁ju	-11.2849
ned	-11.2849
▁$16	-11.2851
▁implications	-11.2851
▁mae	-11.2853
▁1999,	-11.2854
▁1997	-11.2854
▁removal	-11.2856
▁customs	-11.2858
▁opinions	-11.286
nie	-11.2861
▁registration	-11.2862
▁wallace	-11.2863
▁opt	-11.2875
▁crop	-11.2877
box	-11.2882
▁glen	-11.2882
▁clinical	-11.2883
▁bor	-11.2885
▁cycling	-11.2887
▁financially	-11.289
ane	-11.2891
▁determination	-11.2892
▁flooding	-11.2893
▁shy	-11.2893
▁offerings	-11.2893
▁dolphins	-11.2895
▁plains	-11.2898
▁therapy	-11.2898
▁billy	-11.2899
▁congregation	-11.29
▁columnist	-11.2901
▁qaddafi	-11.2902
▁install	-11.2903
yo	-11.2907
▁donation	-11.2909
▁barn	-11.2911
▁prevention	-11.2911
▁spiritual	-11.2914
▁import	-11.2918
▁sleeping	-11.2926
▁pole	-11.2928
▁sustainable	-11.2929
▁angela	-11.2934
▁mentally	-11.2937
▁israelis	-11.2939
nan	-11.2939
▁perfectly	-11.294
▁hostile	-11.294
▁jays	-11.2949
05	-11.2953
▁visual	-11.2954
▁walter	-11.2955
▁gal	-11.2958
▁meals	-11.2958
▁archbishop	-11.2958
▁executed	-11.296
▁walmart	-11.2962
▁presumably	-11.2964
▁latino	-11.2964
team	-11.297
▁ridge	-11.2972
▁safer	-11.2973
▁fraction	-11.2975
▁holmes	-11.2975
▁massacre	-11.2975
▁statewide	-11.298
▁7,	-11.2982
▁sterling	-11.2983
▁format	-11.2983
▁munich	-11.2986
ef	-11.2987
▁superintendent	-11.2989
▁reflecting	-11.2989
▁breath	-11.299
▁purchased	-11.2991
mark	-11.2991
ena	-11.2992
▁failures	-11.2994
▁scared	-11.2997
▁mag	-11.3004
▁rankings	-11.3013
▁tanks	-11.3016
90	-11.3016
▁kingdom	-11.3025
▁proportion	-11.3027
▁delaware	-11.3028
▁loyalty	-11.3028
▁advertisements	-11.303
illo	-11.303
▁declines	-11.3034
▁87	-11.3037
▁scholars	-11.3038
▁salad	-11.3043
▁2003.	-11.3045
▁orbit	-11.3048
maker	-11.3048
▁sing	-11.3051
▁valued	-11.3052
▁celebrating	-11.3053
▁headlines	-11.3053
▁ky	-11.3054
▁mounted	-11.3054
▁suspicious	-11.3055
▁dying	-11.3058
▁drinks	-11.3062
▁quest	-11.3064
▁accommodate	-11.3064
▁jennifer	-11.3064
▁spotted	-11.3064
▁rebuild	-11.3064
ub	-11.3067
business	-11.3067
▁pinch	-11.307
▁spreading	-11.307
may	-11.3076
ati	-11.3087
▁founding	-11.3089
▁toys	-11.309
▁reject	-11.3091
▁distant	-11.3092
▁hiding	-11.3096
ju	-11.3097
▁stoudemire	-11.3097
▁consent	-11.3097
▁timothy	-11.31
▁governance	-11.31
▁transformed	-11.3102
▁mothers	-11.3104
▁messi	-11.3105
▁displaced	-11.3107
▁approaches	-11.3109
▁tab	-11.3109
▁debates	-11.311
▁outfielder	-11.3114
▁secondary	-11.3115
▁broadly	-11.3116
▁convince	-11.3117
▁lou	-11.312
▁suppliers	-11.3121
european	-11.3121
▁budgets	-11.3123
▁wolf	-11.3124
▁hint	-11.3125
▁stressed	-11.3125
▁mayoral	-11.3127
▁identification	-11.3128
▁extending	-11.3129
▁actors	-11.3131
▁located	-11.3134
▁creates	-11.3135
ok	-11.3135
▁villa	-11.3135
have	-11.3137
▁attackers	-11.314
▁rafael	-11.3141
▁tips	-11.3144
▁migration	-11.3145
▁trailing	-11.3153
▁crews	-11.3155
face	-11.3156
▁bio	-11.3159
▁strained	-11.3159
▁withdrew	-11.3159
▁fargo	-11.3159
▁accidents	-11.316
▁orthodox	-11.3161
▁compelling	-11.3162
▁dish	-11.3164
▁tuition	-11.3165
▁guardian	-11.3167
▁skepticism	-11.3171
▁televised	-11.3171
▁random	-11.3172
▁em	-11.3174
▁burns	-11.3176
▁shield	-11.3179
▁exclusive	-11.318
▁motivation	-11.3183
▁speakers	-11.3189
▁regulator	-11.3191
▁roosevelt	-11.3193
▁jar	-11.3194
▁humor	-11.3197
▁evolved	-11.32
-12	-11.3201
▁shuttle	-11.3203
▁regret	-11.3203
ova	-11.3204
▁ce	-11.321
▁glimpse	-11.3216
▁appealed	-11.3217
▁brett	-11.3219
▁spur	-11.3221
▁insurgency	-11.3224
▁mer	-11.3228
▁restored	-11.3231
▁johnny	-11.3232
▁chandler	-11.3233
▁2-	-11.3234
▁honda	-11.3236
far	-11.3237
kh	-11.3237
▁superior	-11.3243
▁technique	-11.3249
▁peers	-11.3254
▁egg	-11.3254
▁accounted	-11.3257
▁vancouver	-11.3259
▁statue	-11.3261
▁stein	-11.3262
▁nu	-11.3265
▁naval	-11.3269
▁nixon	-11.327
▁enrollment	-11.3276
▁shoe	-11.3278
▁lean	-11.3285
▁11-	-11.3285
▁slower	-11.3287
ery	-11.3289
▁17,	-11.3289
▁sectarian	-11.3293
language	-11.3294
▁liberties	-11.3296
▁severely	-11.3297
▁gingrich	-11.3299
▁sacrifice	-11.3302
▁rehabilitation	-11.3304
▁bangladesh	-11.3306
▁unemployed	-11.3307
▁borrow	-11.3315
▁fights	-11.3316
▁(6	-11.3316
48	-11.3318
▁centuries	-11.3319
pan	-11.3321
▁shelters	-11.3322
▁rider	-11.3322
cc	-11.3324
▁denounced	-11.3324
▁rivalry	-11.3324
▁bronze	-11.3327
▁slope	-11.333
▁randolph	-11.333
▁movements	-11.3331
▁sri	-11.3338
▁provider	-11.3342
dan	-11.3342
ram	-11.3342
dra	-11.3346
▁aspect	-11.3348
▁breast	-11.335
▁communicate	-11.335
▁literally	-11.3351
▁exhibit	-11.3354
▁settlements	-11.3354
▁secular	-11.3356
▁rhythm	-11.3359
screen	-11.336
▁emirates	-11.336
▁palmer	-11.3361
▁achievement	-11.3364
nick	-11.3364
▁ore	-11.3366
▁warn	-11.3367
▁airbus	-11.3372
▁monitors	-11.3373
▁wrapped	-11.3374
▁submit	-11.3375
▁revive	-11.3377
▁wisdom	-11.3379
▁osaka	-11.3382
would	-11.3383
▁disorder	-11.3383
▁nationals	-11.3385
▁insider	-11.3386
▁footage	-11.3386
▁processing	-11.3387
▁battling	-11.3388
▁threaten	-11.3388
assad	-11.3388
▁lawn	-11.339
▁asks	-11.3391
▁reward	-11.3392
▁ye	-11.3397
▁mate	-11.3399
▁unfortunately	-11.3399
▁alternatives	-11.34
▁automaker	-11.3401
▁oscar	-11.3402
▁institutional	-11.3409
looking	-11.3411
▁broadcasting	-11.3412
▁stalled	-11.3412
tv	-11.3415
▁reactor	-11.3417
▁lisa	-11.3417
▁aids	-11.3418
▁hybrid	-11.3423
▁clinics	-11.3425
▁(914)	-11.3425
▁militia	-11.3427
▁vincent	-11.3431
▁abuses	-11.3431
▁kidd	-11.3434
▁categories	-11.3434
▁berth	-11.3435
08	-11.3435
▁nebraska	-11.344
▁1988	-11.3441
▁pharmaceutical	-11.3443
▁imposing	-11.3446
▁highlights	-11.3448
acre	-11.345
▁uncomfortable	-11.3451
▁bruins	-11.3452
▁mud	-11.3453
▁zu	-11.3456
▁fragile	-11.3457
▁limiting	-11.346
which	-11.3461
▁gamble	-11.3461
▁subjects	-11.3465
ira	-11.3465
▁precedent	-11.3466
▁cliff	-11.3467
▁knock	-11.3467
▁participated	-11.3469
▁turnout	-11.3471
▁vs	-11.3474
inning	-11.3474
▁ultra	-11.3479
ock	-11.3479
▁recruit	-11.3479
▁parole	-11.3481
eg	-11.3481
▁steal	-11.3484
ep	-11.3487
▁singh	-11.3488
▁donovan	-11.3489
▁cornell	-11.3496
▁marines	-11.3499
▁deserve	-11.3499
▁accountable	-11.35
▁steroids	-11.35
▁berkeley	-11.3501
▁confronted	-11.3502
▁turnaround	-11.3502
▁scholarship	-11.3502
▁genes	-11.3504
▁nash	-11.3505
▁define	-11.3506
dar	-11.3516
▁computing	-11.3519
▁slump	-11.3519
▁fires	-11.3526
▁mandatory	-11.3527
oc	-11.353
▁lender	-11.3531
▁prix	-11.3535
▁pad	-11.3535
▁catching	-11.3536
▁doubles	-11.3536
▁incidents	-11.3542
raiser	-11.3543
▁stunned	-11.3548
23	-11.3549
▁pursued	-11.3552
▁leap	-11.3553
▁3-2	-11.3553
▁relying	-11.3554
▁spectrum	-11.3557
▁stiff	-11.3558
▁transform	-11.3558
▁carr	-11.356
▁trapped	-11.356
▁18,	-11.3561
▁logo	-11.3562
▁poised	-11.3564
▁farther	-11.3566
▁recruited	-11.3568
▁cart	-11.3573
▁forecasts	-11.3573
▁colors	-11.3575
▁2020	-11.3582
▁disagree	-11.3583
▁investigative	-11.3583
▁riot	-11.3584
▁blackberry	-11.3584
▁gesture	-11.3587
▁beck	-11.3598
▁reactors	-11.3599
▁brokers	-11.3602
95	-11.3606
▁der	-11.3608
ments	-11.3609
ric	-11.3611
hop	-11.3613
▁1995	-11.3614
▁drill	-11.3623
▁referee	-11.3624
oo	-11.3625
▁barnes	-11.3625
lar	-11.3626
ami	-11.3626
▁insist	-11.3631
▁sexually	-11.3633
▁mur	-11.3633
▁bathroom	-11.3634
▁refusing	-11.3639
▁albert	-11.3641
▁owed	-11.3644
▁fri	-11.3645
▁hor	-11.3653
▁1,500	-11.3654
rah	-11.3654
ture	-11.3655
▁bu	-11.3657
ado	-11.3657
▁92	-11.3658
▁structures	-11.3661
▁keith	-11.3662
▁batteries	-11.3663
▁easing	-11.3664
sharing	-11.3667
ranking	-11.3668
▁draws	-11.3669
hole	-11.3676
);	-11.3677
▁woodson	-11.3677
▁curious	-11.3678
▁$35	-11.3679
▁fined	-11.3682
▁trailed	-11.3683
▁farmer	-11.3685
mel	-11.3688
▁96	-11.3693
▁priests	-11.3696
▁approaching	-11.3698
▁20,000	-11.3701
▁protections	-11.3701
▁resisted	-11.3709
▁liability	-11.3711
ff	-11.3714
▁jacobs	-11.3718
▁13-	-11.372
▁banker	-11.3721
▁patience	-11.3722
▁modi	-11.3728
hal	-11.3731
▁shootout	-11.3736
▁tune	-11.3737
▁abandon	-11.374
▁addresses	-11.3741
28	-11.3742
bridge	-11.3743
▁barriers	-11.3744
nation	-11.375
▁rubber	-11.3752
▁soaring	-11.3753
▁transformation	-11.3753
▁circles	-11.3755
▁kidnapping	-11.3755
▁emotions	-11.3757
8,000	-11.3758
▁turf	-11.3767
▁convictions	-11.377
▁favorable	-11.3772
46	-11.3772
▁presents	-11.3772
▁filings	-11.3776
lay	-11.3776
▁dioxide	-11.3776
▁deposit	-11.3776
▁schumer	-11.3776
▁hardest	-11.3779
▁3-1	-11.3781
▁correction	-11.3781
je	-11.3782
▁meantime	-11.3783
▁crops	-11.3784
▁clippers	-11.3785
▁labour	-11.3787
85	-11.3793
rri	-11.3794
▁tying	-11.3796
ec	-11.3797
▁placing	-11.3797
▁hawks	-11.3798
▁examination	-11.3799
▁dependent	-11.3801
▁apology	-11.3803
▁sciences	-11.3805
▁ellis	-11.3808
▁awkward	-11.381
▁edition	-11.3814
▁tebow	-11.3815
▁containing	-11.3817
▁periods	-11.3819
▁pga	-11.382
▁sovereign	-11.3827
▁utilities	-11.3827
▁istanbul	-11.3836
▁excitement	-11.3837
▁radiation	-11.3837
▁installation	-11.3838
▁campaigning	-11.3839
▁reliever	-11.3845
▁teeth	-11.3846
▁reductions	-11.3846
▁weighed	-11.3847
bb	-11.3849
▁greatly	-11.3849
▁transgender	-11.3855
▁bedroom	-11.3856
▁torre	-11.3856
last	-11.3858
▁generic	-11.3858
▁packages	-11.3864
▁dugout	-11.3864
▁pierre	-11.3867
▁jong	-11.3868
▁taxpayer	-11.3871
▁norway	-11.3872
▁precise	-11.388
36	-11.3883
▁knife	-11.3885
▁instructions	-11.3885
▁hunger	-11.3887
▁pensions	-11.3888
▁levy	-11.3889
▁zoo	-11.3889
ye	-11.3891
▁fingers	-11.3891
▁spare	-11.3892
▁crystal	-11.3895
▁asserted	-11.3896
▁peterson	-11.3896
-11	-11.3903
▁mirror	-11.3906
▁publicity	-11.3909
▁supervisor	-11.3909
lock	-11.391
▁cord	-11.3911
▁scrap	-11.3913
▁portrait	-11.3916
▁karl	-11.3917
▁ingredients	-11.3918
▁minorities	-11.3922
sur	-11.3924
▁freed	-11.3928
▁gardens	-11.393
ily	-11.3931
▁chains	-11.3932
▁pronounced	-11.3933
▁investigator	-11.3936
▁prisoner	-11.3939
▁16,	-11.3939
▁pier	-11.3942
▁turnovers	-11.3944
▁floors	-11.3947
▁flyers	-11.3947
▁gro	-11.3949
▁wanting	-11.395
▁incredible	-11.3952
▁specialists	-11.3953
▁snowden	-11.3953
▁shrinking	-11.3954
about	-11.3958
▁extremists	-11.3958
100	-11.3958
▁decisive	-11.3963
▁tactic	-11.3964
▁25-	-11.3965
▁retiring	-11.3967
▁origin	-11.3969
worth	-11.397
▁urgent	-11.3972
▁forgotten	-11.3973
▁chile	-11.3974
▁unveiled	-11.3976
▁enemies	-11.3976
lia	-11.3981
89	-11.3981
▁bare	-11.3982
▁habit	-11.3982
▁ahmad	-11.3982
▁graduates	-11.3986
▁slim	-11.3988
▁separated	-11.3988
▁prescription	-11.3989
city	-11.399
▁ousted	-11.3995
▁update	-11.3995
▁lets	-11.3995
aid	-11.3997
▁justify	-11.3997
▁lowered	-11.3998
▁adoption	-11.4002
▁christians	-11.4002
▁phenomenon	-11.4004
▁laughed	-11.4005
▁forth	-11.4008
▁broadband	-11.401
▁hampton	-11.4015
▁preventing	-11.4019
▁northwestern	-11.402
▁gre	-11.4024
▁exploration	-11.4025
▁1992	-11.4027
▁fleeing	-11.4029
▁mansion	-11.4032
▁portrayed	-11.4035
▁colonial	-11.4035
▁exile	-11.4036
▁spends	-11.4037
mad	-11.4037
▁seahawks	-11.4038
▁acquisitions	-11.4038
▁allied	-11.404
▁pe	-11.4043
▁topped	-11.4043
▁beltran	-11.4044
▁staged	-11.4045
▁dolan	-11.4049
▁3-0	-11.405
▁restricted	-11.4051
▁mali	-11.4053
▁slot	-11.4054
ob	-11.4056
qua	-11.4058
▁endured	-11.4059
▁laughing	-11.406
55	-11.4061
▁clash	-11.4064
▁arc	-11.4065
▁93	-11.4066
ón	-11.4066
▁wounds	-11.4067
▁spa	-11.4067
▁fossil	-11.4069
▁helmet	-11.4071
▁frustrating	-11.4072
▁congressman	-11.4072
▁sophomore	-11.4075
▁canal	-11.4076
put	-11.4076
▁contender	-11.4077
▁intend	-11.4083
76	-11.4083
▁barrier	-11.4084
▁costa	-11.4086
▁issuing	-11.4087
yan	-11.4088
▁spectacular	-11.4089
▁aleppo	-11.409
photo	-11.409
▁jewelry	-11.4091
63	-11.4092
▁91	-11.4094
▁hassan	-11.4098
▁switched	-11.4099
▁sir	-11.41
▁rams	-11.4101
mat	-11.4102
▁administrators	-11.4107
▁observed	-11.4107
friendly	-11.4109
▁crawford	-11.4115
▁swedish	-11.4115
▁rodgers	-11.4115
pointers	-11.4117
▁weaker	-11.4117
sel	-11.4121
▁cabrera	-11.4121
▁(4	-11.4123
▁declaring	-11.4124
▁engaging	-11.4124
▁photographer	-11.4129
▁urgency	-11.4134
▁inspection	-11.4137
2,000	-11.4137
-9	-11.4138
▁fabric	-11.4139
▁inspiration	-11.414
67	-11.414
▁patch	-11.4141
▁40-	-11.4155
best	-11.4158
▁deposits	-11.4159
ened	-11.4162
▁scholar	-11.4163
▁afghans	-11.4171
▁worn	-11.4172
▁buzz	-11.4176
▁joel	-11.4176
▁sculpture	-11.4178
first	-11.4179
▁prompt	-11.418
▁joked	-11.4185
od	-11.4186
06	-11.419
▁commodity	-11.4193
▁sur	-11.4195
▁bass	-11.4198
ima	-11.4203
▁robbery	-11.4207
▁custom	-11.4208
▁glove	-11.4211
▁robin	-11.4212
▁pur	-11.4214
▁soup	-11.4216
▁plunged	-11.4218
▁www	-11.4218
everything	-11.4219
▁mob	-11.4223
▁quarterfinals	-11.4223
▁adapt	-11.4224
▁viewing	-11.4228
▁retirees	-11.4236
▁envoy	-11.4237
▁rifle	-11.4239
selling	-11.424
▁regulate	-11.4244
▁bashar	-11.4245
▁smiled	-11.425
▁rebuilding	-11.425
▁resist	-11.4251
▁mere	-11.4251
▁4,000	-11.4251
▁chronic	-11.4253
▁affiliated	-11.4255
▁averaging	-11.4256
form	-11.4261
▁bennett	-11.4262
▁lifestyle	-11.4264
▁favre	-11.4268
▁uconn	-11.4269
ula	-11.427
▁embarrassing	-11.4271
▁crisp	-11.4273
▁flee	-11.4274
▁satisfied	-11.4275
▁damaging	-11.4275
▁heels	-11.4275
kar	-11.4277
ified	-11.4277
▁incumbent	-11.4278
▁elder	-11.428
uri	-11.4282
▁quake	-11.4283
▁audiences	-11.4284
▁classroom	-11.4285
▁bounced	-11.4292
▁bernie	-11.4292
▁advances	-11.4294
▁stunning	-11.4294
app	-11.4295
▁introducing	-11.4297
▁teaches	-11.4298
▁$17	-11.4298
▁caucus	-11.4298
fo	-11.4299
▁tablet	-11.43
▁1967	-11.4301
cola	-11.4302
▁extremist	-11.4303
▁homers	-11.4303
▁exxon	-11.4303
▁gardner	-11.4303
▁segment	-11.4303
▁physics	-11.4303
plus	-11.4306
▁wondering	-11.4307
▁flexibility	-11.4309
▁redskins	-11.4309
▁mccarthy	-11.4313
▁greene	-11.4315
▁objections	-11.4316
▁poured	-11.4317
tti	-11.432
▁companion	-11.4322
▁standoff	-11.4324
▁fortunes	-11.4324
▁ian	-11.4326
tra	-11.4326
▁occupation	-11.4329
▁paramount	-11.4332
▁load	-11.4336
200	-11.4337
▁weigh	-11.4338
▁pioneer	-11.4339
▁minneapolis	-11.4344
▁abbott	-11.4344
▁cas	-11.4345
▁banner	-11.4346
▁carroll	-11.4346
▁blake	-11.435
▁jane	-11.4356
▁ongoing	-11.4356
▁ortiz	-11.4357
▁crane	-11.4357
tes	-11.4357
▁receives	-11.4364
-14	-11.4368
hey	-11.4371
▁criminals	-11.4386
09	-11.4386
▁trades	-11.4387
▁prohibited	-11.4388
▁midst	-11.4388
▁instruments	-11.439
▁$20.	-11.4391
▁marco	-11.4392
▁203-	-11.4393
▁compiled	-11.4394
▁avoiding	-11.4394
3,000	-11.4396
zu	-11.4399
▁punch	-11.4405
tom	-11.4406
▁clerk	-11.4407
▁hopefully	-11.4409
▁workplace	-11.441
▁vo	-11.4412
▁iraqis	-11.4419
▁soared	-11.4424
▁pile	-11.4425
▁wil	-11.4425
ade	-11.4427
▁scattered	-11.4428
▁anxious	-11.4431
▁bloody	-11.4434
▁mat	-11.4438
▁fried	-11.4438
▁celebrities	-11.444
▁weiner	-11.4441
▁nest	-11.4443
iness	-11.4444
▁farming	-11.4445
▁fitness	-11.4447
▁leon	-11.4447
▁mercedes	-11.445
▁memoir	-11.445
▁trafficking	-11.4455
▁8,	-11.4457
▁item	-11.4458
▁elevator	-11.4462
▁lebron	-11.4463
▁characterized	-11.4463
▁shorter	-11.4464
nobody	-11.4465
▁surveys	-11.4465
fu	-11.4469
▁assembled	-11.447
▁ramp	-11.4476
▁spaces	-11.4481
▁networking	-11.4481
▁helpful	-11.4482
▁checking	-11.4484
▁parked	-11.4485
▁clause	-11.4485
ration	-11.4487
7,000	-11.4491
▁equipped	-11.4492
▁formation	-11.4495
▁thoughts	-11.4496
tax	-11.4496
bit	-11.4496
▁bolt	-11.4497
▁strokes	-11.4498
▁branches	-11.45
▁1986	-11.4501
▁marcus	-11.4508
▁pete	-11.4509
▁contested	-11.451
▁assassination	-11.4511
did	-11.4513
▁mel	-11.4513
▁$25.	-11.4515
▁knight	-11.4518
▁psychological	-11.4523
▁zi	-11.4523
▁donor	-11.4525
▁christine	-11.4528
▁targeting	-11.4529
being	-11.453
▁89	-11.4531
▁killer	-11.4534
▁md	-11.4537
▁baylor	-11.4537
▁($1	-11.4541
▁sang	-11.4545
▁refuse	-11.4546
ore	-11.4547
▁cemetery	-11.4547
▁cruise	-11.4548
▁gregory	-11.455
▁rim	-11.4551
▁criticize	-11.4551
▁produces	-11.4553
▁ranch	-11.4555
ida	-11.4556
▁pants	-11.4558
bal	-11.4558
▁inventory	-11.4558
▁diseases	-11.4561
▁arbitration	-11.4563
▁pine	-11.4567
zz	-11.4571
▁guided	-11.4572
▁median	-11.4575
▁beard	-11.4577
▁bishops	-11.4577
▁rolls	-11.4577
▁georgetown	-11.4578
▁fever	-11.4581
▁dancing	-11.4583
obviously	-11.4584
▁pork	-11.4584
▁lesser	-11.4587
▁felony	-11.4597
▁climbing	-11.4598
▁hacking	-11.4601
▁uniforms	-11.4603
▁wholesale	-11.4605
ese	-11.4608
▁criticizing	-11.4609
▁titled	-11.4612
▁intensity	-11.4612
▁stretched	-11.4612
▁lebanese	-11.4615
five	-11.4615
▁underscored	-11.4615
▁th	-11.4617
▁pure	-11.4618
▁dunk	-11.4619
▁tsunami	-11.4628
▁fatally	-11.463
▁breakthrough	-11.4632
▁sustain	-11.4632
▁reversed	-11.4633
▁hosts	-11.4634
▁abused	-11.4635
▁enrolled	-11.4636
▁searched	-11.4636
▁chuck	-11.4637
▁sta	-11.4637
▁components	-11.4638
gate	-11.4639
▁treating	-11.4639
roll	-11.4639
▁substantially	-11.4639
▁pump	-11.4643
▁vendors	-11.4644
▁interpretation	-11.4648
floor	-11.4656
▁shah	-11.4658
▁bow	-11.466
nell	-11.4661
▁enacted	-11.4666
▁navigate	-11.4667
▁stamford	-11.4667
ification	-11.4668
▁thanksgiving	-11.4671
▁southeastern	-11.4671
▁distinction	-11.4671
▁runoff	-11.4673
▁browne	-11.4673
▁cro	-11.4674
ched	-11.4674
▁topics	-11.4675
av	-11.4676
▁threshold	-11.4677
▁1979	-11.4677
▁$15.	-11.4678
▁persistent	-11.4679
▁careers	-11.468
▁lure	-11.468
▁jumping	-11.4682
gue	-11.4683
▁naturally	-11.4683
▁nicholas	-11.4684
▁2.5	-11.4686
▁torres	-11.4686
▁ammunition	-11.4687
running	-11.4692
rum	-11.4693
00;	-11.4697
▁reaches	-11.4698
imp	-11.4702
▁schwartz	-11.4703
mor	-11.4705
▁swim	-11.4707
▁cocaine	-11.4707
▁lung	-11.4709
▁sweat	-11.4711
▁refuge	-11.4712
▁subsidiary	-11.4713
▁$1.2	-11.4715
▁tommy	-11.4715
▁pipe	-11.4715
▁powell	-11.4717
nis	-11.4718
▁quarterbacks	-11.4721
6,000	-11.4722
▁cre	-11.4722
▁thumb	-11.4723
▁thomson	-11.4723
ked	-11.4725
person	-11.4727
here	-11.4727
uff	-11.473
▁babies	-11.473
▁danny	-11.4732
▁acceptable	-11.4732
▁eagle	-11.4733
▁cy	-11.4734
▁searches	-11.4735
▁singing	-11.4735
4,000	-11.4736
▁expressing	-11.4738
▁raced	-11.4738
▁dishes	-11.4739
▁butter	-11.4739
▁congo	-11.474
▁dirty	-11.4742
▁tent	-11.4742
▁controlling	-11.4743
▁entrepreneur	-11.4743
▁applicants	-11.4744
▁missions	-11.4745
13	-11.4745
ali	-11.4747
▁corners	-11.4747
▁entitled	-11.475
▁shaking	-11.4756
▁eliminating	-11.476
▁brilliant	-11.476
▁bidding	-11.4761
▁focuses	-11.4762
▁anne	-11.4763
▁intends	-11.4763
wide	-11.4763
▁rosen	-11.4763
▁interactive	-11.4764
▁vessel	-11.4764
gr	-11.4765
▁moss	-11.4766
▁ren	-11.4766
▁convoy	-11.4766
26	-11.4778
▁keys	-11.4779
wal	-11.4779
▁urge	-11.478
▁discover	-11.4783
▁maliki	-11.479
▁cu	-11.4794
▁description	-11.4798
▁brewers	-11.48
▁dominate	-11.4807
sta	-11.4807
▁2002.	-11.4808
▁dominance	-11.4809
▁bruno	-11.4811
▁bias	-11.4818
▁evangelical	-11.4819
▁lloyd	-11.4823
▁pockets	-11.4823
39	-11.4823
▁$1,000	-11.4824
44	-11.4825
▁7-	-11.4826
lee	-11.4827
▁inequality	-11.4833
▁compare	-11.4834
▁nokia	-11.4836
▁bridges	-11.4838
▁drones	-11.4838
▁benedict	-11.4839
▁chan	-11.4842
china	-11.4843
▁carson	-11.4844
▁refer	-11.4847
▁goodell	-11.4847
▁(203)	-11.4849
▁wise	-11.4852
▁opens	-11.4853
▁maple	-11.4856
▁starbucks	-11.4859
▁obstacles	-11.4861
▁kiev	-11.4863
▁apologize	-11.4864
▁replay	-11.4864
▁log	-11.4866
▁productive	-11.4866
▁airways	-11.487
▁tra	-11.4878
▁specializes	-11.4879
pen	-11.488
lam	-11.4881
kov	-11.4882
▁ranging	-11.4883
▁automobile	-11.4884
▁1930	-11.4885
▁sydney	-11.4886
ill	-11.4887
.&	-11.4889
ama	-11.4893
▁curtis	-11.4894
▁collaboration	-11.4896
▁zhang	-11.49
▁min	-11.49
▁surged	-11.4903
▁montana	-11.4905
ew	-11.4909
▁bout	-11.4912
▁700	-11.4913
▁editors	-11.4913
▁bribery	-11.4913
esh	-11.4914
▁insurgent	-11.4914
▁proven	-11.4916
▁holocaust	-11.4916
▁tribe	-11.4918
27	-11.4919
▁serbia	-11.492
▁1964	-11.492
▁sectors	-11.4921
ü	-11.4923
▁examples	-11.4929
▁deficits	-11.4929
▁elevated	-11.4933
▁excluding	-11.4933
▁catalog	-11.4933
▁shoulders	-11.4933
86	-11.4936
ora	-11.4938
hitter	-11.494
mont	-11.4947
▁guarantees	-11.495
▁atomic	-11.495
▁vikings	-11.4952
▁overwhelmed	-11.4952
taking	-11.4954
▁halted	-11.4957
▁skating	-11.4957
▁stripped	-11.4957
lis	-11.4958
▁setback	-11.4958
▁katz	-11.496
ack	-11.4963
act	-11.4966
▁diplomacy	-11.4967
▁correspondent	-11.4967
▁shaw	-11.4968
▁deployment	-11.4969
▁meets	-11.4969
▁enhance	-11.4972
▁dangers	-11.4973
▁scandals	-11.4973
07	-11.4974
▁propaganda	-11.4974
row	-11.4976
▁bud	-11.4979
▁exists	-11.4979
▁substitute	-11.4981
enhancing	-11.4982
▁9/11	-11.4987
▁sellers	-11.4994
▁safely	-11.4995
▁backyard	-11.4998
▁mild	-11.4998
▁raids	-11.4999
▁completing	-11.5001
▁shame	-11.5001
▁orchestra	-11.5002
runner	-11.5004
▁leonard	-11.5004
▁jefferson	-11.5005
▁ballpark	-11.5005
▁stealing	-11.5009
door	-11.5011
▁applause	-11.5012
▁belonged	-11.5012
ix	-11.5014
▁charities	-11.5015
▁altogether	-11.5018
▁accessible	-11.502
▁sealed	-11.502
▁gauge	-11.5021
government	-11.5023
▁tier	-11.5024
▁viacom	-11.5026
▁bogey	-11.5028
▁lobbyists	-11.503
▁upgrade	-11.503
▁reserved	-11.5031
▁warehouse	-11.5031
▁inquiries	-11.5031
▁wen	-11.5032
56	-11.5034
▁examining	-11.5035
▁exploring	-11.5038
▁wheat	-11.5038
43	-11.5039
▁react	-11.5041
▁norman	-11.5042
▁violate	-11.5044
▁résumé	-11.5045
▁mont	-11.5046
▁rosa	-11.5048
▁jobless	-11.5048
▁lottery	-11.5049
▁councilman	-11.505
▁1977	-11.5053
▁infection	-11.5055
cast	-11.5058
seat	-11.506
▁habits	-11.5061
responsibilities	-11.5062
▁bru	-11.5063
leaning	-11.5063
▁grill	-11.5067
▁outspoken	-11.5072
▁objective	-11.5073
▁goalkeeper	-11.5073
las	-11.5079
▁component	-11.5079
▁offenders	-11.508
▁encountered	-11.508
▁colorful	-11.508
▁dock	-11.5085
▁boycott	-11.5085
▁2000.	-11.5086
▁blair	-11.5087
▁counterpart	-11.5089
▁cox	-11.5089
▁aaa	-11.5092
▁arrangements	-11.5093
▁seize	-11.5096
▁contributing	-11.5096
▁$400	-11.5098
▁$1.1	-11.5098
▁repairs	-11.51
▁maj	-11.5101
▁lip	-11.5107
▁earnest	-11.5111
▁hammer	-11.5112
▁scorer	-11.5112
▁fiat	-11.5112
▁restrict	-11.5113
▁borrowed	-11.5113
ré	-11.5114
-3)	-11.5117
shirt	-11.5118
▁mines	-11.5119
▁mohammad	-11.512
▁–	-11.5121
▁cake	-11.5122
▁scenario	-11.5124
▁moody	-11.5128
▁harper	-11.5128
▁frankfurt	-11.5134
▁favors	-11.5135
quality	-11.5137
istic	-11.5137
▁belmont	-11.5138
▁chairs	-11.5138
▁chemistry	-11.5141
▁piano	-11.5148
▁standings	-11.5148
▁op	-11.5149
▁equality	-11.5157
▁wagner	-11.5162
▁duck	-11.5162
▁bounce	-11.5163
▁repeal	-11.5164
▁download	-11.5165
▁platforms	-11.5166
▁tours	-11.5172
▁shrink	-11.5173
▁guild	-11.5176
▁detect	-11.5177
▁friendship	-11.5178
▁belong	-11.5178
▁zimmerman	-11.5181
ue	-11.5183
▁musharraf	-11.5186
▁dismiss	-11.5189
▁sharapova	-11.5189
▁19-	-11.5193
ros	-11.5197
▁exceeded	-11.52
▁cleanup	-11.5206
▁photography	-11.5206
gui	-11.5209
▁watchdog	-11.5214
▁affiliate	-11.5215
▁amnesty	-11.5217
▁dragged	-11.5217
▁lanes	-11.5217
▁raiders	-11.5217
▁grain	-11.5221
▁1993	-11.5222
▁silva	-11.5225
▁suggestions	-11.5227
▁jailed	-11.5227
▁flames	-11.523
▁ipod	-11.523
▁incomes	-11.5232
▁suspend	-11.5234
mic	-11.5236
▁listened	-11.5238
▁pacers	-11.5238
▁richmond	-11.5238
goal	-11.5239
▁30,000	-11.5239
▁everyday	-11.524
▁bicycle	-11.5241
▁printed	-11.5242
▁heated	-11.5242
pac	-11.5245
word	-11.5247
▁credible	-11.5249
▁hy	-11.5251
▁significance	-11.5252
▁tail	-11.5253
▁exploit	-11.5254
▁reconciliation	-11.5255
04	-11.5256
▁kirk	-11.5256
tte	-11.5259
▁contains	-11.5265
77	-11.5269
▁leaked	-11.527
▁depot	-11.527
▁matching	-11.5272
▁sim	-11.5273
▁cheer	-11.5273
▁offenses	-11.5274
bri	-11.5275
▁nurses	-11.5278
▁intensified	-11.528
▁petroleum	-11.528
▁sheets	-11.5282
▁kam	-11.5284
ult	-11.5285
▁liverpool	-11.5287
▁instances	-11.5288
▁interrogation	-11.529
▁jamaica	-11.529
▁diesel	-11.5296
-19	-11.5297
▁reader	-11.5298
▁assignment	-11.5302
▁chambers	-11.5304
▁displays	-11.5304
▁suffolk	-11.5304
▁populations	-11.5306
▁vacant	-11.5307
79	-11.5308
▁$1.3	-11.5309
▁adequate	-11.531
▁insight	-11.531
▁structural	-11.5311
▁medvedev	-11.5314
▁rocks	-11.5315
▁nazi	-11.5315
▁selig	-11.5318
▁huntington	-11.5319
fin	-11.532
▁complaining	-11.532
▁sen	-11.5322
▁diabetes	-11.5325
▁brokerage	-11.5326
▁fer	-11.5329
▁bats	-11.5331
▁germans	-11.5332
▁airplane	-11.5334
▁illustrated	-11.5335
▁laura	-11.534
▁6-3,	-11.534
▁prisons	-11.5344
▁whit	-11.5346
▁anna	-11.5352
▁isolation	-11.5353
▁94	-11.5353
▁bust	-11.5355
▁astros	-11.5355
▁conferences	-11.5357
▁dealer	-11.5358
ele	-11.5358
69	-11.5359
▁1998,	-11.5361
iel	-11.5364
▁battered	-11.5365
▁newton	-11.5367
98	-11.5368
▁enable	-11.5369
hall	-11.5373
▁labeled	-11.5373
▁glasses	-11.5376
▁mul	-11.5376
arts	-11.5376
14	-11.5378
▁crying	-11.5381
▁weighing	-11.5381
olo	-11.5382
▁imported	-11.5385
▁heightened	-11.5387
▁comparable	-11.5388
▁external	-11.5392
▁renminbi	-11.5392
▁$10,000	-11.5393
▁bullets	-11.5394
▁preservation	-11.5395
▁launching	-11.5396
▁pence	-11.5397
▁releasing	-11.5399
▁ivan	-11.54
jan	-11.5401
shirts	-11.5401
▁technological	-11.5401
▁disability	-11.5403
▁accomplish	-11.5408
▁noble	-11.5411
▁relies	-11.5412
three	-11.5417
31	-11.5424
▁weekends	-11.5424
▁distribute	-11.5426
etti	-11.5426
▁occupy	-11.5428
▁batter	-11.5429
▁tin	-11.543
▁$150	-11.5431
▁stall	-11.5434
▁challenger	-11.5436
▁chiefs	-11.5436
▁receivers	-11.5436
▁trauma	-11.5437
▁existed	-11.544
kan	-11.5442
▁commitments	-11.5444
▁tends	-11.5445
▁ideological	-11.5447
18	-11.5448
und	-11.5451
▁koreans	-11.5452
xi	-11.5452
nic	-11.5455
▁hackers	-11.5457
▁yang	-11.5458
▁evacuation	-11.5459
▁jesus	-11.546
▁overturned	-11.5461
▁berlusconi	-11.5463
▁integration	-11.5463
eb	-11.5463
▁milestone	-11.5463
▁scoreless	-11.5467
tell	-11.5469
▁framework	-11.547
▁prop	-11.5472
▁protective	-11.5473
▁conclusions	-11.5475
▁upstate	-11.5478
▁oracle	-11.548
your	-11.5483
▁proposition	-11.5484
ching	-11.5485
▁recruits	-11.5487
uz	-11.5488
▁blend	-11.5488
▁interception	-11.5488
▁id	-11.549
▁pearl	-11.5493
▁stored	-11.5494
17	-11.55
▁essay	-11.5502
gra	-11.5503
▁demographic	-11.5503
▁reflection	-11.5503
▁vegetables	-11.5507
▁ur	-11.5508
▁icon	-11.5509
▁populist	-11.5509
▁kerr	-11.5511
interest	-11.5511
tive	-11.5512
▁hailed	-11.5512
cia	-11.5512
▁kra	-11.5513
care	-11.5514
▁emotion	-11.5515
▁bother	-11.5515
▁jacket	-11.5516
▁villagers	-11.5517
16	-11.552
▁analyze	-11.5522
▁(7	-11.5525
wall	-11.5532
▁commodities	-11.5537
▁wheelchair	-11.5537
▁9,	-11.5539
▁97	-11.5545
▁passionate	-11.5548
▁unpopular	-11.5548
▁castle	-11.555
inger	-11.5551
▁rode	-11.5555
▁cur	-11.5555
▁1985	-11.5558
▁broadcaster	-11.5561
▁quo	-11.5562
▁cancel	-11.5564
gel	-11.5564
▁ritual	-11.5565
var	-11.5567
▁copyright	-11.5571
▁6-4,	-11.5572
non	-11.5573
▁identifying	-11.5573
▁1984	-11.5574
▁balanced	-11.5574
▁occasions	-11.5575
▁manages	-11.558
▁arabic	-11.558
▁confused	-11.5583
▁ivory	-11.5583
▁tasks	-11.5585
▁lan	-11.5585
ben	-11.5586
▁4-	-11.559
▁postal	-11.559
▁sn	-11.5593
▁trusted	-11.5593
▁breed	-11.5596
▁lance	-11.5597
tar	-11.5598
▁flooded	-11.56
34	-11.56
▁punt	-11.5603
▁seeds	-11.5607
▁sherman	-11.5608
▁examiner	-11.5608
▁carol	-11.5608
ban	-11.5614
▁medication	-11.5616
▁rocky	-11.5618
▁proceeds	-11.5618
▁trigger	-11.5619
▁indonesian	-11.5623
▁musicians	-11.5624
▁adrian	-11.5629
▁shipments	-11.5629
▁striker	-11.5634
▁salmon	-11.5634
▁hbo	-11.5636
▁subtle	-11.5639
▁physician	-11.5642
▁probation	-11.5642
▁protocol	-11.5642
▁premiums	-11.5643
▁neil	-11.5644
▁infected	-11.5644
away	-11.5644
▁woes	-11.5644
▁batters	-11.5646
▁stamp	-11.5647
▁lucas	-11.5648
▁stan	-11.5648
ago	-11.5648
▁applying	-11.5649
▁nike	-11.565
▁fal	-11.565
▁yields	-11.5651
▁merchandise	-11.5653
▁evaluate	-11.5656
▁precinct	-11.566
▁lag	-11.5661
▁regain	-11.5664
▁mumbai	-11.5667
▁diminished	-11.5676
▁ensuring	-11.5678
▁surveyed	-11.5681
ius	-11.5683
▁deportation	-11.5687
▁50,000	-11.5687
▁ugly	-11.5689
▁troubling	-11.5693
▁hood	-11.5695
-7	-11.5695
lim	-11.5697
▁juvenile	-11.57
▁licensing	-11.57
▁cop	-11.57
▁trademark	-11.5702
▁hol	-11.5703
▁prospective	-11.5704
▁1989	-11.5705
▁decent	-11.5705
▁cage	-11.5709
▁steinbrenner	-11.5711
▁zones	-11.5714
▁contended	-11.5714
▁mahmoud	-11.5714
▁actively	-11.5715
dia	-11.5715
▁wrestling	-11.5718
▁partial	-11.5719
▁vessels	-11.572
ct	-11.5723
▁enthusiastic	-11.5723
▁burger	-11.5723
▁ahmadinejad	-11.5725
▁expired	-11.5729
▁establishing	-11.5729
▁bailey	-11.573
ico	-11.5731
▁#	-11.5733
▁zimbabwe	-11.5735
▁contacts	-11.5737
▁stole	-11.5738
▁labels	-11.5739
▁accustomed	-11.574
▁stir	-11.574
scoring	-11.5741
▁marketers	-11.5741
▁chamberlain	-11.5744
▁heroin	-11.5747
▁mor	-11.5747
▁transparent	-11.5747
▁halfway	-11.575
got	-11.5751
ata	-11.5751
▁affluent	-11.5751
▁dim	-11.5752
▁jockey	-11.5752
▁pepper	-11.5754
▁somali	-11.5755
▁homered	-11.5758
▁yonkers	-11.5758
oni	-11.5758
▁lasting	-11.5761
▁98	-11.5761
pet	-11.5762
san	-11.5762
▁21-	-11.5764
▁saleh	-11.5768
▁sochi	-11.5774
▁shutout	-11.5774
▁secrets	-11.5775
▁bart	-11.5775
▁playhouse	-11.5776
▁kin	-11.5778
▁lang	-11.5778
▁50-	-11.5778
▁sends	-11.5782
▁restoration	-11.5784
▁intentions	-11.5785
▁upheld	-11.5788
▁looming	-11.5794
▁ventures	-11.5794
▁grateful	-11.5795
▁ayatollah	-11.5799
▁attracting	-11.5799
▁sab	-11.5801
▁inmate	-11.5801
ean	-11.5803
▁marry	-11.5804
▁sharif	-11.5805
▁enjoying	-11.5807
▁cigarettes	-11.5808
▁spark	-11.5809
▁herald	-11.581
▁mus	-11.581
▁cyprus	-11.5813
▁belgian	-11.5817
▁expectation	-11.582
▁practiced	-11.5821
dic	-11.583
ullah	-11.5833
▁burke	-11.5834
▁innovative	-11.5835
▁caps	-11.5838
▁(631)	-11.5839
▁scha	-11.5839
▁nar	-11.584
▁char	-11.5841
▁7-6	-11.5843
▁tel	-11.5843
▁gunfire	-11.5845
▁comic	-11.5847
▁bones	-11.5849
ches	-11.5851
▁refinancing	-11.5854
▁oversaw	-11.5854
▁jamie	-11.5859
▁rap	-11.5862
▁entities	-11.5865
▁supportive	-11.5869
mal	-11.587
generation	-11.5871
-4)	-11.5872
▁lingering	-11.5872
▁interceptions	-11.5872
feld	-11.5872
▁rhode	-11.5873
sure	-11.5873
▁backdrop	-11.5875
▁modified	-11.5876
▁tribunal	-11.588
▁laying	-11.5884
▁architecture	-11.5884
▁chasing	-11.5891
ever	-11.5892
▁script	-11.5892
▁cotton	-11.5892
sion	-11.5896
▁disappear	-11.5899
▁considerably	-11.5899
▁arctic	-11.5902
▁casual	-11.5904
▁tibetan	-11.5908
▁yan	-11.5909
▁hungary	-11.591
cus	-11.5911
19	-11.5914
▁overwhelmingly	-11.5916
▁graduation	-11.5917
▁credentials	-11.5919
▁22-	-11.592
powered	-11.5921
▁weakened	-11.5921
lic	-11.5924
▁brink	-11.5924
▁pressures	-11.5927
▁pond	-11.5927
▁rangel	-11.5931
▁unlimited	-11.5932
▁sponsorship	-11.5932
▁symbolic	-11.5933
▁inspire	-11.5937
▁microphone	-11.5939
▁cope	-11.5939
▁firearms	-11.594
▁loves	-11.594
▁tossed	-11.5942
▁bahrain	-11.5943
▁snapped	-11.5943
▁statute	-11.5949
▁twenty	-11.5951
▁amounted	-11.5953
▁cigarette	-11.5957
ware	-11.5958
▁primaries	-11.5958
▁booth	-11.5958
▁yemeni	-11.596
▁plug	-11.5961
▁mask	-11.5963
▁calculated	-11.5963
▁indicating	-11.5969
21	-11.5971
▁viable	-11.5972
▁mechanism	-11.5983
▁arnold	-11.5989
▁1.2	-11.5993
▁tended	-11.5993
▁colt	-11.5999
02	-11.6
▁liberation	-11.6003
▁endorse	-11.6005
▁dvd	-11.6005
▁alderson	-11.6007
▁formidable	-11.6007
▁fukushima	-11.6007
▁(3	-11.6009
service	-11.6013
▁elect	-11.6013
▁texans	-11.6013
▁iranians	-11.6014
▁1971	-11.6015
▁nominated	-11.6018
▁tanaka	-11.6018
▁freely	-11.6018
▁virgin	-11.6018
▁novak	-11.6023
▁commonly	-11.6023
▁para	-11.6028
▁functions	-11.6028
▁bible	-11.6029
▁founders	-11.603
▁excess	-11.6031
▁lent	-11.6032
▁crises	-11.6033
▁govern	-11.6034
▁sections	-11.6036
▁100-	-11.6036
▁questionable	-11.6036
▁infant	-11.6037
-6	-11.6038
▁loft	-11.604
▁acknowledging	-11.604
▁wrap	-11.6041
dal	-11.6041
▁porter	-11.6043
▁sunny	-11.6043
▁ethical	-11.6044
▁arch	-11.6048
▁lethal	-11.605
ters	-11.605
▁updates	-11.6051
▁automotive	-11.6052
▁assuming	-11.6055
▁dire	-11.6058
▁assemblyman	-11.6059
fl	-11.6061
▁publish	-11.6064
▁maritime	-11.6064
▁clip	-11.6064
▁wales	-11.6067
▁fluid	-11.6067
kel	-11.6068
hon	-11.6069
▁stomach	-11.6071
igan	-11.6073
▁completion	-11.6075
▁layer	-11.6075
▁outlined	-11.6076
▁sara	-11.608
92	-11.608
▁911	-11.608
▁frontier	-11.6084
▁130	-11.6084
96	-11.6086
▁oliver	-11.6087
▁bribes	-11.609
▁northeastern	-11.6093
▁assertion	-11.6094
▁publications	-11.6094
dell	-11.6099
▁epidemic	-11.6101
▁lit	-11.6102
▁amy	-11.6103
▁endangered	-11.6103
▁nielsen	-11.6105
ations	-11.6105
▁absent	-11.6108
▁gangs	-11.6108
▁agreeing	-11.6109
▁randy	-11.6109
anna	-11.6111
▁upward	-11.6115
▁ought	-11.6116
▁remind	-11.6116
▁631-	-11.6116
▁sovereignty	-11.6116
▁shortfall	-11.6117
▁ferrari	-11.612
▁colo	-11.612
▁willie	-11.6121
▁dodd	-11.6122
▁dear	-11.6122
ona	-11.6124
▁les	-11.6127
▁pleasant	-11.6127
▁keen	-11.6131
▁eurozone	-11.6135
▁layup	-11.6138
▁witnessed	-11.6139
ique	-11.6142
65	-11.6144
▁bun	-11.6145
tis	-11.6145
ei	-11.6148
▁mega	-11.6148
▁joshua	-11.615
▁110	-11.6152
pass	-11.6153
▁nova	-11.6154
▁ramirez	-11.6154
▁islamabad	-11.6154
▁$500,000	-11.6154
bedroom	-11.6157
▁solely	-11.6161
▁argentine	-11.6162
▁profession	-11.6164
▁settings	-11.6165
▁ros	-11.6166
▁dairy	-11.6166
▁reopen	-11.6169
▁travis	-11.6169
▁chart	-11.6171
▁sank	-11.6172
▁refusal	-11.6173
their	-11.6174
▁nashville	-11.6177
▁nationalist	-11.618
ö	-11.6181
ender	-11.6181
▁dunn	-11.6184
▁possibilities	-11.6184
▁stretches	-11.6186
▁lighting	-11.6186
bats	-11.6187
▁putt	-11.6187
▁26.	-11.6189
▁revival	-11.6192
▁beckham	-11.6193
▁2:	-11.6196
▁tissue	-11.6196
▁merit	-11.6197
▁reiterated	-11.6197
▁greenberg	-11.6197
lies	-11.6198
▁retaliation	-11.62
▁pedro	-11.6203
▁educated	-11.6204
▁exam	-11.6204
▁gan	-11.6207
▁charitable	-11.6207
-2)	-11.6211
▁capitals	-11.6211
▁counseling	-11.6212
cio	-11.6212
hen	-11.6213
▁tro	-11.6213
▁lacking	-11.6213
▁incredibly	-11.6215
▁scout	-11.6217
great	-11.6218
29	-11.6221
▁1940	-11.6222
97	-11.6224
▁grasp	-11.6225
▁continental	-11.6226
cra	-11.623
▁provinces	-11.6232
▁sierra	-11.6234
▁sacramento	-11.6238
▁durant	-11.6239
78	-11.624
▁sink	-11.624
▁weird	-11.6243
▁capabilities	-11.6246
▁rides	-11.6248
▁walt	-11.6248
▁supplier	-11.6249
▁1987	-11.6252
ington	-11.6252
▁crushed	-11.6255
82	-11.6256
▁mosul	-11.6257
-17	-11.6258
nothing	-11.6264
▁reynolds	-11.6265
▁santorum	-11.6265
▁complications	-11.6267
▁shirts	-11.6273
▁bend	-11.6276
▁32,	-11.6276
▁horn	-11.6276
▁shouting	-11.6277
▁greens	-11.6278
▁stuart	-11.6281
▁miracle	-11.6281
▁spectators	-11.6283
▁gerald	-11.6284
▁persian	-11.6284
▁resumed	-11.6285
▁rockies	-11.6285
mis	-11.6287
▁abruptly	-11.6287
▁coat	-11.6291
▁beloved	-11.6291
▁updated	-11.6295
▁cave	-11.6296
▁sore	-11.6297
▁granderson	-11.6308
trade	-11.6318
▁syrians	-11.6318
▁limitations	-11.6319
▁candy	-11.6323
▁simpson	-11.6323
rian	-11.6324
avi	-11.6325
▁browser	-11.6325
▁squeeze	-11.6326
▁pause	-11.6327
▁fur	-11.6328
▁debts	-11.6329
▁kor	-11.633
▁parallel	-11.6336
▁contenders	-11.6336
▁enduring	-11.6337
▁chang	-11.634
elle	-11.6344
cor	-11.6346
▁caribbean	-11.6346
▁qui	-11.635
▁honored	-11.6352
▁blank	-11.6354
▁1991	-11.6356
▁beirut	-11.6358
▁inauguration	-11.6358
▁aol	-11.6361
▁bets	-11.6364
▁maintains	-11.6365
▁synagogue	-11.6366
▁wikileaks	-11.6366
▁auburn	-11.6366
81	-11.6366
bon	-11.6366
▁acceptance	-11.6367
▁nicolas	-11.6368
▁succession	-11.6368
▁sto	-11.6375
▁consultants	-11.6377
▁ottawa	-11.6382
▁combine	-11.6383
▁recommendation	-11.6383
▁racist	-11.6385
▁blessing	-11.6386
▁rents	-11.6386
▁alike	-11.6386
▁actress	-11.6389
▁legend	-11.6392
▁mitch	-11.6392
▁alumni	-11.6393
wick	-11.6397
digit	-11.6399
ale	-11.6401
▁relaxed	-11.6403
▁decrease	-11.6404
▁gore	-11.6407
record	-11.6407
▁angle	-11.6408
▁earliest	-11.6409
▁dun	-11.6409
▁clips	-11.6409
▁cheered	-11.641
▁specialized	-11.6414
oma	-11.6414
▁outright	-11.6419
▁concentration	-11.6423
▁circulation	-11.6424
▁cement	-11.6425
▁screaming	-11.6426
▁policing	-11.6428
▁resource	-11.6432
▁prosperity	-11.6432
▁supermarket	-11.6432
▁que	-11.6433
▁runway	-11.6433
▁designs	-11.6434
▁rout	-11.6437
ridge	-11.644
▁$50,000	-11.644
▁damon	-11.6442
▁relay	-11.6442
▁kit	-11.6444
▁eventual	-11.6444
▁juice	-11.6444
ea	-11.6445
▁cattle	-11.6448
ians	-11.645
▁sec	-11.6452
brien	-11.6453
▁9-	-11.6453
▁specify	-11.6454
▁holders	-11.6456
▁sequence	-11.6459
▁richards	-11.6461
▁consumed	-11.6462
▁dip	-11.6462
▁listing	-11.6463
▁immune	-11.6463
▁creek	-11.6464
▁bent	-11.6464
▁passport	-11.6465
▁rings	-11.6466
▁linda	-11.6466
▁concentrated	-11.6466
▁grows	-11.6467
▁tolerance	-11.6469
▁karen	-11.647
▁responses	-11.6473
▁kent	-11.6476
ska	-11.6478
▁saint	-11.6479
oy	-11.6479
▁centered	-11.648
▁invite	-11.6483
mes	-11.6485
▁puzzle	-11.6486
▁understands	-11.6486
▁kurds	-11.6487
▁revelations	-11.649
▁mavericks	-11.649
▁corzine	-11.6491
▁umbrella	-11.6491
▁influenced	-11.6491
▁2017	-11.6492
▁sway	-11.6492
▁tur	-11.6494
▁memorable	-11.6495
▁hindu	-11.6495
▁flawed	-11.6498
▁bangkok	-11.6499
▁cathedral	-11.6499
▁marbury	-11.6499
▁dual	-11.65
met	-11.6503
▁$19	-11.6505
▁olive	-11.6506
▁imminent	-11.651
▁likelihood	-11.651
▁shipped	-11.6512
▁inspections	-11.6515
▁paulson	-11.6516
▁excuse	-11.6519
▁1965	-11.6519
fish	-11.6522
▁inappropriate	-11.6523
▁humanity	-11.6523
▁1997,	-11.6525
94	-11.6525
aki	-11.6526
building	-11.6528
▁bmw	-11.6534
▁addiction	-11.6534
▁skilled	-11.6534
▁magnitude	-11.6535
▁sche	-11.6536
▁handing	-11.6537
collar	-11.6537
▁neutral	-11.6538
88	-11.6538
gh	-11.654
hara	-11.6541
▁roth	-11.6542
big	-11.6542
sea	-11.6543
▁voluntary	-11.6543
▁ghost	-11.6543
▁dismissal	-11.6544
▁friedman	-11.6545
efficient	-11.6545
hor	-11.6546
▁leather	-11.6546
▁loop	-11.6549
▁backlash	-11.655
▁commentary	-11.655
▁coordinated	-11.6551
▁35,	-11.6554
▁gilbert	-11.6554
83	-11.6554
bury	-11.6555
ucci	-11.6558
▁victoria	-11.6558
▁shrine	-11.6558
▁unnecessary	-11.6558
▁newest	-11.6561
▁mun	-11.6563
1,000	-11.6564
▁rescued	-11.6569
▁montgomery	-11.657
▁blackhawks	-11.657
ose	-11.6571
▁literature	-11.6574
▁cambridge	-11.6574
▁biology	-11.6574
▁feeding	-11.6574
▁migrant	-11.6575
▁robertson	-11.6576
22	-11.6577
▁recalling	-11.6578
driven	-11.6578
▁contests	-11.6579
▁insists	-11.6582
▁junk	-11.6584
▁notified	-11.6585
▁ala	-11.6585
▁appetite	-11.6586
▁renault	-11.6586
boy	-11.6586
nne	-11.6588
▁$75	-11.6589
▁brigade	-11.659
cutting	-11.6591
itz	-11.6592
▁committees	-11.6593
▁flavor	-11.6595
▁punish	-11.6598
▁mugabe	-11.6598
▁stays	-11.66
▁tam	-11.6601
▁beacon	-11.6602
03	-11.6603
▁hungry	-11.6604
▁backward	-11.6605
▁snyder	-11.6606
▁blown	-11.6607
▁pu	-11.6607
▁birdie	-11.6609
▁backers	-11.661
▁repay	-11.661
▁surfaced	-11.6611
▁emphasize	-11.6612
real	-11.6613
▁knees	-11.6613
nik	-11.6614
mus	-11.6618
▁graphic	-11.6619
▁tariffs	-11.6619
▁vague	-11.662
author	-11.6621
▁fernando	-11.6622
▁corp	-11.6622
▁tunisia	-11.6622
▁generating	-11.6622
nc	-11.6625
▁xinhua	-11.6626
▁cooperative	-11.663
▁noah	-11.6632
▁redstone	-11.6633
▁determining	-11.6634
▁reacted	-11.6635
▁practicing	-11.6638
61	-11.6638
▁kane	-11.664
▁specialty	-11.664
▁disagreed	-11.6641
▁workout	-11.6641
▁niche	-11.6645
▁schmidt	-11.6646
▁reckless	-11.665
▁jurisdiction	-11.6652
▁15,	-11.6653
▁mold	-11.6654
▁1996,	-11.6655
owner	-11.6655
core	-11.6656
▁denial	-11.6658
▁breakdown	-11.666
▁negotiators	-11.6665
▁crosby	-11.6666
▁bore	-11.6666
▁sticking	-11.6668
▁lecture	-11.6668
▁1982	-11.6669
▁productivity	-11.667
▁evan	-11.6671
▁lockout	-11.6671
▁curve	-11.6674
▁hadn	-11.6675
▁rhetoric	-11.6678
▁1976	-11.6678
aging	-11.6679
▁absorb	-11.668
▁(5	-11.6682
▁ob	-11.6682
▁denying	-11.6683
rk	-11.6684
▁neu	-11.6684
▁sr	-11.6685
▁siblings	-11.6687
ple	-11.6689
▁tracked	-11.6691
▁playground	-11.6693
▁toughest	-11.6693
▁bombers	-11.6697
rat	-11.6703
hn	-11.6703
▁bayern	-11.6704
-16	-11.6704
▁sheik	-11.6704
▁por	-11.6705
▁wis	-11.6707
▁visas	-11.6708
▁domain	-11.6709
hill	-11.671
▁lar	-11.6712
▁contrary	-11.6714
▁vary	-11.6719
▁planted	-11.6721
▁carpenter	-11.6722
▁transmission	-11.6722
▁plates	-11.6723
▁beds	-11.6727
▁leaning	-11.6729
▁decree	-11.673
▁hoffman	-11.6732
72	-11.6737
▁sanford	-11.6743
▁cano	-11.6743
▁documented	-11.6744
▁secrecy	-11.6746
▁licensed	-11.6747
▁shale	-11.6747
▁buffett	-11.6748
▁barber	-11.675
▁widow	-11.675
▁archdiocese	-11.6754
▁relentless	-11.6756
▁salon	-11.6756
▁1.3	-11.6758
▁instructed	-11.676
ants	-11.6763
▁mandela	-11.6765
▁yorker	-11.6766
▁ordering	-11.6768
▁burnett	-11.6769
oriented	-11.6771
cer	-11.6771
▁berg	-11.6772
▁strikeouts	-11.6773
▁apparel	-11.6774
▁jen	-11.6775
▁departments	-11.6777
food	-11.6777
▁sco	-11.6777
▁recommend	-11.6777
▁unfortunate	-11.6778
▁disrupt	-11.6781
▁lind	-11.6781
▁faded	-11.6781
▁exceed	-11.6782
▁500-	-11.6785
▁fin	-11.6785
▁minimal	-11.6786
▁casinos	-11.6788
▁helm	-11.6788
▁mariners	-11.679
library	-11.679
▁pistol	-11.6791
▁garner	-11.6792
▁inability	-11.6792
▁downhill	-11.6792
rod	-11.6794
▁nepal	-11.6795
nu	-11.6796
▁dividend	-11.6796
▁breathing	-11.6796
▁nightmare	-11.6799
▁convey	-11.6799
▁cyber	-11.6799
▁forensic	-11.6803
nar	-11.6803
▁semi	-11.6804
family	-11.6806
kind	-11.6807
▁stupid	-11.6807
gram	-11.6812
▁von	-11.6816
▁showcase	-11.6817
▁informal	-11.6819
▁adjacent	-11.6819
▁benghazi	-11.6819
▁peer	-11.6819
▁(20	-11.682
black	-11.6821
▁midway	-11.6822
▁punished	-11.6823
▁firmly	-11.6824
ene	-11.6824
▁concussions	-11.6825
▁stabbed	-11.6827
▁bedford	-11.6828
▁pew	-11.683
god	-11.683
▁posters	-11.6832
▁unhappy	-11.6832
49	-11.6833
▁rex	-11.6834
▁scrambling	-11.6835
▁intact	-11.6836
▁nathan	-11.6836
▁mai	-11.6836
mobile	-11.6838
sey	-11.6838
dr	-11.6838
▁minors	-11.6838
▁objected	-11.6839
▁$250	-11.684
▁retained	-11.6843
▁oxygen	-11.6843
▁gill	-11.6846
▁coordinate	-11.6847
▁hamstring	-11.6852
▁scouts	-11.6852
tal	-11.6853
master	-11.6856
▁midwest	-11.6856
▁stuffed	-11.6858
▁flown	-11.686
▁200,000	-11.6861
▁reconstruction	-11.6864
▁boyfriend	-11.6864
▁islamists	-11.6866
lla	-11.6866
▁malaysian	-11.6867
defense	-11.6867
ets	-11.687
▁browns	-11.6871
▁marched	-11.6872
▁6,000	-11.6873
▁detected	-11.6874
ological	-11.6874
▁fuels	-11.6877
▁crimea	-11.6879
▁22.	-11.688
▁waterfront	-11.6882
▁plead	-11.6884
▁stronghold	-11.6886
▁ker	-11.6887
▁genuine	-11.6888
▁realistic	-11.6891
unconstitutional	-11.6895
▁16.	-11.6895
roots	-11.6895
▁wherever	-11.6897
▁trace	-11.6899
▁unchanged	-11.6901
▁hurdles	-11.6901
▁voiced	-11.6903
▁irving	-11.6904
▁postponed	-11.6905
▁coca	-11.6906
▁transplant	-11.6909
-5)	-11.6911
▁bacteria	-11.6913
▁insurer	-11.6916
▁34,	-11.692
▁deer	-11.692
▁jenkins	-11.6925
▁flowing	-11.6928
▁rises	-11.6929
▁biological	-11.693
▁springs	-11.6931
▁din	-11.6931
▁emperor	-11.6934
▁holidays	-11.6934
▁scare	-11.6935
▁baptist	-11.6938
▁montclair	-11.6938
▁slogan	-11.6938
▁economically	-11.694
▁hospitalized	-11.694
▁ouster	-11.6941
▁hurting	-11.6944
▁hayes	-11.6946
▁dai	-11.6947
eu	-11.6948
▁33,	-11.6952
▁supervision	-11.6955
▁accelerate	-11.6958
▁23-	-11.6961
dozen	-11.6962
▁27.	-11.6962
race	-11.6962
▁bloom	-11.6966
▁inaugural	-11.6967
▁shrimp	-11.6967
iron	-11.6967
usa	-11.697
▁clearing	-11.697
▁huskies	-11.6971
▁worthy	-11.6976
stroke	-11.6979
▁ivy	-11.6979
▁rachel	-11.6979
▁cooperating	-11.698
▁approximately	-11.698
eye	-11.6981
▁gases	-11.6983
▁venus	-11.6988
▁securing	-11.6991
▁gallon	-11.6992
▁indoor	-11.6992
▁shaken	-11.6993
-15	-11.6995
▁spike	-11.6998
osh	-11.7
▁reconsider	-11.7
▁fitting	-11.7004
▁distress	-11.7008
▁glenn	-11.7009
▁rat	-11.7015
paid	-11.7017
▁sworn	-11.7017
▁hostage	-11.7018
▁(1	-11.7019
▁commute	-11.702
something	-11.7025
▁hai	-11.7026
ug	-11.7029
▁landlord	-11.703
▁harvest	-11.7032
▁factions	-11.7037
▁interpreter	-11.7037
▁140	-11.7038
▁reads	-11.7038
▁shortages	-11.704
▁conglomerate	-11.7041
▁cleaner	-11.7041
▁simultaneously	-11.7047
▁37,	-11.7052
▁barring	-11.7054
▁overly	-11.7054
▁absolute	-11.7054
▁28.	-11.7055
▁guitar	-11.7059
▁rockefeller	-11.7062
bus	-11.7062
lio	-11.7064
▁adjustments	-11.7066
▁€1	-11.7066
▁experiments	-11.7067
▁imprisoned	-11.7067
▁sting	-11.707
▁oxford	-11.707
▁stimulate	-11.7075
▁bla	-11.7078
87	-11.7079
▁dickey	-11.7079
47	-11.7082
▁intimate	-11.7087
▁reservations	-11.7088
▁narrowly	-11.7088
▁casey	-11.709
▁disclosures	-11.709
▁sl	-11.709
▁tha	-11.709
▁trustee	-11.7091
▁evaluation	-11.7095
▁prosecuted	-11.7095
▁charm	-11.7095
▁glory	-11.7096
▁pivotal	-11.7097
▁1994,	-11.7098
▁diagnosis	-11.71
▁varied	-11.71
▁katrina	-11.71
▁1972	-11.7102
mails	-11.7103
▁sheep	-11.7106
▁inform	-11.7107
▁8:30	-11.7108
▁mysterious	-11.7108
▁kraft	-11.7108
▁evil	-11.711
▁countless	-11.7112
▁answering	-11.7115
▁thrive	-11.7116
▁graduating	-11.7116
▁lavish	-11.7117
▁positioned	-11.7121
▁latter	-11.7123
▁couch	-11.7124
▁shaped	-11.7125
▁bas	-11.7126
▁leaks	-11.7127
▁sacks	-11.7128
▁ralph	-11.7129
▁beliefs	-11.713
▁101	-11.713
nor	-11.713
▁blaze	-11.7131
▁falcons	-11.7132
▁overhead	-11.7134
vy	-11.7134
▁storms	-11.7137
▁ligament	-11.7138
▁mcc	-11.7138
▁scottish	-11.7141
▁donate	-11.7142
▁boxer	-11.7142
ó	-11.7144
▁chargers	-11.7145
▁misdemeanor	-11.7146
▁lobbyist	-11.7146
ral	-11.7148
▁ser	-11.7148
▁acquiring	-11.715
▁accelerated	-11.715
▁portray	-11.7153
▁hostages	-11.7153
-13	-11.7156
▁rented	-11.7156
▁alley	-11.7158
▁effectiveness	-11.7159
▁minimize	-11.7163
▁pray	-11.7163
▁horror	-11.7167
▁unacceptable	-11.7168
chen	-11.7168
▁booming	-11.7171
▁jab	-11.7173
▁jaw	-11.7174
▁lands	-11.7177
▁pri	-11.7177
▁convincing	-11.7179
▁tapped	-11.718
▁plagued	-11.7181
▁floating	-11.7182
▁ambulance	-11.7184
▁fails	-11.7186
▁georgian	-11.7186
▁compact	-11.7187
▁lesbian	-11.7188
▁janeiro	-11.7188
▁yoga	-11.719
▁chin	-11.7194
▁feat	-11.7194
-0	-11.7195
▁il	-11.7196
▁plunge	-11.7196
▁interference	-11.7197
used	-11.7197
▁luke	-11.7197
▁wheeler	-11.72
west	-11.7202
▁conclude	-11.7205
▁cats	-11.7206
▁obscure	-11.7209
▁conversion	-11.7209
▁languages	-11.7209
▁titans	-11.721
mmer	-11.7211
,800	-11.7212
▁newman	-11.7212
▁concerning	-11.7212
▁angered	-11.7214
▁intervene	-11.7217
▁influx	-11.7217
▁shelves	-11.7217
▁14,	-11.7219
▁sham	-11.7225
track	-11.7227
▁endless	-11.723
▁denmark	-11.723
▁tablets	-11.7233
▁representation	-11.7235
▁monster	-11.7235
makers	-11.7248
▁practically	-11.7248
risk	-11.7248
▁fallout	-11.7248
▁zach	-11.7249
▁johan	-11.7252
▁gaming	-11.7255
▁reliance	-11.7256
▁pal	-11.7259
ically	-11.7259
▁mir	-11.726
▁dug	-11.726
▁nightclub	-11.7261
▁downward	-11.7261
▁intern	-11.7262
▁carpet	-11.7263
▁poet	-11.7265
▁deserved	-11.7269
▁furious	-11.7272
▁belichick	-11.7273
▁garcía	-11.7273
ika	-11.7273
▁surviving	-11.7277
▁ji	-11.7281
▁unarmed	-11.7282
▁deliberately	-11.7286
▁competed	-11.7286
▁aiming	-11.7287
▁kara	-11.7288
▁organizer	-11.7289
▁$250,000	-11.729
▁distinguish	-11.7292
▁fantastic	-11.7294
▁unsuccessful	-11.7298
▁endowment	-11.7298
▁mediterranean	-11.7303
without	-11.7304
▁nigerian	-11.7305
▁dated	-11.7307
▁undercover	-11.7308
▁deter	-11.7312
▁unaware	-11.7315
▁lounge	-11.7315
gov	-11.7319
▁misleading	-11.7321
▁buyout	-11.7323
▁entity	-11.7324
▁imperial	-11.7324
▁loses	-11.7327
dle	-11.733
▁kenyan	-11.7332
▁françois	-11.7333
▁courage	-11.7333
tim	-11.7333
▁weaken	-11.7334
▁exclusively	-11.7336
ough	-11.7337
▁hormone	-11.7337
load	-11.7339
▁$1.4	-11.7339
▁swiftly	-11.7345
▁notorious	-11.7345
▁grove	-11.7345
▁pleasure	-11.7346
▁vent	-11.7346
▁antigovernment	-11.7347
▁hyper	-11.7349
▁directions	-11.7351
▁monte	-11.7353
▁operational	-11.7355
bee	-11.7364
▁trim	-11.7364
▁criteria	-11.7367
▁contends	-11.7369
▁grandson	-11.7373
▁hamid	-11.7375
▁brexit	-11.7377
▁visitor	-11.7379
▁idaho	-11.738
▁liquor	-11.738
▁cinema	-11.7385
▁carmelo	-11.7385
▁350	-11.7387
▁certified	-11.7389
▁hearts	-11.7389
▁michel	-11.739
vent	-11.7392
▁consortium	-11.7393
▁intersection	-11.7393
ologist	-11.7393
▁logic	-11.7396
▁abortions	-11.7398
wash	-11.7398
▁tricky	-11.7399
▁unexpectedly	-11.74
▁hosting	-11.74
▁galaxy	-11.7401
▁miguel	-11.7406
▁altered	-11.7407
▁1966	-11.7407
▁tires	-11.7408
▁bratton	-11.7414
▁chaotic	-11.7414
aged	-11.7414
▁servers	-11.7415
▁intensive	-11.7416
▁campaigned	-11.7417
▁improper	-11.7418
▁kosovo	-11.7419
▁glance	-11.7419
▁0.2	-11.7422
▁geithner	-11.7423
▁potent	-11.7423
▁itunes	-11.7424
rn	-11.7427
▁homicide	-11.7427
▁scratch	-11.7427
▁stony	-11.7428
gal	-11.743
▁relieved	-11.7432
▁et	-11.7434
▁classical	-11.7438
rus	-11.7438
▁parish	-11.7438
books	-11.7439
▁pelosi	-11.744
▁venezuelan	-11.744
▁ripped	-11.744
▁capped	-11.7442
▁discounts	-11.7442
lum	-11.7442
north	-11.7443
▁expire	-11.7445
▁superstar	-11.7445
▁kills	-11.7447
▁suite	-11.745
▁server	-11.7453
▁outsiders	-11.7454
▁convenience	-11.7457
▁jorge	-11.7463
▁$27	-11.7464
▁abdel	-11.7467
live	-11.747
▁independently	-11.7471
▁lamb	-11.7473
▁kidnapped	-11.7475
▁recreational	-11.7476
▁erik	-11.7477
▁mechanical	-11.7478
▁var	-11.7478
▁disabilities	-11.7479
▁brennan	-11.7479
▁spell	-11.7481
▁santos	-11.7484
▁scarce	-11.7485
▁kal	-11.7485
▁125	-11.7489
▁printing	-11.749
▁gall	-11.7494
rise	-11.7494
▁proving	-11.7497
▁leftist	-11.75
ure	-11.7502
▁partnerships	-11.7502
▁exhausted	-11.7504
▁29.	-11.7504
erman	-11.7505
▁coordination	-11.7505
▁committing	-11.7506
▁ducks	-11.7507
▁soda	-11.7507
▁)	-11.7508
▁tunnels	-11.7511
▁bachelor	-11.7514
▁2016.	-11.7518
▁liberals	-11.7519
▁painter	-11.7521
▁1995,	-11.7522
▁stabilize	-11.7523
▁uncovered	-11.7527
▁yacht	-11.7527
▁spray	-11.7528
zy	-11.7528
owski	-11.7528
▁tally	-11.7528
▁cod	-11.7531
▁poster	-11.7534
▁prevail	-11.7535
working	-11.7536
gger	-11.7536
▁insisting	-11.7537
▁strauss	-11.7537
▁1983	-11.7537
▁projections	-11.754
▁guinea	-11.754
▁profound	-11.7542
▁lion	-11.7545
▁makeup	-11.7545
▁collision	-11.7547
▁elimination	-11.7549
▁genome	-11.755
aro	-11.7551
▁bang	-11.7551
▁murders	-11.7555
▁$1.6	-11.7555
▁@	-11.7557
▁inevitably	-11.7558
bil	-11.7558
▁europeans	-11.7559
▁mau	-11.7562
▁outreach	-11.7562
▁julie	-11.7563
name	-11.7564
▁enterprises	-11.7564
source	-11.7565
▁aisle	-11.7565
▁patrons	-11.7567
▁seller	-11.7568
▁forming	-11.7569
▁imagined	-11.757
▁skip	-11.757
▁advantages	-11.7571
lift	-11.7572
▁priced	-11.7573
▁banning	-11.7573
▁nerve	-11.7573
▁deploy	-11.7577
▁wie	-11.7579
▁chapel	-11.758
▁innocence	-11.758
▁gran	-11.758
93	-11.758
py	-11.758
▁1981	-11.758
▁ridgefield	-11.7581
▁gloves	-11.7582
▁1-1	-11.7583
▁justified	-11.7583
▁organ	-11.7583
imi	-11.7585
▁employ	-11.7588
▁henderson	-11.7588
▁boots	-11.7591
▁sympathetic	-11.7593
▁disappearance	-11.7593
▁flexible	-11.7593
▁denies	-11.7594
▁lining	-11.7595
control	-11.7596
▁opposes	-11.7596
▁margaret	-11.7597
▁supplied	-11.7598
▁morales	-11.7599
▁globally	-11.7601
▁subsequently	-11.7601
▁discourage	-11.7602
▁jake	-11.7603
▁wears	-11.7604
▁catches	-11.7605
try	-11.7606
▁debated	-11.7608
▁compensate	-11.7611
▁inadequate	-11.7612
▁fulfill	-11.7614
▁timetable	-11.7617
▁slap	-11.7618
▁naming	-11.7619
▁troop	-11.7623
▁integrated	-11.7625
▁yi	-11.7627
ain	-11.7628
▁essence	-11.7628
▁sympathy	-11.7628
▁foreclosures	-11.7636
▁1968	-11.7636
▁sluggish	-11.7637
een	-11.7638
▁(8	-11.7639
▁spurred	-11.764
▁distinct	-11.764
▁nephew	-11.7641
▁paperwork	-11.7643
▁waved	-11.7646
▁hike	-11.7647
aka	-11.7648
media	-11.765
▁physicians	-11.7651
▁stringer	-11.7652
▁protested	-11.7652
▁cleric	-11.7653
▁jacksonville	-11.7653
▁inherited	-11.7654
▁proxy	-11.7655
▁faction	-11.7655
▁affecting	-11.7656
▁edison	-11.7659
▁macy	-11.766
sponsored	-11.7661
▁miners	-11.7664
▁accompanying	-11.7665
▁blanket	-11.7665
▁echo	-11.7667
▁stones	-11.7668
▁sizable	-11.7672
▁clues	-11.7673
▁showdown	-11.7673
▁lacks	-11.7676
▁merchants	-11.7679
▁fog	-11.768
▁belongs	-11.7681
▁fits	-11.7682
▁fist	-11.7682
▁bans	-11.7688
▁$70	-11.7689
bol	-11.7689
▁undefeated	-11.769
▁casting	-11.7691
▁lew	-11.7692
▁remembers	-11.7694
▁winston	-11.7695
▁technically	-11.7698
▁settling	-11.7699
▁$45	-11.7702
▁tabloid	-11.7703
▁fares	-11.7703
▁36,	-11.7704
▁attempting	-11.7706
▁skype	-11.7707
▁pale	-11.7708
▁roma	-11.771
▁interrupted	-11.7711
▁verge	-11.7711
▁daunting	-11.7712
▁racetrack	-11.7714
▁logan	-11.7714
▁worship	-11.7715
▁clashed	-11.772
▁pra	-11.772
▁threatens	-11.772
ien	-11.7725
▁golfers	-11.7728
▁artillery	-11.773
post	-11.7734
▁pyongyang	-11.7735
▁ontario	-11.7735
▁19.	-11.7735
▁album	-11.7736
▁vin	-11.7737
▁explosions	-11.7738
▁bureaucracy	-11.7739
leading	-11.7739
▁westport	-11.774
▁8-	-11.7744
▁1962	-11.7744
▁revealing	-11.7747
▁dash	-11.7749
▁surrender	-11.7752
▁solidarity	-11.7752
▁5:30	-11.7752
▁janet	-11.7753
▁draghi	-11.7753
▁siege	-11.7754
▁sinking	-11.7755
▁indicates	-11.7759
aire	-11.7759
▁constituents	-11.776
▁qa	-11.7761
73	-11.7761
▁podium	-11.7761
▁bernstein	-11.7762
▁curator	-11.7762
▁catholics	-11.7762
▁improperly	-11.7762
▁$80	-11.7762
▁flower	-11.7764
▁ios	-11.7769
make	-11.7771
▁patents	-11.7772
▁internationally	-11.7772
▁scan	-11.7773
▁youths	-11.7774
▁3.5	-11.7774
▁schneider	-11.7775
▁adventure	-11.7778
▁battlefield	-11.778
▁$5,000	-11.7781
▁upside	-11.7782
▁shaky	-11.7782
▁awful	-11.7783
▁accuse	-11.7784
▁ter	-11.7786
ual	-11.7788
▁fatigue	-11.7789
▁slice	-11.7791
▁melbourne	-11.7793
▁derivatives	-11.7793
▁sgt	-11.7793
bach	-11.7795
▁prepares	-11.7795
▁vol	-11.7795
mate	-11.7796
▁posada	-11.7797
change	-11.7799
▁1963	-11.7799
show	-11.78
▁trainers	-11.7802
pur	-11.7805
▁connecting	-11.7806
▁shocking	-11.7808
▁reds	-11.7809
▁turnover	-11.781
▁bite	-11.7814
▁gallons	-11.7815
▁galleries	-11.7815
▁joan	-11.7816
▁valid	-11.7819
▁supplement	-11.7819
▁treatments	-11.7819
bling	-11.782
▁reversal	-11.782
▁volatility	-11.782
▁scalia	-11.782
▁railway	-11.7821
▁alternate	-11.7824
anti	-11.7828
▁currencies	-11.7829
▁revenge	-11.7829
etta	-11.783
▁ras	-11.7831
▁subscription	-11.7831
▁flint	-11.7833
open	-11.7834
▁identical	-11.7838
▁descent	-11.7838
▁reinforce	-11.7838
stop	-11.7841
▁obstacle	-11.7845
▁yelled	-11.7846
▁ideology	-11.7847
▁corrections	-11.7847
▁unwilling	-11.785
erson	-11.7852
▁2018	-11.7853
▁fade	-11.7855
▁wilpon	-11.7856
▁cheers	-11.7859
▁monument	-11.7859
▁messaging	-11.7861
▁unpaid	-11.7862
▁wet	-11.7862
blower	-11.7864
▁6-2,	-11.7866
thank	-11.7867
▁nasdaq	-11.7869
▁simmons	-11.7869
country	-11.7869
▁decorated	-11.7871
▁anytime	-11.7873
store	-11.7877
▁satisfy	-11.7878
▁martha	-11.7879
▁contaminated	-11.7879
ffer	-11.7883
860)	-11.7883
▁6.	-11.7883
▁tesla	-11.7887
▁fiction	-11.7889
▁processes	-11.789
▁ears	-11.789
▁cheering	-11.7891
▁ridiculous	-11.7893
▁13,	-11.7894
▁mara	-11.7894
▁treasure	-11.7897
▁midfielder	-11.7902
▁andrea	-11.7903
▁spieth	-11.7905
í	-11.7906
▁scouting	-11.7908
▁deserves	-11.7909
fashioned	-11.7911
▁desperately	-11.7911
▁bids	-11.7912
▁$22	-11.7913
mu	-11.7915
▁914-	-11.7915
▁wounding	-11.7917
▁honey	-11.7917
▁2016,	-11.792
▁pools	-11.7921
sburg	-11.7925
still	-11.7928
▁burial	-11.7929
▁kris	-11.7929
▁brush	-11.7933
▁38,	-11.7933
▁rooted	-11.7934
▁mono	-11.7934
▁assure	-11.7936
uck	-11.794
stage	-11.794
▁brewer	-11.7941
▁township	-11.7941
▁franco	-11.7941
▁maduro	-11.7942
four	-11.7946
▁jokes	-11.7946
▁hsbc	-11.7946
▁designers	-11.7949
tsu	-11.7951
▁bunker	-11.7952
▁scar	-11.7952
▁ol	-11.7954
▁rep	-11.7954
▁cabin	-11.7956
power	-11.7957
▁fixing	-11.7958
▁fairway	-11.7958
▁bump	-11.7959
▁shepherd	-11.796
▁levin	-11.7963
▁rand	-11.7963
▁guilt	-11.7964
▁multinational	-11.7965
▁monica	-11.7965
▁announcer	-11.7965
▁motorcycle	-11.7965
▁advertisement	-11.797
▁instagram	-11.7978
▁acquitted	-11.7978
▁seated	-11.7979
▁slate	-11.798
speaking	-11.7981
▁habitat	-11.7986
▁hank	-11.7986
sol	-11.7986
▁mari	-11.7988
vol	-11.7994
▁thrust	-11.7997
▁jessica	-11.7997
▁battled	-11.7997
filled	-11.7997
zzo	-11.7997
eck	-11.7999
▁purple	-11.8001
case	-11.8003
▁steer	-11.8004
▁ambition	-11.8007
▁wishes	-11.8009
▁drops	-11.801
▁tighter	-11.8011
▁roddick	-11.8015
▁outskirts	-11.8019
▁precious	-11.802
▁theories	-11.802
▁intercepted	-11.8021
▁chess	-11.8022
▁autonomy	-11.8024
▁surf	-11.8025
▁liquidity	-11.8025
▁tightly	-11.8027
▁laps	-11.8027
▁shabab	-11.8033
fit	-11.8034
▁ariz	-11.8034
▁unrelated	-11.8034
brook	-11.8035
▁appoint	-11.8038
▁console	-11.8038
▁cracked	-11.8038
▁hopkins	-11.8042
berry	-11.8044
hood	-11.8044
▁keyboard	-11.8045
▁performers	-11.8046
▁hofstra	-11.8047
▁1,200	-11.8048
log	-11.8048
▁fearing	-11.8049
▁dome	-11.805
▁trader	-11.8051
▁tender	-11.8051
▁patterson	-11.8052
▁purchasing	-11.8052
▁$24	-11.8054
▁incoming	-11.8055
▁summoned	-11.8056
ann	-11.8056
▁0.1	-11.8057
▁concede	-11.8057
▁haram	-11.8058
▁minus	-11.8059
▁1978	-11.806
▁oyster	-11.8061
▁1973	-11.8062
▁bath	-11.8065
▁180	-11.8065
▁surgeon	-11.8066
án	-11.8069
▁enclave	-11.807
▁garnett	-11.807
▁$21	-11.8071
▁kas	-11.8074
gas	-11.8075
▁electorate	-11.8075
▁psychology	-11.8075
▁braun	-11.8075
▁ronaldo	-11.8078
▁$28	-11.8082
▁flaws	-11.8083
▁gibson	-11.8084
▁embarrassment	-11.8084
▁poorest	-11.8084
burn	-11.8089
▁revolt	-11.8093
▁mccann	-11.8093
cat	-11.8094
▁kha	-11.8095
▁respondents	-11.8098
▁richest	-11.8099
▁smuggling	-11.8103
lit	-11.8104
▁prestigious	-11.8107
▁vintage	-11.8107
▁parenthood	-11.8107
▁separatist	-11.811
▁experiencing	-11.8112
▁pregnancy	-11.8112
▁bou	-11.8113
▁canvas	-11.8113
▁analyzed	-11.8113
▁williamsburg	-11.8114
idi	-11.8114
▁stint	-11.8115
▁trap	-11.8118
▁hewlett	-11.8126
▁legitimacy	-11.8126
▁maneuver	-11.8126
▁predominantly	-11.8126
▁feud	-11.8126
▁spencer	-11.8126
▁rewards	-11.8128
▁roadside	-11.8128
▁checkpoint	-11.8128
▁motive	-11.813
▁privilege	-11.8135
▁sensors	-11.8136
▁shower	-11.8137
▁hawk	-11.8139
▁smallest	-11.814
▁secretly	-11.814
▁statistical	-11.8145
ees	-11.8148
▁kidney	-11.815
▁suspicions	-11.815
cr	-11.8151
▁prayers	-11.8152
▁divorced	-11.8152
zel	-11.8153
▁fraudulent	-11.8153
▁gau	-11.8157
▁subcommittee	-11.8158
▁devastated	-11.8159
rid	-11.816
▁distraction	-11.8162
▁provoked	-11.8163
▁hail	-11.8164
▁interstate	-11.8164
▁nominees	-11.8165
▁tighten	-11.8165
▁animated	-11.8167
▁medalist	-11.817
▁campuses	-11.817
▁patricia	-11.8172
rating	-11.8173
▁akin	-11.8176
▁waving	-11.8177
▁anticipate	-11.8177
▁60-	-11.818
green	-11.818
▁sidelined	-11.818
▁cher	-11.818
▁prosecute	-11.8182
list	-11.8182
▁drastically	-11.8186
bad	-11.8187
bag	-11.8187
▁appreciation	-11.8191
▁buddhist	-11.8191
▁mormon	-11.8191
▁populated	-11.8192
using	-11.8194
▁med	-11.8195
▁graves	-11.8198
▁kickoff	-11.8199
▁dividends	-11.8199
▁fedex	-11.8199
▁assisted	-11.82
▁albeit	-11.82
▁robot	-11.8201
▁poses	-11.8201
▁fishermen	-11.8201
▁underway	-11.8211
▁bizarre	-11.8214
▁elegant	-11.8214
▁hurdle	-11.8215
▁tripoli	-11.8216
▁relate	-11.8217
security	-11.8218
▁aunt	-11.822
▁$600	-11.8222
▁$2.5	-11.8225
league	-11.8228
▁$23	-11.8228
horn	-11.8228
▁nicole	-11.8231
▁kay	-11.8231
cle	-11.8233
through	-11.8234
▁ailing	-11.8234
▁surplus	-11.8236
▁9:30	-11.8237
▁sanctuary	-11.8238
▁acute	-11.8238
▁agrees	-11.8238
ient	-11.824
ground	-11.8241
▁norwegian	-11.8242
▁racism	-11.8242
▁southampton	-11.8247
▁placement	-11.8249
▁sake	-11.8253
▁tyson	-11.8253
▁crashes	-11.826
dling	-11.826
▁appointments	-11.8261
▁boundaries	-11.8261
eer	-11.8263
▁hurricanes	-11.8263
mos	-11.8264
▁penny	-11.8265
▁separation	-11.8266
▁39,	-11.8266
▁copper	-11.8271
▁circulated	-11.8272
▁mack	-11.8273
mine	-11.8274
ify	-11.8274
▁advancing	-11.8275
▁rigorous	-11.8275
▁thrilled	-11.8276
▁immunity	-11.828
▁lemon	-11.8281
come	-11.8281
▁intentionally	-11.8283
▁powerhouse	-11.8283
▁dale	-11.8285
▁vest	-11.8287
▁santiago	-11.8289
▁blogs	-11.829
▁sav	-11.829
▁lanka	-11.8291
▁rub	-11.8292
▁wo	-11.8292
▁7.	-11.8296
llo	-11.8298
▁intriguing	-11.8299
▁regulated	-11.8299
lou	-11.8299
▁deliberations	-11.8299
strom	-11.8301
▁confronting	-11.8302
▁diving	-11.8303
▁recounted	-11.8306
▁woo	-11.8308
▁deliberate	-11.8308
▁fortunate	-11.8308
▁unpredictable	-11.8308
▁tragic	-11.8308
▁monitored	-11.8308
▁opted	-11.8309
9,000	-11.831
rock	-11.831
▁myers	-11.8312
▁reactions	-11.8314
▁weiss	-11.8315
▁boko	-11.8317
having	-11.8317
▁genocide	-11.8318
▁commissioned	-11.8321
▁tortured	-11.8321
▁msnbc	-11.8325
▁midterm	-11.8326
▁presenting	-11.8326
42	-11.8327
▁worrying	-11.8333
▁28-	-11.8333
▁stamps	-11.8336
▁charleston	-11.8337
agent	-11.8337
▁1992,	-11.8343
▁renovation	-11.8344
▁suzuki	-11.8346
▁eddie	-11.8347
▁proponents	-11.8348
▁silk	-11.8353
pacific	-11.8354
▁anticipation	-11.836
▁cain	-11.8362
▁27-	-11.8371
▁delegate	-11.8373
uma	-11.8374
▁employs	-11.8376
▁spun	-11.8378
table	-11.8378
▁exercises	-11.8382
▁anthem	-11.8383
▁geo	-11.8383
▁kiss	-11.8384
▁collateral	-11.8388
▁vienna	-11.8389
▁ch	-11.8389
▁yielded	-11.8394
▁kat	-11.8395
ahead	-11.8397
ux	-11.8399
▁mah	-11.8401
▁attitudes	-11.8403
▁blagojevich	-11.8403
▁slalom	-11.8403
▁eased	-11.8403
▁naked	-11.8404
▁feedback	-11.8404
▁freeman	-11.8408
▁cried	-11.8408
▁unified	-11.841
enko	-11.8412
▁dhabi	-11.8413
og	-11.8414
owitz	-11.8416
bla	-11.8416
▁1974	-11.8416
▁flores	-11.8419
▁credits	-11.8422
late	-11.8428
▁handgun	-11.8428
▁mature	-11.8429
br	-11.843
▁evacuated	-11.8432
▁heating	-11.8433
▁cass	-11.8434
▁prolonged	-11.8435
▁protein	-11.8436
▁till	-11.8437
▁recordings	-11.8438
▁poly	-11.8438
lian	-11.8438
▁bucks	-11.8442
▁coffin	-11.8442
▁explains	-11.8444
▁defect	-11.8448
.75	-11.8449
yl	-11.8451
▁disastrous	-11.8451
▁favorites	-11.8457
▁vonn	-11.8464
▁austrian	-11.8466
▁jesse	-11.8467
going	-11.8468
▁someday	-11.8472
▁chill	-11.8472
ory	-11.8472
▁105	-11.8472
▁flies	-11.8474
matic	-11.8474
▁rubble	-11.8475
leg	-11.8478
▁rage	-11.8478
▁confessed	-11.8478
▁accent	-11.848
▁sinai	-11.848
▁rejection	-11.8481
▁cheek	-11.8481
▁romantic	-11.8482
▁dressing	-11.8482
gna	-11.8483
▁owe	-11.8485
▁psychologist	-11.8485
▁shine	-11.8486
▁sy	-11.8486
char	-11.8488
▁paused	-11.8491
▁1.4	-11.8491
hart	-11.8494
▁upbeat	-11.8495
▁hispanics	-11.8498
▁purse	-11.8499
▁recycling	-11.8499
▁$65	-11.85
▁marriages	-11.8502
▁instantly	-11.8503
▁curriculum	-11.8504
▁neediest	-11.8505
▁recipients	-11.8505
▁makeshift	-11.8506
▁$700	-11.8506
▁executions	-11.8509
▁¥1	-11.851
▁comb	-11.8514
▁imam	-11.8514
▁rust	-11.8518
▁disciplinary	-11.8518
▁endure	-11.8519
▁blatter	-11.8519
▁admiral	-11.8523
pri	-11.8527
▁armored	-11.8528
▁scary	-11.8529
▁traditions	-11.853
▁assaults	-11.8531
▁tainted	-11.8535
84	-11.8538
▁dot	-11.8541
▁1961	-11.8543
▁propose	-11.8546
▁psychiatric	-11.8547
▁sol	-11.8549
▁authentic	-11.8552
▁permanently	-11.8552
▁kre	-11.8553
▁concentrate	-11.8553
▁golfer	-11.8554
▁divisive	-11.8557
gio	-11.8557
▁expose	-11.8559
▁eligibility	-11.8562
eo	-11.8562
▁fumble	-11.8563
▁commentator	-11.8566
▁jinping	-11.8567
▁1999.	-11.8567
▁belonging	-11.8567
▁$32	-11.8571
aud	-11.8571
▁shattered	-11.8578
▁disturbing	-11.8578
gun	-11.8579
stra	-11.858
▁newer	-11.8581
▁coll	-11.8582
▁websites	-11.8585
▁telescope	-11.8586
▁jihad	-11.8587
▁padres	-11.8591
fan	-11.8594
sign	-11.8595
▁kil	-11.8597
▁renew	-11.8598
▁disasters	-11.8599
workers	-11.8599
▁comparing	-11.86
▁biography	-11.8601
▁defeating	-11.8602
▁gee	-11.8602
▁translate	-11.8604
▁mergers	-11.8607
▁booker	-11.8608
▁panama	-11.8611
▁tropical	-11.8615
▁levi	-11.8616
▁42,	-11.8617
▁artistic	-11.8618
▁swings	-11.8618
▁exchanged	-11.8619
▁pfizer	-11.862
bay	-11.8623
▁tenant	-11.8623
▁prohibit	-11.8624
▁sacred	-11.863
▁stirred	-11.863
▁countrywide	-11.8632
▁shutting	-11.8633
▁romania	-11.8638
▁lighter	-11.8638
▁suisse	-11.864
▁riots	-11.8642
▁trailer	-11.8645
ori	-11.8646
▁elliott	-11.8647
▁advising	-11.8649
▁outlet	-11.865
▁checkpoints	-11.8651
▁machinery	-11.8653
▁condo	-11.8653
▁curtain	-11.8654
▁restraint	-11.8656
54	-11.8659
,600	-11.8661
▁tribes	-11.8662
▁proposing	-11.8664
▁ryder	-11.8664
▁1975	-11.8665
mil	-11.8666
▁hum	-11.8666
▁accusation	-11.8667
▁forbes	-11.8669
▁codes	-11.867
yne	-11.8671
▁cater	-11.8672
▁withdrawn	-11.8672
since	-11.8672
▁instability	-11.8674
▁dump	-11.8676
▁jackets	-11.8677
▁21.	-11.868
▁handles	-11.8682
▁academics	-11.8684
▁renewal	-11.8685
▁hatch	-11.8688
▁poetry	-11.8689
▁mayo	-11.869
▁boot	-11.8694
bur	-11.8694
▁whale	-11.8695
▁brave	-11.8695
hold	-11.8695
▁predictions	-11.8697
▁ste	-11.8698
▁(10	-11.8699
▁bug	-11.8704
▁cooling	-11.8706
cca	-11.8707
▁relax	-11.8709
▁comedian	-11.871
▁affidavit	-11.8713
▁grades	-11.8713
▁framed	-11.8713
▁heroes	-11.8713
▁refers	-11.8715
▁bankrupt	-11.8718
▁finland	-11.8719
check	-11.8721
ern	-11.8722
▁pharmacy	-11.8723
▁jeans	-11.8725
▁depressed	-11.8726
▁successes	-11.8728
lot	-11.8729
▁gla	-11.873
▁kandahar	-11.8733
▁substances	-11.8733
▁kate	-11.8733
▁gor	-11.8734
▁kur	-11.8734
tie	-11.8734
▁humble	-11.8736
▁tru	-11.8737
▁45,	-11.8737
▁aluminum	-11.8737
wer	-11.8737
▁needle	-11.8738
ister	-11.8738
.’”	-11.874
▁busch	-11.8741
▁norm	-11.8741
▁rink	-11.8742
▁insufficient	-11.8745
▁tuck	-11.8747
▁chased	-11.8747
▁unofficial	-11.8748
block	-11.8749
▁bot	-11.8751
▁nutrition	-11.8751
▁lobster	-11.8752
▁enrichment	-11.8753
▁anton	-11.8753
▁bosses	-11.8755
ox	-11.8757
▁believing	-11.8757
oon	-11.8758
▁chapman	-11.8759
▁raped	-11.8759
▁coke	-11.8761
▁swap	-11.8762
▁manslaughter	-11.8762
▁jeb	-11.8763
▁160	-11.8765
▁origins	-11.8765
▁spiral	-11.8767
aj	-11.8769
▁amar	-11.8769
▁appreciated	-11.8772
▁revived	-11.8772
▁identities	-11.8772
▁restoring	-11.8772
▁problematic	-11.8772
▁($2	-11.8774
▁trenton	-11.8778
▁mortar	-11.8779
▁starring	-11.8781
▁resentment	-11.8783
say	-11.8785
▁tibet	-11.8785
▁rubin	-11.8787
▁amsterdam	-11.8787
▁flock	-11.8793
▁pig	-11.8797
▁accuracy	-11.8797
▁sketch	-11.88
cl	-11.88
▁watches	-11.8801
▁circus	-11.8802
▁dignity	-11.8807
▁elusive	-11.8807
▁stranded	-11.8807
▁specifics	-11.8807
▁lens	-11.881
▁pipes	-11.881
kill	-11.8813
▁unfolded	-11.8813
▁exceptions	-11.8813
▁tele	-11.8814
▁cushion	-11.8817
▁exclude	-11.8818
▁bookstore	-11.8818
▁availability	-11.8822
▁boutique	-11.8822
▁sometime	-11.8822
▁speeds	-11.8826
▁sneak	-11.8826
▁travels	-11.8827
▁portuguese	-11.8827
▁1969	-11.8829
▁verify	-11.8829
▁cheating	-11.8831
financed	-11.8831
▁qu	-11.8833
col	-11.8836
chu	-11.8841
▁thriving	-11.8842
▁outcry	-11.8842
▁locally	-11.8843
▁4-1	-11.8846
yama	-11.8846
commerce	-11.8847
▁40,000	-11.8847
▁contingent	-11.8852
pic	-11.8853
▁hinted	-11.8856
▁corey	-11.8857
▁peru	-11.8858
▁lam	-11.8859
▁roe	-11.8862
▁nut	-11.8863
▁foley	-11.8863
▁umpire	-11.8864
▁ly	-11.8866
around	-11.8867
▁overseen	-11.8873
▁baton	-11.8874
band	-11.8874
▁protesting	-11.8876
▁sidelines	-11.8876
▁bracket	-11.8876
▁skull	-11.8876
▁sap	-11.888
▁mechanics	-11.888
▁clouds	-11.8884
▁desktop	-11.8887
▁reopened	-11.8887
▁cousins	-11.8892
▁hats	-11.8893
▁gum	-11.8893
▁vel	-11.8896
▁rousseff	-11.8896
before	-11.8897
▁wished	-11.8898
▁nod	-11.8898
▁swat	-11.8899
▁explicitly	-11.8901
▁gomez	-11.8902
▁complexity	-11.8903
▁0.5	-11.8903
▁1.1	-11.8904
▁mueller	-11.8907
path	-11.8909
▁ba	-11.8909
▁stack	-11.8909
▁rift	-11.8912
wo	-11.8912
▁reassure	-11.8913
▁garment	-11.8914
shaped	-11.8915
▁cannon	-11.8917
▁enhanced	-11.8919
▁ethanol	-11.8922
▁tentative	-11.8922
▁radioactive	-11.8922
▁stumbled	-11.8923
both	-11.8924
▁magnetic	-11.8925
▁gel	-11.8926
emi	-11.8926
never	-11.8926
▁revis	-11.8929
▁timeline	-11.8929
▁1993,	-11.893
▁burress	-11.8932
▁uncommon	-11.8932
▁promptly	-11.8934
▁15,000	-11.8935
▁prominence	-11.8937
▁41,	-11.8939
lle	-11.8939
▁unidentified	-11.8942
▁differ	-11.8944
▁ruin	-11.8945
▁sharks	-11.8945
▁whoever	-11.8945
ude	-11.8946
▁municipalities	-11.8947
▁negotiation	-11.895
▁gabriel	-11.895
▁strengthening	-11.8954
%	-11.8957
▁heaven	-11.8958
▁lowering	-11.8959
rel	-11.896
▁strangers	-11.8961
▁ghosn	-11.8962
▁mock	-11.8962
▁frankly	-11.8965
▁finale	-11.8965
▁reservation	-11.8966
▁$26	-11.8967
▁rad	-11.8969
▁defining	-11.8972
▁inclined	-11.8972
▁unfairly	-11.8972
▁trustees	-11.8975
los	-11.8976
▁powder	-11.8977
▁pill	-11.8977
▁instructor	-11.8978
▁applies	-11.8978
▁wiped	-11.8979
▁persist	-11.8981
▁bothered	-11.8982
▁kon	-11.8985
▁ecuador	-11.8987
▁villanova	-11.8987
▁grief	-11.8987
▁kicking	-11.8988
▁envisioned	-11.899
share	-11.899
▁dealings	-11.899
▁restart	-11.8991
▁dictator	-11.8992
sam	-11.8994
▁sana	-11.8997
▁oral	-11.8999
▁slid	-11.8999
▁predicting	-11.9
eva	-11.9001
▁spectacle	-11.9002
▁laser	-11.9005
▁releases	-11.9006
о	-11.9007
▁historians	-11.9008
▁43,	-11.9008
▁lynn	-11.9011
▁daley	-11.9012
▁floyd	-11.9012
▁memorandum	-11.9012
▁reluctance	-11.9017
count	-11.9018
pay	-11.9021
left	-11.9022
▁demolition	-11.9023
eur	-11.9024
bor	-11.9028
▁52,	-11.9028
▁absurd	-11.9028
▁transfers	-11.9029
▁aligned	-11.9031
▁rutherford	-11.9033
▁mystic	-11.9035
▁professors	-11.9039
▁execute	-11.9039
▁acid	-11.904
▁toilet	-11.9044
▁embarrassed	-11.9046
▁stricter	-11.9048
dor	-11.905
▁wildcats	-11.9051
▁4:30	-11.9053
▁spying	-11.9053
▁exemption	-11.9054
▁frequency	-11.9054
▁theaters	-11.9056
▁hollow	-11.9057
awa	-11.9057
watch	-11.9062
▁okinawa	-11.9063
▁terrific	-11.9063
▁ladder	-11.9063
▁posing	-11.9064
▁installing	-11.9066
▁outdoors	-11.9067
▁extradition	-11.9068
aya	-11.9069
▁void	-11.907
▁preparations	-11.9072
▁freight	-11.9073
▁flurry	-11.9073
▁oath	-11.9073
▁mouse	-11.9078
▁territorial	-11.9078
dad	-11.9079
▁signatures	-11.908
▁thi	-11.9082
▁jennings	-11.9084
▁pros	-11.9084
▁undergraduate	-11.9089
▁ramos	-11.909
▁blogger	-11.9091
▁jumper	-11.9091
▁wedge	-11.9091
▁1.6	-11.9092
▁warrants	-11.9093
▁consolidation	-11.9099
▁tortorella	-11.9099
▁baseline	-11.91
▁bands	-11.9101
▁rib	-11.9103
▁goaltender	-11.9104
▁vacuum	-11.9104
▁cue	-11.9104
▁tightening	-11.9105
▁outfield	-11.9112
▁clever	-11.9114
▁sm	-11.9118
▁horrible	-11.9119
▁unauthorized	-11.9119
▁artwork	-11.9126
▁1948	-11.9126
▁comp	-11.9127
ander	-11.9131
talk	-11.9133
-18	-11.9134
▁grind	-11.9136
▁rifles	-11.9137
▁stretching	-11.9139
▁astor	-11.914
▁pep	-11.9141
▁iceland	-11.9148
▁zip	-11.9148
▁minaya	-11.915
▁stemming	-11.9151
▁tire	-11.9154
▁remarkably	-11.9155
mir	-11.9156
▁sei	-11.9158
▁4-0	-11.9159
ear	-11.916
▁35-	-11.9162
▁ignoring	-11.9166
▁subsidy	-11.9166
▁tongue	-11.9166
▁300,000	-11.9166
▁certainty	-11.9167
▁lyon	-11.9169
▁provocative	-11.9171
▁slept	-11.9176
62	-11.9177
▁hagel	-11.9178
▁cartoon	-11.9178
▁interpreted	-11.9181
▁kenny	-11.9183
▁webb	-11.9187
▁rikers	-11.9192
▁gravity	-11.9192
front	-11.9192
theatre	-11.9195
▁exceptional	-11.9198
▁pills	-11.9198
▁beaches	-11.92
▁takata	-11.9202
▁swinging	-11.9203
▁landlords	-11.9205
▁subpoena	-11.9207
▁gaps	-11.9209
▁paulo	-11.9212
▁rallying	-11.9213
ech	-11.9213
▁throat	-11.9213
rest	-11.9215
▁enabled	-11.9215
▁concession	-11.9215
elected	-11.9216
57	-11.9216
▁voluntarily	-11.9217
▁thorough	-11.9217
▁heisman	-11.9218
▁mao	-11.9222
▁magnet	-11.9222
▁unanimous	-11.9223
stick	-11.923
▁pedestrian	-11.9231
▁troy	-11.9232
▁sticks	-11.9233
▁inch	-11.9233
▁idol	-11.9234
▁providence	-11.9234
▁guarded	-11.9235
aff	-11.9236
▁1920	-11.9237
double	-11.9238
▁rational	-11.924
miss	-11.9243
could	-11.9243
▁supervisors	-11.9245
▁sliding	-11.9248
▁stairs	-11.9248
breaking	-11.9249
▁fairness	-11.9251
▁fundamentally	-11.9252
▁$12.	-11.9253
▁imagination	-11.9253
▁ellen	-11.9257
▁instrument	-11.9257
▁dive	-11.9257
▁infield	-11.9258
▁themes	-11.9258
▁assumption	-11.9258
▁lied	-11.9258
▁kilometers	-11.9259
▁chorus	-11.9259
▁boarding	-11.926
▁valentine	-11.9261
assi	-11.9262
▁jared	-11.9264
.”)	-11.9265
▁deli	-11.9267
▁suited	-11.9268
▁marie	-11.9268
▁supposedly	-11.9274
▁fool	-11.9277
▁obtaining	-11.9278
64	-11.9278
link	-11.9281
super	-11.9288
▁bucket	-11.9289
▁composed	-11.9291
gie	-11.9292
▁strait	-11.9292
▁allegiance	-11.9295
▁proceeding	-11.9298
▁pic	-11.93
▁coleman	-11.9301
▁dixon	-11.9301
▁klinsmann	-11.9305
▁steak	-11.9306
▁whip	-11.9306
▁vietnamese	-11.9306
▁rec	-11.9308
▁est	-11.931
и	-11.9311
▁racket	-11.9312
▁grilled	-11.9313
▁forged	-11.9313
▁calculations	-11.9315
▁subjected	-11.9316
▁carnegie	-11.9316
▁petersburg	-11.9317
▁$29	-11.9317
neill	-11.9318
▁shea	-11.9318
him	-11.9318
cell	-11.9319
sub	-11.9319
▁clan	-11.932
▁grounded	-11.9323
pal	-11.9325
▁sho	-11.9325
▁canadiens	-11.9326
president	-11.9326
▁wives	-11.9327
▁photographers	-11.9327
▁portable	-11.933
▁drum	-11.9331
▁stra	-11.9332
▁fiber	-11.9332
▁spacecraft	-11.9333
▁disciplined	-11.9335
▁colin	-11.934
▁affects	-11.9341
▁adjustment	-11.9343
▁capt	-11.9344
▁petty	-11.9344
▁ul	-11.9344
▁flows	-11.9345
▁alarmed	-11.9345
sler	-11.9346
▁inconsistent	-11.9348
via	-11.9349
hin	-11.9349
▁lieberman	-11.9349
▁attorneys	-11.9352
▁cancellation	-11.9353
▁dempsey	-11.9353
▁renaissance	-11.9353
▁sudanese	-11.9353
boat	-11.9356
▁prevailed	-11.9357
▁prep	-11.9358
▁26-	-11.9361
▁stefan	-11.9363
▁commentators	-11.9367
▁consequence	-11.9369
▁hicks	-11.9369
▁mullah	-11.9371
▁bald	-11.9371
▁attraction	-11.9372
packard	-11.9372
▁recount	-11.9374
▁steroid	-11.9374
quarters	-11.9374
▁flo	-11.9375
▁abstract	-11.9379
▁ibrahim	-11.9379
serving	-11.9381
▁linger	-11.9382
▁lobbied	-11.9384
▁graffiti	-11.9384
▁osama	-11.9384
uch	-11.9389
▁champagne	-11.9389
pat	-11.939
▁rag	-11.9392
▁wheels	-11.9392
▁haul	-11.9392
eng	-11.9392
▁seminar	-11.9395
▁predators	-11.9396
▁$55	-11.9396
▁seekers	-11.9399
▁particles	-11.9402
▁henrik	-11.9403
▁forehand	-11.9405
▁landslide	-11.9405
▁conflicting	-11.9406
▁enlisted	-11.9409
▁fireworks	-11.9412
oun	-11.9412
▁7,000	-11.9412
▁cups	-11.9415
▁forests	-11.9415
▁clarity	-11.9416
▁gem	-11.9416
▁flagship	-11.9417
▁affection	-11.9419
▁8,000	-11.9419
ichi	-11.9421
▁monmouth	-11.9421
▁futures	-11.9422
▁andrews	-11.9426
eight	-11.9426
▁avery	-11.9428
▁confession	-11.9429
▁conscious	-11.9429
lier	-11.9431
▁diocese	-11.9431
▁finishes	-11.9434
▁centerpiece	-11.9434
▁schu	-11.9436
▁clarify	-11.9437
▁straightforward	-11.9437
▁solomon	-11.9444
▁knocking	-11.9444
41	-11.9444
▁1.7	-11.9446
▁wizards	-11.9448
▁stranger	-11.9449
▁scramble	-11.9449
▁rip	-11.945
una	-11.9452
▁exempt	-11.9453
▁explicit	-11.9453
▁48,	-11.9455
▁piled	-11.9456
▁archives	-11.9458
▁builders	-11.946
-0)	-11.9461
▁mentality	-11.9462
▁sil	-11.9462
!’	-11.9462
▁slider	-11.9463
love	-11.9463
▁0.3	-11.9466
▁underdog	-11.9467
▁escalating	-11.9469
▁subsidized	-11.9469
,300	-11.947
▁commissioners	-11.947
▁(9	-11.9473
▁unanimously	-11.9473
▁impoverished	-11.9474
▁cables	-11.9476
▁sadr	-11.9477
▁spirits	-11.9478
▁breathe	-11.9479
▁bengals	-11.9481
▁achievements	-11.9483
▁rows	-11.9483
▁$200,000	-11.9485
▁cure	-11.9486
,400	-11.9489
zan	-11.9491
▁zo	-11.9491
def	-11.9494
step	-11.9495
▁consultation	-11.9497
▁900	-11.9499
rr	-11.95
▁mol	-11.95
▁cluster	-11.9501
▁pouring	-11.9503
▁myth	-11.9504
rov	-11.9504
lus	-11.9505
▁barbecue	-11.9506
▁summary	-11.9506
▁digging	-11.9506
▁isaac	-11.9507
▁skate	-11.9508
▁berger	-11.9508
isa	-11.9508
▁fractured	-11.9508
▁lama	-11.9508
▁crab	-11.951
▁julian	-11.9511
▁streams	-11.9513
▁spi	-11.9515
▁alibaba	-11.9516
▁soap	-11.9517
▁prohibition	-11.9517
▁ghana	-11.9518
▁helen	-11.9518
ties	-11.9519
▁acknowledges	-11.952
▁hallway	-11.9521
▁embracing	-11.9522
▁freestyle	-11.9524
▁ports	-11.9524
▁sel	-11.9529
▁drastic	-11.9532
▁storefront	-11.9533
▁departing	-11.9534
▁skiing	-11.9534
▁rot	-11.9535
▁fordham	-11.9535
▁bean	-11.9536
eyed	-11.9536
▁delight	-11.9536
▁chronicle	-11.9538
▁liberia	-11.954
ison	-11.9542
▁arise	-11.9544
▁cheney	-11.9545
dom	-11.9546
▁envision	-11.9546
▁tactical	-11.9548
▁accomplishments	-11.9551
▁enact	-11.9553
yer	-11.9553
е	-11.9554
74	-11.9554
▁overcame	-11.9557
bak	-11.9557
▁solved	-11.9558
▁cite	-11.9559
▁xinjiang	-11.9559
▁strictly	-11.9561
▁sheer	-11.9562
▁mayer	-11.9565
▁chanted	-11.9567
vert	-11.9568
▁autumn	-11.957
▁peyton	-11.957
▁kashmir	-11.957
▁steering	-11.9571
▁flushing	-11.9573
▁scrambled	-11.9573
zen	-11.9574
▁lifelong	-11.9574
▁distinctive	-11.9575
▁perkins	-11.9575
▁paths	-11.9576
▁genetically	-11.9576
▁wy	-11.9578
▁mcnamee	-11.9581
▁cherry	-11.9581
▁1989,	-11.9585
▁kun	-11.9585
▁unite	-11.9585
▁reap	-11.9588
▁orientation	-11.9591
▁arrange	-11.9593
▁remark	-11.9595
▁manual	-11.9597
▁rooney	-11.9597
appointed	-11.9597
▁pitt	-11.9601
▁gaze	-11.9601
▁arose	-11.9603
million	-11.9603
yeah	-11.9603
▁capitalize	-11.9604
▁operatives	-11.9605
▁ecosystem	-11.9607
does	-11.9608
▁setup	-11.9615
▁linking	-11.9617
▁experimental	-11.9617
whether	-11.9619
▁facto	-11.9619
▁firefighter	-11.962
▁billed	-11.9623
▁petraeus	-11.9624
pu	-11.9625
▁neglect	-11.9626
▁1-	-11.9626
significant	-11.9629
▁vaccine	-11.9629
▁premiere	-11.9631
▁kei	-11.9632
▁bern	-11.9634
▁envelope	-11.9637
▁schedules	-11.9639
▁tapping	-11.9641
▁preference	-11.9642
▁consume	-11.9643
▁geographic	-11.9643
]	-11.9645
priced	-11.9647
▁sk	-11.9649
▁signaling	-11.965
▁huckabee	-11.965
▁injunction	-11.965
▁translation	-11.965
▁cent	-11.9653
nce	-11.9654
▁switching	-11.9655
▁blitz	-11.9656
▁implement	-11.9659
▁drawings	-11.9661
▁46,	-11.9661
▁beneficiaries	-11.9661
▁catherine	-11.9661
▁exceeding	-11.9663
coming	-11.9664
▁kindle	-11.9664
paying	-11.9665
▁sed	-11.9666
▁devised	-11.9666
▁weakening	-11.9668
should	-11.9669
sim	-11.9669
▁museums	-11.967
▁reinforced	-11.9672
▁drills	-11.9674
▁deliveries	-11.9674
▁judged	-11.9675
▁backhand	-11.9676
▁decides	-11.9676
▁bert	-11.9677
-3,	-11.9678
▁seafood	-11.9679
▁birmingham	-11.9683
▁havana	-11.9683
-6)	-11.9684
▁stadiums	-11.9684
▁aspirations	-11.9685
▁surrendered	-11.9688
▁indigenous	-11.9688
▁sandwich	-11.9689
▁assessments	-11.9692
▁mcg	-11.9695
strong	-11.9695
▁crush	-11.9695
tru	-11.9697
▁ir	-11.9698
▁applauded	-11.9699
▁upheaval	-11.9699
▁chunk	-11.9703
▁brodeur	-11.9705
▁vernon	-11.9705
▁molina	-11.9705
-1)	-11.9706
▁dal	-11.9708
▁55,	-11.971
▁tendency	-11.971
▁refrain	-11.9713
▁colony	-11.9716
▁predecessors	-11.9716
▁preserved	-11.9717
▁lineman	-11.9718
▁47,	-11.9718
▁constructed	-11.972
▁curiosity	-11.9721
▁welcoming	-11.9721
other	-11.9721
▁critique	-11.9726
▁nonpartisan	-11.9726
▁newcomers	-11.9728
▁4-3	-11.9728
.50.	-11.9729
▁reign	-11.9734
▁stormed	-11.9734
▁interact	-11.9736
▁logistics	-11.9737
▁inviting	-11.9737
▁roommate	-11.9737
▁survivor	-11.9738
▁tick	-11.9738
▁54,	-11.9739
▁renowned	-11.9739
▁manufactured	-11.9745
▁vigorously	-11.9746
▁salvador	-11.9747
▁broadcasters	-11.9747
start	-11.9749
▁expo	-11.9751
colored	-11.9751
▁sul	-11.9751
ila	-11.9754
▁advise	-11.9754
turn	-11.9754
profit	-11.9759
▁yellen	-11.976
▁clarke	-11.9761
▁marvel	-11.9762
▁dose	-11.9764
▁vastly	-11.9765
▁preview	-11.9766
▁competitiveness	-11.9766
bell	-11.9767
▁squeezed	-11.9771
▁readily	-11.9772
▁exert	-11.9773
▁len	-11.9774
▁undergo	-11.9774
▁khamenei	-11.9775
▁psychiatrist	-11.9775
▁merck	-11.9777
▁23.	-11.9781
▁tales	-11.9781
▁kobe	-11.9782
although	-11.9783
▁bergen	-11.9784
▁blowing	-11.9784
▁assert	-11.9785
grand	-11.9786
▁shan	-11.9787
flight	-11.9788
▁sect	-11.979
▁reservoir	-11.9792
▁totaling	-11.9793
▁prints	-11.9793
▁crunch	-11.9794
▁sailors	-11.9794
qu	-11.9796
▁admissions	-11.9798
▁temper	-11.9798
▁1991,	-11.98
▁gul	-11.9805
▁directive	-11.9808
▁assurances	-11.9808
▁yeah	-11.9809
▁1945	-11.9811
▁abraham	-11.9814
▁heir	-11.9814
▁moratorium	-11.9819
neal	-11.9822
▁indefinitely	-11.9822
▁$35.	-11.9828
▁designation	-11.9828
▁battalion	-11.983
▁coveted	-11.9831
▁capability	-11.9831
è	-11.9833
▁tweet	-11.9833
▁destroying	-11.9834
▁pledges	-11.9835
▁ego	-11.9835
▁precision	-11.9836
▁warfare	-11.9836
bble	-11.9838
▁upfront	-11.984
▁martínez	-11.9841
▁sergio	-11.9841
clock	-11.9842
▁workshop	-11.9842
edge	-11.9843
▁caucuses	-11.9845
▁surging	-11.9847
▁vanished	-11.985
▁rican	-11.9851
▁rudolph	-11.9853
▁trooper	-11.9854
ovic	-11.9855
▁jointly	-11.9856
▁gregg	-11.9858
▁traction	-11.9858
▁deported	-11.9859
▁zen	-11.9859
▁westbrook	-11.986
▁deputies	-11.9863
▁1.8	-11.9867
▁convenient	-11.9869
@	-11.9869
▁profitability	-11.987
▁bloggers	-11.9873
▁funded	-11.9874
▁legislator	-11.9879
▁disrupted	-11.988
bing	-11.9881
▁tal	-11.9881
▁consult	-11.9882
▁consulted	-11.9883
▁danish	-11.9884
▁newtown	-11.9885
holder	-11.9885
pped	-11.989
▁satisfaction	-11.9891
▁vanderbilt	-11.9891
▁aerial	-11.9892
▁cer	-11.9892
▁53,	-11.9894
▁bilateral	-11.9897
wen	-11.9898
▁broadcasts	-11.9901
▁spear	-11.9901
▁presided	-11.9901
▁fitzgerald	-11.9902
▁beans	-11.9902
dine	-11.9904
▁therapist	-11.9908
▁ballet	-11.9908
▁recruitment	-11.9909
▁terrain	-11.991
▁concerts	-11.9911
▁drunk	-11.9912
▁promotional	-11.9913
▁emphasizing	-11.9913
▁rwanda	-11.9915
▁instruction	-11.9916
▁gps	-11.9916
▁observer	-11.9916
▁44,	-11.9917
▁businessmen	-11.9919
uc	-11.9923
▁dumb	-11.9923
▁honduras	-11.9924
▁archive	-11.9924
▁sail	-11.9925
▁timeout	-11.9925
▁hut	-11.9925
▁hug	-11.9926
south	-11.9926
▁bakery	-11.9928
▁gri	-11.9929
▁recognizing	-11.993
▁sotomayor	-11.993
▁dramatically	-11.9931
▁translated	-11.9934
▁myspace	-11.9934
▁measuring	-11.9935
▁algeria	-11.9938
▁oval	-11.9938
▁literary	-11.9941
saving	-11.9942
▁dent	-11.9943
▁aided	-11.9943
arian	-11.9946
▁shar	-11.9946
▁dwight	-11.9946
cross	-11.9947
▁darkness	-11.9947
▁plummeted	-11.9949
▁rulings	-11.995
▁derrick	-11.9952
▁exams	-11.9954
wind	-11.9954
▁jackie	-11.9956
▁arguably	-11.9958
▁tsipras	-11.9958
read	-11.9961
▁sailing	-11.9962
▁rhodes	-11.9963
▁cheat	-11.9965
▁martial	-11.9965
▁squ	-11.9966
▁bab	-11.9968
▁transcript	-11.9971
▁separatists	-11.9971
▁foundations	-11.9972
▁raided	-11.9972
▁epic	-11.9972
▁costing	-11.9973
▁shakespeare	-11.9975
▁compelled	-11.9975
▁lightly	-11.9976
▁carney	-11.9978
▁woke	-11.9981
▁drain	-11.9984
▁51,	-11.9984
▁stationed	-11.9985
▁impeachment	-11.9986
▁upscale	-11.9986
▁swa	-11.9986
▁venue	-11.9987
▁drunken	-11.9987
▁wool	-11.9988
▁washed	-11.999
▁gentle	-11.9991
▁centre	-11.9991
keeping	-11.9993
▁excluded	-11.9995
▁polo	-11.9996
▁[	-11.9997
▁homemade	-11.9998
▁referees	-11.9998
▁bleeding	-11.9999
bly	-12.0002
▁disposal	-12.0003
iro	-12.0003
▁coral	-12.0003
▁mariano	-12.0003
▁aviv	-12.0004
,700	-12.0005
▁outpost	-12.0005
rio	-12.0007
▁assertions	-12.0007
▁skirt	-12.0008
▁negotiator	-12.0009
▁overshadowed	-12.0011
▁6-0	-12.0012
▁unbelievable	-12.0014
fly	-12.0015
▁kir	-12.0016
▁thanked	-12.0017
▁overlooked	-12.0018
▁dispatched	-12.0019
▁kuwait	-12.0019
▁kaplan	-12.0019
▁preserving	-12.002
▁counselor	-12.0021
▁rack	-12.0022
sie	-12.0024
rous	-12.0025
▁roethlisberger	-12.0025
abi	-12.0025
▁riley	-12.0027
▁weber	-12.0032
50,000	-12.0032
pol	-12.0032
▁levine	-12.0033
▁leo	-12.0034
chan	-12.0035
▁rewarded	-12.0035
▁haitian	-12.0036
▁jagr	-12.0036
ela	-12.0037
▁admitting	-12.0037
-21	-12.0038
▁barrage	-12.0038
▁marshal	-12.0038
▁disruption	-12.0039
▁90-	-12.0039
▁recreation	-12.0041
▁4.5	-12.0042
▁thread	-12.0044
▁pumped	-12.005
▁paterno	-12.0053
umi	-12.0058
▁serbian	-12.0059
paul	-12.0059
▁dublin	-12.006
▁prey	-12.006
▁colombian	-12.0061
▁newsroom	-12.0065
agh	-12.0068
▁potato	-12.0068
▁promotes	-12.0068
▁appellate	-12.007
▁garrett	-12.007
▁specter	-12.007
▁overthrow	-12.0072
▁mercury	-12.0075
▁lindsey	-12.0075
▁robots	-12.0075
▁lester	-12.0076
▁captive	-12.0076
▁bridgeport	-12.0077
cco	-12.0077
▁disc	-12.008
▁upstairs	-12.0081
▁robotic	-12.0083
given	-12.0084
▁tucked	-12.0085
▁blockbuster	-12.0087
arm	-12.0087
▁footing	-12.0088
▁tomatoes	-12.0089
▁coney	-12.0089
▁sloan	-12.0091
▁goat	-12.0092
▁indications	-12.0093
▁predictable	-12.0095
▁leaf	-12.0095
▁fancy	-12.0095
▁automated	-12.0098
▁aung	-12.0099
▁luc	-12.01
▁harmful	-12.01
▁roller	-12.0102
▁deferred	-12.0104
▁housed	-12.0107
▁raptors	-12.0109
▁hoop	-12.0114
sum	-12.0114
▁sag	-12.0115
▁layers	-12.0119
▁gru	-12.0121
▁liver	-12.0123
▁nast	-12.0124
gard	-12.0125
▁riverside	-12.0125
▁sums	-12.0125
▁mobil	-12.013
▁carved	-12.0131
▁autonomous	-12.0132
▁chrome	-12.0132
gli	-12.0133
print	-12.0134
▁onetime	-12.0135
▁balancing	-12.0137
bou	-12.014
▁touching	-12.0141
elman	-12.0142
▁premature	-12.0144
▁reply	-12.0147
▁lamp	-12.0148
▁nuggets	-12.0149
▁extract	-12.015
▁championed	-12.015
▁admired	-12.015
▁julia	-12.0154
▁invented	-12.0155
▁traces	-12.0155
▁greeting	-12.0158
aba	-12.0159
▁comparisons	-12.0159
▁creativity	-12.016
▁stunt	-12.0163
ava	-12.0164
lton	-12.0165
▁corridor	-12.0165
▁containers	-12.0165
▁contamination	-12.0166
▁uninsured	-12.0166
▁(2	-12.017
▁fearful	-12.0172
▁rope	-12.0173
▁adopting	-12.0176
▁cespedes	-12.0177
▁chevrolet	-12.0177
▁kh	-12.0178
human	-12.0179
press	-12.018
▁coin	-12.0183
▁antidoping	-12.0184
max	-12.0186
onic	-12.0187
craft	-12.0187
▁dictatorship	-12.0189
71	-12.0189
▁hague	-12.0189
▁hansen	-12.0191
▁grizzlies	-12.0194
▁anaheim	-12.0194
▁intelligent	-12.0195
▁chanting	-12.0198
▁scholarships	-12.0199
▁ample	-12.02
▁darfur	-12.02
▁asserting	-12.0204
▁icahn	-12.0206
▁2017.	-12.0207
▁reunion	-12.0207
vers	-12.0207
▁roberto	-12.0208
▁mayweather	-12.0208
▁commanding	-12.021
▁philippine	-12.0211
▁contracted	-12.0211
▁rochester	-12.0212
▁bolstered	-12.0212
▁arrives	-12.0213
▁laundering	-12.0215
▁emotionally	-12.0217
▁staples	-12.0219
▁bain	-12.022
▁confusing	-12.0223
eller	-12.0223
▁disagreement	-12.0224
▁2-2	-12.0224
▁wildly	-12.0224
oul	-12.0225
▁observe	-12.0227
▁gibbs	-12.0229
▁varying	-12.0231
▁personalities	-12.0232
▁sheldon	-12.0234
aq	-12.0238
proof	-12.0238
lessly	-12.0239
och	-12.0242
▁bleak	-12.0244
▁prone	-12.0246
▁huawei	-12.0246
tia	-12.0247
51	-12.0247
▁auctions	-12.0247
horse	-12.0248
▁$25,000	-12.0249
yu	-12.025
▁totaled	-12.025
bot	-12.0251
▁rouhani	-12.0252
▁prudential	-12.0252
▁traced	-12.0252
▁slammed	-12.0258
▁architects	-12.026
▁packaging	-12.0263
▁fra	-12.0265
▁thorn	-12.0265
dominated	-12.0268
▁planting	-12.0269
▁xavier	-12.027
▁alma	-12.0271
▁tomato	-12.0273
▁honestly	-12.0273
▁chevron	-12.0274
▁tents	-12.0276
driving	-12.0278
▁engineered	-12.0278
▁encounters	-12.028
▁seasonal	-12.0281
▁ovation	-12.0281
▁assaulted	-12.0282
asse	-12.0286
▁sampling	-12.0286
vor	-12.029
▁mice	-12.029
▁highlighting	-12.029
▁dial	-12.0291
▁imaging	-12.0292
▁lid	-12.0292
▁58,	-12.0294
▁suing	-12.0294
▁slaughter	-12.0295
▁approving	-12.0297
▁respects	-12.0299
▁rebellion	-12.0303
▁consistency	-12.0309
▁straw	-12.0311
▁abilities	-12.0315
▁swung	-12.0315
vel	-12.0315
▁legendary	-12.0315
▁references	-12.0319
▁sc	-12.032
▁expires	-12.032
▁diane	-12.0321
▁shrugged	-12.0321
lyn	-12.0321
▁cows	-12.0323
▁plight	-12.0323
▁initiated	-12.0325
▁functioning	-12.0325
▁pla	-12.0327
▁latinos	-12.0328
▁hogan	-12.0329
▁cambodia	-12.0329
rou	-12.0332
reaching	-12.0332
▁departed	-12.0333
▁overturn	-12.0333
▁fringe	-12.0334
lov	-12.0335
▁granting	-12.0337
▁undercut	-12.0339
til	-12.0344
trans	-12.0344
▁zika	-12.0345
▁1947	-12.0345
▁telecom	-12.0346
cept	-12.0349
▁footprint	-12.035
▁nuts	-12.035
▁amend	-12.0352
▁lakes	-12.0352
▁thoroughly	-12.0355
ante	-12.0355
▁bran	-12.0356
▁murdered	-12.0359
▁certification	-12.0361
woman	-12.0361
▁unsuccessfully	-12.0362
▁summers	-12.0362
▁keller	-12.0362
▁paralyzed	-12.0362
walk	-12.0362
▁promotions	-12.0369
cum	-12.0372
▁lei	-12.0374
call	-12.0375
storm	-12.0375
▁wreckage	-12.0379
▁figuring	-12.0379
▁mou	-12.0383
▁rattled	-12.0383
▁closings	-12.0384
▁ripple	-12.0384
▁popped	-12.0386
▁hack	-12.0387
lson	-12.0388
▁charts	-12.0389
▁marble	-12.0391
▁avert	-12.0393
▁calculate	-12.0393
▁fracture	-12.0393
▁6-4	-12.0394
▁avalanche	-12.0396
▁syndrome	-12.0396
▁pregame	-12.0397
▁1998.	-12.0397
brand	-12.0399
▁tug	-12.0399
▁kurt	-12.0399
▁marsh	-12.0399
▁pistorius	-12.0402
▁laptops	-12.0403
▁lau	-12.0404
lip	-12.0406
▁harold	-12.0406
▁shinzo	-12.0408
▁achieving	-12.0409
▁underwater	-12.0411
▁ordinance	-12.0413
▁tapes	-12.0416
▁croatia	-12.0416
▁rooftop	-12.042
▁frederick	-12.042
▁analytics	-12.0422
▁cruel	-12.0424
▁dustin	-12.0424
▁surpassed	-12.0425
▁cisco	-12.0426
▁extends	-12.0429
▁stro	-12.0431
▁24.	-12.0431
▁wyoming	-12.0431
▁illnesses	-12.0431
▁1997.	-12.0433
▁lev	-12.0436
▁immense	-12.0438
▁49,	-12.0441
▁2019	-12.0442
▁thu	-12.0442
▁zuma	-12.0442
▁discontent	-12.0443
fall	-12.0443
▁parcel	-12.0445
▁helmets	-12.0445
▁bharara	-12.0448
▁goodbye	-12.0449
▁raj	-12.0449
▁1959	-12.045
▁bowling	-12.0452
▁elias	-12.0453
▁hun	-12.0455
▁ethiopia	-12.0457
fel	-12.0458
▁leaned	-12.0459
▁pressured	-12.0463
▁entertain	-12.0465
▁shells	-12.0467
chin	-12.0467
▁lowe	-12.0469
▁possessions	-12.0469
▁undermined	-12.0471
▁romo	-12.0471
-7)	-12.0471
▁sunnis	-12.0471
▁pumping	-12.0472
▁mann	-12.0473
dio	-12.0474
▁logical	-12.0474
▁reigning	-12.0476
▁matthews	-12.0477
▁arlington	-12.0478
▁legion	-12.0482
▁hebrew	-12.0483
ace	-12.0483
▁truce	-12.0484
▁authorization	-12.0486
▁dy	-12.0486
▁sour	-12.0488
▁stearns	-12.0489
▁plaque	-12.049
▁dismal	-12.049
color	-12.0491
little	-12.0498
▁tolerate	-12.0499
▁dynamics	-12.0499
▁$20,000	-12.0502
▁2.2	-12.0503
▁rated	-12.0504
▁$38	-12.0508
duty	-12.0509
▁vibrant	-12.0513
▁exotic	-12.0513
▁shaping	-12.0514
▁62,	-12.0514
▁dictate	-12.0516
▁resonate	-12.0516
▁ineffective	-12.0517
iff	-12.0517
▁enroll	-12.0519
ovich	-12.0519
▁strains	-12.052
▁leases	-12.052
▁rem	-12.0522
▁kai	-12.0522
▁parkway	-12.0524
▁commuters	-12.0524
▁monopoly	-12.0525
▁nasty	-12.0526
▁speculated	-12.0526
gus	-12.0526
ole	-12.0526
▁elephant	-12.053
▁sands	-12.0531
▁absorbed	-12.0531
▁blueprint	-12.0532
▁kagan	-12.0532
▁kyi	-12.0533
hot	-12.0534
▁collections	-12.0534
▁emily	-12.0534
▁sandusky	-12.0537
▁libraries	-12.0542
▁diamondbacks	-12.0542
▁vertical	-12.0543
▁authoritarian	-12.0543
▁awesome	-12.0544
▁outsider	-12.0544
▁stoke	-12.0545
▁grin	-12.0545
▁forge	-12.0546
▁ry	-12.0547
▁advocated	-12.0548
▁herman	-12.0551
▁countryside	-12.0551
▁tumbled	-12.0555
▁prophet	-12.0555
▁unsure	-12.0557
rub	-12.0557
▁amendments	-12.0559
▁volumes	-12.0559
▁2,500	-12.056
▁animation	-12.056
▁bitcoin	-12.056
▁biologist	-12.056
▁skipped	-12.0561
▁earl	-12.0561
▁echoing	-12.0561
jar	-12.0562
▁diner	-12.0562
▁suns	-12.0564
▁blowout	-12.0565
ites	-12.0566
▁illicit	-12.0566
▁consulate	-12.0566
▁strategists	-12.0568
▁catastrophic	-12.0572
zzle	-12.0575
▁competitions	-12.0576
▁boarded	-12.0579
expected	-12.0579
tine	-12.0579
▁1956	-12.058
▁ghani	-12.058
▁crow	-12.0581
▁dodge	-12.0583
▁ransom	-12.0583
▁genius	-12.0585
flow	-12.0585
▁sunset	-12.0587
bie	-12.0588
▁hints	-12.0588
▁backpack	-12.0589
▁tightened	-12.0589
▁tsarnaev	-12.059
hou	-12.0591
▁binding	-12.0592
▁masks	-12.0592
▁portraits	-12.0602
▁consciousness	-12.0603
[...]
