<unk>	0
<s>	0
</s>	0
▁the	-3.01811
.	-3.12396
,	-3.12874
▁to	-3.81477
▁a	-3.83897
▁of	-3.89039
s	-3.99795
▁in	-3.99929
▁and	-4.00462
’	-4.4711
▁that	-4.63167
▁“	-4.71738
▁for	-4.81989
-	-4.88967
▁said	-4.9064
▁on	-4.94365
▁is	-5.08425
▁he	-5.11856
▁was	-5.17041
▁with	-5.22626
▁it	-5.23833
▁at	-5.38804
▁as	-5.42357
,”	-5.51142
▁by	-5.52274
▁his	-5.55381
▁from	-5.59045
▁mr	-5.60612
▁have	-5.6511
▁has	-5.67262
▁be	-5.69061
▁an	-5.71175
▁but	-5.71741
▁not	-5.73806
.”	-5.779
▁are	-5.79349
▁who	-5.83181
▁had	-5.8599
▁they	-5.9097
▁—	-5.95996
▁were	-6.13516
▁their	-6.13659
t	-6.17134
▁will	-6.18214
▁more	-6.20923
▁new	-6.20928
▁this	-6.2127
▁i	-6.23586
▁would	-6.24346
▁been	-6.24498
▁about	-6.25104
▁its	-6.25625
▁one	-6.2609
▁which	-6.26905
ing	-6.27555
▁or	-6.2779
▁after	-6.34636
i	-6.41031
▁she	-6.47916
▁when	-6.49624
▁up	-6.55832
▁two	-6.55856
▁people	-6.57216
▁also	-6.57628
▁than	-6.57676
”	-6.57851
▁out	-6.58421
▁we	-6.60144
▁year	-6.61053
▁last	-6.62303
▁her	-6.625
▁	-6.65109
m	-6.65929
▁over	-6.65995
ed	-6.669
▁you	-6.67238
▁some	-6.67367
▁other	-6.67392
▁there	-6.69243
▁all	-6.71297
▁can	-6.7322
▁first	-6.74025
▁no	-6.75154
▁like	-6.76507
▁so	-6.80947
▁years	-6.81058
▁percent	-6.8333
▁could	-6.83546
▁if	-6.83618
▁time	-6.83677
▁what	-6.85066
▁into	-6.85079
▁government	-6.85116
a	-6.85858
:	-6.86001
d	-6.9224
▁state	-6.9651
▁them	-6.98669
▁him	-6.99217
▁many	-7.05409
▁because	-7.05941
the	-7.07009
▁now	-7.07742
▁president	-7.07807
▁do	-7.08129
▁u	-7.08706
▁most	-7.09987
▁just	-7.12737
▁only	-7.13023
;	-7.13685
▁united	-7.15267
▁before	-7.16759
▁company	-7.17423
re	-7.17675
▁three	-7.17932
▁states	-7.19148
▁where	-7.19363
▁city	-7.1952
it	-7.21132
▁million	-7.21266
▁through	-7.21675
▁even	-7.22236
we	-7.22632
▁may	-7.23003
▁while	-7.23608
▁did	-7.25293
▁against	-7.25665
▁those	-7.27177
▁since	-7.27778
▁world	-7.30339
▁how	-7.31002
▁japan	-7.31135
▁back	-7.31898
▁ms	-7.32085
▁(	-7.34285
▁made	-7.34869
▁say	-7.38326
▁york	-7.38975
▁still	-7.39045
▁,	-7.40847
▁officials	-7.40967
▁group	-7.41008
▁make	-7.42968
▁get	-7.43856
▁down	-7.43941
▁including	-7.44082
▁country	-7.44952
▁under	-7.4516
▁any	-7.45661
▁day	-7.45693
▁according	-7.46236
ly	-7.46279
▁team	-7.46423
▁off	-7.46641
▁much	-7.46934
▁then	-7.46999
▁long	-7.47775
▁police	-7.48019
▁game	-7.48113
▁american	-7.48709
▁week	-7.48883
▁during	-7.49904
▁way	-7.51806
▁work	-7.51869
▁being	-7.53135
y	-7.54358
▁home	-7.54669
)	-7.54749
e	-7.55946
'	-7.56606
▁public	-7.57023
▁china	-7.5754
▁another	-7.57883
▁well	-7.58024
c	-7.58463
▁between	-7.59346
▁our	-7.5951
▁part	-7.59816
▁former	-7.61345
▁such	-7.61557
▁trump	-7.6192
▁take	-7.62138
▁court	-7.62285
▁my	-7.62409
▁national	-7.62516
▁house	-7.62947
▁going	-7.6319
▁high	-7.66019
▁told	-7.66215
▁around	-7.66745
▁four	-7.67619
▁billion	-7.68177
▁p	-7.68761
▁second	-7.69279
▁go	-7.70241
▁next	-7.70724
▁don	-7.73123
▁law	-7.73814
▁times	-7.74562
?	-7.74948
▁me	-7.75644
n	-7.76357
▁called	-7.76391
▁month	-7.76809
in	-7.77286
▁party	-7.77644
▁think	-7.78781
l	-7.78845
▁here	-7.78865
▁business	-7.78874
▁both	-7.7904
er	-7.79338
year	-7.79767
▁end	-7.79915
▁season	-7.80154
▁n	-7.80306
▁10	-7.80333
▁left	-7.80689
▁should	-7.80873
▁school	-7.8089
▁same	-7.8135
▁news	-7.81502
▁case	-7.81597
▁companies	-7.81939
▁among	-7.82361
▁monday	-7.82971
▁tuesday	-7.8363
▁right	-7.83814
▁want	-7.84676
▁very	-7.8521
▁chief	-7.86057
▁political	-7.86515
▁these	-7.8663
▁money	-7.87013
▁thursday	-7.87014
▁wednesday	-7.87025
▁five	-7.87047
▁good	-7.8706
▁used	-7.87683
▁friday	-7.87703
ve	-7.88076
▁center	-7.88434
▁use	-7.88717
▁see	-7.88797
▁university	-7.89565
o	-7.90377
▁military	-7.908
▁own	-7.90924
▁north	-7.91306
▁found	-7.91484
▁help	-7.9161
▁south	-7.92165
▁several	-7.9226
▁market	-7.92594
▁women	-7.93112
▁know	-7.93358
▁security	-7.93571
▁obama	-7.93989
▁recent	-7.9443
▁come	-7.94708
▁minister	-7.94769
▁might	-7.95643
▁members	-7.96639
▁far	-7.96756
▁added	-7.96794
▁set	-7.96888
▁man	-7.96921
▁washington	-7.97019
▁days	-7.97439
▁office	-7.97568
▁whether	-7.97878
▁few	-7.98032
▁deal	-7.98047
▁came	-7.98127
▁later	-7.98179
▁federal	-7.98202
▁family	-7.98292
▁ago	-7.98587
▁top	-7.99714
▁report	-7.99797
▁credit	-7.99832
▁too	-8.00447
▁big	-8.00947
▁system	-8.01067
▁department	-8.01314
th	-8.01603
▁months	-8.02147
▁power	-8.02349
▁number	-8.02367
▁campaign	-8.02836
▁without	-8.02938
▁children	-8.0319
▁says	-8.03337
▁bank	-8.03462
▁took	-8.03533
▁sunday	-8.03651
▁major	-8.04011
▁international	-8.04284
▁local	-8.04548
▁health	-8.04717
r	-8.05222
b	-8.0542
▁need	-8.06464
▁foreign	-8.06668
▁little	-8.06773
▁japanese	-8.06801
▁each	-8.07142
▁official	-8.07166
▁war	-8.07368
▁street	-8.07939
▁won	-8.08208
▁play	-8.08256
▁least	-8.08561
▁early	-8.08664
▁put	-8.08666
▁never	-8.08766
▁support	-8.08783
▁place	-8.088
▁media	-8.08881
▁life	-8.08959
▁general	-8.0911
▁run	-8.09769
▁agency	-8.11188
▁games	-8.13404
▁though	-8.13518
old	-8.13694
▁executive	-8.1372
▁white	-8.13767
▁past	-8.14262
▁asked	-8.14856
▁us	-8.15138
▁e	-8.15711
▁until	-8.15837
▁become	-8.15864
▁players	-8.16649
▁plan	-8.16707
▁show	-8.16744
▁less	-8.16885
▁your	-8.16895
▁economic	-8.16954
▁20	-8.1699
▁six	-8.17068
▁program	-8.17319
▁night	-8.17345
▁tokyo	-8.17356
▁already	-8.17906
▁change	-8.18218
▁chinese	-8.18291
▁financial	-8.18317
▁saying	-8.18362
▁statement	-8.18413
▁every	-8.18478
▁expected	-8.18643
▁third	-8.1871
▁image	-8.188
k	-8.19035
p	-8.1969
▁‘	-8.20456
▁trade	-8.20569
▁known	-8.2072
▁countries	-8.20807
▁points	-8.21058
▁administration	-8.21698
▁european	-8.21763
▁point	-8.22011
▁dr	-8.2204
▁men	-8.22315
▁lot	-8.22501
▁best	-8.2298
▁open	-8.23775
he	-8.23776
▁got	-8.23878
▁pay	-8.23933
▁does	-8.2446
▁better	-8.24979
▁director	-8.25951
▁union	-8.26418
▁began	-8.26482
▁free	-8.27446
▁service	-8.27573
▁workers	-8.27597
▁start	-8.27904
▁small	-8.28216
▁once	-8.28295
▁half	-8.283
▁really	-8.28539
▁often	-8.28724
▁win	-8.29227
▁something	-8.30103
to	-8.30161
▁meeting	-8.30182
f	-8.30601
▁decision	-8.30738
▁saturday	-8.30775
▁away	-8.3082
▁policy	-8.31483
▁-	-8.31731
▁1	-8.31799
▁industry	-8.32018
▁5	-8.32272
▁working	-8.33025
▁making	-8.33307
▁went	-8.33354
▁march	-8.33513
▁late	-8.34224
▁re	-8.34627
▁job	-8.34652
▁yet	-8.34759
▁line	-8.35727
▁hit	-8.3611
▁nearly	-8.36272
▁move	-8.36836
▁conference	-8.37193
▁across	-8.37278
▁others	-8.37444
▁lead	-8.37475
and	-8.37499
▁data	-8.37991
▁de	-8.38041
▁care	-8.38114
▁head	-8.38186
▁hard	-8.38324
▁again	-8.38339
▁led	-8.38363
▁leaders	-8.38499
▁issue	-8.38642
▁co	-8.38711
▁near	-8.3875
▁held	-8.3876
▁economy	-8.39032
▁rights	-8.39132
▁election	-8.3916
▁defense	-8.39285
▁young	-8.39386
▁tax	-8.39874
▁republican	-8.39884
▁prime	-8.40321
▁research	-8.40323
▁information	-8.40377
▁reported	-8.40387
▁league	-8.40591
▁leader	-8.40703
▁trying	-8.40873
▁whose	-8.41671
g	-8.42408
▁enough	-8.42769
▁oil	-8.4285
▁likely	-8.42892
▁killed	-8.43164
▁april	-8.43935
▁lost	-8.44244
▁plans	-8.44337
▁keep	-8.44426
▁central	-8.44481
▁"	-8.44801
▁things	-8.44997
if	-8.4561
▁however	-8.45822
▁find	-8.45982
ll	-8.46079
▁different	-8.46208
▁russia	-8.46354
▁air	-8.46456
▁large	-8.46481
▁bill	-8.46562
▁close	-8.46721
▁sales	-8.46731
▁earlier	-8.46869
▁water	-8.47048
▁building	-8.47346
▁east	-8.47654
/	-8.47674
▁interview	-8.47895
▁give	-8.47949
this	-8.48025
▁korea	-8.48222
▁outside	-8.48341
▁c	-8.48393
▁car	-8.49298
▁global	-8.49328
▁social	-8.49472
▁great	-8.4979
▁area	-8.4979
▁announced	-8.50113
▁seen	-8.50218
▁call	-8.50286
▁g	-8.50376
▁weeks	-8.50385
▁record	-8.50481
▁taken	-8.50589
▁2	-8.50776
▁series	-8.51104
▁committee	-8.51512
▁site	-8.51548
▁final	-8.51785
▁death	-8.518
▁nuclear	-8.52164
▁control	-8.52185
▁field	-8.52185
▁given	-8.52189
▁along	-8.52681
▁behind	-8.5274
▁using	-8.52741
▁john	-8.5275
▁name	-8.52825
▁face	-8.52871
on	-8.52876
man	-8.52951
es	-8.53117
▁real	-8.53364
▁look	-8.53409
▁services	-8.53479
there	-8.53497
▁started	-8.53662
▁hours	-8.53702
▁became	-8.53961
▁ministry	-8.54066
▁board	-8.54126
▁capital	-8.54363
▁4	-8.54405
▁based	-8.54628
▁force	-8.54964
▁3	-8.54977
▁issues	-8.55519
▁11	-8.55787
▁j	-8.55801
▁senior	-8.56069
▁video	-8.56096
▁30	-8.56408
▁students	-8.56553
▁able	-8.56824
▁human	-8.56868
▁important	-8.57306
▁almost	-8.57427
▁having	-8.57447
▁groups	-8.57735
▁coach	-8.57868
▁side	-8.57951
▁old	-8.58133
▁wrote	-8.58156
▁clear	-8.58328
▁always	-8.58403
h	-8.58816
▁food	-8.5885
▁why	-8.59012
▁recently	-8.59065
▁june	-8.59316
▁democratic	-8.59537
▁return	-8.59652
▁future	-8.59664
▁history	-8.59745
▁west	-8.59886
▁15	-8.59979
▁f	-8.60537
they	-8.60555
u	-8.60635
▁must	-8.60665
you	-8.60713
▁cases	-8.60784
▁judge	-8.60871
▁taking	-8.60905
but	-8.6095
▁legal	-8.60993
▁seven	-8.61579
▁firm	-8.61727
▁12	-8.62136
▁authorities	-8.62249
▁low	-8.62397
▁justice	-8.62528
▁attack	-8.62641
▁spokesman	-8.63126
▁played	-8.63558
▁private	-8.63632
▁s	-8.63673
▁al	-8.63997
▁current	-8.64261
▁technology	-8.64274
▁forces	-8.64587
▁district	-8.64614
▁growth	-8.64831
▁vote	-8.65009
▁didn	-8.65384
▁although	-8.65438
▁possible	-8.65477
▁black	-8.65482
▁officer	-8.65559
▁cost	-8.66295
▁energy	-8.66408
▁problem	-8.66599
ers	-8.66794
▁increase	-8.6694
▁nation	-8.67054
al	-8.67101
▁agreement	-8.67161
▁efforts	-8.67206
▁despite	-8.6739
▁college	-8.67419
▁full	-8.67425
▁race	-8.67501
▁investigation	-8.67726
▁europe	-8.67959
▁online	-8.68163
▁short	-8.68437
▁doing	-8.68673
▁father	-8.68843
▁ever	-8.6894
▁continue	-8.69337
com	-8.69472
▁kind	-8.69487
▁wanted	-8.69537
▁thought	-8.69733
▁red	-8.69869
▁share	-8.69917
▁done	-8.69949
?”	-8.70008
▁8	-8.70128
▁process	-8.70432
▁island	-8.70489
▁within	-8.70539
▁average	-8.70767
▁prices	-8.70806
▁cut	-8.70825
▁park	-8.70975
▁role	-8.71645
▁himself	-8.717
▁victory	-8.71772
▁question	-8.71823
▁toward	-8.7204
▁coming	-8.72204
▁m	-8.72255
▁region	-8.72418
▁community	-8.72451
▁july	-8.72574
▁released	-8.72702
▁iran	-8.73016
▁fire	-8.73034
▁o	-8.73704
▁worked	-8.73916
▁thing	-8.73996
▁nations	-8.74041
▁instead	-8.74053
▁live	-8.74265
▁shot	-8.74365
▁bring	-8.74498
▁player	-8.747
▁price	-8.74872
▁member	-8.74978
▁received	-8.75103
▁fund	-8.75144
▁running	-8.75262
▁died	-8.75309
▁d	-8.75325
▁television	-8.75519
▁crisis	-8.7569
▁talks	-8.75714
▁council	-8.75861
▁18	-8.7587
▁post	-8.75945
▁main	-8.76169
▁un	-8.76209
▁problems	-8.76306
▁san	-8.76416
▁medical	-8.76647
▁opposition	-8.77013
▁further	-8.77483
▁press	-8.77558
▁residents	-8.77593
▁congress	-8.77635
▁mayor	-8.77924
▁eight	-8.78193
▁interest	-8.78377
▁son	-8.785
▁front	-8.78508
▁person	-8.78914
▁lower	-8.78926
▁believe	-8.78992
▁6	-8.79028
▁together	-8.79113
▁helped	-8.79158
▁woman	-8.79192
▁lawyer	-8.79378
▁feel	-8.79388
▁room	-8.79634
▁project	-8.79662
▁quarter	-8.79694
▁clinton	-8.79718
▁officers	-8.79734
▁strong	-8.7983
▁showed	-8.79953
▁investors	-8.79959
▁higher	-8.80021
▁total	-8.80354
▁america	-8.80774
▁france	-8.81437
▁course	-8.81458
▁democrats	-8.81495
▁effort	-8.81642
an	-8.81738
▁sent	-8.81816
▁development	-8.81857
▁secretary	-8.82161
▁organization	-8.82336
▁career	-8.82422
▁getting	-8.82442
▁town	-8.82535
▁russian	-8.82624
▁labor	-8.82798
▁leave	-8.82953
▁order	-8.82998
▁wall	-8.8307
▁looking	-8.83152
▁gave	-8.83501
▁investment	-8.83514
▁today	-8.83602
▁minutes	-8.83664
▁soon	-8.83826
▁special	-8.83949
▁playing	-8.84267
▁safety	-8.84372
▁goal	-8.84596
▁evidence	-8.84688
▁chairman	-8.8472
▁largest	-8.84825
▁rate	-8.84853
▁jobs	-8.84926
▁include	-8.85414
▁period	-8.85505
▁charges	-8.85577
▁provide	-8.85711
▁space	-8.85884
▁risk	-8.86136
▁staff	-8.86183
▁try	-8.86302
▁spent	-8.869
▁turned	-8.86999
▁needed	-8.87293
▁drug	-8.87301
no	-8.87358
▁questions	-8.87586
▁road	-8.87747
▁french	-8.87868
▁potential	-8.87887
▁tried	-8.87955
▁morning	-8.88132
▁manager	-8.88188
▁rules	-8.88419
▁senate	-8.88523
▁areas	-8.88557
▁commission	-8.88647
▁pressure	-8.88789
▁involved	-8.88841
▁summer	-8.88927
▁korean	-8.88935
▁turn	-8.8907
▁hand	-8.8921
▁b	-8.89226
▁similar	-8.89238
▁ball	-8.89266
▁spending	-8.89289
▁mother	-8.893
▁matter	-8.8937
▁level	-8.8939
▁hope	-8.89431
▁border	-8.89728
▁7	-8.89921
▁growing	-8.89924
▁thousands	-8.89985
▁study	-8.90014
▁fans	-8.90216
▁stop	-8.90217
▁middle	-8.90505
▁abe	-8.90699
▁position	-8.9075
▁decades	-8.90766
▁employees	-8.90978
▁50	-8.91116
▁seemed	-8.91217
▁difficult	-8.9125
▁9	-8.91293
▁budget	-8.91727
▁fall	-8.91849
▁wife	-8.91994
▁adding	-8.9216
▁let	-8.92173
▁agreed	-8.92289
▁per	-8.92544
▁teams	-8.92569
▁fell	-8.92577
▁test	-8.92683
▁hold	-8.92734
▁internet	-8.92829
▁voters	-8.92916
▁especially	-8.93004
▁britain	-8.93175
▁association	-8.93353
▁previous	-8.93438
▁trial	-8.93507
▁british	-8.93554
▁professor	-8.93713
▁attacks	-8.93975
▁appeared	-8.9409
▁nothing	-8.94176
▁event	-8.94254
▁saw	-8.94384
▁fact	-8.94436
▁biggest	-8.94583
▁25	-8.94648
▁art	-8.9481
▁rather	-8.94817
▁leading	-8.94917
▁age	-8.95089
▁probably	-8.95115
▁land	-8.95192
▁david	-8.95224
▁longer	-8.95374
▁offer	-8.9545
▁following	-8.95563
▁met	-8.95577
▁army	-8.95609
▁comes	-8.95713
▁40	-8.95723
▁single	-8.95735
▁ahead	-8.95769
▁stock	-8.95896
▁base	-8.95975
▁r	-8.95976
▁remain	-8.96063
▁allowed	-8.96065
▁declined	-8.96171
▁hospital	-8.96221
▁comment	-8.96249
▁st	-8.9627
▁costs	-8.96314
▁rose	-8.96439
▁paid	-8.96524
▁action	-8.96561
▁idea	-8.96617
▁example	-8.9683
2	-8.96942
▁reporters	-8.97056
▁network	-8.9712
▁loss	-8.9719
▁governor	-8.97438
▁step	-8.97499
▁analysts	-8.97534
▁county	-8.97676
▁forward	-8.97785
▁gas	-8.97849
▁republicans	-8.97873
▁calls	-8.97919
that	-8.97949
▁fourth	-8.97965
▁allow	-8.98096
▁miles	-8.98351
▁concerns	-8.98439
▁michael	-8.98484
▁remains	-8.98497
▁beijing	-8.9867
▁california	-8.98848
▁experts	-8.98864
▁accused	-8.98985
▁products	-8.99002
▁14	-8.99095
▁phone	-8.99278
▁result	-8.99292
▁situation	-8.99307
▁latest	-8.99361
▁prosecutors	-8.99409
▁buy	-8.9945
▁themselves	-8.99498
▁education	-8.99599
▁moved	-8.99618
up	-8.99715
▁included	-8.99796
▁reports	-8.99902
▁visit	-8.99989
▁web	-9.00008
▁revenue	-9.00353
▁anti	-9.00424
▁inside	-9.00448
▁fight	-9.00815
▁banks	-9.01009
▁meet	-9.0121
▁act	-9.01231
▁book	-9.01804
▁talk	-9.01984
▁schools	-9.01998
▁raised	-9.02113
▁view	-9.02182
▁bad	-9.02211
▁body	-9.02456
▁sports	-9.02568
▁training	-9.02586
▁cup	-9.02659
▁london	-9.02736
▁iraq	-9.0286
▁sure	-9.02885
▁decided	-9.02909
▁results	-9.0301
based	-9.03129
▁”	-9.03133
▁t	-9.03204
▁syria	-9.03233
▁anything	-9.03445
▁ground	-9.0347
▁100	-9.03554
▁january	-9.03572
▁sign	-9.03586
▁prison	-9.03827
▁changes	-9.03881
▁living	-9.0389
▁friends	-9.03986
▁parents	-9.04034
▁families	-9.04055
▁13	-9.04159
▁sea	-9.04216
▁lives	-9.04638
▁senator	-9.04797
▁lawyers	-9.04916
or	-9.05116
▁ruling	-9.05178
▁texas	-9.05592
▁india	-9.05657
▁germany	-9.05793
▁brought	-9.05886
▁doesn	-9.0628
▁google	-9.06483
▁yankees	-9.06501
▁vice	-9.06503
▁17	-9.06698
▁child	-9.06851
▁list	-9.06917
▁described	-9.07104
▁church	-9.07159
▁attention	-9.07179
▁osaka	-9.07249
▁operations	-9.07497
▁arrested	-9.07735
▁response	-9.07774
▁due	-9.07792
▁seeking	-9.07839
▁quickly	-9.0784
▁popular	-9.0808
▁israel	-9.08206
▁customers	-9.08207
▁prefecture	-9.08451
▁experience	-9.08564
▁key	-9.08588
▁makes	-9.08635
▁mets	-9.08674
▁chance	-9.08725
▁failed	-9.08822
▁americans	-9.09014
▁management	-9.0914
▁western	-9.0919
▁runs	-9.09345
▁markets	-9.09432
▁presidential	-9.09497
▁museum	-9.09701
▁demand	-9.09767
▁means	-9.09835
▁term	-9.09848
▁sometimes	-9.09955
▁violence	-9.09959
▁perhaps	-9.10132
is	-9.1027
org	-9.10683
▁club	-9.10853
▁events	-9.10972
▁felt	-9.11042
▁round	-9.11169
▁trading	-9.11343
▁ended	-9.11358
▁continued	-9.11419
▁mark	-9.11557
▁personal	-9.11579
▁16	-9.11643
en	-9.1174
▁scored	-9.11984
▁particularly	-9.12073
▁message	-9.12129
▁baseball	-9.12148
▁green	-9.12162
▁someone	-9.1221
▁reached	-9.12232
▁cannot	-9.12447
▁focus	-9.12449
▁station	-9.12767
▁create	-9.128
▁stay	-9.12883
▁available	-9.12884
▁access	-9.12949
▁itself	-9.13229
▁annual	-9.13357
▁rise	-9.1349
▁exchange	-9.13516
▁manhattan	-9.13523
▁sense	-9.13527
▁sold	-9.13622
▁built	-9.13704
▁twitter	-9.13883
▁december	-9.13921
▁reach	-9.13983
▁businesses	-9.13993
▁james	-9.14278
▁football	-9.14312
time	-9.14366
▁considered	-9.1438
▁debt	-9.14837
▁sell	-9.1535
▁build	-9.15468
▁release	-9.15506
▁kim	-9.15512
▁forced	-9.15575
▁population	-9.15633
as	-9.15663
▁majority	-9.15669
▁november	-9.15903
▁hundreds	-9.15934
▁donald	-9.16008
▁johnson	-9.16097
▁attorney	-9.16121
▁parliament	-9.16184
▁pass	-9.16256
▁rest	-9.16263
),	-9.16355
▁planned	-9.16788
▁&	-9.16799
▁starting	-9.16906
ro	-9.16939
3	-9.1702
▁practice	-9.17277
▁civil	-9.175
▁l	-9.17647
▁needs	-9.17693
▁nine	-9.17763
▁criminal	-9.17866
▁intelligence	-9.18077
▁october	-9.18262
▁everything	-9.18347
▁elections	-9.18402
▁h	-9.1842
▁reason	-9.18464
5	-9.18603
▁named	-9.18609
▁believed	-9.18667
▁dead	-9.19035
▁programs	-9.19374
▁authority	-9.19615
▁offered	-9.19622
▁september	-9.19997
▁pro	-9.20192
▁shows	-9.20289
▁self	-9.20372
j	-9.2053
▁music	-9.20537
▁works	-9.20549
▁debate	-9.20621
▁facebook	-9.20682
▁lawmakers	-9.20731
▁production	-9.20764
▁winning	-9.2089
▁story	-9.21083
▁seems	-9.21215
▁tell	-9.21291
▁cars	-9.21443
▁store	-9.21481
▁rates	-9.21666
7	-9.21835
▁brooklyn	-9.21949
▁institute	-9.21968
▁plant	-9.21968
▁measures	-9.22073
4	-9.22085
▁either	-9.22377
▁huge	-9.22384
▁islamic	-9.22497
▁shares	-9.22513
▁account	-9.22584
▁charge	-9.23059
▁southern	-9.23077
▁society	-9.2308
▁challenge	-9.23176
▁light	-9.23304
▁amid	-9.23351
▁student	-9.23431
▁jersey	-9.23431
▁decade	-9.23436
▁approach	-9.23451
▁serious	-9.23489
▁wants	-9.2349
▁certain	-9.23532
▁knew	-9.2355
z	-9.23567
▁drive	-9.23614
▁dollars	-9.23985
▁created	-9.24053
▁housing	-9.24103
▁star	-9.24118
▁conservative	-9.242
▁effect	-9.24234
▁amount	-9.24256
▁terms	-9.24289
▁jan	-9.243
▁increased	-9.24392
▁aid	-9.24511
▁speech	-9.24518
▁mexico	-9.24622
▁parties	-9.24717
▁peace	-9.24722
▁issued	-9.24929
term	-9.24954
▁climate	-9.25098
▁rule	-9.25115
▁19	-9.25124
▁florida	-9.25176
▁moment	-9.2529
▁domestic	-9.25291
▁love	-9.25342
▁actually	-9.25353
▁w	-9.25398
).	-9.2551
▁watch	-9.25716
▁bush	-9.2599
▁returned	-9.26181
▁ran	-9.26247
▁hall	-9.2627
▁los	-9.26321
▁weapons	-9.26422
▁ways	-9.26511
▁victims	-9.26653
▁giants	-9.26723
▁followed	-9.26835
▁impact	-9.26842
▁significant	-9.27024
▁smith	-9.27077
▁couple	-9.27133
▁chicago	-9.27196
▁leaving	-9.274
▁spring	-9.27461
▁feet	-9.27463
▁cash	-9.27623
▁worth	-9.2773
▁whole	-9.27805
▁value	-9.27807
▁raise	-9.27956
▁beyond	-9.27976
▁success	-9.27997
▁contract	-9.28096
▁division	-9.28136
le	-9.28142
v	-9.28176
el	-9.28462
▁opened	-9.28534
,"	-9.28561
▁cause	-9.28596
▁beat	-9.28742
▁letter	-9.28831
▁construction	-9.28925
▁passed	-9.29357
▁paris	-9.29379
▁charged	-9.2957
▁address	-9.29596
▁finance	-9.29831
▁consider	-9.29892
▁candidate	-9.30005
▁bit	-9.30016
▁sources	-9.30037
▁ban	-9.30118
▁executives	-9.30324
▁candidates	-9.30349
▁bar	-9.30733
▁income	-9.30813
▁compared	-9.30836
▁closed	-9.30911
▁crime	-9.30942
▁travel	-9.31078
6	-9.31169
▁politics	-9.31192
▁giving	-9.3124
▁camp	-9.31387
▁scheduled	-9.31403
▁newspaper	-9.31473
▁signed	-9.31486
▁apple	-9.31632
▁search	-9.31792
▁spoke	-9.31831
▁suggested	-9.31836
▁break	-9.31903
▁hong	-9.31934
▁whom	-9.31952
▁am	-9.31966
▁figure	-9.32033
day	-9.32033
▁kept	-9.32088
▁survey	-9.32122
▁supreme	-9.32129
▁users	-9.32166
▁everyone	-9.32218
▁movement	-9.32277
▁anyone	-9.3236
▁supporters	-9.32411
▁$1	-9.32465
▁performance	-9.32487
▁mostly	-9.32567
▁published	-9.32574
▁numbers	-9.32596
▁angeles	-9.32691
able	-9.32705
▁robert	-9.32719
▁february	-9.32951
▁hearing	-9.33055
▁negotiations	-9.33132
▁above	-9.33295
▁heart	-9.3341
ton	-9.33587
▁threat	-9.33608
▁details	-9.3361
▁concern	-9.33612
▁cities	-9.33648
▁common	-9.3368
▁consumers	-9.33734
▁daily	-9.33826
▁fear	-9.34045
▁track	-9.34055
9	-9.34096
▁summit	-9.34122
▁parts	-9.34125
▁immediately	-9.34282
▁killing	-9.34394
▁happened	-9.34584
▁match	-9.3466
▁begin	-9.34726
▁host	-9.34921
▁non	-9.35048
▁train	-9.35114
▁funds	-9.35154
▁grand	-9.35281
▁insurance	-9.35755
▁environmental	-9.3576
▁rising	-9.3589
▁relations	-9.35892
at	-9.35931
▁includes	-9.35942
▁k	-9.36164
8	-9.3618
▁flight	-9.36417
▁immigration	-9.36425
▁gone	-9.36454
▁looked	-9.36529
▁kong	-9.36653
▁representative	-9.36862
▁boston	-9.36872
▁served	-9.36905
▁provided	-9.36945
▁required	-9.36945
▁homes	-9.36953
1	-9.37014
ic	-9.3702
▁calling	-9.37138
▁german	-9.37153
▁pakistan	-9.37282
▁fuel	-9.37307
▁commercial	-9.37319
▁strategy	-9.37321
▁fast	-9.37355
▁else	-9.37553
▁avenue	-9.37585
▁proposed	-9.37601
▁largely	-9.37688
▁review	-9.37711
▁title	-9.37782
▁caused	-9.37835
▁poor	-9.37862
▁williams	-9.38042
▁profit	-9.38062
▁seem	-9.38065
▁relationship	-9.38203
▁eventually	-9.3828
▁brown	-9.38309
▁hands	-9.38334
▁avoid	-9.38364
▁claims	-9.38389
▁heard	-9.38505
▁class	-9.38513
▁joined	-9.38592
▁blue	-9.38632
▁computer	-9.38661
▁ability	-9.38808
▁afghanistan	-9.38823
▁afternoon	-9.38961
▁democrat	-9.3912
▁patients	-9.39257
▁daughter	-9.39277
▁fiscal	-9.39375
▁august	-9.39458
▁fighting	-9.3947
▁opportunity	-9.39513
▁science	-9.39567
▁guard	-9.39594
▁hotel	-9.39608
▁conditions	-9.39631
one	-9.39795
▁natural	-9.39948
▁paul	-9.39964
▁changed	-9.39997
▁stage	-9.39997
▁remained	-9.4003
▁paper	-9.40079
▁opening	-9.40161
▁era	-9.40167
▁push	-9.40389
▁coalition	-9.4044
▁unit	-9.4051
▁tv	-9.40666
▁24	-9.40736
▁emergency	-9.40769
▁corporate	-9.40769
▁bay	-9.40782
▁arrived	-9.40794
▁reduce	-9.40857
▁additional	-9.40868
▁regular	-9.40901
do	-9.40971
so	-9.41106
▁21	-9.41113
▁moving	-9.41196
▁troops	-9.41352
▁protect	-9.41531
▁airport	-9.41557
▁selling	-9.41595
▁crowd	-9.41626
▁soldiers	-9.41683
when	-9.41857
▁weekend	-9.41963
▁independent	-9.41997
for	-9.42046
▁form	-9.42135
▁lack	-9.42166
▁mass	-9.42293
▁read	-9.42311
▁noted	-9.42334
▁prevent	-9.42382
▁ready	-9.4257
▁filed	-9.42702
▁plane	-9.42791
▁finished	-9.43018
▁understand	-9.43057
▁traditional	-9.43131
▁deep	-9.43208
▁arrest	-9.43271
▁asia	-9.43513
▁leadership	-9.43714
▁battle	-9.43827
▁proposal	-9.43876
▁competition	-9.44002
▁sought	-9.44044
▁addition	-9.44071
what	-9.44379
ness	-9.44425
▁doctors	-9.44698
▁beginning	-9.44725
▁english	-9.44725
▁panel	-9.44734
▁takes	-9.44737
▁sites	-9.44751
▁ask	-9.4481
▁trip	-9.4482
▁simply	-9.44822
▁theater	-9.44852
te	-9.45033
▁nissan	-9.45068
▁dollar	-9.45134
▁double	-9.45358
▁owners	-9.45386
▁husband	-9.45393
▁happen	-9.45415
▁60	-9.45495
▁brand	-9.45517
▁hopes	-9.45534
▁policies	-9.45553
▁analyst	-9.45607
▁levels	-9.45683
▁northern	-9.45848
▁increasingly	-9.45892
▁powerful	-9.46107
▁range	-9.46125
my	-9.46219
▁source	-9.46221
▁illegal	-9.46288
▁tournament	-9.46423
▁goes	-9.46469
▁documents	-9.46522
▁eastern	-9.46543
▁easy	-9.46592
▁laws	-9.46699
▁river	-9.46815
▁words	-9.47036
▁mind	-9.47106
▁shooting	-9.47124
▁dropped	-9.47286
▁measure	-9.4737
▁gold	-9.47418
▁friend	-9.47437
▁denied	-9.47584
.)	-9.47695
▁consumer	-9.47737
▁legislation	-9.47834
▁property	-9.47835
▁expect	-9.4787
▁africa	-9.47877
▁operating	-9.47936
▁related	-9.4798
▁tour	-9.47992
▁grew	-9.48035
▁pick	-9.4805
▁product	-9.48228
▁george	-9.48238
▁digital	-9.48385
▁holding	-9.48526
▁mobile	-9.48612
▁stadium	-9.48727
▁v	-9.4874
▁warned	-9.48778
▁finally	-9.48844
▁mike	-9.48853
▁traffic	-9.48944
▁culture	-9.48991
▁yards	-9.49066
▁cover	-9.49283
."	-9.49341
▁tough	-9.49471
▁stand	-9.49576
▁mean	-9.49642
▁thomas	-9.49658
▁request	-9.49738
▁agencies	-9.49912
▁neighborhood	-9.50056
▁square	-9.5008
son	-9.50142
▁coast	-9.50203
▁benefits	-9.50248
▁sanctions	-9.50341
▁hour	-9.50346
▁treatment	-9.50437
▁pre	-9.50488
▁ryan	-9.50491
▁loans	-9.50575
▁securities	-9.50632
▁records	-9.50695
▁losing	-9.5072
▁estimated	-9.50783
▁damage	-9.50851
▁saudi	-9.5086
▁mid	-9.51063
▁speaking	-9.51126
▁partner	-9.51134
▁jr	-9.51229
▁owner	-9.51258
our	-9.51283
▁receive	-9.51293
▁drugs	-9.51357
▁'	-9.51381
led	-9.51478
▁vehicles	-9.51662
▁wrong	-9.51766
▁various	-9.51826
▁enforcement	-9.51934
▁target	-9.51959
▁protests	-9.51984
▁radio	-9.52001
▁condition	-9.52006
▁born	-9.52143
▁expressed	-9.52195
de	-9.52256
▁critics	-9.52286
▁operation	-9.52306
▁projects	-9.52355
na	-9.52377
▁appear	-9.52437
▁knicks	-9.52512
▁jets	-9.52579
by	-9.52705
▁straight	-9.5282
▁firms	-9.52933
▁sept	-9.53245
▁advertising	-9.53246
▁regional	-9.53253
▁estate	-9.5326
▁cancer	-9.53362
▁super	-9.53385
▁gun	-9.53439
▁championship	-9.53458
▁marriage	-9.53526
▁word	-9.53582
▁olympic	-9.53671
▁seek	-9.53947
▁22	-9.5415
▁israeli	-9.5418
▁film	-9.54202
of	-9.544
▁below	-9.54435
▁bid	-9.54655
▁conflict	-9.54667
▁female	-9.54728
▁older	-9.54737
▁francisco	-9.54741
▁spot	-9.54763
▁progress	-9.54819
w	-9.54834
▁dec	-9.54929
▁limited	-9.55003
▁stopped	-9.55174
▁taxes	-9.55233
▁model	-9.55251
▁improve	-9.55287
▁spend	-9.55298
▁cuts	-9.55371
▁equipment	-9.55387
▁sides	-9.55571
▁ties	-9.55625
▁alone	-9.55741
▁bought	-9.55928
▁disease	-9.56143
▁scientists	-9.5625
▁fifth	-9.56319
▁environment	-9.56376
▁apartment	-9.56422
▁citizens	-9.5647
▁images	-9.56505
▁canada	-9.56838
▁usually	-9.56888
▁carried	-9.5692
▁zone	-9.56941
▁talking	-9.57186
▁basketball	-9.57243
▁guy	-9.57319
▁criticism	-9.57506
▁indian	-9.57507
▁nearby	-9.57542
▁send	-9.57575
▁greater	-9.57692
ra	-9.57742
▁status	-9.57742
▁trust	-9.57843
ri	-9.57897
▁village	-9.57942
▁highest	-9.57949
▁england	-9.58296
▁approved	-9.58329
▁sale	-9.58345
▁stores	-9.58346
▁focused	-9.5857
▁places	-9.58694
ion	-9.58738
▁software	-9.58742
▁concerned	-9.5879
▁investigators	-9.59001
▁goals	-9.59013
▁offering	-9.59143
▁brother	-9.59184
▁article	-9.59299
▁mrs	-9.5934
▁intended	-9.59346
▁bonds	-9.59352
▁syrian	-9.59386
▁millions	-9.59612
▁protest	-9.59664
▁23	-9.5968
ta	-9.59689
▁stood	-9.59702
▁referring	-9.59758
▁drop	-9.59766
▁confirmed	-9.59919
▁african	-9.5996
▁influence	-9.60013
less	-9.60016
▁smaller	-9.60016
▁researchers	-9.60108
▁deputy	-9.60207
▁moscow	-9.60208
▁spokeswoman	-9.6032
▁heavy	-9.60385
▁fed	-9.60456
▁follow	-9.6082
▁struck	-9.60948
▁australia	-9.61013
▁present	-9.61104
▁el	-9.61113
▁protesters	-9.61316
▁twice	-9.61349
▁appears	-9.61373
▁wide	-9.61444
▁wasn	-9.6146
▁facing	-9.61468
▁guys	-9.6151
▁size	-9.61527
▁identified	-9.61527
▁speak	-9.61555
▁giant	-9.61615
▁rangers	-9.61765
▁sport	-9.61772
▁abuse	-9.6178
x	-9.61797
▁la	-9.61853
▁...	-9.61866
▁signs	-9.61868
▁attempt	-9.61886
▁ordered	-9.61972
▁injury	-9.6204
▁gov	-9.62064
▁king	-9.6217
▁systems	-9.62197
▁faced	-9.62206
▁bloomberg	-9.62331
▁dozen	-9.62341
▁gay	-9.62372
▁choice	-9.62382
▁names	-9.6239
▁70	-9.62399
▁net	-9.62434
▁aug	-9.62554
▁door	-9.62587
▁individual	-9.62737
▁currently	-9.62775
▁fine	-9.62814
▁learned	-9.62844
▁require	-9.62925
▁ghosn	-9.63029
▁buildings	-9.63049
▁cross	-9.63057
▁losses	-9.63067
▁appeal	-9.6307
▁sexual	-9.63087
▁mission	-9.63281
▁religious	-9.63323
▁steps	-9.63329
▁streets	-9.63334
▁figures	-9.63393
un	-9.63415
▁arts	-9.63474
▁pretty	-9.63501
▁buying	-9.63625
▁floor	-9.63772
▁lines	-9.63868
▁decline	-9.63869
▁app	-9.6408
▁positive	-9.6427
▁telephone	-9.64321
▁joint	-9.64343
▁hear	-9.64371
▁blood	-9.64411
▁conducted	-9.64424
▁protection	-9.64472
▁worst	-9.64563
▁driver	-9.6457
▁studies	-9.64617
▁turkey	-9.64619
▁carry	-9.64632
▁affairs	-9.64646
run	-9.64758
▁serve	-9.64887
▁roughly	-9.64933
▁lose	-9.64956
▁previously	-9.65031
▁rare	-9.65064
ley	-9.65098
▁cabinet	-9.65272
▁answer	-9.65309
▁injured	-9.65335
▁planning	-9.65399
▁critical	-9.65407
▁true	-9.65699
ma	-9.65771
▁primary	-9.65811
▁comments	-9.65829
▁commissioner	-9.6597
▁assets	-9.66058
0	-9.66118
▁posted	-9.66178
▁magazine	-9.66237
▁2008	-9.66384
▁carolina	-9.66413
▁safe	-9.66474
▁maybe	-9.66491
▁spread	-9.665
▁happy	-9.66542
▁entire	-9.66594
▁particular	-9.66659
ie	-9.66726
▁seconds	-9.66736
▁1990	-9.6678
▁q	-9.66798
▁separate	-9.66805
▁walk	-9.66916
▁seats	-9.6696
▁aircraft	-9.66964
▁elected	-9.67057
▁widely	-9.67079
!”	-9.67107
▁faces	-9.67136
▁nature	-9.67148
ne	-9.67231
▁eu	-9.67255
all	-9.67278
▁accounts	-9.67319
▁quite	-9.67355
▁draft	-9.67443
▁subject	-9.67471
▁discuss	-9.67532
▁version	-9.67546
▁throughout	-9.67691
▁weather	-9.67751
▁fired	-9.67776
▁euro	-9.67857
▁developed	-9.67868
▁italy	-9.67941
▁language	-9.68192
▁showing	-9.68292
ar	-9.68355
▁shift	-9.68476
▁2016	-9.68521
▁meant	-9.6858
▁lawsuit	-9.68598
▁guilty	-9.6862
▁olympics	-9.68675
▁complex	-9.68831
▁restaurant	-9.691
▁approval	-9.69108
▁putin	-9.69141
▁driving	-9.69314
▁professional	-9.69363
▁save	-9.69464
▁murder	-9.69545
▁resources	-9.69553
▁becoming	-9.69632
▁oct	-9.69671
▁increasing	-9.69677
▁helping	-9.69714
▁retired	-9.69885
▁argued	-9.69909
▁disaster	-9.69995
▁acknowledged	-9.7001
▁voice	-9.70219
▁presence	-9.70293
▁governments	-9.70344
▁visiting	-9.70356
▁inc	-9.70428
▁standing	-9.70437
▁block	-9.70607
▁activities	-9.70607
▁index	-9.70653
▁extra	-9.70672
▁century	-9.70784
▁strike	-9.70834
▁liberal	-9.70841
▁evening	-9.70893
▁join	-9.70903
▁larger	-9.70907
▁lived	-9.70936
▁announcement	-9.71092
▁alliance	-9.71094
▁nor	-9.71103
▁directly	-9.71232
▁claim	-9.71279
▁respond	-9.71291
▁associated	-9.71337
▁organizations	-9.71386
▁represent	-9.71391
▁heat	-9.71399
▁politicians	-9.71492
▁2010	-9.71504
▁lee	-9.71516
▁books	-9.71541
▁province	-9.71602
ist	-9.71817
ity	-9.71881
▁successful	-9.71889
▁port	-9.71896
▁thinking	-9.71955
off	-9.71972
▁marketing	-9.7204
▁direct	-9.72054
▁necessary	-9.7207
▁asking	-9.72099
▁visitors	-9.72119
ling	-9.72144
▁broke	-9.72253
▁certainly	-9.72293
▁ensure	-9.72314
▁beach	-9.7233
▁joe	-9.72355
ch	-9.72355
▁criticized	-9.72406
▁soccer	-9.72452
▁tests	-9.7248
▁slow	-9.72493
▁overall	-9.72574
▁caught	-9.72579
▁recalled	-9.72592
be	-9.72845
▁2012	-9.72934
▁winter	-9.72941
▁2011	-9.72948
▁sun	-9.72999
mail	-9.73027
▁isn	-9.73128
▁add	-9.73148
▁standards	-9.73153
▁paying	-9.73293
▁responsibility	-9.73421
▁nov	-9.7349
▁standard	-9.73556
▁taliban	-9.73615
▁fair	-9.73636
▁foundation	-9.73672
▁advantage	-9.7376
▁complete	-9.73803
▁richard	-9.7383
she	-9.73856
▁earned	-9.73872
▁possibility	-9.73873
▁written	-9.73882
▁partners	-9.73932
▁stocks	-9.73969
▁bowl	-9.73991
ment	-9.74118
▁corp	-9.74173
▁actions	-9.74282
us	-9.74285
▁martin	-9.74432
▁path	-9.74444
▁hill	-9.74483
▁content	-9.74487
ko	-9.74564
▁waiting	-9.7457
▁accept	-9.74652
▁bus	-9.74834
▁putting	-9.74905
▁gain	-9.7493
▁allowing	-9.7506
▁allies	-9.7514
▁date	-9.75154
▁favor	-9.75297
▁aimed	-9.75318
▁transportation	-9.75318
▁industrial	-9.75369
▁publicly	-9.75422
▁assembly	-9.75559
▁26	-9.75643
▁emperor	-9.75646
▁claimed	-9.7571
▁committed	-9.75717
▁freedom	-9.75785
▁27	-9.75809
▁reform	-9.75835
▁meanwhile	-9.75847
▁speed	-9.76042
▁missed	-9.7607
▁dispute	-9.76071
▁romney	-9.7611
ry	-9.76211
called	-9.76239
▁repeatedly	-9.76271
▁modern	-9.76283
▁brazil	-9.76373
▁introduced	-9.76488
▁champion	-9.76589
▁80	-9.76949
▁drivers	-9.77091
▁confidence	-9.77191
▁grow	-9.77231
▁responsible	-9.77318
▁score	-9.77406
▁limit	-9.77429
▁card	-9.77461
▁corruption	-9.77526
▁settlement	-9.77542
▁sound	-9.77549
▁rejected	-9.77697
▁fresh	-9.7771
▁crimes	-9.77731
▁arm	-9.77756
▁pushed	-9.77767
▁2014	-9.77783
▁armed	-9.77859
▁airlines	-9.7798
▁learn	-9.78023
▁golf	-9.78076
▁initial	-9.78207
▁younger	-9.7822
▁quality	-9.78285
▁original	-9.78349
▁considering	-9.78434
▁storm	-9.78469
▁ii	-9.78507
▁jones	-9.78545
▁assistant	-9.78654
▁sector	-9.78659
▁taiwan	-9.78676
▁spain	-9.78683
ian	-9.78788
ter	-9.78792
▁dozens	-9.78823
▁session	-9.78922
▁suit	-9.78975
▁hurt	-9.78988
▁missing	-9.79021
▁crash	-9.79026
▁28	-9.79065
▁table	-9.79154
▁finding	-9.7942
▁earnings	-9.79448
da	-9.795
▁plants	-9.79769
▁congressional	-9.7977
▁internal	-9.79785
▁payments	-9.79814
▁check	-9.79876
go	-9.79901
rs	-9.79927
il	-9.79992
la	-9.80005
▁garden	-9.80041
▁$2	-9.80078
▁ice	-9.8012
▁feb	-9.80203
▁draw	-9.80305
▁develop	-9.80439
▁refused	-9.80489
▁fellow	-9.80535
▁sort	-9.80607
▁boy	-9.80634
▁ship	-9.80641
▁injuries	-9.80672
▁miami	-9.80812
▁offers	-9.80925
ation	-9.80948
▁scandal	-9.80969
▁seat	-9.80974
land	-9.80988
▁fan	-9.81001
▁eye	-9.81026
▁virginia	-9.8115
▁vehicle	-9.81176
▁haven	-9.81184
▁wait	-9.81488
▁highly	-9.81516
▁brexit	-9.81524
▁afghan	-9.81609
▁ukraine	-9.81654
co	-9.81655
▁clients	-9.81791
▁involving	-9.81793
▁supported	-9.818
▁percentage	-9.81804
▁urged	-9.81818
▁produced	-9.81824
▁produce	-9.82048
▁facilities	-9.82146
▁muslim	-9.82256
▁$5	-9.82324
▁closer	-9.82349
▁benefit	-9.82365
▁reasons	-9.82449
▁willing	-9.82605
▁incident	-9.82615
▁allegations	-9.82617
▁scott	-9.8266
▁warning	-9.82677
▁votes	-9.82736
▁agree	-9.82758
▁movie	-9.82904
▁mo	-9.82909
▁decide	-9.82957
▁raising	-9.82973
▁behavior	-9.83032
▁scene	-9.83035
▁fewer	-9.8311
▁currency	-9.83143
▁feeling	-9.83286
▁creating	-9.83288
▁apparently	-9.83315
▁relatively	-9.83453
▁le	-9.83466
▁prepared	-9.83549
▁decisions	-9.83699
▁failure	-9.83708
out	-9.83807
▁networks	-9.83914
▁pitch	-9.83983
▁watching	-9.84052
▁website	-9.84073
▁overseas	-9.84145
▁conduct	-9.84167
▁mortgage	-9.84215
▁activists	-9.84262
▁arms	-9.84269
!	-9.84352
▁van	-9.84428
▁activity	-9.8444
▁rival	-9.845
▁voted	-9.84539
▁gets	-9.84577
▁design	-9.8458
▁challenges	-9.84586
▁specific	-9.84599
▁reality	-9.84675
▁supply	-9.8476
▁multiple	-9.84808
ka	-9.84816
▁convicted	-9.84953
▁adviser	-9.85035
▁asian	-9.85091
▁agents	-9.85119
▁boeing	-9.85162
▁owned	-9.85287
▁familiar	-9.85303
▁rally	-9.85421
▁secret	-9.85423
▁fish	-9.85448
▁pointed	-9.85451
▁shown	-9.8546
▁generally	-9.8549
▁electric	-9.85534
▁jewish	-9.85605
▁drew	-9.85606
▁fully	-9.85654
▁sex	-9.85701
▁occurred	-9.85818
▁stake	-9.85863
▁risks	-9.85868
▁90	-9.85976
▁declared	-9.85994
▁fraud	-9.86117
▁cold	-9.86173
▁philadelphia	-9.86187
▁auto	-9.8619
▁1980	-9.86191
▁iraqi	-9.86205
▁fighters	-9.86252
▁farm	-9.86316
foot	-9.86373
▁fees	-9.86461
▁designed	-9.86541
▁hot	-9.86671
▁looks	-9.86679
▁immigrants	-9.86748
▁bureau	-9.86776
▁coverage	-9.86782
▁journal	-9.86913
▁communications	-9.86928
▁falling	-9.86963
▁quarterback	-9.86995
▁struggling	-9.87074
▁2009	-9.87089
▁diplomatic	-9.87227
▁inning	-9.87252
▁voting	-9.87301
▁options	-9.87377
▁sat	-9.87379
▁citing	-9.87603
▁none	-9.87663
▁shared	-9.87778
▁type	-9.87799
▁opponents	-9.87829
▁gallery	-9.8792
▁unlikely	-9.88014
▁walked	-9.88048
▁assault	-9.88074
▁prosecutor	-9.88108
▁broad	-9.88154
▁goods	-9.88181
▁microsoft	-9.88196
▁shop	-9.88199
▁suicide	-9.8828
▁bridge	-9.88418
▁via	-9.88425
▁eyes	-9.88434
▁chris	-9.88471
▁athletes	-9.88476
▁detroit	-9.88494
▁prince	-9.88536
st	-9.88586
▁pace	-9.88592
▁onto	-9.88626
▁trouble	-9.88665
▁task	-9.8873
est	-9.88768
▁kids	-9.88785
▁bigger	-9.88963
▁placed	-9.89008
▁earth	-9.89078
▁ads	-9.89118
▁developing	-9.89302
▁regulators	-9.89377
me	-9.89435
▁accident	-9.89478
▁bronx	-9.89554
▁hoped	-9.89605
▁clearly	-9.89625
▁rock	-9.89643
people	-9.89687
▁ruled	-9.89753
like	-9.8976
▁opposed	-9.89823
▁generation	-9.90137
▁finish	-9.90139
▁vast	-9.90173
▁messages	-9.90201
▁worried	-9.90241
▁upper	-9.903
▁playoff	-9.9031
▁wind	-9.90339
▁carrying	-9.90489
▁xi	-9.90531
▁tend	-9.90551
▁girl	-9.906
▁queens	-9.9074
▁continuing	-9.90782
▁bomb	-9.90784
▁seeing	-9.908
▁tensions	-9.90819
▁ohio	-9.90857
▁cited	-9.90874
▁prominent	-9.90877
▁cast	-9.90948
▁--	-9.91023
▁views	-9.91094
▁remaining	-9.91108
▁opinion	-9.91139
▁fox	-9.91181
▁35	-9.91187
▁crew	-9.91219
▁australian	-9.91236
▁meetings	-9.91282
▁remarks	-9.91336
▁william	-9.91519
▁founder	-9.91567
▁200	-9.9159
▁worse	-9.91634
▁tech	-9.91651
mo	-9.9173
▁recovery	-9.91737
▁initially	-9.91774
▁expand	-9.91788
▁established	-9.91975
▁determine	-9.92019
▁journalists	-9.92052
▁militants	-9.92141
▁testing	-9.92146
▁note	-9.9221
▁clean	-9.92229
▁31	-9.92242
▁wild	-9.92255
ia	-9.92257
▁deaths	-9.92323
▁section	-9.92433
▁poll	-9.92442
▁arizona	-9.9249
▁tied	-9.92565
▁grown	-9.92632
▁audience	-9.92652
not	-9.92682
▁attended	-9.92683
▁cable	-9.92694
▁interests	-9.92727
▁picture	-9.9273
▁iranian	-9.92753
▁whatever	-9.92772
▁jury	-9.92808
▁institutions	-9.92927
ap	-9.92929
▁passengers	-9.92995
▁wearing	-9.93084
▁quick	-9.93097
▁treasury	-9.93119
▁channel	-9.93132
▁italian	-9.93142
▁entered	-9.93149
▁arab	-9.93184
▁3-	-9.93193
▁offensive	-9.93303
▁affected	-9.93454
▁colleagues	-9.93502
▁missile	-9.93536
▁rain	-9.93579
▁headquarters	-9.93597
▁valley	-9.93677
ya	-9.93708
▁cooperation	-9.93755
▁promised	-9.93898
▁facility	-9.93911
▁items	-9.94051
▁davis	-9.94071
▁setting	-9.94072
▁ultimately	-9.94093
▁innings	-9.94113
▁expensive	-9.94231
▁teachers	-9.94347
▁anthony	-9.94391
▁2015	-9.94392
▁neither	-9.94397
▁completed	-9.94534
▁unclear	-9.94553
▁brain	-9.94622
▁plastic	-9.94767
▁typically	-9.94819
▁unusual	-9.94894
▁shut	-9.94904
▁recession	-9.94954
▁reserve	-9.9514
▁dangerous	-9.95141
▁winner	-9.95186
▁basis	-9.95193
▁moon	-9.9523
▁agent	-9.95337
▁michigan	-9.95353
▁rodriguez	-9.95433
▁watched	-9.95442
▁corporation	-9.95566
▁physical	-9.95784
▁devices	-9.95821
▁secure	-9.9591
▁chain	-9.95915
▁pulled	-9.95936
▁closely	-9.96009
point	-9.96059
▁managed	-9.96148
▁active	-9.96212
▁keeping	-9.96216
▁instance	-9.96231
▁rescue	-9.96308
▁telling	-9.96397
▁diet	-9.96477
▁discovered	-9.96679
ary	-9.96706
▁orders	-9.96718
▁effective	-9.96764
▁nato	-9.96789
▁representatives	-9.96833
▁option	-9.96918
ism	-9.9694
▁balance	-9.97059
▁providing	-9.97061
▁sit	-9.97113
▁changing	-9.97204
▁venezuela	-9.97266
ish	-9.97304
▁difference	-9.97309
▁shots	-9.97378
▁financing	-9.9739
▁threatened	-9.97428
▁removed	-9.97466
▁penalty	-9.97474
▁territory	-9.97555
▁greece	-9.97555
▁counter	-9.97587
lo	-9.97589
▁hoping	-9.97659
▁terrorist	-9.97662
▁defensive	-9.97666
▁longtime	-9.9772
▁deficit	-9.97735
game	-9.97751
▁bond	-9.97798
▁loan	-9.97825
▁crucial	-9.97889
▁29	-9.97906
▁plays	-9.97925
▁basic	-9.97965
▁2013	-9.97974
▁turning	-9.98026
ner	-9.98092
▁bills	-9.98185
▁exports	-9.98254
▁ad	-9.98272
▁determined	-9.98345
▁doubt	-9.98345
▁species	-9.98383
▁sitting	-9.98388
▁constitution	-9.98456
▁elsewhere	-9.98469
▁2006	-9.98509
▁kill	-9.98532
▁seasons	-9.98635
per	-9.98746
▁hired	-9.98773
▁sharp	-9.9878
▁core	-9.98829
▁suspected	-9.9884
&	-9.98844
▁married	-9.98884
▁edge	-9.98903
▁hits	-9.9891
▁box	-9.9892
▁covered	-9.98933
▁regulations	-9.99021
▁continues	-9.99118
▁offense	-9.99182
▁pushing	-9.9922
▁combined	-9.99244
▁row	-9.99293
▁knows	-9.99354
▁trillion	-9.99386
▁simple	-9.99432
▁ocean	-9.99452
▁male	-9.99454
▁cultural	-9.99506
▁visited	-9.9964
▁speaker	-9.9966
▁migrants	-9.99689
▁advocates	-9.99771
▁expert	-9.99851
▁civilians	-9.99955
▁heavily	-9.99976
▁supposed	-10.0001
▁$10	-10.0001
▁peter	-10.0009
▁suspect	-10.0016
▁polls	-10.0023
▁dark	-10.0025
line	-10.0029
▁1,	-10.0033
▁jackson	-10.0048
▁suffered	-10.0054
▁tourists	-10.0066
▁compensation	-10.0074
▁huawei	-10.0082
▁maker	-10.0088
▁positions	-10.0088
▁infrastructure	-10.0091
▁assistance	-10.0091
▁relief	-10.0091
▁unable	-10.0094
ized	-10.0095
▁amazon	-10.0108
▁upon	-10.0113
▁ex	-10.0127
▁attend	-10.0128
▁georgia	-10.0128
▁$3	-10.0146
▁bodies	-10.0151
▁woods	-10.0156
▁easier	-10.0159
▁2007	-10.0163
▁advance	-10.0175
▁contrast	-10.0177
▁replace	-10.0184
ru	-10.0186
▁reputation	-10.0194
▁reuters	-10.0225
▁banking	-10.0227
star	-10.0233
▁knowledge	-10.0245
▁estimates	-10.0256
▁exactly	-10.0256
▁rebels	-10.0259
▁cells	-10.0263
ting	-10.0263
▁detention	-10.0289
▁sentence	-10.0291
▁farmers	-10.0294
hour	-10.0298
▁responded	-10.0324
▁communities	-10.0324
men	-10.0328
▁democracy	-10.0343
▁material	-10.0344
▁launch	-10.0344
▁email	-10.0346
▁houston	-10.0359
▁mueller	-10.0385
▁wounded	-10.0389
▁page	-10.0398
▁editor	-10.0398
▁broken	-10.04
▁contact	-10.0404
▁egypt	-10.0411
▁captain	-10.0412
▁prove	-10.0418
▁cents	-10.042
▁extend	-10.044
▁launched	-10.0442
▁limits	-10.0445
▁nets	-10.0446
▁easily	-10.0447
related	-10.045
▁doctor	-10.0453
▁treaty	-10.0459
▁jim	-10.046
▁silver	-10.0464
▁maintain	-10.0466
▁motor	-10.0472
▁spanish	-10.0474
▁library	-10.0475
▁analysis	-10.0476
▁immediate	-10.0477
▁jail	-10.0477
▁emerged	-10.0477
▁shortly	-10.0487
▁suspended	-10.0496
▁unemployment	-10.05
▁respect	-10.0502
▁sixth	-10.0504
▁wave	-10.0525
▁deals	-10.0526
▁steel	-10.0527
▁worker	-10.053
20	-10.0534
▁gen	-10.0538
▁god	-10.0539
long	-10.0546
▁promote	-10.0546
▁pain	-10.0551
▁couldn	-10.0551
▁aware	-10.0552
▁holiday	-10.057
▁fly	-10.0577
▁consecutive	-10.058
▁toyota	-10.0582
▁begun	-10.0586
american	-10.0587
▁scale	-10.0595
▁style	-10.0597
▁display	-10.0611
▁factory	-10.0612
▁author	-10.0626
▁remember	-10.0632
▁enter	-10.0632
▁linked	-10.0643
▁closing	-10.0644
▁christian	-10.0646
▁lay	-10.065
▁louis	-10.0656
▁gives	-10.0656
▁dan	-10.0667
▁venture	-10.067
▁ceremony	-10.0679
ler	-10.0682
▁sa	-10.0684
▁practices	-10.0687
▁backed	-10.0704
ally	-10.0705
▁republic	-10.0705
▁stories	-10.0707
▁sister	-10.0708
▁favorite	-10.0708
▁defeat	-10.0723
▁veteran	-10.0725
▁waste	-10.0729
▁10-	-10.0732
▁miss	-10.0737
▁tariffs	-10.0741
▁rich	-10.0742
▁strength	-10.0744
▁2017	-10.0748
▁girls	-10.0756
▁islands	-10.0762
▁conversation	-10.0763
▁andrew	-10.0764
▁everybody	-10.0765
▁fun	-10.0766
▁iowa	-10.0789
▁welfare	-10.0789
▁ambassador	-10.0792
▁route	-10.0792
▁screen	-10.0797
▁abroad	-10.0804
▁nationwide	-10.0816
▁hole	-10.0817
▁palestinian	-10.082
▁civilian	-10.082
▁extended	-10.082
▁worry	-10.0825
▁urban	-10.0826
▁boost	-10.083
am	-10.0833
▁surprise	-10.0838
▁delay	-10.0844
▁di	-10.0849
▁emissions	-10.0853
▁collection	-10.0858
▁effects	-10.0858
▁ko	-10.0859
age	-10.0861
▁referendum	-10.088
▁yesterday	-10.0881
▁discussions	-10.0882
▁solution	-10.0884
▁unlike	-10.0886
▁complaints	-10.0893
▁75	-10.0896
▁ford	-10.0897
▁threw	-10.0899
▁admitted	-10.0899
▁bottom	-10.0909
▁rice	-10.091
▁reporter	-10.0926
▁animals	-10.0926
▁renault	-10.0936
▁employee	-10.0941
▁normal	-10.0942
▁con	-10.0948
▁canadian	-10.0952
▁slightly	-10.0956
▁count	-10.096
▁presented	-10.0965
▁catch	-10.0968
▁reduced	-10.0974
▁filled	-10.0977
▁earthquake	-10.0979
▁perfect	-10.0986
▁negative	-10.0987
▁minute	-10.0989
▁explained	-10.0994
yard	-10.0999
▁degree	-10.1001
▁individuals	-10.1002
▁surgery	-10.1002
▁centers	-10.1009
▁potentially	-10.1011
▁organized	-10.1015
▁cap	-10.1017
▁kennedy	-10.102
▁constitutional	-10.1031
▁windows	-10.1031
▁pacific	-10.1038
▁terrorism	-10.104
▁existing	-10.104
▁stands	-10.1043
▁truck	-10.1045
▁connecticut	-10.1048
▁technical	-10.1052
▁moves	-10.1055
▁collapse	-10.1057
▁mccain	-10.1057
▁broadcast	-10.106
▁direction	-10.1076
▁prompted	-10.108
▁corner	-10.1086
▁delivered	-10.1088
back	-10.1091
▁band	-10.1112
▁worldwide	-10.1116
▁serving	-10.1126
▁foot	-10.1132
▁discussion	-10.1133
▁nonprofit	-10.1143
▁indeed	-10.1143
sex	-10.1143
▁allows	-10.1153
▁sending	-10.1166
▁represents	-10.1166
▁revealed	-10.1167
▁1970	-10.1171
▁concluded	-10.1173
▁2020	-10.1174
▁calif	-10.1181
bo	-10.1181
now	-10.1187
▁seoul	-10.119
▁stations	-10.119
ke	-10.1196
▁mountain	-10.12
field	-10.1208
▁junior	-10.1209
▁platform	-10.121
▁miller	-10.1212
▁aggressive	-10.1213
▁restrictions	-10.1216
▁inflation	-10.1218
▁connection	-10.1219
▁ones	-10.1225
▁reading	-10.1228
▁gathered	-10.1234
▁mc	-10.1238
ty	-10.1239
▁camera	-10.1243
▁manufacturing	-10.1247
▁economist	-10.1267
▁funding	-10.1282
▁contracts	-10.1284
▁alleged	-10.1292
▁counsel	-10.1294
▁relatives	-10.1295
▁dismissed	-10.1298
▁fears	-10.1298
▁increases	-10.1301
▁competitive	-10.1305
▁device	-10.1307
▁throw	-10.1313
▁happens	-10.1319
▁courts	-10.1321
▁drove	-10.1324
▁baby	-10.1325
▁starts	-10.1333
▁insisted	-10.1337
▁45	-10.1338
▁alternative	-10.1347
▁resolution	-10.1347
▁struggled	-10.1353
▁drawn	-10.1359
▁photo	-10.1369
▁compete	-10.1382
▁navy	-10.1392
ier	-10.1398
▁advanced	-10.1403
right	-10.1406
▁expectations	-10.1407
▁arabia	-10.1417
▁touch	-10.142
▁cuomo	-10.1431
▁ben	-10.1431
▁capacity	-10.1431
▁par	-10.1432
▁hospitals	-10.1433
▁catholic	-10.1435
▁piece	-10.1436
izing	-10.1443
▁dream	-10.1444
▁retail	-10.1445
▁appearance	-10.1445
▁tennis	-10.145
▁picked	-10.1455
▁flights	-10.1463
▁struggle	-10.1465
▁offices	-10.1465
▁kyoto	-10.147
▁te	-10.1471
▁wouldn	-10.1472
ha	-10.1472
▁writing	-10.148
▁establish	-10.1485
▁possibly	-10.1489
▁unless	-10.1493
▁coal	-10.1496
ur	-10.1497
▁gulf	-10.1499
election	-10.1504
▁dog	-10.1507
▁treated	-10.1508
▁deliver	-10.1519
▁complaint	-10.1523
▁gained	-10.1528
▁veterans	-10.1528
ies	-10.1529
▁cutting	-10.1533
▁explain	-10.1534
▁photos	-10.1535
▁schedule	-10.1536
▁coaches	-10.1538
▁ending	-10.1542
▁interested	-10.1548
▁anonymity	-10.1548
▁streak	-10.1548
▁interviews	-10.1552
▁medicine	-10.1556
▁hair	-10.1574
▁se	-10.1575
▁transition	-10.1577
ki	-10.1581
▁1,000	-10.1582
▁economists	-10.1586
▁en	-10.1587
é	-10.1587
▁heads	-10.1592
▁charles	-10.1597
▁myanmar	-10.1598
ine	-10.16
▁bo	-10.1605
▁write	-10.1612
▁kevin	-10.1618
▁shinzo	-10.1628
▁partly	-10.1641
▁rivals	-10.1647
▁inquiry	-10.1647
end	-10.1649
▁receiving	-10.1657
ba	-10.1669
▁accusations	-10.1671
▁weight	-10.1671
▁profits	-10.1674
▁location	-10.1677
▁strategic	-10.1678
▁communist	-10.1689
▁2008,	-10.1693
▁managing	-10.1698
▁code	-10.1707
▁aside	-10.1712
▁depend	-10.1714
▁units	-10.1715
▁ride	-10.1717
▁testimony	-10.1717
▁neighbors	-10.172
▁die	-10.1721
ham	-10.1725
▁opportunities	-10.1727
ca	-10.173
▁$8	-10.1735
ville	-10.1736
▁myself	-10.1738
▁independence	-10.1738
▁retirement	-10.1748
▁failing	-10.1749
▁makers	-10.1749
▁hitting	-10.1752
▁broader	-10.1753
▁jet	-10.1756
▁animal	-10.1761
▁grant	-10.1765
▁split	-10.1776
▁okinawa	-10.1778
▁shopping	-10.1778
▁eat	-10.178
▁purchase	-10.179
▁judges	-10.1794
▁joseph	-10.1828
▁equity	-10.1839
▁gains	-10.1843
▁impossible	-10.1849
▁native	-10.185
▁soviet	-10.186
▁brian	-10.1864
▁snow	-10.1865
▁houses	-10.1867
▁entertainment	-10.1869
▁choose	-10.1873
level	-10.1877
▁completely	-10.1879
▁expansion	-10.1879
▁racing	-10.188
▁minor	-10.1883
▁wood	-10.1887
▁lake	-10.1887
▁weak	-10.1894
class	-10.1897
▁500	-10.1901
▁victim	-10.1902
▁package	-10.1904
▁horse	-10.1904
▁embassy	-10.191
▁noon	-10.192
▁blasio	-10.192
▁forecast	-10.1924
▁requires	-10.193
▁wake	-10.1931
▁pentagon	-10.1941
▁vietnam	-10.1941
▁kelly	-10.1941
▁shareholders	-10.1951
▁flying	-10.1953
▁biden	-10.1953
▁meaning	-10.1959
▁accepted	-10.196
▁atlanta	-10.1971
▁singapore	-10.1971
▁structure	-10.1988
▁stuff	-10.1991
▁partnership	-10.1998
▁steve	-10.2
▁talent	-10.2006
▁fill	-10.2007
▁qaeda	-10.2013
▁combat	-10.2015
ny	-10.2016
▁performing	-10.2016
season	-10.2017
▁rebel	-10.202
ant	-10.202
▁ill	-10.202
▁agenda	-10.2023
▁detained	-10.2026
ge	-10.2026
▁birth	-10.2033
▁mainly	-10.2037
▁affect	-10.2038
▁violent	-10.2039
▁seventh	-10.2039
▁discussed	-10.2044
▁pakistani	-10.2047
▁nice	-10.2056
▁managers	-10.2057
▁stars	-10.2058
▁powers	-10.2059
▁pull	-10.206
▁link	-10.2061
▁severe	-10.2063
▁electricity	-10.2065
▁sanders	-10.2067
▁minority	-10.2076
▁ho	-10.2076
▁teacher	-10.2084
▁surface	-10.2087
▁matt	-10.2087
▁2009,	-10.2094
▁talked	-10.2095
▁investments	-10.21
▁fallen	-10.21
▁believes	-10.2111
▁materials	-10.2113
▁na	-10.2115
▁2018	-10.2116
▁trend	-10.2116
ated	-10.2117
der	-10.2117
▁witnesses	-10.2118
▁threats	-10.2122
▁targets	-10.2122
▁headed	-10.2123
▁ethnic	-10.2127
▁nbc	-10.2128
▁convention	-10.2128
▁marine	-10.2129
▁kansas	-10.2138
▁x	-10.214
▁2005	-10.2141
▁ticket	-10.2147
month	-10.2148
▁sundays	-10.2149
▁outcome	-10.2159
▁brief	-10.2164
▁pension	-10.2167
▁sox	-10.2168
▁deadline	-10.2169
▁sentenced	-10.217
▁models	-10.2174
▁acting	-10.2179
▁widespread	-10.218
▁replaced	-10.2181
▁playoffs	-10.2186
▁glass	-10.219
▁vision	-10.2191
▁300	-10.2194
▁harder	-10.2194
▁recorded	-10.2196
▁2011,	-10.22
▁ward	-10.22
▁32	-10.2207
▁eighth	-10.2208
▁initiative	-10.2209
▁li	-10.2222
li	-10.2227
▁cards	-10.2231
▁remove	-10.2234
▁skills	-10.2236
▁2012,	-10.224
▁tight	-10.2241
▁imperial	-10.2243
▁deeply	-10.2246
▁proposals	-10.2248
▁fit	-10.2248
▁aides	-10.2253
▁founded	-10.2254
▁herself	-10.2255
▁text	-10.2258
▁dallas	-10.2264
▁scoring	-10.2267
▁personnel	-10.2275
▁artists	-10.2286
▁handle	-10.2289
these	-10.2295
▁seattle	-10.2296
▁surprised	-10.2296
▁crown	-10.2297
▁frank	-10.2299
▁eric	-10.2304
▁employment	-10.2307
▁ku	-10.2308
▁prize	-10.2308
▁mental	-10.2312
▁tie	-10.2316
▁royal	-10.2319
▁features	-10.2331
▁stephen	-10.2339
▁walking	-10.234
▁tens	-10.234
▁uses	-10.2344
▁pool	-10.2355
▁command	-10.2359
▁abortion	-10.2363
▁da	-10.2366
▁tiny	-10.2372
ize	-10.2373
50	-10.2385
▁teammates	-10.2388
▁restaurants	-10.2393
▁extremely	-10.2398
▁passing	-10.2404
▁commander	-10.2409
▁wilson	-10.2414
some	-10.2418
▁knee	-10.2418
▁2007,	-10.2422
▁improved	-10.2422
▁stepped	-10.2425
▁otherwise	-10.2426
▁federation	-10.2435
▁driven	-10.2437
▁learning	-10.2454
▁anger	-10.2458
▁brothers	-10.2469
▁carbon	-10.2471
▁anniversary	-10.2478
po	-10.2483
▁indicated	-10.2483
mer	-10.2487
▁maduro	-10.2489
▁contain	-10.2496
▁proved	-10.2501
▁document	-10.2504
▁legislature	-10.2505
▁famous	-10.2516
▁videos	-10.2518
▁stretch	-10.2522
ted	-10.2524
▁effectively	-10.2529
▁2004	-10.2532
con	-10.2533
▁pilot	-10.2538
▁payment	-10.2542
▁faster	-10.2542
▁ideas	-10.2544
▁carlos	-10.2549
▁bankruptcy	-10.2554
▁solar	-10.2558
▁suggest	-10.256
▁commitment	-10.2571
▁2010,	-10.2578
▁operator	-10.2581
▁revolution	-10.2582
▁touchdown	-10.2593
▁except	-10.2598
▁investigations	-10.2598
▁advice	-10.2598
▁tourism	-10.2599
▁formal	-10.2607
▁passes	-10.2615
ad	-10.262
▁adopted	-10.2627
▁hillary	-10.2632
▁apply	-10.2634
let	-10.2641
"	-10.2646
▁demands	-10.2649
▁appeals	-10.2652
▁colorado	-10.2653
▁memorial	-10.2664
▁wage	-10.2665
▁¥1	-10.2668
▁commerce	-10.2668
▁mar	-10.2672
▁historic	-10.2674
▁returning	-10.2675
▁universities	-10.2675
▁mexican	-10.2683
▁races	-10.2687
▁$4	-10.269
▁cameras	-10.2697
▁fukushima	-10.2697
▁privacy	-10.2697
▁rural	-10.2697
▁honor	-10.2708
▁imports	-10.2713
lin	-10.2722
▁statistics	-10.2723
▁dinner	-10.2728
▁argue	-10.2729
▁award	-10.2732
▁prospect	-10.2735
▁morgan	-10.2742
▁saturdays	-10.2746
▁apart	-10.2749
▁meters	-10.2756
round	-10.2757
▁matters	-10.276
▁experienced	-10.2762
▁factor	-10.2764
▁daniel	-10.2769
▁collins	-10.2775
ful	-10.2777
▁yes	-10.2783
se	-10.2786
▁window	-10.2795
▁2006,	-10.2797
ir	-10.2797
▁suspects	-10.2801
▁gaza	-10.2811
▁surrounding	-10.2811
▁gap	-10.2813
don	-10.2829
▁sleep	-10.2829
▁questioned	-10.2834
▁confident	-10.2842
▁statements	-10.2847
▁goldman	-10.2858
▁inter	-10.2859
▁preparing	-10.2865
▁boat	-10.287
▁flat	-10.2879
▁aren	-10.288
▁seized	-10.2893
▁rarely	-10.2898
▁fashion	-10.2902
▁overtime	-10.2905
▁suggests	-10.2905
▁nikkei	-10.291
▁ninth	-10.291
▁columbia	-10.291
▁fla	-10.2917
▁alabama	-10.2921
▁exit	-10.2922
▁monthly	-10.2924
▁cleveland	-10.2932
▁client	-10.2933
▁argument	-10.2933
ous	-10.2938
ni	-10.2944
▁technologies	-10.2955
▁entering	-10.2956
▁merger	-10.2968
car	-10.2977
▁plenty	-10.2989
▁banned	-10.299
▁blame	-10.2991
▁exhibition	-10.2992
▁refugees	-10.2992
▁scores	-10.2998
▁pittsburgh	-10.3001
▁fame	-10.3003
▁boys	-10.3003
▁sky	-10.3009
▁harvard	-10.3012
▁understanding	-10.3012
▁healthy	-10.3016
▁mixed	-10.3023
▁planes	-10.3027
▁airline	-10.3029
▁defend	-10.3032
▁surge	-10.3035
backed	-10.3036
▁machine	-10.3037
▁jump	-10.304
▁manning	-10.3042
▁faith	-10.3044
▁afford	-10.3045
▁temporary	-10.3058
▁emerging	-10.307
▁bear	-10.3078
▁overhaul	-10.3082
▁transport	-10.3083
▁reaction	-10.3085
▁seriously	-10.3086
▁leads	-10.3091
▁provides	-10.3102
▁leg	-10.3104
▁poverty	-10.3116
▁unions	-10.312
▁chemical	-10.312
▁sharply	-10.3123
▁appointed	-10.3133
▁captured	-10.3134
▁$7	-10.3135
▁regulation	-10.3143
▁promise	-10.3145
ce	-10.3147
▁identity	-10.315
▁oklahoma	-10.315
▁regime	-10.3155
▁findings	-10.3156
▁hockey	-10.3162
▁bin	-10.3162
▁wins	-10.3166
▁purpose	-10.3167
▁minimum	-10.3173
▁du	-10.3174
os	-10.3178
▁meat	-10.32
▁customer	-10.3203
▁reporting	-10.3212
minute	-10.3218
▁granted	-10.3223
▁rent	-10.323
▁turkish	-10.3231
▁jeff	-10.3232
▁trees	-10.3233
well	-10.3234
▁historical	-10.3235
high	-10.3237
▁tea	-10.3238
fi	-10.324
▁sen	-10.324
ji	-10.3245
▁tickets	-10.3246
way	-10.3247
▁supporting	-10.3254
▁truth	-10.326
▁requests	-10.327
wood	-10.3272
▁agriculture	-10.3278
▁newly	-10.3283
▁contest	-10.3288
▁represented	-10.329
▁thanks	-10.3301
▁brussels	-10.3302
how	-10.3303
ten	-10.3304
▁parent	-10.3307
▁dealing	-10.3313
▁journalist	-10.3321
▁industries	-10.3325
▁tim	-10.3326
▁stayed	-10.3331
▁owns	-10.3337
▁hurricane	-10.3345
▁legislative	-10.3349
▁zero	-10.3351
▁stronger	-10.3356
▁elite	-10.3359
▁zealand	-10.3361
▁orange	-10.3373
▁holds	-10.3375
▁express	-10.3389
▁alex	-10.3394
▁investigating	-10.3396
▁regularly	-10.3399
les	-10.3405
▁consumption	-10.3408
di	-10.3412
▁ali	-10.3419
▁blocked	-10.342
▁identify	-10.3425
▁equal	-10.3426
▁max	-10.343
▁achieve	-10.3433
▁forest	-10.3438
▁estimate	-10.3444
▁scientific	-10.3444
▁pounds	-10.345
▁transfer	-10.3455
▁metropolitan	-10.3456
▁shoulder	-10.3457
ci	-10.3458
0,000	-10.3462
▁opponent	-10.3466
▁bob	-10.347
▁ireland	-10.348
▁creative	-10.348
▁returns	-10.3485
60	-10.3491
▁definitely	-10.3493
▁frequently	-10.3495
▁significantly	-10.3496
▁bag	-10.3501
▁wear	-10.3503
▁fields	-10.3504
▁laid	-10.3507
chi	-10.3508
▁probe	-10.3508
▁youth	-10.3516
▁libya	-10.3522
▁listed	-10.3526
▁viewed	-10.3527
▁subway	-10.3528
▁motion	-10.3529
▁merkel	-10.354
▁hiring	-10.354
▁controlled	-10.354
▁interior	-10.3547
▁flow	-10.3565
▁operate	-10.3567
▁turns	-10.357
▁variety	-10.3576
▁desire	-10.3578
▁pursue	-10.3578
▁quoted	-10.3592
▁fled	-10.3592
ak	-10.3595
▁predicted	-10.3595
▁usual	-10.3595
▁moments	-10.3601
▁iphone	-10.3605
free	-10.3624
▁chose	-10.3632
▁advisers	-10.3635
▁numerous	-10.3636
▁departure	-10.3636
▁reaching	-10.3642
house	-10.3643
▁attacked	-10.3647
mi	-10.3661
▁massive	-10.3662
▁ministers	-10.3669
▁damaged	-10.3672
▁scrutiny	-10.3673
▁franchise	-10.3674
▁electronic	-10.3675
▁buyers	-10.3683
making	-10.3685
▁wish	-10.3687
over	-10.3689
▁rocket	-10.3693
▁wright	-10.3699
▁toll	-10.37
▁recognized	-10.3707
▁photographs	-10.371
▁recognize	-10.3729
▁33	-10.373
▁2014,	-10.3733
▁$6	-10.3735
▁athletic	-10.3737
▁cuba	-10.3744
▁supplies	-10.3746
▁minnesota	-10.3746
ate	-10.3751
▁blow	-10.3755
▁survived	-10.3755
nd	-10.3756
▁engine	-10.3759
▁hudson	-10.376
sen	-10.377
▁economies	-10.3771
em	-10.3772
▁circumstances	-10.3774
▁complained	-10.3777
▁expanded	-10.3779
▁presidency	-10.3796
▁escape	-10.3799
▁welcome	-10.38
id	-10.3801
▁lu	-10.3806
▁file	-10.3806
00	-10.3813
▁resort	-10.3821
▁activist	-10.3825
▁studio	-10.3832
▁academy	-10.3833
▁stone	-10.3837
▁brands	-10.3842
▁aim	-10.3843
▁49	-10.3846
▁drawing	-10.3847
▁ease	-10.3849
▁suddenly	-10.3849
▁holdings	-10.3856
ent	-10.3859
▁elderly	-10.386
▁greatest	-10.3861
▁governing	-10.3862
▁christmas	-10.387
▁shape	-10.3872
▁36	-10.3874
▁rebounds	-10.3881
▁golden	-10.3883
▁memory	-10.3883
▁marathon	-10.3896
▁regulatory	-10.3898
▁character	-10.3901
▁festival	-10.3903
▁chase	-10.3905
▁intense	-10.3914
▁master	-10.3918
▁jordan	-10.3919
▁patient	-10.3922
▁bloc	-10.3929
▁campus	-10.3933
▁angry	-10.3945
▁referred	-10.3945
▁baghdad	-10.3947
▁breaking	-10.3952
▁suggesting	-10.3954
▁background	-10.3955
▁yahoo	-10.3958
▁greek	-10.3966
▁rail	-10.3971
▁debut	-10.3971
▁atlantic	-10.3972
▁resolve	-10.3973
▁lineup	-10.3976
▁witness	-10.3981
with	-10.3981
▁pope	-10.3983
▁formed	-10.3987
▁investor	-10.3992
▁solid	-10.3994
▁christie	-10.3996
▁34	-10.4007
▁massachusetts	-10.4008
▁pair	-10.4014
▁operators	-10.4015
▁blamed	-10.4019
▁peak	-10.4022
▁sam	-10.4024
▁feature	-10.4032
▁ldp	-10.4033
▁quiet	-10.4037
▁false	-10.4041
▁pop	-10.4043
▁hotels	-10.4047
▁notes	-10.4053
▁ka	-10.4056
▁reducing	-10.4059
▁2013,	-10.4059
▁attempts	-10.4062
▁traveling	-10.4064
▁mix	-10.4065
▁empty	-10.4072
▁gender	-10.4072
▁viewers	-10.4072
va	-10.4081
▁mis	-10.4082
▁fought	-10.4085
▁boom	-10.4088
▁youtube	-10.4092
▁municipal	-10.4096
80	-10.4099
▁manufacturers	-10.4099
▁lift	-10.4105
▁tested	-10.4115
▁federer	-10.4122
ov	-10.4129
▁leaves	-10.4131
▁danger	-10.4133
▁;	-10.4135
▁rapidly	-10.414
▁invest	-10.4142
▁rookie	-10.4147
▁custody	-10.4148
▁del	-10.4149
▁expanding	-10.4153
▁politically	-10.4157
ists	-10.416
▁monetary	-10.4161
▁downtown	-10.4165
▁deadly	-10.4167
▁walls	-10.4167
▁monitor	-10.4167
▁``	-10.4186
▁pyongyang	-10.4186
▁diego	-10.4187
▁prepare	-10.4188
▁distance	-10.4192
▁wealth	-10.4193
▁attract	-10.4196
▁guidelines	-10.4197
▁luxury	-10.4199
▁ring	-10.4219
▁quit	-10.4222
▁chances	-10.4227
▁pennsylvania	-10.4238
▁episode	-10.4238
▁encourage	-10.4241
▁permanent	-10.4246
▁upset	-10.4247
▁artist	-10.4252
ah	-10.4255
▁mount	-10.4259
▁coffee	-10.4264
▁kentucky	-10.4264
▁bombing	-10.4269
▁cell	-10.4269
▁salary	-10.4277
▁lowest	-10.428
▁hardly	-10.4281
▁lo	-10.4283
▁calm	-10.4283
▁registered	-10.4285
rd	-10.4289
▁thailand	-10.429
▁complicated	-10.4293
▁factors	-10.4293
▁color	-10.4294
▁imposed	-10.4299
▁violations	-10.4307
▁stress	-10.4309
▁illinois	-10.4315
▁beating	-10.4319
can	-10.4323
▁locker	-10.4324
▁happening	-10.4326
▁$100	-10.4329
ard	-10.4333
▁toronto	-10.4342
min	-10.4352
▁stanley	-10.4355
▁cat	-10.4359
▁detailed	-10.4364
▁engaged	-10.4375
▁notice	-10.4378
▁cohen	-10.4381
▁user	-10.4386
▁oversee	-10.4387
▁tradition	-10.4395
▁cellphone	-10.4397
▁divided	-10.44
▁ma	-10.4411
▁assad	-10.4413
▁acquired	-10.4426
▁plate	-10.4437
▁manage	-10.444
▁vulnerable	-10.4447
▁2017,	-10.4448
▁barely	-10.4449
▁delivery	-10.4453
▁bell	-10.4455
▁crackdown	-10.4473
▁nobody	-10.4479
▁earn	-10.4481
▁settled	-10.4482
▁directed	-10.4486
▁dna	-10.449
▁targeted	-10.4491
▁remote	-10.4494
▁highway	-10.4496
▁causing	-10.45
▁fee	-10.4502
▁song	-10.4503
▁noting	-10.4509
▁traveled	-10.4512
▁helps	-10.4521
▁neighboring	-10.4525
et	-10.4534
▁gross	-10.4535
▁nomination	-10.4539
▁hunt	-10.4547
state	-10.4556
▁nasa	-10.4569
▁strikes	-10.4574
▁lewis	-10.4579
▁chosen	-10.4584
▁pledged	-10.4585
▁oversight	-10.4593
▁competitors	-10.4603
▁involvement	-10.4606
▁bench	-10.4608
pe	-10.4609
▁handed	-10.4611
▁anderson	-10.4611
im	-10.4612
▁realized	-10.4619
▁marijuana	-10.4619
▁realize	-10.4625
gu	-10.4626
▁letters	-10.4626
▁bases	-10.4627
▁modest	-10.4628
▁cbs	-10.4633
▁jeter	-10.4638
▁metal	-10.4639
down	-10.464
▁wealthy	-10.4652
▁classes	-10.4652
▁license	-10.4657
▁combination	-10.466
▁sets	-10.4663
▁destroyed	-10.4666
▁jay	-10.4674
▁appointment	-10.4682
▁satellite	-10.4682
▁tower	-10.4684
▁carrier	-10.4687
▁parking	-10.4687
op	-10.4689
▁demanding	-10.4693
▁resident	-10.4695
▁subsidies	-10.47
▁$20	-10.4701
den	-10.4711
ga	-10.4712
▁1960	-10.4715
▁types	-10.4716
▁eager	-10.4721
▁joining	-10.4727
▁thus	-10.4727
▁confirm	-10.4728
▁announce	-10.4734
▁mine	-10.4739
▁mail	-10.474
▁aide	-10.4741
▁waters	-10.4747
▁pieces	-10.4748
▁surveillance	-10.4754
▁somebody	-10.4758
▁ki	-10.4758
▁pitcher	-10.4772
▁gang	-10.4772
ti	-10.4774
▁ships	-10.4775
▁entirely	-10.4781
▁arena	-10.4786
▁va	-10.4791
aki	-10.4808
▁conservatives	-10.4817
▁mention	-10.4818
▁guns	-10.4822
▁humanitarian	-10.4823
▁priority	-10.4837
▁repeated	-10.4838
▁killings	-10.4839
▁ri	-10.4842
▁fate	-10.4843
▁arguing	-10.485
▁comfortable	-10.4851
▁fix	-10.4853
▁apparent	-10.4858
▁swiss	-10.4864
▁strongly	-10.4868
▁phones	-10.4868
▁flag	-10.4869
▁tehran	-10.4878
▁blog	-10.4879
▁yemen	-10.4887
▁visa	-10.489
▁importance	-10.4891
▁suffering	-10.4892
▁momentum	-10.4892
▁exercise	-10.4894
▁shock	-10.4903
▁academic	-10.4903
▁jack	-10.4906
▁tons	-10.4907
▁invited	-10.4908
▁abu	-10.4909
▁computers	-10.4911
▁demanded	-10.4914
▁connected	-10.4916
▁espn	-10.4916
▁humans	-10.4917
▁accord	-10.4918
▁rush	-10.4919
▁vowed	-10.4921
▁degrees	-10.4924
ns	-10.4929
▁ranks	-10.4931
▁afterward	-10.4931
▁values	-10.4932
▁stance	-10.4934
▁appropriate	-10.4936
▁print	-10.4937
▁tree	-10.494
▁ni	-10.4943
▁alive	-10.4945
▁burden	-10.4947
▁alcohol	-10.4947
ex	-10.4947
▁aging	-10.4955
▁roads	-10.496
▁uncertainty	-10.4961
▁pleaded	-10.4964
▁asset	-10.4966
▁formula	-10.497
▁ranked	-10.4975
▁ally	-10.4978
▁towns	-10.4978
▁signal	-10.4978
▁troubled	-10.4979
▁adults	-10.4979
▁officially	-10.4983
▁extreme	-10.4983
▁su	-10.4984
▁challenging	-10.4988
▁jason	-10.4989
▁gathering	-10.4989
▁handling	-10.4992
▁adam	-10.5
▁applied	-10.5002
▁valuable	-10.5002
▁swing	-10.5005
▁dance	-10.5005
▁euros	-10.501
▁mac	-10.5012
▁map	-10.5015
ja	-10.5016
▁150	-10.5017
▁investigate	-10.502
ey	-10.5028
▁medal	-10.5029
▁marked	-10.5033
ek	-10.5034
▁las	-10.5035
▁jong	-10.5035
▁consequences	-10.5035
ization	-10.5037
▁sony	-10.504
▁southeast	-10.5045
▁volume	-10.5046
▁cool	-10.5047
▁purchases	-10.5056
▁yen	-10.5063
▁dutch	-10.5068
▁papers	-10.507
▁chrysler	-10.5072
▁2000	-10.508
za	-10.5086
▁$9	-10.5089
▁wal	-10.5102
▁alongside	-10.5102
▁boss	-10.5105
▁howard	-10.5107
▁francis	-10.5114
ul	-10.5117
▁hedge	-10.5118
▁65	-10.512
▁cardinals	-10.5122
▁campaigns	-10.5124
▁treat	-10.5125
▁pa	-10.5128
▁berlin	-10.5129
▁prosecution	-10.5132
▁graduate	-10.5135
▁hu	-10.5137
▁mistake	-10.5142
▁essentially	-10.5147
▁filing	-10.515
▁classic	-10.5151
▁smart	-10.5156
her	-10.5156
▁baltimore	-10.5157
▁backing	-10.5159
▁principal	-10.5161
▁becomes	-10.5164
tic	-10.517
▁sub	-10.5173
▁savings	-10.5173
▁proud	-10.518
ber	-10.518
▁rio	-10.518
style	-10.5185
▁begins	-10.5186
quarter	-10.519
▁bed	-10.5201
▁slowly	-10.5212
▁expects	-10.5213
▁aviation	-10.5213
▁(“	-10.5214
▁blast	-10.5215
▁hate	-10.522
▁unique	-10.5222
▁collected	-10.5225
▁indonesia	-10.5236
▁2003	-10.5238
▁regarding	-10.5238
▁wing	-10.5239
▁differences	-10.5242
▁concrete	-10.5242
▁postseason	-10.5244
▁volunteers	-10.5246
▁irish	-10.5256
▁stability	-10.5257
▁drinking	-10.5258
▁producers	-10.5266
▁absence	-10.5271
▁curb	-10.5274
▁survive	-10.5275
▁aims	-10.5284
▁warm	-10.5285
▁wages	-10.5291
▁ends	-10.5296
▁rooms	-10.5296
▁producer	-10.5297
▁branch	-10.5298
▁pan	-10.5299
side	-10.5299
▁feels	-10.5315
▁ratings	-10.5319
▁muslims	-10.5321
▁actual	-10.5323
▁sees	-10.5325
▁jumped	-10.5329
▁smartphone	-10.5334
▁institution	-10.5338
▁gates	-10.5348
▁militant	-10.5349
▁mentioned	-10.5356
▁affordable	-10.5359
▁settle	-10.5364
▁steven	-10.537
▁rape	-10.5374
▁participants	-10.5374
▁enjoy	-10.5376
▁allen	-10.5387
▁hire	-10.5389
▁philippines	-10.5391
▁pitching	-10.5394
▁competing	-10.54
▁bail	-10.54
▁grounds	-10.5402
▁applications	-10.5403
▁diplomats	-10.5404
▁prisoners	-10.5405
▁abandoned	-10.5407
30	-10.5408
▁resigned	-10.5409
wa	-10.5411
▁palace	-10.5416
▁behalf	-10.5418
▁requirements	-10.5421
▁billions	-10.5423
mile	-10.5424
▁tools	-10.5427
▁controversial	-10.5429
▁engineering	-10.543
▁introduce	-10.5434
▁participate	-10.5434
▁trucks	-10.5447
▁spots	-10.5452
▁shelter	-10.5453
china	-10.5456
▁resignation	-10.5459
q	-10.5466
▁girardi	-10.5473
▁improving	-10.5474
▁outlook	-10.548
▁duty	-10.5491
▁newspapers	-10.5493
▁consultant	-10.5497
▁pictures	-10.5502
▁harassment	-10.5502
ive	-10.5504
▁loved	-10.5504
▁weekly	-10.5506
▁prospects	-10.5506
▁originally	-10.5515
▁beer	-10.5516
▁chancellor	-10.5517
▁handful	-10.5519
▁rely	-10.552
▁couples	-10.5521
ho	-10.5527
▁performed	-10.553
▁selection	-10.5531
▁wisconsin	-10.5532
▁rapid	-10.5542
▁circuit	-10.5547
▁ha	-10.5548
▁reforms	-10.5548
▁senators	-10.555
▁consulting	-10.5551
▁dominated	-10.5554
▁chamber	-10.5558
▁drone	-10.5561
▁attracted	-10.5561
▁victories	-10.5561
associated	-10.5563
▁guide	-10.5563
▁grass	-10.5571
▁switch	-10.5572
ina	-10.5573
▁42	-10.5574
▁associate	-10.5577
▁ya	-10.5588
▁400	-10.5589
new	-10.5598
▁amendment	-10.5602
very	-10.5603
▁harbor	-10.5606
▁retailers	-10.5617
▁extension	-10.562
▁pollution	-10.562
▁promoting	-10.5621
▁traded	-10.5621
▁mary	-10.5621
▁bright	-10.5625
are	-10.563
handed	-10.563
▁encouraged	-10.5631
▁application	-10.5632
▁cruz	-10.5636
▁forum	-10.5637
▁cameron	-10.5638
▁amounts	-10.5654
▁$15	-10.5657
▁accounting	-10.5661
▁albany	-10.5665
.1	-10.5679
fire	-10.5684
▁sustained	-10.5686
▁perform	-10.5686
▁camps	-10.5691
um	-10.5692
▁verdict	-10.5695
known	-10.5695
▁tap	-10.5696
▁pilots	-10.5703
▁lending	-10.5704
even	-10.5707
▁kansai	-10.571
▁heading	-10.5712
▁monitoring	-10.5716
▁donors	-10.5718
▁po	-10.5719
▁organizers	-10.5723
▁tampa	-10.5726
because	-10.5726
▁yu	-10.5729
▁imagine	-10.5731
▁somewhat	-10.5734
▁busy	-10.5736
▁recall	-10.5738
▁studied	-10.5739
▁inmates	-10.5741
▁doors	-10.5747
ger	-10.575
▁parks	-10.5754
▁taylor	-10.5754
▁denver	-10.5755
▁trains	-10.5757
▁walker	-10.576
▁sudan	-10.577
▁collapsed	-10.577
▁smoke	-10.5775
bar	-10.5777
▁discrimination	-10.5786
▁locations	-10.5786
ani	-10.5787
▁relative	-10.5794
▁falls	-10.5795
▁harris	-10.5798
▁collect	-10.5798
▁entry	-10.5801
▁vital	-10.5809
▁reflect	-10.5814
ig	-10.5815
▁tony	-10.5816
▁matches	-10.5822
▁pitched	-10.5826
▁chi	-10.5829
▁featuring	-10.583
▁equivalent	-10.583
▁bags	-10.5832
▁defeated	-10.5836
era	-10.5837
▁dry	-10.5839
▁2005,	-10.5841
law	-10.5841
▁seeks	-10.5844
▁tackle	-10.5844
▁kitchen	-10.5845
▁beef	-10.5845
▁household	-10.5855
▁prefectural	-10.586
▁citizen	-10.5862
ver	-10.5868
▁hamas	-10.5875
▁posts	-10.5879
▁districts	-10.588
▁obvious	-10.5885
▁auction	-10.5894
▁virtually	-10.5896
▁inspired	-10.5896
dy	-10.5901
▁guaido	-10.5906
▁sergeant	-10.5906
more	-10.5907
▁patrol	-10.5907
▁regions	-10.5909
▁neighborhoods	-10.5909
▁roll	-10.5909
▁scheme	-10.591
▁landing	-10.5911
▁bat	-10.5918
▁atmosphere	-10.5921
▁thompson	-10.5921
▁praised	-10.5928
▁requested	-10.5928
▁delayed	-10.5928
▁col	-10.5933
▁coup	-10.5936
▁creation	-10.5937
▁feed	-10.5938
▁guards	-10.5939
ship	-10.5943
▁receiver	-10.5949
han	-10.5968
▁revised	-10.5976
ned	-10.5982
▁patrick	-10.5983
▁warner	-10.5991
▁trained	-10.5998
▁theory	-10.6004
▁typical	-10.6009
▁jean	-10.6019
▁37	-10.6019
▁stewart	-10.6029
▁gray	-10.6029
▁staying	-10.6033
▁reportedly	-10.6034
▁hide	-10.6043
▁bilateral	-10.6044
▁ballot	-10.6051
▁blocks	-10.6054
▁extent	-10.606
▁stuck	-10.606
▁halt	-10.6061
au	-10.6063
kin	-10.6066
▁stable	-10.6067
▁violated	-10.6073
▁ethics	-10.6075
▁racial	-10.6076
▁2002	-10.608
▁reference	-10.6081
▁disputed	-10.6082
▁notion	-10.6083
▁studying	-10.6085
▁malaysia	-10.6086
▁describe	-10.6086
▁harm	-10.6091
▁madison	-10.6091
▁netanyahu	-10.6091
▁roster	-10.6091
made	-10.6096
▁formally	-10.61
▁titles	-10.6103
▁resulted	-10.6107
▁contributed	-10.6113
▁2015,	-10.6114
▁stimulus	-10.6122
▁specifically	-10.6123
▁acts	-10.6124
▁selected	-10.613
▁41	-10.6135
▁speculation	-10.6137
▁spill	-10.6139
▁ken	-10.6144
▁asylum	-10.6153
▁anybody	-10.6155
▁answers	-10.6157
▁stick	-10.6165
▁advocacy	-10.6169
▁santa	-10.6171
▁arrests	-10.6179
▁spirit	-10.618
▁requiring	-10.6184
▁drama	-10.6185
▁wore	-10.6186
▁expenses	-10.6188
▁causes	-10.6193
▁patriots	-10.6199
▁defended	-10.6202
▁recover	-10.6211
▁obtained	-10.6212
▁tone	-10.6215
▁ga	-10.6218
▁plus	-10.622
▁48	-10.6222
▁steady	-10.6232
▁procedures	-10.6234
▁developers	-10.6234
▁popularity	-10.6234
▁exposed	-10.6235
▁soft	-10.6237
-10	-10.6238
▁wine	-10.6238
▁guess	-10.6246
▁controversy	-10.6247
▁nadal	-10.6247
▁controls	-10.6249
▁compromise	-10.6253
▁capture	-10.6254
▁defending	-10.6257
▁gear	-10.626
▁export	-10.6267
▁transit	-10.6269
▁interesting	-10.627
▁38	-10.6272
▁necessarily	-10.6279
▁switzerland	-10.6279
10	-10.628
▁1.	-10.6287
▁passenger	-10.6288
▁normally	-10.6289
▁missiles	-10.6292
▁margin	-10.6294
▁remind	-10.6294
▁bars	-10.6295
▁ancient	-10.6295
▁wireless	-10.6295
▁antonio	-10.6296
▁bp	-10.6305
▁yellow	-10.6312
▁briefly	-10.6319
▁assessment	-10.6321
▁throwing	-10.6327
▁ordinary	-10.6327
▁travelers	-10.6327
▁2008.	-10.6328
▁rating	-10.6332
▁vatican	-10.6342
▁urging	-10.6343
▁category	-10.6343
▁pride	-10.6344
mp	-10.6346
ol	-10.6346
▁counts	-10.6349
▁disclosed	-10.6351
▁adult	-10.6354
▁tracks	-10.6355
▁resistance	-10.6359
tz	-10.6359
▁plot	-10.636
ster	-10.6374
▁fighter	-10.6374
▁edward	-10.6386
▁gene	-10.6386
▁violation	-10.6386
▁machines	-10.6387
▁newark	-10.639
▁clothing	-10.6394
▁maintained	-10.6397
▁2004,	-10.6409
▁gotten	-10.641
▁striking	-10.6417
▁indictment	-10.6419
▁visits	-10.642
▁lawmaker	-10.6422
▁ten	-10.6422
▁bull	-10.6432
▁sprint	-10.6432
ino	-10.6437
▁pact	-10.6437
▁testified	-10.6439
▁capable	-10.6442
▁survivors	-10.6445
page	-10.6449
▁bailout	-10.6452
▁sharing	-10.6452
▁wonder	-10.6458
▁impose	-10.6461
▁afraid	-10.6471
▁jerusalem	-10.6471
▁legacy	-10.6471
▁premier	-10.6475
▁employers	-10.6484
▁journey	-10.6485
▁refugee	-10.6486
▁eligible	-10.6487
▁elementary	-10.6487
▁manuel	-10.6488
▁arrive	-10.649
▁hasn	-10.6491
war	-10.6495
▁moore	-10.65
▁explosion	-10.65
▁signing	-10.6501
▁clock	-10.6505
▁warren	-10.6505
▁guarantee	-10.6507
bi	-10.6515
▁arguments	-10.6519
▁checks	-10.6521
▁narrow	-10.6527
▁covering	-10.6531
▁kick	-10.6534
▁mood	-10.6535
▁madrid	-10.6536
▁fail	-10.6539
che	-10.6541
▁birds	-10.6542
gi	-10.6551
▁robinson	-10.6552
▁maryland	-10.6552
▁submitted	-10.6554
▁movies	-10.6558
▁interviewed	-10.6564
ac	-10.6564
▁hollywood	-10.6568
▁bi	-10.6569
▁tries	-10.657
owned	-10.657
income	-10.6573
▁carriers	-10.6575
▁religion	-10.6585
▁unknown	-10.6586
mon	-10.6587
century	-10.6588
▁sad	-10.6588
▁sch	-10.6592
▁extensive	-10.6596
▁peninsula	-10.6601
▁authorized	-10.6604
▁sha	-10.6612
▁substantial	-10.6613
▁apps	-10.6613
▁communication	-10.6617
▁opposite	-10.6617
▁vi	-10.6617
▁northeast	-10.6618
▁anywhere	-10.6621
io	-10.6624
▁routine	-10.6628
▁string	-10.6632
▁canceled	-10.664
▁worries	-10.665
▁sand	-10.6654
▁2011.	-10.6657
▁elements	-10.6663
▁2012.	-10.6664
▁weapon	-10.6667
▁sensitive	-10.6669
▁2,000	-10.6674
▁dogs	-10.6675
▁intend	-10.6677
▁jews	-10.6679
▁y	-10.6683
▁conviction	-10.6683
▁2,	-10.6685
▁links	-10.669
wing	-10.6699
▁parade	-10.67
▁shiite	-10.67
40	-10.6701
▁kerry	-10.6701
▁thai	-10.6706
▁pages	-10.6709
▁enormous	-10.6711
▁cubs	-10.6713
cu	-10.6713
▁maximum	-10.6716
▁approached	-10.6719
▁roman	-10.6724
▁triple	-10.6728
▁vladimir	-10.6732
just	-10.6734
▁hundred	-10.6735
▁20-	-10.6735
rich	-10.6737
hi	-10.674
▁emotional	-10.6745
▁operated	-10.6747
▁clothes	-10.6749
▁cook	-10.675
▁scientist	-10.6751
▁55	-10.6751
▁outlets	-10.6753
▁fundamental	-10.6755
▁virtual	-10.6761
▁lane	-10.6764
▁quake	-10.6765
▁virus	-10.6765
▁shanghai	-10.6766
▁christopher	-10.6766
▁regardless	-10.6767
▁foreigners	-10.6773
▁chair	-10.6777
▁lynch	-10.6783
▁strip	-10.6784
▁defendants	-10.6785
▁shore	-10.679
▁clubs	-10.6799
▁perspective	-10.6799
▁conspiracy	-10.6799
▁misconduct	-10.6799
▁championships	-10.6799
▁discovery	-10.6801
▁circle	-10.6809
▁obviously	-10.681
▁fixed	-10.6814
▁frustration	-10.6819
▁informed	-10.6823
will	-10.6826
▁drought	-10.6832
▁hamilton	-10.6832
▁drink	-10.6833
▁negotiating	-10.6849
▁murray	-10.6849
▁kingdom	-10.6849
▁permission	-10.6849
▁forms	-10.6853
berg	-10.6854
▁tigers	-10.6866
▁heights	-10.687
▁keeps	-10.6872
▁succeed	-10.6873
▁shell	-10.6876
▁horses	-10.6877
▁palestinians	-10.6878
▁latin	-10.6882
▁recognition	-10.6884
▁nominee	-10.6887
▁recovered	-10.6897
▁feared	-10.6897
▁addressed	-10.6899
▁promising	-10.69
▁successor	-10.6909
▁distribution	-10.6917
▁obtain	-10.6919
most	-10.6919
▁mill	-10.6921
▁concert	-10.6922
▁10,000	-10.6922
forcing	-10.6923
▁fishing	-10.6926
▁phase	-10.6929
▁donations	-10.6938
▁generate	-10.6946
jo	-10.695
▁burned	-10.6958
▁bryant	-10.6959
▁membership	-10.6969
▁bolster	-10.6972
▁ski	-10.6973
▁negotiate	-10.6974
▁celebrated	-10.6977
▁essential	-10.698
▁penalties	-10.6984
▁automaker	-10.6991
▁luck	-10.6996
▁sole	-10.6997
▁households	-10.7
▁capitol	-10.7001
▁entrance	-10.7001
▁profile	-10.7004
▁cloud	-10.7009
▁pet	-10.7011
▁promises	-10.7012
▁lab	-10.7018
▁neck	-10.7023
▁lenders	-10.7024
▁warming	-10.7025
▁threatening	-10.7032
▁listen	-10.7032
▁buffalo	-10.7035
▁attending	-10.7038
▁fake	-10.7042
ped	-10.7048
▁duties	-10.7052
▁starter	-10.7055
ab	-10.7065
▁contributions	-10.7068
▁declining	-10.707
▁indiana	-10.7072
▁ongoing	-10.7074
▁guests	-10.7075
▁43	-10.7076
▁pat	-10.708
under	-10.708
town	-10.7098
▁moderate	-10.7101
▁declaration	-10.7104
▁dialogue	-10.7104
▁39	-10.7108
▁kinds	-10.7108
▁temple	-10.7113
▁soldier	-10.7114
▁tool	-10.7116
▁citigroup	-10.7121
▁trips	-10.7121
▁illegally	-10.7124
▁jose	-10.7124
week	-10.7124
▁suspicion	-10.713
ff	-10.713
▁outbreak	-10.7133
▁lifted	-10.7138
▁landscape	-10.7138
ana	-10.7149
▁featured	-10.7152
▁reactors	-10.7155
▁spoken	-10.7157
▁ceo	-10.7158
▁cheap	-10.7163
▁trans	-10.7167
▁generated	-10.7167
▁economics	-10.7168
▁teaching	-10.717
▁76	-10.7173
▁duke	-10.7174
▁plaintiffs	-10.7175
▁sight	-10.7175
-1	-10.7179
▁thrown	-10.718
▁charter	-10.7183
▁shops	-10.719
▁mortgages	-10.7191
▁temperatures	-10.7195
▁crack	-10.7206
▁eating	-10.7209
▁2009.	-10.7216
▁error	-10.7218
▁shutdown	-10.7226
art	-10.7232
▁pattern	-10.7236
▁suspension	-10.7236
ups	-10.7239
▁ebola	-10.7242
scale	-10.7253
▁helicopter	-10.7253
▁reluctant	-10.7254
▁surprising	-10.7254
▁protected	-10.7255
▁improvement	-10.7255
▁invested	-10.7259
▁sued	-10.726
▁argentina	-10.726
▁utility	-10.726
▁liberty	-10.726
▁jon	-10.7262
ney	-10.7263
▁47	-10.7269
▁attempted	-10.728
▁designated	-10.7281
▁comedy	-10.7281
▁isis	-10.7284
▁celebrate	-10.7285
▁sentiment	-10.7285
▁roof	-10.729
▁forget	-10.7292
▁renewed	-10.73
▁concept	-10.7306
▁manner	-10.7309
▁recommended	-10.7317
▁crowded	-10.7324
▁2014.	-10.7334
▁lawsuits	-10.7334
▁lunch	-10.7345
▁detail	-10.7347
▁2001	-10.7348
▁truly	-10.735
thirds	-10.7351
▁motors	-10.7355
▁trials	-10.7361
▁0	-10.7362
▁portion	-10.7363
▁protecting	-10.7365
▁borders	-10.7366
ee	-10.7367
▁shin	-10.737
▁output	-10.7371
oh	-10.7373
▁inches	-10.7376
▁reduction	-10.738
▁properties	-10.7383
▁administrative	-10.7383
▁absolutely	-10.7388
▁anymore	-10.739
ance	-10.7397
▁2010.	-10.7398
▁engineers	-10.7404
▁mainland	-10.7405
▁engage	-10.7409
▁punishment	-10.7415
▁pointing	-10.742
▁researcher	-10.742
▁birthday	-10.742
▁landed	-10.7422
▁30-	-10.7423
▁44	-10.7426
▁simon	-10.7432
▁champions	-10.7435
▁lights	-10.7438
▁yo	-10.7446
▁locked	-10.7446
▁sick	-10.7446
▁reflected	-10.7451
▁homeless	-10.7452
▁lopez	-10.7454
▁crude	-10.7455
▁2016,	-10.7457
▁sunni	-10.7457
▁carefully	-10.746
▁ross	-10.7461
▁z	-10.7461
▁jo	-10.7469
ku	-10.7469
▁preliminary	-10.7472
mart	-10.7474
▁located	-10.7474
yo	-10.7481
▁elizabeth	-10.7489
▁medicaid	-10.7489
▁vegas	-10.7489
ut	-10.7492
▁awarded	-10.7492
▁pending	-10.7492
▁bears	-10.7494
▁packed	-10.7501
?’	-10.7501
▁crashed	-10.7504
▁disappointed	-10.7509
5,000	-10.751
▁gift	-10.7512
▁strengthen	-10.7515
▁stanford	-10.7525
▁ro	-10.7526
▁poland	-10.7526
que	-10.7531
▁engineer	-10.7534
▁ron	-10.7539
▁innovation	-10.7542
▁#	-10.7545
▁flood	-10.7547
▁writer	-10.7548
▁shoes	-10.755
▁timing	-10.7554
▁questioning	-10.756
▁islamist	-10.7561
▁austin	-10.7561
▁rome	-10.7562
▁disabled	-10.7563
profile	-10.7566
▁pitches	-10.7566
ating	-10.7568
▁cease	-10.7569
▁preserve	-10.757
▁conversations	-10.7576
▁iron	-10.7579
▁orleans	-10.7579
ze	-10.758
▁taught	-10.758
▁ownership	-10.758
▁agreements	-10.7582
▁carter	-10.7587
▁fatal	-10.7593
▁frequent	-10.7593
▁consistent	-10.7593
▁rough	-10.7594
▁coordinator	-10.7597
▁nursing	-10.7597
▁barack	-10.7598
▁oregon	-10.7615
▁yourself	-10.7617
▁pressed	-10.7618
▁restore	-10.7625
▁tourist	-10.7627
▁musical	-10.7628
▁$50	-10.7629
▁kid	-10.7633
▁correct	-10.7633
▁visible	-10.7633
▁politician	-10.7634
▁possession	-10.7635
▁pen	-10.7648
▁exposure	-10.7652
▁overnight	-10.766
▁refer	-10.766
▁mistakes	-10.7666
▁khan	-10.7669
▁seemingly	-10.7671
mar	-10.7672
▁symbol	-10.7677
▁lie	-10.7687
ala	-10.7689
▁cleared	-10.769
▁battery	-10.769
▁slam	-10.7691
▁firefighters	-10.7692
▁phil	-10.7693
▁sounds	-10.77
▁clinic	-10.7701
▁delhi	-10.7707
▁comfort	-10.7707
▁beautiful	-10.772
▁dodgers	-10.7721
▁fleet	-10.7721
▁disney	-10.7724
▁describing	-10.7725
▁tsunami	-10.7725
ron	-10.7725
▁sweet	-10.7725
▁weren	-10.7727
▁shi	-10.7727
▁mining	-10.7734
▁alert	-10.7735
▁dies	-10.7737
▁$25	-10.7739
▁flew	-10.7743
▁gordon	-10.7743
▁tennessee	-10.7743
▁mitsubishi	-10.7744
▁adopt	-10.7747
▁mall	-10.775
▁rob	-10.7753
▁legally	-10.7756
▁broadway	-10.7762
▁focusing	-10.7767
▁crossing	-10.7767
▁wa	-10.777
▁exist	-10.7772
▁ray	-10.7778
▁utah	-10.778
▁intent	-10.778
▁legitimate	-10.778
▁experiment	-10.7781
▁firing	-10.7782
▁sugar	-10.7782
▁casino	-10.7783
▁roger	-10.7783
▁dressed	-10.779
▁universal	-10.7793
▁persuade	-10.7794
▁heritage	-10.7798
▁discussing	-10.7799
▁za	-10.7802
▁choices	-10.7802
ow	-10.7802
▁egyptian	-10.7803
▁shortage	-10.7805
25	-10.7806
▁harsh	-10.7808
▁sudden	-10.7811
▁uber	-10.7812
▁tactics	-10.7813
▁nick	-10.7813
▁12-	-10.7814
▁claiming	-10.7816
pi	-10.7817
▁passage	-10.7819
▁2018,	-10.7822
▁oppose	-10.7829
▁(6	-10.7834
▁barcelona	-10.7835
net	-10.7837
▁articles	-10.7837
▁bulls	-10.7838
▁2019	-10.7849
▁ar	-10.7849
▁smile	-10.7852
▁tenure	-10.7855
▁perry	-10.7859
▁allegedly	-10.7864
▁theme	-10.7866
▁jonathan	-10.7872
▁foster	-10.7878
▁suffer	-10.7884
▁mutual	-10.7885
▁rev	-10.789
▁residential	-10.7891
▁stem	-10.7896
▁mosque	-10.7896
▁establishment	-10.7898
90	-10.7901
▁retain	-10.7902
pa	-10.7908
▁sweden	-10.791
ring	-10.791
▁liked	-10.791
▁intention	-10.7911
ang	-10.7913
▁wang	-10.7913
▁premium	-10.7915
red	-10.792
▁smartphones	-10.792
▁mu	-10.7927
▁gasoline	-10.7928
▁factories	-10.7929
▁rick	-10.7931
▁risen	-10.7932
▁method	-10.7932
▁demonstrations	-10.7932
▁properly	-10.7933
▁disclose	-10.7937
▁readers	-10.7937
ran	-10.7942
”)	-10.7943
▁devils	-10.796
▁proceedings	-10.796
▁skin	-10.7964
▁pipeline	-10.7972
who	-10.7974
fa	-10.7984
▁greg	-10.7985
▁belt	-10.7987
▁nationals	-10.7989
▁odds	-10.799
▁yankee	-10.7991
ial	-10.7994
▁traders	-10.7996
▁finds	-10.7999
▁announcing	-10.8003
▁citizenship	-10.8003
▁sri	-10.8008
▁conclusion	-10.801
▁immigrant	-10.8012
▁ed	-10.8016
▁justin	-10.8018
▁pompeo	-10.8022
▁wildlife	-10.8022
born	-10.8024
▁basically	-10.8025
▁mile	-10.8027
▁magic	-10.8033
▁sells	-10.8034
▁ta	-10.8041
▁installed	-10.8048
▁prompting	-10.8051
▁brokers	-10.8053
▁corn	-10.8058
▁advocate	-10.8058
▁ambitious	-10.8059
▁louisiana	-10.8059
▁gather	-10.806
▁contained	-10.8062
ability	-10.8063
▁doubled	-10.8069
▁medicare	-10.8078
▁incentives	-10.8079
member	-10.8082
▁crowds	-10.8083
▁lies	-10.8087
▁wider	-10.8089
▁alaska	-10.809
▁planet	-10.8092
▁electronics	-10.8094
▁handled	-10.8101
vo	-10.8105
▁singer	-10.8106
mr	-10.8114
▁fairly	-10.8114
▁renewable	-10.8117
▁henry	-10.8117
▁prior	-10.8117
▁raid	-10.8118
▁sons	-10.8125
▁challenged	-10.8126
▁explanation	-10.8126
ward	-10.8126
▁tank	-10.813
▁missouri	-10.8136
▁kurdish	-10.8136
▁promoted	-10.8137
▁lying	-10.8139
-20	-10.8143
▁collective	-10.8149
▁radical	-10.8149
▁larry	-10.8155
▁contractors	-10.816
▁petition	-10.8163
vi	-10.8167
▁specialist	-10.8169
▁homer	-10.817
▁seed	-10.8171
▁cincinnati	-10.8174
▁reject	-10.8177
▁wi	-10.8179
▁bird	-10.8187
▁proper	-10.8191
▁footage	-10.8194
▁producing	-10.8196
▁coaching	-10.8196
▁2007.	-10.8214
▁hip	-10.8219
▁tunnel	-10.8223
▁brazilian	-10.8225
▁85	-10.8225
▁noticed	-10.8227
▁welcomed	-10.8227
▁shimbun	-10.8231
▁acres	-10.8231
his	-10.8232
▁modi	-10.8234
▁mouth	-10.8235
▁3,	-10.8236
▁corps	-10.8237
▁trail	-10.8247
▁holes	-10.8249
▁interim	-10.8251
gan	-10.8256
▁fruit	-10.8257
▁fridays	-10.8258
▁har	-10.8258
▁arrival	-10.8263
▁badly	-10.8266
▁raises	-10.8266
▁encouraging	-10.827
▁approve	-10.8273
▁milk	-10.8277
▁solve	-10.8284
▁shake	-10.8287
▁classified	-10.829
▁answered	-10.8291
▁princeton	-10.8292
▁corporations	-10.8296
▁judgment	-10.8303
▁radiation	-10.8309
▁dedicated	-10.831
▁writes	-10.8313
▁dean	-10.8313
▁serves	-10.8315
▁vacation	-10.8322
▁chicken	-10.8323
▁projected	-10.8326
▁primarily	-10.8328
▁plea	-10.8331
▁besides	-10.8339
maker	-10.8346
▁agricultural	-10.8347
▁fifa	-10.8348
▁jerry	-10.8349
▁lady	-10.8349
▁1950	-10.8349
ik	-10.8351
▁noise	-10.8355
▁chip	-10.8357
▁inspector	-10.8362
▁principle	-10.8362
▁diplomat	-10.8364
▁participation	-10.8367
▁extraordinary	-10.8368
largest	-10.8374
▁neighbor	-10.8382
▁soil	-10.8382
▁waited	-10.8382
▁2001,	-10.8385
▁empire	-10.8386
▁spotlight	-10.8387
▁bound	-10.8392
▁carries	-10.8393
▁rep	-10.8396
▁islam	-10.8397
▁length	-10.8401
▁briefing	-10.8402
use	-10.8407
▁paintings	-10.8408
▁coastal	-10.8412
▁lots	-10.8414
▁acquisition	-10.8421
▁divorce	-10.8435
▁hat	-10.8437
▁delays	-10.8438
▁homeland	-10.844
▁cycle	-10.8443
▁peaceful	-10.8448
▁han	-10.8454
▁methods	-10.8459
ors	-10.8461
▁temporarily	-10.8465
▁bruce	-10.8465
▁uniform	-10.8469
▁proof	-10.8473
▁observers	-10.8485
▁progressive	-10.8486
▁copy	-10.8487
▁merely	-10.8488
▁edwards	-10.8491
▁customs	-10.8495
▁strategist	-10.8501
▁consensus	-10.8505
▁southwest	-10.8506
▁deemed	-10.8507
▁daughters	-10.8507
▁brady	-10.8508
▁topic	-10.851
▁21,	-10.8511
▁connect	-10.8511
▁bombs	-10.8512
▁eagles	-10.8514
▁resume	-10.8514
▁pocket	-10.8522
▁buried	-10.8524
▁charity	-10.8524
raising	-10.8525
▁shipping	-10.8525
▁everywhere	-10.8526
▁finals	-10.8528
▁carl	-10.8531
▁personally	-10.8541
▁vessel	-10.8542
▁km	-10.8543
▁therefore	-10.8545
▁understood	-10.8545
▁knowing	-10.8546
▁demonstrators	-10.855
▁repair	-10.8551
ford	-10.8556
▁opt	-10.8558
▁successfully	-10.8562
▁memories	-10.8564
▁westchester	-10.8564
▁judicial	-10.8565
▁deployed	-10.857
▁100,000	-10.8571
▁nobel	-10.8571
▁passion	-10.8573
▁gary	-10.8573
par	-10.8574
▁737	-10.8576
▁72	-10.8578
▁islanders	-10.858
meter	-10.858
ken	-10.8583
▁chapter	-10.8583
▁moral	-10.8583
▁electoral	-10.8584
▁phoenix	-10.8584
board	-10.8585
▁frustrated	-10.8585
▁winners	-10.8593
▁46	-10.8598
▁fierce	-10.8598
▁recommendations	-10.8599
▁deeper	-10.8601
▁jazz	-10.8604
▁ca	-10.8608
▁3,000	-10.8612
▁usa	-10.8612
▁legs	-10.8617
ada	-10.8618
▁advisory	-10.8624
▁dominant	-10.8624
▁dating	-10.8626
▁lucky	-10.863
bu	-10.863
▁eliminate	-10.8634
tu	-10.8638
▁constant	-10.8639
ccompanied	-10.8641
▁shareholder	-10.8644
▁stolen	-10.8646
from	-10.8651
speed	-10.8651
▁landmark	-10.8665
▁providers	-10.8666
▁barr	-10.8667
defense	-10.8671
▁riders	-10.8675
ck	-10.8675
▁stream	-10.8677
▁51	-10.8686
▁ages	-10.8689
▁careful	-10.8694
▁chaos	-10.8697
▁sweeping	-10.8698
▁provision	-10.8702
▁educational	-10.8702
cher	-10.8704
▁intervention	-10.8705
▁emphasized	-10.8709
▁advertisers	-10.8709
▁tape	-10.8709
▁sessions	-10.8712
▁reserves	-10.8713
▁erdogan	-10.8724
▁transferred	-10.8725
range	-10.8725
▁northwest	-10.8726
▁replacement	-10.8727
▁insurgents	-10.873
▁conservation	-10.873
▁friendly	-10.8736
▁annually	-10.8737
▁tear	-10.8742
▁marc	-10.8743
▁calendar	-10.8745
▁attitude	-10.8746
▁reactor	-10.8747
▁withdrawal	-10.8748
▁aboard	-10.8757
▁generations	-10.8757
▁stakes	-10.8759
▁artificial	-10.8759
▁arsenal	-10.8765
▁skeptical	-10.8765
▁intellectual	-10.8765
▁diversity	-10.8765
▁register	-10.8774
▁climbed	-10.8776
▁drilling	-10.8778
▁developer	-10.8778
▁harlem	-10.8785
▁volkswagen	-10.8785
▁abc	-10.8787
▁portfolio	-10.8787
▁mi	-10.8802
▁transactions	-10.8812
▁embrace	-10.8816
▁morris	-10.8824
▁storage	-10.8827
▁comprehensive	-10.8827
▁atomic	-10.8829
▁residence	-10.8829
▁belief	-10.8829
▁josh	-10.883
▁runners	-10.883
75	-10.8835
▁saved	-10.8841
▁yorkers	-10.8841
▁dis	-10.885
life	-10.8855
▁relationships	-10.8858
▁operates	-10.8867
▁mississippi	-10.8867
▁graham	-10.8867
▁nippon	-10.8868
▁crazy	-10.8868
▁pose	-10.8874
▁investing	-10.8877
▁searching	-10.888
was	-10.8882
rate	-10.8886
▁commit	-10.8887
▁curry	-10.8888
▁hidden	-10.8888
▁grade	-10.8889
▁surrounded	-10.889
set	-10.8891
▁brings	-10.8897
▁silence	-10.8898
▁automakers	-10.8901
▁si	-10.8906
every	-10.8907
▁reflects	-10.8907
%	-10.8908
▁prefectures	-10.8912
▁briefed	-10.8912
▁uncertain	-10.8913
zo	-10.8923
▁clark	-10.8924
▁shoot	-10.8931
▁hispanic	-10.8935
▁voter	-10.8943
▁tip	-10.8946
▁taxi	-10.8948
▁responding	-10.8948
▁wrongdoing	-10.8949
▁replied	-10.895
▁2013.	-10.895
▁underground	-10.8952
▁cargo	-10.8953
▁ltd	-10.8957
▁covers	-10.8958
▁acknowledge	-10.8966
▁withdraw	-10.8966
▁stressed	-10.8969
▁acted	-10.897
▁judiciary	-10.897
▁excited	-10.8971
▁2017.	-10.8978
▁desert	-10.898
▁ru	-10.8984
▁favored	-10.8989
▁murphy	-10.8991
▁overcome	-10.8996
▁beaten	-10.8996
▁predecessor	-10.8997
▁ukrainian	-10.8997
▁ourselves	-10.9012
▁56	-10.9018
▁burning	-10.9027
▁longest	-10.9028
▁fat	-10.9029
▁mountains	-10.903
after	-10.903
▁influential	-10.9032
▁resulting	-10.9034
▁yale	-10.9035
▁ja	-10.9035
▁contribute	-10.9051
▁funeral	-10.9053
▁preferred	-10.9054
▁afp	-10.9054
tech	-10.9057
▁celebration	-10.9061
▁liu	-10.9062
controlled	-10.9062
▁characters	-10.9063
▁resign	-10.9064
▁pitchers	-10.9065
ez	-10.9065
▁barred	-10.9067
▁2006.	-10.9069
▁6-	-10.9072
▁kabul	-10.9074
▁amazing	-10.9075
,500	-10.908
▁assigned	-10.9083
▁pressing	-10.9085
▁hearings	-10.9089
ot	-10.909
▁lessons	-10.9094
▁pregnant	-10.9095
▁cnn	-10.9095
▁contemporary	-10.9096
▁labour	-10.9096
▁wars	-10.91
▁wedding	-10.9103
ski	-10.9103
▁anyway	-10.9106
▁teammate	-10.9106
▁deny	-10.9107
▁reverse	-10.9107
▁enjoyed	-10.9113
ccusing	-10.9117
▁4,	-10.9119
▁convinced	-10.9124
ure	-10.9124
▁sandy	-10.9127
▁tall	-10.913
mann	-10.9132
▁retailer	-10.9133
▁legislators	-10.9136
▁delegation	-10.9137
▁netherlands	-10.9137
▁turmoil	-10.9137
▁awareness	-10.9139
▁foul	-10.9141
▁kings	-10.9141
▁traditionally	-10.9142
▁oldest	-10.9143
rin	-10.9147
▁publisher	-10.9148
▁accidents	-10.9153
▁laboratory	-10.9159
▁rivers	-10.9164
▁involves	-10.9168
▁costly	-10.917
▁consideration	-10.917
70	-10.9171
▁undermine	-10.9172
▁giuliani	-10.918
▁1.5	-10.9185
▁followers	-10.9186
cr	-10.9188
▁posed	-10.919
ong	-10.9191
▁cooperate	-10.9191
▁tells	-10.9196
▁damages	-10.9198
▁dress	-10.92
▁samsung	-10.9201
▁maintenance	-10.9201
▁unprecedented	-10.9202
▁juan	-10.9203
▁$12	-10.9212
▁films	-10.9216
▁tougher	-10.9217
▁cuban	-10.9221
▁adds	-10.9221
▁optimistic	-10.9222
▁ratio	-10.9225
▁directors	-10.9227
▁hike	-10.9227
▁incidents	-10.923
▁rounds	-10.9234
▁kilometers	-10.9238
har	-10.9242
▁connections	-10.9242
▁sdf	-10.9243
▁recording	-10.9247
▁workplace	-10.9248
▁disappeared	-10.925
▁shouldn	-10.9253
▁tension	-10.9255
tan	-10.9269
ping	-10.927
▁devoted	-10.927
▁assists	-10.927
▁lin	-10.9271
▁palm	-10.9274
▁villages	-10.9275
▁execution	-10.9276
▁strict	-10.9278
▁conventional	-10.928
▁5,000	-10.9281
head	-10.9285
▁softbank	-10.9286
▁batting	-10.9287
▁waves	-10.9291
▁buses	-10.9293
▁suga	-10.9294
▁privately	-10.9299
▁import	-10.9302
▁rockets	-10.9303
▁globe	-10.9307
▁mcdonald	-10.9307
▁involve	-10.9309
▁reveal	-10.931
▁difficulties	-10.931
▁rushed	-10.9327
▁paterson	-10.9329
▁slowdown	-10.933
▁disclosure	-10.9342
▁root	-10.9351
▁dropping	-10.9351
▁sp	-10.9356
good	-10.9359
▁(8	-10.936
▁thousand	-10.9364
▁skill	-10.9365
ning	-10.9369
sky	-10.9378
▁defined	-10.9381
▁roots	-10.9386
▁shocked	-10.9392
▁novel	-10.9394
▁beauty	-10.9394
▁rutgers	-10.9394
▁58	-10.9395
▁object	-10.9396
▁ge	-10.94
▁puts	-10.94
▁exchanges	-10.9405
▁admission	-10.9407
▁convenience	-10.9415
▁crossed	-10.9418
▁takeover	-10.9424
why	-10.9424
▁fisher	-10.9424
▁promotion	-10.9428
▁occur	-10.9429
13	-10.943
ell	-10.9431
pro	-10.9431
▁strange	-10.9434
▁editorial	-10.9437
▁breaks	-10.9439
▁2003,	-10.9445
▁quietly	-10.9447
▁6,	-10.9447
▁bold	-10.9447
▁odd	-10.9449
▁nigeria	-10.9453
▁hanging	-10.9455
▁terrorists	-10.9456
▁terror	-10.9457
▁verizon	-10.9459
▁introduction	-10.9459
▁retire	-10.9463
▁predict	-10.9463
▁gate	-10.9473
ball	-10.9476
port	-10.948
▁array	-10.9481
▁testify	-10.9484
▁courtroom	-10.9485
▁violat	-10.9486
▁volunteer	-10.9487
▁warnings	-10.949
▁touchdowns	-10.9492
▁temperature	-10.9496
held	-10.9502
▁ishin	-10.9502
▁fortune	-10.9503
▁advised	-10.951
▁closest	-10.9513
place	-10.9513
lan	-10.9514
▁kremlin	-10.9524
▁lobby	-10.9526
story	-10.9527
▁67	-10.953
▁catcher	-10.9536
▁nervous	-10.954
▁programming	-10.9546
ou	-10.9547
▁blind	-10.9547
▁discipline	-10.9559
▁submit	-10.9563
▁winds	-10.9565
▁arriving	-10.9568
▁census	-10.9568
▁lock	-10.9569
▁weigh	-10.9573
▁targeting	-10.9581
▁iii	-10.9581
▁baseman	-10.9582
▁expense	-10.9586
▁prefer	-10.9586
▁sounded	-10.9587
▁ranking	-10.9588
▁taxpayers	-10.9589
▁geneva	-10.959
▁enemy	-10.9591
▁downturn	-10.9593
▁drones	-10.9596
▁15-	-10.9599
▁railway	-10.9608
▁manufacturer	-10.9609
▁elaborate	-10.9612
▁jinping	-10.9612
▁pursuing	-10.9612
▁joy	-10.9615
▁foods	-10.9621
45	-10.9622
▁hopeful	-10.9623
▁purposes	-10.9625
lecommunications	-10.9626
▁taste	-10.9627
▁koreans	-10.9627
▁desk	-10.963
▁achieved	-10.9631
▁exxon	-10.9634
▁relevant	-10.9634
▁benchmark	-10.9634
▁antitrust	-10.9634
▁signals	-10.9635
▁shifted	-10.9635
▁thin	-10.9637
seeded	-10.9643
▁dow	-10.9643
ray	-10.9649
▁unfair	-10.9652
▁signature	-10.9653
▁fiat	-10.9657
▁dramatic	-10.9657
▁flooding	-10.9657
▁quinn	-10.9657
▁secured	-10.9661
▁reminder	-10.9661
▁rein	-10.9665
▁dame	-10.9671
▁gaining	-10.9675
play	-10.9675
▁lobbying	-10.9675
▁explaining	-10.9676
▁respondents	-10.9679
▁childhood	-10.9679
▁nelson	-10.9679
▁wooden	-10.9681
▁prevention	-10.9682
air	-10.9682
▁attributed	-10.9683
▁sectors	-10.9689
▁follows	-10.969
▁unexpected	-10.9696
▁difficulty	-10.9697
99	-10.97
▁mad	-10.97
▁teenager	-10.97
▁squad	-10.9701
▁hokkaido	-10.9701
▁lebanon	-10.9701
▁unchanged	-10.9701
▁fantasy	-10.9701
▁unveiled	-10.9705
▁prevented	-10.9715
▁eve	-10.9718
gen	-10.9721
▁paint	-10.9721
▁billionaire	-10.9723
▁teenagers	-10.9726
▁roberts	-10.9736
water	-10.9744
▁provincial	-10.9745
▁smoking	-10.9747
▁nurse	-10.975
▁strain	-10.9754
reuters	-10.9755
▁fu	-10.9758
▁eggs	-10.9761
ities	-10.9767
▁sanchez	-10.9768
▁oakland	-10.9768
▁occasionally	-10.9772
▁ignored	-10.9776
▁function	-10.9776
ett	-10.9778
▁trigger	-10.9778
▁tweeted	-10.9779
▁photograph	-10.9788
▁aged	-10.9789
▁transparency	-10.9791
▁cheaper	-10.9796
pan	-10.9802
founder	-10.9803
▁spy	-10.9805
▁suspend	-10.9806
sh	-10.9809
▁exception	-10.9811
▁remarkable	-10.9813
▁tribal	-10.9814
▁efficient	-10.9814
▁steam	-10.9814
▁publishing	-10.9824
▁mom	-10.9824
▁useful	-10.9826
▁shadow	-10.9831
▁separately	-10.9834
▁illness	-10.9835
▁tiger	-10.9836
▁hiroshima	-10.9836
▁bike	-10.9837
▁somehow	-10.9837
▁thick	-10.984
▁pack	-10.984
▁hunter	-10.9842
▁churches	-10.9849
▁desperate	-10.9853
▁pulling	-10.9854
▁boxes	-10.9864
▁licenses	-10.9868
▁encounter	-10.9869
▁struggles	-10.9869
▁acquire	-10.9871
▁barrels	-10.9873
▁¥2	-10.9876
▁hub	-10.9879
▁salt	-10.9882
▁clashes	-10.9882
sch	-10.9888
med	-10.9888
▁employed	-10.9892
▁songs	-10.9896
▁teach	-10.9902
▁nonetheless	-10.9904
▁rohingya	-10.9904
▁shifting	-10.9904
▁similarly	-10.9904
▁indication	-10.9905
▁expression	-10.9906
iya	-10.9915
▁appearances	-10.9915
▁indicate	-10.9918
▁bre	-10.9923
▁depression	-10.9926
▁impression	-10.9927
▁menu	-10.9927
take	-10.9929
▁sue	-10.993
size	-10.9933
▁avoided	-10.9943
▁rebound	-10.9945
▁fires	-10.9945
▁frame	-10.9946
▁madoff	-10.995
▁ceiling	-10.995
▁airbus	-10.995
▁52	-10.9954
▁mess	-10.996
▁warrant	-10.9963
▁59	-10.9965
▁genes	-10.9969
▁stern	-10.997
▁philip	-10.9972
▁colonel	-10.9973
while	-10.998
▁cho	-10.9983
▁2015.	-10.9985
▁negotiated	-10.9985
▁concessions	-10.9986
win	-10.9994
▁cairo	-10.9995
▁hughes	-10.9995
▁silicon	-10.9995
▁greenhouse	-10.9997
▁writers	-10.9998
▁raw	-11.0001
▁associates	-11.0001
▁finishing	-11.0005
▁$30	-11.0009
▁theft	-11.001
▁russians	-11.0014
▁publication	-11.0014
▁backup	-11.0015
▁breach	-11.0015
▁apartments	-11.0018
▁opposing	-11.0018
▁mainstream	-11.0018
▁frozen	-11.002
▁symptoms	-11.0022
▁restrict	-11.0028
▁conducting	-11.0032
lu	-11.0037
▁bangladesh	-11.0038
▁flu	-11.004
▁gambling	-11.0041
▁terry	-11.0042
▁definition	-11.0044
▁terminal	-11.0045
▁balls	-11.0047
▁socialist	-11.0048
▁sheriff	-11.0064
▁apology	-11.0064
▁nevada	-11.0064
▁¶	-11.0064
▁sustainable	-11.0065
▁rivera	-11.0068
▁hero	-11.0069
▁freshman	-11.0071
▁addressing	-11.0075
ious	-11.0078
▁homeowners	-11.0081
▁hang	-11.0082
▁emerge	-11.0083
▁hosted	-11.0083
▁cheese	-11.0087
▁radar	-11.0088
▁tobacco	-11.0088
▁governors	-11.0093
▁apologized	-11.0096
▁defender	-11.01
▁airstrikes	-11.0104
▁openly	-11.0108
▁hampshire	-11.011
▁payroll	-11.0112
▁uprising	-11.0112
▁willingness	-11.0113
▁detainees	-11.0115
▁delegates	-11.0119
▁22,	-11.0121
▁73	-11.0124
▁accepting	-11.013
▁djokovic	-11.0134
▁sum	-11.0135
▁lakers	-11.0135
ker	-11.014
▁laden	-11.0141
▁conflicts	-11.0147
▁sentences	-11.0152
▁magazines	-11.0155
▁chocolate	-11.0157
▁puerto	-11.0157
▁wimbledon	-11.0157
▁trophy	-11.0157
▁vessels	-11.016
▁indicted	-11.0161
▁74	-11.0162
▁parliamentar	-11.0162
▁queen	-11.0163
▁fault	-11.0163
▁sparked	-11.0168
cc	-11.017
wan	-11.0172
▁rays	-11.0177
▁alarm	-11.018
▁29,	-11.0181
▁asahi	-11.0182
▁bread	-11.0182
ice	-11.0183
▁reid	-11.0185
▁principles	-11.0187
▁scenes	-11.0192
▁expecting	-11.0197
▁cautious	-11.0199
▁cow	-11.0199
▁pledge	-11.02
▁channels	-11.0201
▁professionals	-11.0204
▁pin	-11.021
▁dates	-11.0213
▁finger	-11.0214
market	-11.0214
▁default	-11.0215
▁somewhere	-11.0216
sha	-11.0218
▁57	-11.022
▁innocent	-11.0227
▁1985	-11.0228
▁situations	-11.0231
▁reasonable	-11.0234
▁leagues	-11.0243
▁kicked	-11.0245
▁facts	-11.0247
▁grants	-11.0249
▁invasion	-11.0251
▁tears	-11.0251
▁devastating	-11.0251
▁marks	-11.0251
▁naval	-11.0252
▁tide	-11.0255
▁24-	-11.0256
▁tracking	-11.0257
▁68	-11.0259
▁barrel	-11.0261
▁graduated	-11.0267
▁bankers	-11.0273
▁extradition	-11.0274
▁slide	-11.0274
▁mitchell	-11.0274
▁businessman	-11.0277
▁600	-11.0284
▁athlete	-11.0284
▁orbit	-11.0286
▁gu	-11.0292
▁27,	-11.0294
hit	-11.0297
▁attractive	-11.0298
▁thinks	-11.0302
▁profitable	-11.0303
▁hills	-11.0304
▁31,	-11.0306
-5	-11.0314
▁18-	-11.0318
▁bet	-11.0322
today	-11.0323
▁documentary	-11.0323
▁yield	-11.0325
▁2016.	-11.0332
▁climb	-11.0332
▁solutions	-11.0335
▁slowing	-11.0343
▁benjamin	-11.0345
▁attendance	-11.0346
cha	-11.0347
48	-11.0352
▁touched	-11.0352
▁unity	-11.0354
▁sufficient	-11.0365
▁bitter	-11.0367
▁grip	-11.0369
▁lucrative	-11.0369
▁karzai	-11.0369
▁midnight	-11.037
▁boats	-11.037
▁authors	-11.0371
33	-11.0372
has	-11.0375
▁flash	-11.0379
▁financed	-11.0381
only	-11.0382
coming	-11.0382
▁android	-11.0392
▁phillies	-11.0393
▁hi	-11.0393
▁$200	-11.0395
▁che	-11.0398
▁broker	-11.0399
▁comparison	-11.0403
▁66	-11.0404
▁pelosi	-11.0417
▁debris	-11.0417
▁impressive	-11.0417
▁easing	-11.0418
▁staten	-11.0425
gar	-11.0425
▁2002,	-11.0429
▁praise	-11.0432
▁bulk	-11.0436
▁practical	-11.0436
▁sophisticated	-11.0441
▁transgender	-11.0441
■	-11.0441
▁consent	-11.0441
▁sachs	-11.0441
▁penn	-11.0441
▁fastest	-11.0444
▁listening	-11.0444
▁tired	-11.0447
▁comply	-11.0447
▁examine	-11.0448
▁detective	-11.0452
▁($1	-11.0454
▁7:30	-11.0465
▁credibility	-11.0465
▁czech	-11.0465
▁destruction	-11.0465
▁terrible	-11.0466
▁disputes	-11.0468
▁rolling	-11.047
▁ze	-11.0471
▁embraced	-11.0477
▁soul	-11.0478
hara	-11.0479
▁fence	-11.0479
▁nose	-11.0482
party	-11.0485
▁warn	-11.0488
▁chelsea	-11.0489
▁swept	-11.0489
▁existence	-11.0489
▁counting	-11.0489
▁rental	-11.0493
where	-11.0498
▁feelings	-11.0499
▁brutal	-11.0508
▁painful	-11.0509
ud	-11.0509
▁snap	-11.0511
ng	-11.0512
▁sits	-11.0513
▁robust	-11.0513
▁franklin	-11.0514
dis	-11.0518
▁wells	-11.0528
▁qatar	-11.0532
▁manchester	-11.0538
▁nancy	-11.0539
▁attached	-11.0541
▁select	-11.0541
▁ra	-11.0541
▁qualify	-11.0543
▁regarded	-11.0551
hu	-11.0554
su	-11.0555
▁colombia	-11.0556
▁resolved	-11.0556
▁leak	-11.0562
▁isolated	-11.0564
▁gradually	-11.0564
▁considerable	-11.0567
▁mandate	-11.0567
▁knocked	-11.057
zz	-11.057
▁roles	-11.0571
▁permit	-11.0575
▁royals	-11.0585
▁evacuation	-11.0586
▁celebrity	-11.0586
▁qualified	-11.0587
▁experiences	-11.0587
▁marshall	-11.0589
▁mothers	-11.0591
▁memo	-11.0592
▁tex	-11.0593
▁polling	-11.0597
getty	-11.0598
▁eliminated	-11.0598
ach	-11.0599
▁alter	-11.06
▁database	-11.0602
▁emirates	-11.0606
▁migration	-11.0611
▁derek	-11.0611
▁massacre	-11.0611
▁substance	-11.0625
▁obligation	-11.0625
▁requirement	-11.0627
▁succeeded	-11.0629
▁routes	-11.063
▁rolled	-11.0632
▁robot	-11.0633
▁continent	-11.0634
▁contentious	-11.0636
▁tomorrow	-11.0636
▁diverse	-11.0637
▁borrowers	-11.0637
▁26,	-11.0642
▁syracuse	-11.0659
▁gym	-11.066
▁scotland	-11.066
▁organizing	-11.066
▁stated	-11.066
ari	-11.0661
▁trafficking	-11.0661
▁drag	-11.0663
▁cruise	-11.0666
66	-11.0666
▁ousted	-11.0666
yes	-11.0666
▁column	-11.0673
▁tri	-11.0678
▁kobe	-11.0687
▁remembered	-11.0694
▁applicants	-11.0694
▁micro	-11.0696
▁:	-11.0697
▁engines	-11.0701
▁exact	-11.0703
▁riding	-11.0705
▁rabbi	-11.0706
▁jeremy	-11.0709
▁tanaka	-11.0709
▁77	-11.0712
ranked	-11.0714
▁honest	-11.0723
▁publishers	-11.0724
▁stops	-11.0724
cho	-11.0733
▁emphasis	-11.0733
▁nagoya	-11.0733
▁efficiency	-11.0735
▁ear	-11.0735
▁strait	-11.0736
▁math	-11.0738
▁shootings	-11.0738
▁trends	-11.074
▁fred	-11.074
▁counted	-11.0742
▁routinely	-11.0742
▁speeches	-11.0746
▁recruiting	-11.0748
▁lined	-11.0749
▁guest	-11.0751
▁rid	-11.0753
▁conn	-11.0753
▁douglas	-11.0758
▁milan	-11.0761
▁marketplace	-11.0762
▁airports	-11.0764
▁gi	-11.0767
▁highlighted	-11.0769
▁permits	-11.0769
▁250	-11.077
▁semi	-11.0771
▁define	-11.0773
▁transaction	-11.0776
▁repeat	-11.0777
,''	-11.0781
▁breast	-11.0783
▁jeffrey	-11.0783
▁earning	-11.0786
▁dave	-11.0792
▁comeback	-11.0792
▁demonstrated	-11.0793
▁regard	-11.0794
▁ranging	-11.0795
get	-11.0803
▁hawaii	-11.0806
▁lieutenant	-11.0808
▁1999	-11.0809
▁congo	-11.0809
▁differently	-11.0811
▁95	-11.0811
▁venezuelan	-11.0814
▁escaped	-11.0828
▁finances	-11.0831
▁reflecting	-11.0839
than	-11.0839
▁context	-11.0845
▁aggressively	-11.0848
▁spin	-11.0853
▁28,	-11.0856
▁slipped	-11.0858
▁pence	-11.0862
▁lengthy	-11.0864
▁demonstrate	-11.0868
16	-11.0869
▁hunting	-11.087
▁kenya	-11.0876
▁tan	-11.0879
center	-11.0881
▁colonial	-11.0883
▁governance	-11.0883
▁evolution	-11.0884
ren	-11.0886
▁insurers	-11.0896
▁genetic	-11.0896
▁apologize	-11.0898
▁height	-11.0898
▁ultimate	-11.0903
▁cafe	-11.0904
▁1998	-11.0905
▁30,	-11.0907
▁muhammad	-11.0908
▁reliable	-11.0908
▁drafted	-11.0909
▁perceived	-11.091
01	-11.0911
▁assumed	-11.0917
▁runner	-11.0922
room	-11.0922
▁awards	-11.0922
▁assist	-11.0925
▁doubts	-11.0926
▁jurors	-11.0928
ries	-11.0932
▁deciding	-11.0933
▁envoy	-11.0933
▁copies	-11.0933
▁municipalities	-11.0933
▁11,	-11.0934
▁23,	-11.0936
pp	-11.0937
▁saving	-11.094
▁troubles	-11.0943
▁twist	-11.0944
▁pleased	-11.0946
▁assess	-11.0949
▁drives	-11.095
pacific	-11.0951
▁indians	-11.0951
▁stages	-11.0954
▁complain	-11.0957
▁measured	-11.0957
▁defendant	-11.0957
▁removing	-11.0959
▁offshore	-11.096
▁gifts	-11.0961
▁initiatives	-11.0962
▁maine	-11.0967
▁proportion	-11.0968
▁aiming	-11.0972
▁71	-11.0977
▁confrontation	-11.0979
▁53	-11.0979
▁procedure	-11.098
▁pharmaceutical	-11.098
▁slowed	-11.0982
▁thunder	-11.0983
▁bombings	-11.0984
▁orthodox	-11.0986
▁motivated	-11.0987
▁abdul	-11.0991
▁improvements	-11.0993
work	-11.0999
▁counterpart	-11.1
card	-11.1001
▁holy	-11.1003
▁linebacker	-11.1009
▁bullpen	-11.1009
▁milwaukee	-11.1009
▁anxiety	-11.1009
▁mohammed	-11.101
▁shed	-11.101
-4	-11.1014
▁kan	-11.1015
▁anticipated	-11.1016
▁consistently	-11.1017
▁samples	-11.102
ever	-11.102
ble	-11.1022
38	-11.1023
▁emails	-11.1027
▁ideal	-11.103
▁salaries	-11.1035
zi	-11.1036
bound	-11.1037
▁maintaining	-11.1037
▁condemned	-11.104
may	-11.1044
▁equally	-11.1047
▁matthew	-11.1058
▁phrase	-11.1058
▁muscle	-11.1058
low	-11.1059
▁orlando	-11.106
▁explore	-11.1061
▁collecting	-11.1066
mb	-11.1067
▁totally	-11.1069
▁displayed	-11.107
▁loud	-11.1074
▁63	-11.1077
ello	-11.1079
▁painting	-11.108
▁tonight	-11.1083
▁ham	-11.1084
▁cor	-11.1085
▁susan	-11.1088
▁mars	-11.1089
▁clinical	-11.1096
▁yoshi	-11.1097
many	-11.1101
▁bullet	-11.1106
▁ultra	-11.1107
court	-11.1109
▁investigati	-11.111
▁removal	-11.1111
▁revision	-11.1112
▁$500	-11.1114
▁ver	-11.1115
▁offset	-11.1115
▁endorsed	-11.1118
▁rushing	-11.112
▁farming	-11.1121
▁dust	-11.1122
▁errors	-11.1122
▁24,	-11.1123
▁loose	-11.1124
▁grave	-11.1136
▁beneath	-11.1137
▁pursuit	-11.1137
▁developments	-11.1139
▁equality	-11.114
▁accuse	-11.114
о	-11.1141
▁getty	-11.1141
▁executed	-11.1142
▁aspects	-11.1143
iv	-11.1147
nes	-11.1151
▁suppliers	-11.1156
▁streaming	-11.1161
▁cart	-11.1163
▁bubble	-11.1163
11	-11.1175
ini	-11.1178
▁farms	-11.118
▁investigated	-11.1181
▁notably	-11.1188
▁foreclosure	-11.1189
▁uranium	-11.1189
▁railroad	-11.1189
▁survival	-11.1189
▁31.	-11.1194
▁lasted	-11.1201
language	-11.1201
▁maria	-11.1206
▁shortages	-11.121
▁diabetes	-11.1214
▁multi	-11.1218
fer	-11.1219
box	-11.1222
▁69	-11.1224
3)	-11.1224
▁wartime	-11.1237
▁russell	-11.1241
▁diamond	-11.1241
▁harry	-11.1242
▁diseases	-11.1242
▁toxic	-11.1243
▁reyes	-11.1243
▁54	-11.1244
▁titled	-11.1245
presse	-11.1246
▁forever	-11.1246
▁25,	-11.1252
▁outdoor	-11.1252
▁nowhere	-11.1258
ib	-11.1259
van	-11.126
▁swimming	-11.1266
▁consist	-11.1267
▁maritime	-11.1267
▁ankle	-11.1267
▁campbell	-11.1267
▁64	-11.1268
▁describes	-11.1283
▁outrage	-11.1284
▁61	-11.1285
▁bra	-11.1285
▁pirates	-11.1289
▁throne	-11.1293
▁trash	-11.1293
▁fastball	-11.1294
▁castro	-11.1297
▁celtics	-11.1301
▁pot	-11.1302
▁battles	-11.1302
sharing	-11.1306
▁triggered	-11.1307
▁alan	-11.1308
ica	-11.1311
▁disasters	-11.1314
▁hint	-11.1315
▁tweet	-11.1316
▁amateur	-11.1319
▁priorities	-11.1319
elect	-11.132
▁compliance	-11.132
▁clubhouse	-11.1321
▁ipad	-11.1323
▁masa	-11.1326
dollar	-11.1332
▁turner	-11.1335
▁displaced	-11.1347
▁clay	-11.1348
37	-11.1352
▁burst	-11.1354
▁label	-11.1358
▁loaded	-11.136
▁guaranteed	-11.1361
▁120	-11.1363
▁buck	-11.1363
▁smooth	-11.1366
ju	-11.1367
▁chest	-11.1369
▁signaled	-11.1369
и	-11.1374
▁bone	-11.1374
▁destination	-11.1375
▁exam	-11.1375
▁dawn	-11.1378
▁contacted	-11.1382
any	-11.1387
▁chemicals	-11.1389
qui	-11.1389
▁preventing	-11.1396
▁arkansas	-11.1398
▁bangkok	-11.1398
▁litigation	-11.1398
▁philosophy	-11.1398
▁1986	-11.1398
▁scope	-11.1399
light	-11.1401
▁colleague	-11.1402
▁personality	-11.1403
12	-11.1407
▁leap	-11.1407
▁brad	-11.1407
▁rank	-11.1407
vis	-11.1408
▁mounting	-11.141
-3	-11.1412
ara	-11.1413
▁sponsor	-11.1417
▁boards	-11.1418
▁fueled	-11.142
▁rear	-11.1421
▁alexander	-11.1424
▁centuries	-11.1424
▁netflix	-11.1424
▁rallied	-11.1424
▁rubio	-11.1424
▁rodham	-11.1425
▁occupied	-11.1426
▁revolutionary	-11.1426
а	-11.1427
▁stepping	-11.1427
▁vary	-11.143
▁topics	-11.1431
▁hometown	-11.1432
▁wire	-11.1433
zer	-11.1439
▁appearing	-11.1439
▁lesson	-11.1442
▁actor	-11.1444
▁spark	-11.1446
▁fines	-11.1446
▁honda	-11.1451
▁recalls	-11.1452
▁sarah	-11.1453
▁replacing	-11.1453
▁grandchildren	-11.1454
▁element	-11.1455
▁omar	-11.1458
▁tuesdays	-11.1461
▁sponsored	-11.1471
▁subsequent	-11.1472
▁commercials	-11.1472
edu	-11.1476
▁rallies	-11.1477
▁proceed	-11.1478
▁critic	-11.1478
shi	-11.148
▁wade	-11.1483
▁notre	-11.1484
▁shirt	-11.149
▁86	-11.1493
▁pac	-11.1493
top	-11.1493
▁2000,	-11.1494
▁contend	-11.15
▁guidance	-11.1504
▁integrity	-11.1504
▁registration	-11.1504
▁grab	-11.1508
▁unrest	-11.1509
▁steelers	-11.1509
▁flowers	-11.151
▁bargain	-11.1512
▁examined	-11.1515
▁chat	-11.1516
▁walks	-11.1522
▁cathedral	-11.1531
▁wound	-11.1533
▁bottles	-11.1533
▁spreading	-11.1533
▁suits	-11.1538
▁plunged	-11.1538
▁prayer	-11.154
▁borough	-11.154
▁borrowing	-11.1543
▁versions	-11.1545
▁studios	-11.1546
▁84	-11.1549
▁posting	-11.155
▁attacking	-11.155
▁lists	-11.1553
▁risky	-11.1556
▁steep	-11.1557
▁derby	-11.1558
▁nurses	-11.156
▁explosive	-11.1565
▁formerly	-11.1565
▁reception	-11.1565
▁employer	-11.1568
▁gunman	-11.1568
▁colleges	-11.1574
▁files	-11.1576
ence	-11.1577
▁missions	-11.1579
▁laugh	-11.158
▁purchased	-11.1583
▁jacob	-11.1584
▁fannie	-11.1585
▁fever	-11.1586
▁compiled	-11.159
▁luis	-11.159
▁arrangement	-11.1592
▁depth	-11.1594
▁electrical	-11.1601
▁picking	-11.1605
▁wondered	-11.1605
▁austria	-11.1606
▁headlines	-11.1609
▁istanbul	-11.1611
▁weakness	-11.1611
▁corrupt	-11.1612
▁aaron	-11.1612
ung	-11.1614
▁gauge	-11.1616
▁enacted	-11.1619
▁revenues	-11.1625
▁accurate	-11.1633
▁angels	-11.1637
▁lawrence	-11.1638
▁lincoln	-11.1639
▁permitted	-11.1639
▁stark	-11.1639
▁sorry	-11.164
▁chen	-11.1648
uk	-11.1648
▁minds	-11.165
▁uncle	-11.1656
▁metro	-11.1658
▁barclays	-11.1663
▁hitter	-11.1663
▁declaring	-11.1665
▁deployment	-11.1666
▁automatic	-11.1668
▁counterparts	-11.1669
▁regulator	-11.1669
▁brook	-11.1678
▁urge	-11.1682
▁convince	-11.1683
▁ballots	-11.1683
24	-11.1686
▁twin	-11.1692
▁ahmed	-11.1693
▁casualties	-11.1693
▁amnesty	-11.1693
▁blocking	-11.1694
▁spotted	-11.1695
▁flags	-11.1696
zu	-11.1697
▁distributed	-11.17
▁disrupt	-11.1707
▁chips	-11.1709
▁supports	-11.171
▁ted	-11.1712
▁opener	-11.1712
▁silent	-11.1714
▁nevertheless	-11.172
▁suspicious	-11.172
▁shifts	-11.1726
▁bishop	-11.173
▁deck	-11.173
ery	-11.1739
▁lanka	-11.1741
▁abandon	-11.1743
▁rogers	-11.1743
▁bomber	-11.1745
▁medium	-11.1747
▁rotation	-11.1748
▁mound	-11.1748
▁martinez	-11.1748
▁hardware	-11.1749
32	-11.1749
▁erupted	-11.175
▁scrap	-11.1751
▁sweep	-11.1756
▁fo	-11.1758
hr	-11.1769
65	-11.177
▁whistle	-11.1775
▁belgium	-11.1775
▁mubarak	-11.1775
▁aftermath	-11.1775
▁denies	-11.1775
▁sovereignty	-11.1775
▁engagement	-11.1776
▁assume	-11.1776
▁span	-11.1776
▁helicopters	-11.1785
▁migrant	-11.1787
▁flee	-11.1789
▁appreciate	-11.1792
▁suburban	-11.1804
▁stopping	-11.1804
▁castle	-11.1809
▁opinions	-11.1811
▁perception	-11.1814
▁priest	-11.1814
▁regret	-11.1815
vin	-11.1818
▁echo	-11.1818
selling	-11.1821
▁tragedy	-11.183
▁garbage	-11.183
▁framework	-11.183
▁thank	-11.1831
▁trick	-11.1835
▁shrinking	-11.1843
▁cellphones	-11.1851
▁betting	-11.1858
▁delta	-11.1859
▁fossil	-11.187
▁screening	-11.187
▁sustain	-11.1871
▁dam	-11.1876
▁fleeing	-11.1876
▁secrets	-11.1877
▁oversees	-11.1879
▁hosts	-11.1879
ita	-11.1881
▁panic	-11.1883
▁murdoch	-11.1885
iest	-11.1887
▁ubs	-11.1889
▁@	-11.189
ami	-11.1893
▁discount	-11.1896
▁cardinal	-11.1898
▁$40	-11.19
▁leverage	-11.1904
▁wheel	-11.1907
▁fe	-11.1907
▁dirt	-11.1908
▁movements	-11.191
▁delicate	-11.1913
▁doug	-11.1913
▁caution	-11.1913
▁magnitude	-11.1914
▁charging	-11.1915
ending	-11.1919
ible	-11.1923
▁respected	-11.1924
hard	-11.1925
▁inspection	-11.1927
▁evans	-11.1927
▁patent	-11.1928
▁butler	-11.1931
tro	-11.1932
▁chronic	-11.1934
half	-11.1937
wi	-11.1941
▁minorities	-11.1941
▁grandfather	-11.1942
▁affair	-11.1955
▁gar	-11.1957
▁kar	-11.1959
minded	-11.1965
▁plaza	-11.1969
▁button	-11.1969
▁counties	-11.197
35	-11.1977
▁obligations	-11.198
▁tanks	-11.1983
▁tenants	-11.1984
▁anchor	-11.1985
▁barriers	-11.199
▁anonymous	-11.1991
▁destroy	-11.1994
▁provisions	-11.1996
▁bipartisan	-11.1996
▁sentencing	-11.1997
ev	-11.1999
▁inner	-11.1999
night	-11.2
▁kono	-11.2
▁(19	-11.2002
▁burn	-11.2002
▁kin	-11.2005
▁tu	-11.2006
school	-11.2011
77	-11.2011
▁hook	-11.2013
▁torture	-11.2015
▁reed	-11.2016
▁threaten	-11.2016
tin	-11.2017
-7	-11.2024
▁broadcaster	-11.2024
▁steadily	-11.2025
▁vermont	-11.2025
▁pure	-11.2029
28	-11.2032
bat	-11.2036
▁organize	-11.204
▁lifting	-11.204
▁smell	-11.204
▁preparation	-11.2041
ette	-11.2048
generation	-11.2049
ix	-11.205
▁disabilities	-11.2053
▁participating	-11.2053
▁mandatory	-11.2053
▁nhk	-11.2053
▁hostile	-11.2055
▁quarterly	-11.2059
▁trainer	-11.2066
▁81	-11.2067
everyone	-11.2069
▁ignore	-11.2071
▁wings	-11.2074
▁components	-11.2074
ens	-11.2075
len	-11.2079
▁jpmorgan	-11.2081
▁montreal	-11.2081
▁tribune	-11.2082
-6	-11.2084
▁2005.	-11.2087
two	-11.2087
▁objects	-11.2091
▁wary	-11.2091
▁brandon	-11.2093
cost	-11.2093
deal	-11.2096
▁tag	-11.2096
▁structures	-11.2096
▁forecasts	-11.2098
▁todd	-11.2098
▁pickup	-11.2099
▁yard	-11.21
▁lifetime	-11.2105
▁relied	-11.2109
▁diplomacy	-11.2109
▁trapped	-11.2109
▁elbow	-11.211
▁macron	-11.211
▁$11	-11.2113
▁brick	-11.2131
▁adjust	-11.2135
▁cyber	-11.2138
▁exploration	-11.2138
▁19,	-11.2144
▁refuse	-11.2146
▁mini	-11.2149
stein	-11.215
17	-11.2152
▁suburb	-11.2155
▁edition	-11.2157
▁panels	-11.2166
▁pricing	-11.2166
▁versus	-11.2167
ola	-11.217
▁techniques	-11.2171
▁hosting	-11.2173
▁62	-11.2175
▁quest	-11.2177
▁cowboys	-11.2177
▁ambitions	-11.2177
▁dealers	-11.2179
▁88	-11.2181
growing	-11.2182
▁moreover	-11.2185
americans	-11.2186
▁highlight	-11.2188
▁tremendous	-11.219
book	-11.2191
▁dar	-11.2192
▁horizon	-11.2194
▁bernard	-11.2195
▁expertise	-11.2195
▁bbc	-11.2196
ova	-11.2196
pre	-11.2198
▁lap	-11.2202
▁format	-11.2202
▁compare	-11.2205
hander	-11.2207
▁allied	-11.2208
▁raids	-11.221
▁mills	-11.221
▁chu	-11.2211
▁imported	-11.2212
▁explosives	-11.2216
15	-11.2217
▁campaigning	-11.2218
▁ronald	-11.222
▁pit	-11.2221
ative	-11.2223
▁merrill	-11.2224
▁breakthrough	-11.2224
▁1987	-11.2224
▁taka	-11.2229
100	-11.2231
see	-11.2234
67	-11.2239
▁restored	-11.2239
▁99	-11.2239
▁severely	-11.2239
▁divide	-11.2241
▁statue	-11.2244
▁throws	-11.2245
▁lone	-11.2249
▁tale	-11.2252
▁entities	-11.2252
▁dubai	-11.2252
▁rubber	-11.2252
▁watchdog	-11.2252
▁organic	-11.2254
ura	-11.2255
▁eli	-11.2257
third	-11.226
▁constantly	-11.226
▁lt	-11.2261
▁weighed	-11.2269
▁divisions	-11.2271
▁painted	-11.2271
▁physically	-11.2272
▁voices	-11.2273
▁reviewed	-11.2274
▁1.2	-11.2275
▁swift	-11.2275
▁platforms	-11.2279
▁dennis	-11.2281
om	-11.2281
▁800	-11.2281
▁therapy	-11.2282
▁deutsche	-11.2283
▁longstanding	-11.2285
▁masters	-11.2286
▁observed	-11.2287
museum	-11.2289
▁78	-11.2295
▁donated	-11.2298
▁sleeping	-11.23
▁dynamic	-11.2303
▁graduates	-11.2304
▁excessive	-11.2306
▁detect	-11.2308
▁akihito	-11.231
▁interference	-11.2311
▁chairwoman	-11.2311
▁rescued	-11.2316
▁denounced	-11.2316
▁chains	-11.2316
ging	-11.232
▁libyan	-11.2323
▁hung	-11.2324
▁ke	-11.2328
▁expo	-11.2329
▁unusually	-11.2331
▁bombers	-11.2335
▁delivering	-11.2336
▁mate	-11.2337
▁commanders	-11.2338
▁introducing	-11.2339
▁refusing	-11.2339
▁yamaguchi	-11.2339
▁hartford	-11.2339
▁loyal	-11.2339
▁1984	-11.234
▁contractor	-11.234
▁girlfriend	-11.234
▁pastor	-11.2341
▁5,	-11.2344
▁youngest	-11.2348
yama	-11.235
ile	-11.2358
▁asks	-11.236
▁demonstration	-11.2361
▁meaningful	-11.2366
▁solo	-11.2367
▁harvey	-11.2368
▁northeastern	-11.2368
▁pettitte	-11.2368
▁ballistic	-11.2369
▁chile	-11.2369
▁infected	-11.237
▁pole	-11.237
е	-11.2371
▁visas	-11.2372
▁mario	-11.2376
▁grim	-11.2379
▁weaker	-11.238
japan	-11.2384
▁sample	-11.2385
▁82	-11.2388
▁dig	-11.2388
▁1.3	-11.2389
▁invitation	-11.2395
▁bonus	-11.2396
▁sterling	-11.2397
▁assured	-11.2403
cy	-11.2404
▁audio	-11.2408
▁prohibited	-11.2408
▁angela	-11.2408
▁bur	-11.241
▁des	-11.241
home	-11.2412
hand	-11.2415
▁spurs	-11.2415
▁freeze	-11.2417
▁actors	-11.2426
▁battling	-11.2426
▁blew	-11.2426
▁candidacy	-11.2426
▁vocal	-11.2426
▁rugby	-11.2427
▁partisan	-11.2427
▁lions	-11.2429
▁lord	-11.2429
▁jam	-11.2429
▁implications	-11.2432
▁charlie	-11.2433
bank	-11.2434
▁rod	-11.2435
88	-11.2438
inch	-11.2439
95	-11.2441
▁subjects	-11.2442
awa	-11.2442
white	-11.2443
▁clash	-11.2443
▁dealt	-11.2443
▁17-	-11.2453
▁presentation	-11.2453
▁hanoi	-11.2456
▁coughlin	-11.2456
▁approximate	-11.2456
▁tissue	-11.2457
▁withdrew	-11.2461
▁recovering	-11.2462
▁sin	-11.2463
▁79	-11.2467
▁mirror	-11.2468
▁pink	-11.247
▁joke	-11.2471
ite	-11.2471
▁fi	-11.2472
second	-11.2472
then	-11.2473
▁bearing	-11.2477
▁update	-11.2477
▁technique	-11.2481
hl	-11.2481
▁slight	-11.2481
▁suggestion	-11.2482
▁automatically	-11.2486
▁flip	-11.2487
▁grace	-11.2487
▁shouted	-11.2488
▁shipments	-11.2489
▁enforce	-11.249
▁outstanding	-11.2495
▁yan	-11.2495
▁cream	-11.2495
▁populations	-11.2497
▁cleaning	-11.2498
general	-11.2502
▁aids	-11.2504
▁disorder	-11.2505
▁donation	-11.2506
face	-11.2512
▁charlotte	-11.2515
▁strategies	-11.2515
▁nassau	-11.2515
▁depends	-11.2515
▁optimism	-11.2515
▁disappointing	-11.2518
▁financially	-11.2518
▁strongest	-11.2521
▁awaiting	-11.2521
▁designer	-11.2527
▁detected	-11.2527
placing	-11.2529
▁communicate	-11.2534
▁8,	-11.2539
▁plain	-11.2542
▁supporter	-11.2545
▁braves	-11.2547
▁sheet	-11.2547
▁palin	-11.2549
▁20,000	-11.2551
▁sar	-11.2552
▁glad	-11.2554
pound	-11.2557
view	-11.2559
▁¥3	-11.256
▁mentally	-11.256
▁craft	-11.256
▁declines	-11.2562
▁16-	-11.2563
▁1994	-11.2567
41	-11.2567
▁meal	-11.2569
▁maps	-11.2573
▁kai	-11.2575
▁2-1	-11.2578
▁stroke	-11.2579
▁matchup	-11.2579
▁barry	-11.2587
▁echoed	-11.2587
▁klein	-11.2588
ella	-11.259
▁regain	-11.2592
▁bottle	-11.2592
▁halftime	-11.2595
▁sponsors	-11.2599
▁compound	-11.26
-19	-11.26
ters	-11.2603
▁tours	-11.2603
▁tribute	-11.2604
▁craig	-11.2604
ical	-11.2605
▁grandmother	-11.2605
▁jimmy	-11.2606
▁bu	-11.2608
ep	-11.2611
▁robots	-11.2616
▁commitments	-11.262
▁2.5	-11.262
those	-11.2622
▁lacked	-11.2623
▁whenever	-11.2624
▁surged	-11.2629
▁shrine	-11.2632
▁impeachment	-11.2634
▁assassination	-11.2634
▁drill	-11.2634
af	-11.264
▁tense	-11.2649
king	-11.2652
▁futures	-11.2659
▁teenage	-11.266
▁credited	-11.266
▁accommodate	-11.2663
▁hashimoto	-11.2663
▁swedish	-11.2663
▁wikileaks	-11.2664
▁rico	-11.2664
▁sullivan	-11.2664
▁staged	-11.2667
▁appealed	-11.2668
▁succession	-11.2669
▁sporting	-11.2671
▁load	-11.2671
wide	-11.2671
▁atop	-11.2674
▁7,	-11.2683
aw	-11.2683
▁lion	-11.2688
▁psychological	-11.2689
ise	-11.2691
tra	-11.2693
▁capabilities	-11.2693
▁distant	-11.2693
▁confusion	-11.2694
▁armstrong	-11.2694
н	-11.2694
▁concentration	-11.2694
▁install	-11.2696
▁gunmen	-11.2696
▁83	-11.2697
21	-11.2705
▁dad	-11.2705
▁adams	-11.2708
ky	-11.2713
pin	-11.2714
▁instant	-11.2718
▁fare	-11.2723
▁incentive	-11.2723
▁shortstop	-11.2725
▁evolved	-11.2729
▁arranged	-11.2729
▁holidays	-11.2729
▁logo	-11.273
▁topped	-11.273
▁1989	-11.2734
▁employ	-11.2736
▁clip	-11.274
6,000	-11.2741
▁slower	-11.2743
▁participated	-11.2744
▁surely	-11.2747
▁identification	-11.2754
▁mystery	-11.2754
▁batteries	-11.2754
▁sovereign	-11.2754
tion	-11.2758
▁speaks	-11.2763
▁$13	-11.2769
▁sean	-11.2779
▁zhang	-11.2784
▁imposing	-11.2785
▁confirmation	-11.2785
kawa	-11.2786
▁underlying	-11.2786
▁criminals	-11.2788
▁shoppers	-11.2789
▁mounted	-11.279
▁rebuild	-11.2796
▁intel	-11.2798
▁4,000	-11.2798
yn	-11.2798
▁subscribers	-11.2799
▁restricted	-11.2801
▁seal	-11.2805
had	-11.2805
▁performances	-11.2808
▁drinks	-11.2809
▁87	-11.2809
▁comcast	-11.2815
denuclearization	-11.2815
▁damaging	-11.2815
▁freddie	-11.2815
▁lgbt	-11.2815
▁dolphins	-11.2816
▁processing	-11.2817
▁concussion	-11.2817
▁basement	-11.282
▁12,	-11.2822
▁1999,	-11.2822
▁audit	-11.2825
▁guardian	-11.2826
▁5-	-11.2831
▁peers	-11.2832
▁boycott	-11.2833
die	-11.2833
76	-11.2835
▁headline	-11.2836
▁speakers	-11.2837
39	-11.2838
▁mae	-11.2839
▁baker	-11.2843
▁sexually	-11.2844
▁subsidiary	-11.2845
▁volatile	-11.2845
▁watson	-11.2845
▁babies	-11.2845
▁singles	-11.2846
▁contribution	-11.2847
▁infection	-11.2847
ec	-11.2849
▁launching	-11.2849
▁turnout	-11.2851
▁rankings	-11.2852
▁dying	-11.2853
▁stalled	-11.2853
az	-11.2857
▁rig	-11.2859
▁killer	-11.2862
▁broadly	-11.2868
▁nationalist	-11.2869
lon	-11.2871
▁medals	-11.2874
▁breakfast	-11.2877
▁norway	-11.2877
▁boxing	-11.2883
ug	-11.2883
▁comic	-11.2884
▁cry	-11.2888
▁historically	-11.2892
▁expressing	-11.2893
maybe	-11.2894
about	-11.2894
kai	-11.2902
▁bitcoin	-11.2906
▁external	-11.2906
▁generous	-11.2906
▁fraction	-11.2906
▁brotherhood	-11.2907
▁territorial	-11.2907
▁powell	-11.2907
▁occasion	-11.2907
▁1965	-11.2907
▁whaling	-11.2908
▁teeth	-11.291
▁slate	-11.291
▁puck	-11.2912
▁suburbs	-11.2917
▁spell	-11.2919
▁sh	-11.2923
ag	-11.2926
89	-11.2926
▁$1.5	-11.2927
▁9,	-11.2929
▁scandals	-11.293
▁keen	-11.2934
▁citi	-11.2934
▁wonderful	-11.2935
▁oh	-11.2936
▁columbus	-11.2937
▁nebraska	-11.2937
▁greatly	-11.2937
tri	-11.2941
▁tee	-11.2943
▁appealing	-11.2943
▁lifestyle	-11.2944
▁freed	-11.2951
je	-11.2955
friendly	-11.2957
▁twins	-11.2957
▁founding	-11.2959
▁declare	-11.2962
letting	-11.2964
▁reagan	-11.2968
▁knife	-11.2968
▁bradley	-11.2969
▁cornerback	-11.2969
▁preseason	-11.297
ane	-11.2971
▁networking	-11.2974
▁provider	-11.2977
look	-11.298
base	-11.2981
▁bunch	-11.2984
49	-11.2984
-13	-11.2985
▁strained	-11.2986
▁polish	-11.2987
▁nickname	-11.2989
▁checked	-11.2993
▁weighing	-11.2994
▁ann	-11.2996
▁surveyed	-11.2996
▁safely	-11.2997
▁brokerage	-11.2999
▁standoff	-11.3003
▁scenario	-11.3004
▁tariff	-11.3005
government	-11.3014
▁nights	-11.3019
▁insist	-11.3019
▁1997	-11.3019
looking	-11.3023
▁starters	-11.3024
▁reviewing	-11.3034
▁shelters	-11.3041
▁rumors	-11.3046
world	-11.3047
-12	-11.305
▁enhance	-11.3052
▁shoe	-11.3055
▁random	-11.3056
▁urgent	-11.3057
du	-11.3057
▁•	-11.3061
▁2004.	-11.3075
▁adjusted	-11.3076
▁mitt	-11.3078
pl	-11.308
▁actively	-11.3083
▁tar	-11.3088
▁saves	-11.3091
▁chiba	-11.3094
▁journalism	-11.3094
▁militia	-11.3099
▁cole	-11.3101
▁patterns	-11.3104
▁entrepreneurs	-11.3109
▁mayoral	-11.3114
-8	-11.3115
▁militias	-11.3117
▁surveys	-11.3121
▁veto	-11.3123
▁shook	-11.3124
san	-11.3124
▁enemies	-11.3124
▁globally	-11.3125
▁sharif	-11.3125
▁talented	-11.313
▁component	-11.3131
▁barrier	-11.3132
▁folks	-11.3133
▁relying	-11.3133
▁surprisingly	-11.3134
27	-11.314
▁produces	-11.314
▁18,	-11.3142
▁	-11.3155
72	-11.3157
▁michelle	-11.3158
▁partial	-11.3158
▁1.4	-11.316
▁poorly	-11.3163
▁competitor	-11.3163
▁argues	-11.3164
▁crop	-11.3167
ph	-11.3167
have	-11.3174
▁nicolas	-11.3178
▁40-	-11.3185
▁categories	-11.3187
▁cattle	-11.3187
▁civic	-11.3187
▁lehman	-11.3187
▁retreat	-11.3187
▁ferry	-11.3188
▁bolton	-11.3189
▁bonuses	-11.3189
▁enable	-11.319
cent	-11.3191
▁abuses	-11.3192
▁cancel	-11.3195
▁administrator	-11.3195
▁supplier	-11.3195
▁crops	-11.3198
▁jailed	-11.32
ick	-11.321
▁spa	-11.3211
▁zoo	-11.3213
▁warriors	-11.3214
▁please	-11.3214
▁fined	-11.3216
▁accompany	-11.3218
▁enthusiasm	-11.3218
▁insurgency	-11.3218
▁portugal	-11.3218
▁spectrum	-11.3218
▁raymond	-11.3218
▁altogether	-11.3219
▁lightning	-11.322
▁failures	-11.3222
▁mason	-11.3227
▁ritual	-11.3227
▁dissent	-11.3231
▁steer	-11.3237
▁congressman	-11.3243
▁technological	-11.3244
▁holder	-11.3247
▁14-	-11.3249
▁confidential	-11.325
▁soared	-11.3254
▁meals	-11.3255
▁ne	-11.3255
▁heels	-11.3258
▁converted	-11.3261
▁reward	-11.3264
suing	-11.3275
▁2018.	-11.3277
▁skepticism	-11.3282
▁smiling	-11.3282
▁disappointment	-11.3282
▁confront	-11.3282
▁reconstruction	-11.3282
18	-11.3285
▁bobby	-11.3285
▁harrison	-11.3286
▁recruit	-11.3287
▁brooks	-11.3291
▁historian	-11.3292
counterterrorism	-11.3294
07	-11.33
▁notable	-11.3306
▁steroids	-11.3307
▁screens	-11.3311
▁cab	-11.3312
▁lowered	-11.3313
▁threshold	-11.3314
▁episodes	-11.3314
▁radioactive	-11.3314
▁examining	-11.3314
▁persistent	-11.3315
▁accountability	-11.3315
▁pork	-11.3318
▁yoshihi	-11.3324
▁segment	-11.3325
ai	-11.3337
▁thursdays	-11.3337
▁spur	-11.3338
▁clinics	-11.3343
▁defenders	-11.3345
▁chávez	-11.3346
▁exciting	-11.3346
▁precedent	-11.3346
▁shield	-11.3347
▁poised	-11.3347
▁origin	-11.335
-0	-11.3352
▁vegetables	-11.3352
▁cleanup	-11.3352
▁quarters	-11.3366
▁2020.	-11.3373
▁goalie	-11.3374
▁pine	-11.3376
▁sydney	-11.3378
▁josé	-11.3378
▁cocaine	-11.3378
▁sauce	-11.338
▁impressed	-11.3382
4,000	-11.3382
▁favorable	-11.3382
▁courses	-11.3384
▁enterprise	-11.339
▁cr	-11.3391
▁mentor	-11.3394
▁reviews	-11.3396
▁fa	-11.3405
▁bloody	-11.3406
▁phillips	-11.3409
▁triumph	-11.341
▁seahawks	-11.341
▁airways	-11.341
▁$300	-11.3412
▁catching	-11.3413
▁naturally	-11.3418
din	-11.3419
▁mines	-11.3419
seat	-11.3421
▁somalia	-11.3422
▁periods	-11.3425
▁slip	-11.3427
▁figured	-11.3427
▁folk	-11.3435
▁chuck	-11.3437
▁17,	-11.3439
▁1996	-11.3441
acre	-11.3442
▁dakota	-11.3443
▁glimpse	-11.3443
▁immune	-11.3443
▁hezbollah	-11.3443
▁determination	-11.3445
▁attackers	-11.3447
▁exploded	-11.3447
▁sc	-11.3449
▁greeted	-11.3449
▁violate	-11.3454
▁cautioned	-11.3457
▁inspections	-11.3459
grade	-11.3463
ions	-11.3463
▁occupation	-11.3465
lar	-11.3467
▁samuel	-11.3474
ator	-11.3475
fully	-11.3485
▁nationally	-11.3487
▁chef	-11.3493
▁cooper	-11.3505
▁gonzalez	-11.3508
▁orioles	-11.3508
▁contested	-11.351
▁branches	-11.3512
▁johnny	-11.3514
▁presents	-11.3518
▁admit	-11.3527
collar	-11.3527
winning	-11.3528
great	-11.353
▁packages	-11.353
▁hell	-11.3531
▁sciences	-11.3538
▁dai	-11.3539
▁observatory	-11.354
ranking	-11.3541
▁1995	-11.3541
▁deer	-11.3542
▁conceded	-11.3544
▁crews	-11.355
▁courthouse	-11.3554
▁valued	-11.3555
taking	-11.3556
▁approaches	-11.3557
42	-11.3561
▁lend	-11.3563
▁bargaining	-11.3563
▁abused	-11.3564
68	-11.3564
▁1993	-11.3572
tv	-11.3573
▁narrative	-11.3573
▁spitzer	-11.3573
▁uncomfortable	-11.3574
▁react	-11.3574
▁equipped	-11.3575
▁dependent	-11.3576
▁cooking	-11.3577
bin	-11.3579
▁superior	-11.3589
▁lately	-11.359
ichi	-11.3592
▁packers	-11.3595
▁92	-11.36
▁exclusive	-11.3601
▁semifinals	-11.3605
▁buddhist	-11.3606
▁dioxide	-11.3606
▁phenomenon	-11.3606
▁functions	-11.3608
▁cliff	-11.3608
▁protective	-11.3608
ira	-11.3609
▁revis	-11.3614
▁accomplished	-11.3615
▁inspectors	-11.3615
▁dreams	-11.3618
▁toys	-11.3619
mu	-11.3623
▁$10.	-11.3623
would	-11.3626
ok	-11.3629
▁tasks	-11.3635
▁overwhelming	-11.3638
▁lundqvist	-11.3639
▁matsui	-11.3639
ero	-11.3639
▁satisfied	-11.364
▁dominican	-11.364
▁copyright	-11.364
▁sprawling	-11.3644
lia	-11.3648
▁highlights	-11.365
▁formation	-11.3651
▁andy	-11.3651
▁indonesian	-11.3654
▁leaked	-11.3656
▁beside	-11.3666
43	-11.3666
▁prompt	-11.3668
▁opera	-11.3669
▁mere	-11.367
▁jointly	-11.3671
▁parker	-11.3671
▁ivory	-11.3671
▁collision	-11.3672
▁indigenous	-11.3672
▁tripoli	-11.3673
▁machinery	-11.3674
▁precisely	-11.3678
▁flyers	-11.3679
▁meantime	-11.3679
▁languages	-11.3682
▁chang	-11.3683
▁justices	-11.3684
▁2-	-11.3685
▁cha	-11.3686
▁protections	-11.3686
▁theresa	-11.3694
▁sooner	-11.3695
▁eclipse	-11.3697
▁sidelines	-11.3698
dan	-11.3699
85	-11.37
▁seize	-11.3702
▁setback	-11.3702
▁ram	-11.3703
▁broadband	-11.3705
▁suzuki	-11.3705
▁televised	-11.3705
▁gingrich	-11.3705
▁mcconnell	-11.3705
▁adapt	-11.3706
▁elect	-11.3707
▁portland	-11.371
cor	-11.373
▁internationally	-11.373
▁hammer	-11.3731
▁pi	-11.3732
▁mode	-11.3733
▁matched	-11.3734
▁gardens	-11.3737
person	-11.3738
▁restructuring	-11.3739
▁gra	-11.374
▁spaces	-11.3741
▁perez	-11.3741
tta	-11.3743
▁rap	-11.3743
▁cousin	-11.3758
▁scholarship	-11.3758
▁incumbent	-11.3759
▁disagree	-11.3762
▁visual	-11.3767
8,000	-11.3768
▁lam	-11.3768
▁searched	-11.377
ide	-11.3771
▁safer	-11.3772
▁choosing	-11.3772
▁collaboration	-11.3772
▁ferguson	-11.3772
▁furniture	-11.3772
▁indicating	-11.3772
▁populist	-11.3772
▁engaging	-11.3772
▁hybrid	-11.3773
▁austerity	-11.3773
▁spiritual	-11.3773
sco	-11.3774
▁coached	-11.3776
▁wheeler	-11.3777
-35	-11.3777
▁clause	-11.3779
▁transformed	-11.3784
▁margins	-11.3786
rie	-11.3788
ably	-11.3788
val	-11.379
▁perfectly	-11.3793
sometimes	-11.3793
▁philippine	-11.3793
▁halted	-11.38
▁conferences	-11.3802
ack	-11.3805
▁steal	-11.3805
▁mohamed	-11.3806
▁xinhua	-11.3806
▁ju	-11.3808
▁scattered	-11.3808
▁adoption	-11.3809
▁cave	-11.3812
▁hailed	-11.3816
7,000	-11.3817
▁contacts	-11.3823
bra	-11.3824
▁mechanism	-11.3827
▁cats	-11.3827
▁arrangements	-11.383
▁benefited	-11.3831
▁click	-11.3833
once	-11.3834
▁occasional	-11.3836
▁sisters	-11.3836
▁commodity	-11.3839
▁kenneth	-11.3839
▁parallel	-11.3839
▁chiefs	-11.384
▁excellent	-11.384
▁telecom	-11.3841
▁funny	-11.3841
▁backlash	-11.3842
▁hindu	-11.3842
▁reopen	-11.3843
▁1,500	-11.3844
▁contention	-11.3844
▁spends	-11.3849
▁sacrifice	-11.3851
mark	-11.3853
ama	-11.3855
▁panthers	-11.3858
▁marry	-11.3859
▁architect	-11.3861
▁limiting	-11.3865
▁thoughts	-11.387
▁hernandez	-11.3873
▁patience	-11.3873
▁shanahan	-11.3873
▁inevitable	-11.3874
▁accessible	-11.3875
ria	-11.3875
▁accountable	-11.3881
▁towers	-11.3888
▁mondays	-11.389
▁voiced	-11.3892
business	-11.3894
2,000	-11.39
▁buzz	-11.3905
▁automotive	-11.3907
▁liberties	-11.3907
▁greenwich	-11.3907
▁websites	-11.3908
▁intensity	-11.3908
▁hussein	-11.3908
▁outlined	-11.3914
▁pensions	-11.3914
▁regulate	-11.3931
▁$14	-11.3932
▁draws	-11.3934
▁filling	-11.3935
fe	-11.3937
▁printed	-11.3938
▁ensur	-11.394
▁celebrating	-11.3941
▁fragile	-11.3941
▁congregation	-11.3941
▁loyalty	-11.3942
▁israelis	-11.3944
▁ethiopian	-11.3945
▁acceptable	-11.3946
▁qaddafi	-11.3946
itz	-11.3947
eh	-11.3948
▁ramp	-11.3951
▁singled	-11.3953
▁examples	-11.3955
japanese	-11.3962
23	-11.3964
▁bathroom	-11.3965
▁settlements	-11.3965
▁extremist	-11.3966
tte	-11.3966
▁shorter	-11.3967
55	-11.3968
▁wash	-11.3973
▁presumably	-11.3975
▁lottery	-11.3975
▁scholars	-11.3976
▁1967	-11.3976
▁pepper	-11.3977
▁wrapped	-11.3977
▁endangered	-11.3979
▁donor	-11.398
▁vendors	-11.398
bel	-11.3981
▁palmer	-11.3983
shot	-11.3983
▁hiding	-11.3984
▁prohibit	-11.3984
pac	-11.3985
▁tsu	-11.3987
▁affiliated	-11.3989
▁lease	-11.399
▁addresses	-11.3992
▁farmer	-11.3994
▁creates	-11.4
▁exile	-11.4
34	-11.4002
▁qualifying	-11.4002
▁contributing	-11.4009
▁subprime	-11.401
▁roosevelt	-11.401
▁barn	-11.4015
▁richardson	-11.4015
▁uniforms	-11.4015
▁30,000	-11.402
▁ace	-11.402
▁blacks	-11.402
▁responses	-11.402
door	-11.4026
▁walter	-11.4027
▁dick	-11.4031
▁dish	-11.4031
▁persuaded	-11.4033
▁hassan	-11.4034
ear	-11.4034
▁lender	-11.4041
▁inform	-11.4043
▁batted	-11.4045
▁komeito	-11.4045
▁northwestern	-11.4045
т	-11.4045
▁advertisements	-11.4046
▁sake	-11.4047
▁offerings	-11.405
▁brink	-11.4051
▁acquisitions	-11.4052
▁cake	-11.4052
14	-11.4053
▁bones	-11.4054
▁sing	-11.4056
▁budgets	-11.406
▁offenders	-11.4066
▁flooded	-11.4068
runner	-11.4068
square	-11.4068
▁aspect	-11.407
ory	-11.407
kar	-11.4071
illa	-11.4072
▁bridges	-11.4076
▁$16	-11.4077
▁naruhito	-11.4078
▁securing	-11.4078
▁(20	-11.4078
▁torn	-11.4079
▁humor	-11.4079
▁700	-11.408
▁ny	-11.408
▁bashar	-11.4081
▁heightened	-11.4081
▁shu	-11.4083
▁jihadis	-11.4093
ub	-11.4099
▁separated	-11.4099
degree	-11.41
▁ty	-11.4102
▁automobile	-11.4105
▁$60	-11.4109
▁pigs	-11.4112
▁celebrities	-11.4113
▁retiring	-11.4113
▁tuition	-11.4113
▁slim	-11.4114
ali	-11.4114
▁bruno	-11.4114
▁literally	-11.4115
▁wondering	-11.4119
▁gangs	-11.4122
▁13-	-11.4131
▁flames	-11.4134
which	-11.4135
agence	-11.4135
▁villa	-11.4138
▁revive	-11.4139
▁wounds	-11.4139
▁airplane	-11.4141
pping	-11.4143
▁broadcasting	-11.4147
▁mediterranean	-11.4148
▁rehabilitation	-11.4148
▁fishermen	-11.4148
▁buyer	-11.415
▁fitness	-11.415
ily	-11.4152
▁sensors	-11.4154
▁1992	-11.4156
▁runway	-11.4157
▁objections	-11.4158
▁mich	-11.4162
▁cashman	-11.4164
stone	-11.4164
▁stored	-11.4166
▁detectives	-11.4166
▁sheets	-11.4167
▁mas	-11.4171
▁script	-11.4172
▁duterte	-11.4183
▁griffin	-11.4183
▁kumamoto	-11.4183
▁transparent	-11.4183
▁stripped	-11.4184
ris	-11.4189
▁pays	-11.4191
▁maintains	-11.4196
being	-11.42
lee	-11.421
▁hampton	-11.4211
▁precise	-11.4212
key	-11.4212
▁resource	-11.4213
▁schumer	-11.4218
▁convert	-11.4221
▁characterized	-11.4221
03	-11.4226
far	-11.4228
▁breath	-11.4237
▁secondary	-11.4237
▁deserve	-11.4238
▁negotiators	-11.4243
▁elder	-11.4244
▁demographic	-11.4247
▁sidewalk	-11.4248
ban	-11.4249
▁ph	-11.4251
▁aleppo	-11.4253
▁assange	-11.4253
▁grabbed	-11.4253
▁obstruction	-11.4253
▁forgotten	-11.4253
▁punish	-11.4256
▁slump	-11.4257
▁attempting	-11.4261
▁bother	-11.4263
▁shame	-11.4264
▁ore	-11.4268
▁6-4	-11.4269
▁picks	-11.4273
kan	-11.4274
▁rebuilding	-11.4276
▁plunge	-11.4278
▁criticize	-11.4278
▁approaching	-11.4279
▁pursued	-11.4281
ology	-11.4283
aka	-11.4285
▁slovenia	-11.4288
▁parole	-11.4288
▁abbas	-11.4289
▁whales	-11.4291
▁monitors	-11.4291
▁transform	-11.4292
▁cam	-11.4293
▁patch	-11.4294
▁hunger	-11.4295
▁bare	-11.4295
86	-11.4296
▁unfortunately	-11.4298
▁substantially	-11.43
ori	-11.43
▁dining	-11.4302
▁confronted	-11.4302
▁bans	-11.4303
pointer	-11.4306
elli	-11.431
too	-11.431
-11	-11.4311
▁horn	-11.4313
▁combine	-11.4314
kh	-11.4317
▁instruments	-11.4318
83	-11.4319
▁advances	-11.4322
▁yokohama	-11.4323
▁damascus	-11.4323
▁inquiries	-11.4323
▁arthur	-11.4324
▁shuttle	-11.4324
▁wrist	-11.4325
▁specializes	-11.4328
▁subsequently	-11.4331
▁fbi	-11.4331
▁roy	-11.4332
▁cavaliers	-11.4338
▁wolf	-11.434
▁athletics	-11.4349
▁protein	-11.4355
▁jacobs	-11.4355
▁debates	-11.4356
▁whale	-11.4356
▁wholesale	-11.4358
▁egg	-11.4358
▁bolsonaro	-11.4359
▁comptroller	-11.4359
▁marlins	-11.4359
▁curious	-11.4359
▁shy	-11.4359
▁transformation	-11.4359
▁santana	-11.436
▁displays	-11.4361
▁autonomous	-11.4362
▁hol	-11.4363
▁1979	-11.4368
▁riot	-11.4373
87	-11.4378
▁specialists	-11.4379
▁yields	-11.4381
▁everyday	-11.4382
▁alternatives	-11.4383
lie	-11.4386
▁filings	-11.4387
▁proven	-11.4388
▁switched	-11.4389
▁achievement	-11.4393
▁secular	-11.4394
▁broncos	-11.4394
▁commodities	-11.4394
▁sabathia	-11.4394
▁holmes	-11.4394
▁isolation	-11.4394
▁persian	-11.4394
▁prix	-11.4395
▁umbrella	-11.4395
▁reiterated	-11.4397
▁nazi	-11.4398
▁flavor	-11.44
▁11-	-11.4404
▁bio	-11.4404
▁hacking	-11.4406
▁min	-11.4407
stock	-11.4408
▁robin	-11.4409
▁princess	-11.441
▁offenses	-11.4413
▁jumping	-11.4417
first	-11.4417
▁skilled	-11.4418
31	-11.4418
▁ba	-11.4419
▁penguins	-11.4421
19	-11.4425
▁exists	-11.4425
▁entity	-11.443
▁guild	-11.443
▁portrait	-11.443
▁|	-11.443
▁liability	-11.4431
▁bronze	-11.4431
▁manila	-11.4432
enberg	-11.444
ano	-11.444
▁2001.	-11.444
▁kyle	-11.4442
▁recruited	-11.4444
▁instructions	-11.4446
▁cope	-11.4451
▁mat	-11.4452
▁peru	-11.4453
▁upheld	-11.4453
▁checking	-11.4455
▁accelerate	-11.4456
mate	-11.4458
▁meets	-11.4464
▁convictions	-11.4465
▁instagram	-11.4466
▁restoration	-11.4466
▁universe	-11.4466
▁farther	-11.4466
▁addiction	-11.4466
▁wheat	-11.4466
▁criticizing	-11.4466
▁latter	-11.4466
-14	-11.4466
▁integration	-11.4467
▁carroll	-11.4467
des	-11.4476
71	-11.4481
▁crystal	-11.4482
oc	-11.4484
▁receives	-11.4488
▁dominate	-11.4491
▁sorts	-11.4492
▁cambodia	-11.4493
▁yang	-11.4497
▁viewing	-11.4497
▁mud	-11.45
▁haiti	-11.4501
▁retaliation	-11.4502
▁dragged	-11.4502
▁domain	-11.4503
▁columnist	-11.4505
▁photographer	-11.4507
▁defenseman	-11.4507
▁instances	-11.4508
▁latino	-11.4509
▁weaken	-11.4514
▁inappropriate	-11.4524
everybody	-11.4525
▁repeal	-11.4525
▁climbing	-11.453
▁scholar	-11.4531
▁zo	-11.4534
▁$18	-11.4535
▁faculty	-11.4538
▁bribery	-11.4538
▁propaganda	-11.4539
▁interpretation	-11.4539
▁turnaround	-11.4539
▁midtown	-11.4539
▁upgrade	-11.4543
▁2003.	-11.4548
▁woodson	-11.4549
gallery	-11.4554
▁ren	-11.4556
▁fargo	-11.4556
81	-11.4564
▁spike	-11.4564
mad	-11.4564
dar	-11.4565
▁bias	-11.4566
▁bernie	-11.4567
▁evident	-11.4569
▁fielder	-11.4571
▁hiro	-11.4571
▁dual	-11.4572
▁utilities	-11.4574
▁mickelson	-11.4574
▁actress	-11.4574
▁rhode	-11.4574
▁turf	-11.4576
▁dishes	-11.4576
▁avoiding	-11.4578
▁hor	-11.4579
▁elevated	-11.4579
▁bow	-11.4579
▁representation	-11.458
▁leon	-11.4586
▁storms	-11.459
▁resumed	-11.4592
ets	-11.4593
▁pc	-11.4594
ccounted	-11.4594
▁reaches	-11.4594
north	-11.46
▁adequate	-11.4605
▁indianapolis	-11.461
▁intensified	-11.461
▁tesla	-11.461
▁garcia	-11.461
▁sections	-11.4611
▁taxpayer	-11.4612
▁credible	-11.4612
▁fights	-11.4612
▁rivalry	-11.4613
mat	-11.4613
▁underscored	-11.4614
▁peterson	-11.4614
▁knock	-11.4616
▁evacuated	-11.4617
▁creditors	-11.4617
gy	-11.4621
▁tournaments	-11.4623
▁6-3	-11.4623
▁cal	-11.4636
▁sank	-11.4643
▁blaze	-11.4644
▁bernanke	-11.4647
▁clemens	-11.4647
▁entitled	-11.4647
▁exploring	-11.4647
▁sarkozy	-11.4647
▁shrimp	-11.4647
▁urgency	-11.4647
▁productivity	-11.4647
▁garage	-11.4647
▁banning	-11.4648
▁semifinal	-11.4649
cap	-11.465
▁koch	-11.465
▁fails	-11.4652
▁pierre	-11.4656
▁ci	-11.4658
five	-11.4663
ao	-11.4663
nation	-11.4667
▁sn	-11.4669
▁chad	-11.4669
mobile	-11.467
▁bor	-11.4671
▁hollande	-11.4674
▁16,	-11.4676
▁refuge	-11.4676
▁supervisor	-11.468
▁wanting	-11.468
▁clippers	-11.4684
▁hoffman	-11.4684
▁mori	-11.4685
▁endorsement	-11.4686
-9	-11.4687
▁2020,	-11.4688
▁reductions	-11.4692
▁angel	-11.4694
iness	-11.4699
96	-11.4706
▁bal	-11.4706
▁deposits	-11.4707
▁grows	-11.4708
79	-11.4711
▁rolls	-11.4714
▁vancouver	-11.472
▁fabric	-11.472
▁justify	-11.4723
yan	-11.4728
fu	-11.4728
▁commonly	-11.4731
▁preparations	-11.4736
▁underway	-11.4739
3,000	-11.4741
antoni	-11.4746
team	-11.4746
gh	-11.4756
▁dementia	-11.4757
▁excluding	-11.4757
▁bidding	-11.4757
▁morsi	-11.4757
▁uconn	-11.4759
pr	-11.476
▁instructed	-11.476
▁rifle	-11.4761
▁gamble	-11.4762
▁pearl	-11.4769
▁lag	-11.477
last	-11.4771
▁mon	-11.4773
▁lets	-11.4776
▁differ	-11.4781
▁tables	-11.4788
▁vague	-11.4789
▁physics	-11.4794
▁pizza	-11.4794
burg	-11.4795
▁relies	-11.4796
▁correction	-11.4798
▁plains	-11.4798
▁gesture	-11.4798
▁biological	-11.4798
ef	-11.48
▁soaring	-11.4801
▁ridge	-11.4803
aid	-11.4805
▁pump	-11.4806
▁scared	-11.4808
▁greens	-11.4809
▁searches	-11.4812
ium	-11.4816
▁agreeing	-11.4818
▁committees	-11.4821
▁analyze	-11.4822
▁hitters	-11.4823
▁affiliate	-11.4826
▁ideological	-11.4831
▁wheelchair	-11.4831
▁excitement	-11.4831
▁discover	-11.4832
▁racist	-11.4833
app	-11.4834
▁institutional	-11.4836
▁dangers	-11.4837
▁implement	-11.4837
plus	-11.4838
▁130	-11.4839
oy	-11.484
▁pound	-11.4842
▁crashes	-11.4842
▁portrayed	-11.4844
▁pie	-11.4848
▁wu	-11.4851
yu	-11.4856
▁bon	-11.4862
▁blunt	-11.4863
▁decisive	-11.4865
▁caracas	-11.4869
▁epidemic	-11.4869
▁petroleum	-11.4869
▁kidnapping	-11.4869
▁transmission	-11.487
▁shipped	-11.487
▁worn	-11.4871
▁mob	-11.4871
▁exceed	-11.4875
▁guarantees	-11.4875
▁prescription	-11.4875
▁vaccine	-11.4875
▁passport	-11.4876
▁corners	-11.4876
▁humanity	-11.488
▁controlling	-11.488
▁statewide	-11.488
table	-11.4884
98	-11.4886
▁forth	-11.4893
▁$35	-11.4894
▁(3	-11.4894
▁applying	-11.4895
▁victor	-11.4898
▁publicity	-11.4899
▁25-	-11.4905
▁ammunition	-11.4906
▁caribbean	-11.4906
▁escort	-11.4906
▁oxygen	-11.4906
▁walmart	-11.4907
▁structural	-11.4907
▁1974	-11.4907
▁1983	-11.4907
▁robbery	-11.4908
▁bullets	-11.4909
▁insists	-11.491
▁athens	-11.4912
▁nerve	-11.4913
▁rhetoric	-11.4914
▁tab	-11.4917
xi	-11.4917
▁extremists	-11.4918
▁economically	-11.4918
▁(1	-11.492
▁lure	-11.4921
▁operational	-11.4921
▁bel	-11.4922
ram	-11.4923
▁stealing	-11.4927
bal	-11.4929
ich	-11.493
▁trailing	-11.4943
▁belgian	-11.4944
▁tepco	-11.4944
▁shaking	-11.4945
▁earnest	-11.4945
▁2022	-11.4946
▁pierce	-11.4947
▁midst	-11.4949
▁calculated	-11.4949
ification	-11.495
▁suggestions	-11.495
▁exploit	-11.495
▁installation	-11.4952
▁tribe	-11.4952
▁mel	-11.4954
▁treating	-11.4956
▁faa	-11.4958
hiro	-11.4958
▁prisoner	-11.4959
▁ash	-11.496
▁cord	-11.4961
▁doping	-11.4963
▁sends	-11.4965
▁contains	-11.4968
▁thi	-11.4968
european	-11.4969
ration	-11.4969
▁ok	-11.497
▁median	-11.497
▁freely	-11.4973
▁singh	-11.4975
pen	-11.4975
▁sway	-11.4976
▁exhibit	-11.4976
92	-11.4977
▁den	-11.4977
ult	-11.4978
ei	-11.498
rah	-11.4981
▁mercedes	-11.4981
▁consortium	-11.4981
▁chandler	-11.4982
▁wisdom	-11.4982
▁phelps	-11.4982
▁arctic	-11.4982
▁grocery	-11.4982
▁sweat	-11.4982
▁evaluation	-11.4983
▁pockets	-11.4987
▁spare	-11.4988
▁tactic	-11.4988
▁protocol	-11.4989
ched	-11.4991
▁battered	-11.4992
rick	-11.4992
▁punished	-11.4995
▁productive	-11.4996
▁fuji	-11.5003
▁guided	-11.5008
▁listing	-11.5008
▁lung	-11.5013
▁mag	-11.5019
rr	-11.5019
▁companion	-11.5019
▁xinjiang	-11.5019
▁fukuoka	-11.5019
▁1975	-11.5021
▁respectively	-11.5022
▁heroin	-11.5023
▁slope	-11.5024
29	-11.5025
▁2-0	-11.5026
▁sideline	-11.5027
▁200,000	-11.5028
▁deportation	-11.5028
▁blues	-11.503
moto	-11.5031
▁showcase	-11.5037
▁fried	-11.504
▁tablet	-11.504
▁trailed	-11.5044
▁portray	-11.5044
commerce	-11.5044
three	-11.5044
▁ingredients	-11.5051
cast	-11.5052
▁gal	-11.5052
tti	-11.5053
64	-11.5054
▁ranch	-11.5057
▁currencies	-11.5057
▁ravens	-11.5057
▁genuine	-11.5058
▁brett	-11.5059
▁liquid	-11.5063
▁karl	-11.5066
▁pig	-11.5067
▁torres	-11.5067
▁concentrated	-11.5068
▁knight	-11.5068
▁till	-11.5068
▁exceeded	-11.507
▁yi	-11.5073
▁faction	-11.5078
act	-11.508
nie	-11.5083
▁ethical	-11.5083
78	-11.5085
▁rout	-11.5086
▁93	-11.5087
dale	-11.5089
▁pur	-11.509
▁lit	-11.5095
▁genocide	-11.5096
▁jennifer	-11.5096
▁flexibility	-11.5096
▁timothy	-11.5096
▁liberation	-11.5096
▁barbara	-11.5096
▁disability	-11.5096
▁secrecy	-11.5096
▁louisville	-11.5097
part	-11.5098
▁dancing	-11.5098
lic	-11.5102
▁1988	-11.5103
▁asserted	-11.5104
▁recommendation	-11.5106
▁supermarket	-11.5107
▁basket	-11.5107
▁weakened	-11.5109
▁96	-11.511
▁careers	-11.511
productive	-11.5121
▁burns	-11.5122
▁contenders	-11.5123
▁ve	-11.5124
▁compensate	-11.5126
▁7-	-11.5128
56	-11.5129
▁limitations	-11.5129
best	-11.513
▁coin	-11.513
▁subpoena	-11.5132
▁inspiration	-11.5132
▁blend	-11.5134
▁finland	-11.5134
▁1969	-11.5135
▁pier	-11.5135
▁messaging	-11.5135
▁1977	-11.5135
ima	-11.5135
▁poured	-11.514
▁resist	-11.5141
▁oak	-11.5141
▁rises	-11.5144
assad	-11.5145
▁heated	-11.5145
▁christ	-11.5146
▁deter	-11.5151
worth	-11.5154
63	-11.5157
▁preservation	-11.5159
▁burke	-11.5162
▁hay	-11.5169
▁modified	-11.5172
▁flynn	-11.5172
▁stunning	-11.5172
▁1978	-11.5173
▁$100,000	-11.5174
▁lang	-11.5181
▁reserved	-11.5181
▁executions	-11.5191
west	-11.5192
▁cu	-11.5193
without	-11.52
▁tune	-11.5204
▁cigarettes	-11.5205
veraging	-11.5207
▁revival	-11.5211
▁rafael	-11.5211
▁1981	-11.5212
▁cycling	-11.5213
▁conclude	-11.5213
▁holders	-11.5224
cal	-11.5225
▁bolt	-11.5233
driving	-11.5237
▁3.	-11.5238
▁distribute	-11.524
▁vs	-11.5243
▁merchants	-11.5245
▁tips	-11.5246
▁motivation	-11.5248
▁lesser	-11.5248
▁anxious	-11.525
▁releasing	-11.525
▁cooperative	-11.525
▁lethal	-11.5251
▁specify	-11.5251
▁miracle	-11.5251
rk	-11.5253
▁kashmir	-11.5254
▁1-0	-11.5256
▁laura	-11.5256
▁bedroom	-11.5259
▁helm	-11.5261
▁sink	-11.5262
▁medication	-11.5263
▁2002.	-11.5267
▁bryan	-11.5268
▁contender	-11.5269
▁item	-11.5271
oka	-11.5271
▁fingers	-11.5278
gue	-11.5283
▁kane	-11.5286
▁acknowledging	-11.5289
▁coordination	-11.5289
▁garcía	-11.5289
▁tabloid	-11.5289
▁nixon	-11.5289
▁guinea	-11.5289
▁stint	-11.5289
unconstitutional	-11.5289
▁mohammad	-11.529
▁ti	-11.5292
▁1.1	-11.5292
▁stir	-11.5294
▁balanced	-11.5296
▁billy	-11.5296
▁investigator	-11.5303
▁rocks	-11.5305
▁nu	-11.5306
ay	-11.5306
tier	-11.5307
▁reversed	-11.5307
▁recruits	-11.5315
ric	-11.5315
ew	-11.5318
▁sang	-11.5322
▁deposit	-11.5327
▁delaware	-11.5328
▁dominance	-11.5328
▁islamabad	-11.5328
▁crisp	-11.5328
▁stunned	-11.5328
▁tyler	-11.5328
▁contaminated	-11.5328
▁comparable	-11.5328
▁symbolic	-11.5329
▁booth	-11.5329
▁viral	-11.533
▁dismiss	-11.5332
▁assembled	-11.5333
▁deploy	-11.5335
▁surrender	-11.5335
▁dirty	-11.5337
uri	-11.5338
▁hardest	-11.534
▁resisted	-11.534
▁messi	-11.5342
▁laptop	-11.5342
▁sham	-11.5345
-2	-11.5346
▁shrink	-11.5348
▁incredible	-11.5352
▁postal	-11.5355
▁mask	-11.5356
▁coincide	-11.5365
44	-11.5365
▁dip	-11.5365
▁eliminating	-11.5367
▁pregnancy	-11.5367
▁southeastern	-11.5367
▁sudanese	-11.5367
▁disappearance	-11.5367
▁generic	-11.5367
▁hungary	-11.5368
▁ebay	-11.5368
▁tre	-11.5376
▁id	-11.5377
hop	-11.5379
fish	-11.5383
▁colorful	-11.5389
▁depict	-11.539
▁zones	-11.5396
82	-11.5397
▁improper	-11.5401
bridge	-11.5401
▁op	-11.5405
▁hart	-11.5405
▁boehner	-11.5406
▁ceremonies	-11.5406
▁conglomerate	-11.5406
▁influx	-11.5406
▁ahmad	-11.5406
▁voluntary	-11.5408
▁abruptly	-11.5409
ied	-11.541
▁pronounced	-11.5414
▁stamp	-11.5414
ska	-11.5415
▁starr	-11.5416
cut	-11.5419
▁sore	-11.5421
▁taro	-11.5423
▁insight	-11.5424
,000	-11.5428
▁hackers	-11.543
▁crying	-11.543
▁tanker	-11.5431
▁hal	-11.5434
running	-11.5436
▁char	-11.5436
ified	-11.5436
▁norman	-11.5438
met	-11.544
▁iraqis	-11.5442
▁ch	-11.5444
▁entrepreneur	-11.5445
▁friction	-11.5446
▁gilbert	-11.5446
▁earliest	-11.5446
▁chemistry	-11.5446
69	-11.5448
▁friendship	-11.5448
▁overwhelmed	-11.5449
▁pinch	-11.545
▁ob	-11.5451
▁renew	-11.5454
▁endured	-11.5455
▁implemented	-11.5459
▁peer	-11.5463
▁$45	-11.5463
▁complet	-11.5463
▁beck	-11.5463
track	-11.5467
▁singing	-11.5468
▁floors	-11.5469
▁existed	-11.5473
quality	-11.5474
▁administrators	-11.5475
▁tent	-11.5475
▁circles	-11.5479
raiser	-11.548
▁minimal	-11.5484
▁aluminum	-11.5485
▁superintendent	-11.5485
▁frustrating	-11.5485
▁gaming	-11.5486
▁vietnamese	-11.5486
▁kiev	-11.5486
▁woes	-11.5487
aku	-11.5488
▁couch	-11.5488
▁stiff	-11.5489
action	-11.5491
▁hood	-11.5494
▁21-	-11.5494
▁departments	-11.5494
▁accelerated	-11.5496
▁homers	-11.5497
▁joked	-11.5499
▁50,000	-11.5501
▁hopefully	-11.5503
▁albert	-11.5503
▁attracting	-11.5504
▁reliever	-11.5505
ye	-11.5505
▁val	-11.5506
nan	-11.5507
bit	-11.5508
rum	-11.5509
dal	-11.5512
▁decrease	-11.5515
▁endorse	-11.5516
powered	-11.5516
▁brush	-11.5519
▁awkward	-11.552
▁serbia	-11.552
▁lisa	-11.5521
▁colors	-11.5523
▁escalating	-11.5525
▁convoy	-11.5526
▁publish	-11.5526
▁diesel	-11.5527
▁backdrop	-11.5528
▁unacceptable	-11.5528
▁embarrassing	-11.5529
put	-11.5532
▁lobbyists	-11.5534
▁outfielder	-11.5534
▁lawn	-11.5534
▁canal	-11.5536
tax	-11.5537
▁custom	-11.5537
▁marines	-11.5537
▁ji	-11.5538
▁flown	-11.5539
▁dug	-11.5544
▁quo	-11.5547
▁enterprises	-11.555
▁30.	-11.555
▁shuka	-11.5551
nobody	-11.5553
93	-11.5554
▁bounce	-11.5556
▁maj	-11.5557
▁notorious	-11.556
▁denying	-11.5561
▁berkeley	-11.5565
▁holocaust	-11.5565
▁norwegian	-11.5565
▁possibilities	-11.5565
▁synagogue	-11.5565
care	-11.5565
▁outspoken	-11.5571
▁sec	-11.5571
▁postponed	-11.5571
▁coral	-11.5571
▁prisons	-11.5579
gin	-11.5583
av	-11.5583
▁kit	-11.5584
▁excuse	-11.5587
▁sealed	-11.5591
cker	-11.5594
▁designs	-11.5597
lay	-11.5598
▁helpful	-11.5599
▁wise	-11.56
fo	-11.5605
▁cricket	-11.5605
▁significance	-11.5605
▁ottawa	-11.5605
▁oyster	-11.5605
▁lobster	-11.5606
▁($2	-11.5606
▁incredibly	-11.5606
▁deliveries	-11.5607
▁1930	-11.5608
▁firearms	-11.561
▁jane	-11.5611
▁consumed	-11.5614
▁disappear	-11.5614
shirts	-11.5615
▁gro	-11.5616
▁enjoying	-11.5617
▁downward	-11.5617
▁tail	-11.5618
▁malaysian	-11.5618
▁$25.	-11.5622
▁6,000	-11.5624
▁replay	-11.5626
▁legend	-11.5626
▁vick	-11.5627
▁birdie	-11.5635
▁relay	-11.5636
▁mal	-11.5636
▁pause	-11.5637
▁affecting	-11.5638
▁colon	-11.5639
▁pile	-11.5641
▁carson	-11.5643
▁witnessed	-11.5646
▁cemetery	-11.5646
▁liquor	-11.5646
▁seizure	-11.5646
▁duncan	-11.5646
▁eurozone	-11.5646
▁interactive	-11.5646
▁imminent	-11.5647
▁frontier	-11.5653
▁nomura	-11.5655
▁compelling	-11.5658
▁6-2	-11.5661
▁questionable	-11.5661
▁belong	-11.5665
▁referee	-11.5668
▁tying	-11.5668
▁wednesdays	-11.5672
▁plates	-11.5675
▁proceeds	-11.5678
fr	-11.5679
94	-11.5681
▁chairs	-11.5681
▁clips	-11.5685
▁oscar	-11.5686
▁vincent	-11.5686
▁unemployed	-11.5687
▁1968	-11.5687
▁completion	-11.5688
▁borrow	-11.569
▁cage	-11.569
▁repairs	-11.569
▁ordering	-11.5691
▁topix	-11.5691
▁photography	-11.5696
▁coordinated	-11.5697
▁turnovers	-11.5697
oriented	-11.5697
36	-11.5699
▁satellites	-11.5702
58	-11.5703
▁smiled	-11.5708
▁bicycle	-11.5708
▁examination	-11.5712
▁labels	-11.5722
▁surf	-11.5725
▁astronauts	-11.5725
▁likelihood	-11.5727
▁dickey	-11.5727
cat	-11.5729
▁cult	-11.5729
22	-11.5732
▁looming	-11.5733
lock	-11.5734
▁zu	-11.5735
▁14,	-11.5736
▁ky	-11.5736
▁focuse	-11.5739
dia	-11.5745
▁soup	-11.5745
▁pitt	-11.5749
▁understands	-11.5749
qu	-11.5752
▁22-	-11.5753
▁duck	-11.5759
▁walsh	-11.5759
▁murders	-11.5763
▁lou	-11.5763
▁bacteria	-11.5763
▁banker	-11.5764
ben	-11.5765
gg	-11.5765
qua	-11.5767
▁boulevard	-11.5768
▁mnuchin	-11.5768
▁mosul	-11.5768
▁nascar	-11.5768
▁jefferson	-11.5768
▁shootout	-11.5769
▁strokes	-11.5772
▁bust	-11.5773
▁sei	-11.5776
▁emotions	-11.5779
▁chambers	-11.5779
▁yemeni	-11.578
▁beds	-11.5781
▁ye	-11.5783
▁15,	-11.5792
▁objective	-11.5792
hall	-11.5796
▁takeda	-11.5797
▁hadn	-11.5797
▁sal	-11.5799
▁94	-11.5804
▁indicates	-11.5806
▁caucus	-11.5807
▁notified	-11.5807
▁mccarthy	-11.5809
▁bahrain	-11.5809
▁publications	-11.5809
▁wallace	-11.5809
▁salad	-11.5809
▁colts	-11.5811
▁inventory	-11.5811
▁populated	-11.5812
▁100-	-11.5813
▁undergo	-11.5816
▁supportive	-11.5817
tis	-11.5818
▁mild	-11.5818
rated	-11.5834
▁rocky	-11.5837
46	-11.5839
▁spectacular	-11.5844
▁tro	-11.5845
▁feud	-11.5848
responsibilities	-11.585
▁appetite	-11.585
▁literature	-11.585
▁compact	-11.585
▁garner	-11.5851
▁www	-11.5851
▁supplied	-11.5851
▁silva	-11.5852
▁viable	-11.5853
▁certified	-11.5853
,800	-11.5853
▁integrated	-11.5856
▁2025	-11.5856
▁rider	-11.5856
▁harvest	-11.5861
cola	-11.5862
▁explains	-11.5863
▁pu	-11.5865
▁sinking	-11.587
▁description	-11.5875
▁ventures	-11.5887
▁alderson	-11.5891
▁crawford	-11.5891
▁lebanese	-11.5891
▁unpopular	-11.5891
▁stranded	-11.5898
▁virgin	-11.5898
▁chan	-11.5899
▁fist	-11.5901
bus	-11.5902
▁andrea	-11.5902
▁scorer	-11.5907
▁labeled	-11.5911
▁3-2	-11.5911
▁weakening	-11.5913
▁backers	-11.5915
▁reign	-11.5915
jan	-11.5916
▁conclusions	-11.5917
▁afghans	-11.5917
▁rat	-11.5919
▁handing	-11.592
author	-11.592
▁licensed	-11.5921
▁mil	-11.5923
▁brewers	-11.5924
▁dunk	-11.5924
▁divisive	-11.5933
▁joshua	-11.5933
▁vacant	-11.5933
▁inequality	-11.5933
▁(914	-11.5933
▁dugout	-11.5933
▁escalation	-11.5934
▁flock	-11.5935
▁sara	-11.5936
▁burger	-11.5938
theatre	-11.5944
▁posters	-11.5951
1,000	-11.5956
ika	-11.5959
▁insider	-11.596
hn	-11.596
▁inspire	-11.5965
08	-11.5966
▁log	-11.5968
▁occasions	-11.597
leaning	-11.597
▁jar	-11.5971
▁bats	-11.5971
▁obstacles	-11.5972
▁vest	-11.5973
▁glove	-11.5974
▁opens	-11.5975
▁christine	-11.5975
▁cooperating	-11.5975
▁beltran	-11.5975
▁majors	-11.5979
▁rim	-11.5982
▁pete	-11.5983
▁matching	-11.5985
▁hurricanes	-11.5987
▁belonged	-11.5987
▁der	-11.5988
▁educated	-11.599
▁tally	-11.5994
▁bri	-11.5995
▁encountered	-11.5997
▁sho	-11.6
▁neil	-11.6001
▁bishops	-11.6001
control	-11.6002
.''	-11.6003
▁laughing	-11.6003
▁listened	-11.6006
06	-11.6009
▁processes	-11.6011
▁mega	-11.6016
▁ayatollah	-11.6016
▁convincing	-11.6016
▁mumbai	-11.6016
▁nepal	-11.6016
▁diagnosis	-11.6016
▁unnecessary	-11.6016
▁jewelry	-11.6017
▁braun	-11.6017
▁teaches	-11.602
▁physicians	-11.6022
▁enrolled	-11.6022
▁stretched	-11.6023
▁coca	-11.6025
▁fukui	-11.6026
fin	-11.6026
▁nominated	-11.6027
ox	-11.6028
▁quarterbacks	-11.6028
▁overturned	-11.6032
▁crimea	-11.6033
▁sy	-11.6034
▁aichi	-11.6035
▁91	-11.604
oli	-11.6041
screen	-11.6045
▁110	-11.6045
▁warehouse	-11.6045
▁drops	-11.6051
▁excess	-11.6056
arts	-11.6057
▁ecuador	-11.6058
▁grateful	-11.6058
▁inauguration	-11.6058
▁licensing	-11.6058
▁lloyd	-11.6058
▁nagasaki	-11.6058
▁26.	-11.6059
▁bru	-11.6059
▁tsai	-11.6059
▁reliance	-11.606
▁generating	-11.606
▁twenty	-11.606
▁keith	-11.6061
row	-11.6062
▁effectiveness	-11.6062
▁morrison	-11.6062
▁wishes	-11.6065
photo	-11.6066
▁marco	-11.6068
▁fortunes	-11.607
▁concerning	-11.6071
▁md	-11.6072
las	-11.6076
▁boj	-11.6079
74	-11.6082
everything	-11.6087
▁deficits	-11.6093
▁jays	-11.6093
eu	-11.6093
▁insufficient	-11.6096
▁3-1	-11.6096
ico	-11.6096
▁stole	-11.6098
▁profession	-11.6099
▁flexible	-11.61
▁prosperity	-11.6101
▁kha	-11.6101
▁munich	-11.6101
▁stabbed	-11.6101
▁fluid	-11.6101
▁memoir	-11.6101
▁purchasing	-11.6101
▁chart	-11.6101
▁distinction	-11.6102
▁floods	-11.6103
▁berth	-11.6105
since	-11.6107
▁repay	-11.6108
▁valid	-11.611
▁centre	-11.6116
▁challenger	-11.6122
▁$17	-11.6123
▁identifying	-11.6125
▁stones	-11.6125
▁emotion	-11.613
▁cluster	-11.613
▁manages	-11.6131
▁ger	-11.6132
▁insurgent	-11.6132
▁georgian	-11.6133
▁sur	-11.6133
▁banner	-11.6136
▁ellis	-11.6142
73	-11.6143
▁immunity	-11.6143
▁stamford	-11.6143
▁creek	-11.6143
▁closure	-11.6143
nt	-11.6144
▁reiwa	-11.6144
▁50-	-11.6146
▁realistic	-11.6146
▁meyer	-11.6149
▁swiftly	-11.6151
hol	-11.6151
▁zimmerman	-11.6152
▁provinces	-11.6155
▁crane	-11.6156
▁marking	-11.6158
▁casting	-11.6161
▁je	-11.6165
▁discounts	-11.6165
▁pray	-11.617
building	-11.6172
▁statute	-11.6174
▁clerk	-11.6174
▁assertion	-11.6175
84	-11.6175
▁navigate	-11.6175
▁invite	-11.6176
▁cheer	-11.618
▁torre	-11.618
▁orchestra	-11.6182
▁retailing	-11.6182
▁tier	-11.6182
▁autonomy	-11.6185
▁icahn	-11.6185
▁memphis	-11.6185
▁davos	-11.6185
▁janeiro	-11.6186
▁voluntarily	-11.6186
▁milestone	-11.6186
▁arnold	-11.6186
▁minus	-11.6187
▁32,	-11.6188
▁exercises	-11.619
roll	-11.6196
und	-11.6197
your	-11.6207
▁shah	-11.6208
▁habitat	-11.6209
tel	-11.6212
▁89	-11.6213
▁seeds	-11.6213
▁minors	-11.6214
▁cape	-11.6214
▁ordinance	-11.6218
▁jurisdiction	-11.6218
▁gut	-11.6219
▁classroom	-11.6219
▁97	-11.6219
▁councilman	-11.622
▁slot	-11.6221
▁abortions	-11.6223
▁hagel	-11.6225
▁breed	-11.6225
goal	-11.6226
▁shoulders	-11.6226
▁worship	-11.6226
▁angle	-11.6228
▁saikawa	-11.6228
▁essay	-11.6228
▁minimize	-11.6228
▁enduring	-11.6228
▁charities	-11.6228
▁oversaw	-11.6228
▁montana	-11.6228
▁grasp	-11.6229
▁mansion	-11.6229
▁tolerance	-11.6229
▁1940	-11.6231
▁prolonged	-11.6232
tes	-11.6236
▁180	-11.6239
here	-11.624
▁caps	-11.6245
▁tunnels	-11.6246
▁determin	-11.6248
lam	-11.6248
lot	-11.6252
▁arabic	-11.6254
▁dated	-11.6256
▁laborers	-11.6257
▁coordinate	-11.6261
sson	-11.6263
serving	-11.6265
▁cano	-11.6267
▁idlib	-11.6271
▁burial	-11.6271
▁recycling	-11.6271
▁devastated	-11.6272
▁smuggling	-11.6272
▁outlet	-11.6273
dra	-11.6273
▁levy	-11.6273
uck	-11.6277
▁hospitalized	-11.6277
▁commentary	-11.6278
▁owed	-11.6278
▁lean	-11.628
▁lingering	-11.6281
▁tossed	-11.6281
▁recalling	-11.6282
ale	-11.6284
gra	-11.6288
aged	-11.6289
▁4-	-11.629
ware	-11.6294
▁eagle	-11.6295
▁remark	-11.6295
president	-11.6301
▁extract	-11.6301
▁lecture	-11.6301
▁ruth	-11.6303
▁credentials	-11.6303
▁prayers	-11.6306
▁evaluate	-11.6307
speaking	-11.6309
▁23-	-11.6311
▁grid	-11.6312
▁wayne	-11.6312
▁archbishop	-11.6314
▁argentine	-11.6314
▁sophomore	-11.6314
▁teixeira	-11.6314
▁abdullah	-11.6314
▁nicholas	-11.6314
▁recruitment	-11.6315
▁prospective	-11.6315
▁bailey	-11.6315
▁28-	-11.6316
▁mariners	-11.6317
▁spurred	-11.6318
▁flawed	-11.6319
▁prosecuted	-11.6322
fold	-11.6325
ians	-11.6325
bad	-11.6327
▁raced	-11.6328
▁il	-11.6331
ue	-11.6332
▁sellers	-11.6332
▁interact	-11.6332
▁laughed	-11.6334
▁pants	-11.6336
▁3.5	-11.6338
ons	-11.634
▁bud	-11.634
▁cement	-11.6345
▁hurting	-11.6346
▁16.	-11.6348
▁computing	-11.6357
▁innocence	-11.6357
▁refusal	-11.6357
▁sanctuary	-11.6357
▁sluggish	-11.6357
▁tribunal	-11.6357
▁assuming	-11.6357
▁outcry	-11.6357
▁selig	-11.6358
▁furious	-11.6358
▁junta	-11.6358
▁feat	-11.6359
▁jesus	-11.6359
▁sir	-11.6361
▁2021	-11.6362
▁transfers	-11.6362
race	-11.6362
▁blessing	-11.6363
▁kat	-11.6364
▁informal	-11.6369
▁cy	-11.6375
▁em	-11.6378
▁musicians	-11.6379
▁leftist	-11.6383
▁premiums	-11.6388
▁pad	-11.6393
▁plead	-11.6393
▁venue	-11.6394
▁acute	-11.6395
ash	-11.6397
▁schneider	-11.6399
▁benedict	-11.6401
▁cabrera	-11.6401
▁subcommittee	-11.6401
▁surviving	-11.6401
▁danny	-11.6403
▁prepares	-11.6404
▁confused	-11.6404
▁cass	-11.6404
▁intensive	-11.6405
▁salmon	-11.6405
▁overwhelmingly	-11.6408
▁decreased	-11.6412
▁19-	-11.6419
standing	-11.642
47	-11.642
▁forming	-11.6422
▁barring	-11.6423
▁140	-11.6424
▁silk	-11.6427
efficient	-11.6431
▁mor	-11.6437
▁physician	-11.6438
▁tibetan	-11.6439
▁toilet	-11.6441
▁rhythm	-11.6443
nis	-11.6443
▁cambridge	-11.6445
▁dictator	-11.6445
▁altitude	-11.6447
nce	-11.6447
▁tel	-11.6449
▁29.	-11.6453
makers	-11.6454
▁habit	-11.6457
mus	-11.6458
▁agrees	-11.6458
▁nike	-11.6459
▁reacted	-11.6461
wind	-11.6463
▁incomes	-11.6465
▁rents	-11.6466
▁nara	-11.6467
▁tighten	-11.6472
▁tele	-11.6473
▁vo	-11.6473
▁jen	-11.6476
black	-11.6477
▁reader	-11.6478
media	-11.6478
yoshi	-11.6481
▁fiction	-11.6482
▁ambulance	-11.6483
▁tracked	-11.6483
▁jacket	-11.6484
▁pipe	-11.6487
,600	-11.6488
▁adjacent	-11.6488
▁certification	-11.6488
▁hormone	-11.6488
▁separation	-11.6488
▁architecture	-11.6489
▁heisei	-11.6489
▁biology	-11.6489
▁dairy	-11.6489
▁jamie	-11.649
▁snowden	-11.649
▁lunar	-11.649
▁blank	-11.649
▁wen	-11.6492
▁layoffs	-11.6492
mont	-11.6492
▁mice	-11.6493
▁fitting	-11.6493
iko	-11.6493
▁relieved	-11.6494
▁uncovered	-11.6494
▁plagued	-11.6497
▁expired	-11.6497
gate	-11.6498
▁ur	-11.6499
▁trusted	-11.65
▁mali	-11.6501
ill	-11.6503
▁stevens	-11.651
-16	-11.651
▁endless	-11.6511
▁$1.2	-11.6511
▁60-	-11.6516
sea	-11.6517
▁retained	-11.6518
obviously	-11.652
▁dire	-11.6524
▁revelations	-11.6524
▁classical	-11.6525
▁hai	-11.6526
▁treatments	-11.6527
▁slogan	-11.6528
▁motive	-11.6528
-15	-11.6529
▁hostage	-11.6532
▁carmaker	-11.6532
▁khartoum	-11.6532
▁thomson	-11.6533
▁reconciliation	-11.6533
▁niche	-11.6535
▁trademark	-11.6536
▁habits	-11.6539
▁flower	-11.6539
▁$20.	-11.654
▁midterm	-11.6541
inning	-11.6545
▁narrowly	-11.6548
▁tin	-11.6551
▁(4	-11.6551
▁asteroid	-11.6556
▁coat	-11.6556
▁doubles	-11.6562
▁intentions	-11.6564
▁refrain	-11.6564
▁upward	-11.6564
ches	-11.6564
▁trace	-11.6568
▁lucas	-11.6569
lio	-11.6569
▁herald	-11.6569
▁rwanda	-11.6571
▁helmet	-11.6574
▁obesity	-11.6577
▁semiconductor	-11.6577
▁stomach	-11.6577
▁territories	-11.6577
▁bmw	-11.6577
▁foreclosures	-11.6577
▁ought	-11.6577
▁bruins	-11.6577
▁gregory	-11.6577
▁neutral	-11.6577
▁acceptance	-11.6578
▁unified	-11.6578
▁hail	-11.658
▁honored	-11.6582
▁bore	-11.6583
▁documented	-11.6585
▁gil	-11.6586
rus	-11.6588
▁beaches	-11.6591
master	-11.6591
▁download	-11.6591
▁fatally	-11.6592
▁¥4	-11.6593
▁350	-11.6594
▁hearts	-11.6595
▁restart	-11.6602
▁1945	-11.6604
▁emphasize	-11.6609
▁lands	-11.6609
green	-11.6611
▁squeeze	-11.6611
▁para	-11.662
▁absent	-11.662
▁blagojevich	-11.6621
▁khashoggi	-11.6621
▁minneapolis	-11.6621
▁taipei	-11.6621
▁redskins	-11.6621
▁boyfriend	-11.6621
▁accustomed	-11.6622
▁genome	-11.6622
▁spacecraft	-11.6622
▁harmful	-11.6622
▁beacon	-11.6622
▁speeds	-11.6626
▁ports	-11.6627
▁300,000	-11.6628
▁centered	-11.6628
▁verify	-11.6629
rat	-11.6629
▁stretches	-11.6629
▁sticking	-11.663
mic	-11.6636
trade	-11.6636
▁22.	-11.6637
▁bribes	-11.6637
▁parked	-11.6637
▁conspir	-11.6638
▁layer	-11.6639
▁bun	-11.664
▁fur	-11.6646
▁priests	-11.6647
stop	-11.6647
▁dome	-11.6648
ome	-11.6651
▁1998,	-11.6651
▁convey	-11.6652
list	-11.6652
▁backyard	-11.6653
ert	-11.6654
▁complaining	-11.6654
▁marched	-11.6657
▁mir	-11.6659
hey	-11.6661
▁dividend	-11.6664
▁zimbabwe	-11.6664
▁acquiring	-11.6666
▁oxford	-11.6666
▁relocation	-11.6666
▁tropical	-11.6666
▁curtis	-11.6666
▁kal	-11.6667
▁flores	-11.6667
▁facto	-11.6667
▁shining	-11.6669
▁evil	-11.667
oo	-11.6673
▁organ	-11.6675
▁anne	-11.6676
▁yuan	-11.6678
▁28.	-11.6681
kill	-11.6682
eg	-11.6686
▁sta	-11.6689
usa	-11.669
▁substitute	-11.6699
▁serena	-11.67
▁secretly	-11.6701
▁spying	-11.6703
▁weekends	-11.6708
▁631-	-11.6709
ked	-11.671
▁facial	-11.6711
▁ortiz	-11.6711
▁unidentified	-11.6711
▁blackberry	-11.6712
▁skype	-11.6712
▁rockies	-11.6713
▁tommy	-11.6713
ida	-11.6716
iz	-11.6717
▁decree	-11.6718
▁saints	-11.6718
▁iceland	-11.6719
big	-11.6719
▁austrian	-11.672
▁bounced	-11.6722
▁cheered	-11.6724
▁dock	-11.6725
▁sheep	-11.6734
▁complications	-11.6735
▁9-	-11.6742
▁distress	-11.6743
▁locally	-11.6743
▁experiments	-11.6748
▁sneak	-11.6754
rt	-11.6754
▁salvador	-11.6754
▁bureaucracy	-11.6756
▁enclave	-11.6756
▁horror	-11.6756
▁predominant	-11.6756
▁truce	-11.6756
▁tapped	-11.6756
▁1971	-11.6757
nick	-11.6759
▁gallon	-11.6759
▁waved	-11.676
▁villagers	-11.676
▁olive	-11.6764
hole	-11.6766
▁clouds	-11.6768
▁preced	-11.6771
▁pressured	-11.6779
del	-11.6779
ock	-11.6781
▁kei	-11.6783
lier	-11.6785
ade	-11.6785
eb	-11.6785
▁firmly	-11.6786
ular	-11.6787
▁transplant	-11.6789
▁anna	-11.679
ude	-11.6791
▁opposes	-11.6791
▁influenced	-11.6792
26	-11.6793
▁$22	-11.6793
▁revealing	-11.6795
▁eventual	-11.6795
▁surfaced	-11.6798
▁lacking	-11.6798
▁baylor	-11.6801
▁musharraf	-11.6801
▁sympathy	-11.6801
▁sectarian	-11.6801
▁murdered	-11.6801
▁taiwanese	-11.6801
▁intact	-11.6801
▁gunfire	-11.6803
▁strengthening	-11.6803
ites	-11.6808
▁randy	-11.6809
▁stricter	-11.6809
▁2000.	-11.681
▁independently	-11.681
eau	-11.6811
▁cop	-11.6813
▁tender	-11.6817
▁rad	-11.6823
53	-11.6823
issue	-11.6824
elle	-11.6824
▁kills	-11.683
▁kris	-11.6831
▁colt	-11.6832
▁standings	-11.6832
should	-11.6833
sponsored	-11.6836
▁attorneys	-11.6844
▁ahmadinejad	-11.6846
▁sierra	-11.6846
▁telescope	-11.6846
▁translation	-11.6846
▁crises	-11.6846
▁catalog	-11.6846
▁parenthood	-11.6847
▁snapped	-11.6847
▁inmate	-11.6848
▁waving	-11.6848
▁servers	-11.6848
▁daley	-11.6853
▁lent	-11.6856
ations	-11.6857
avi	-11.6858
▁clues	-11.6859
tor	-11.686
▁feeding	-11.686
▁showdown	-11.6861
54	-11.6864
ena	-11.6865
▁threatens	-11.6868
▁rulings	-11.687
ground	-11.6871
▁zi	-11.6873
▁practiced	-11.6875
▁accomplish	-11.6879
▁hy	-11.688
▁retirees	-11.688
▁outsiders	-11.6883
97	-11.6883
▁tai	-11.6884
▁grain	-11.6886
yuki	-11.6887
▁contempt	-11.6892
▁stimulate	-11.6892
▁embark	-11.6892
▁ugly	-11.6892
▁enrollment	-11.6892
▁kas	-11.6893
▁solidarity	-11.6893
▁midwest	-11.6893
▁problematic	-11.6893
▁astros	-11.6893
▁$10,000	-11.6896
▁indoor	-11.6904
▁miners	-11.6904
▁recipients	-11.6907
▁punch	-11.6907
▁spray	-11.6907
▁funded	-11.6908
▁leaks	-11.6911
▁cox	-11.6912
▁examiner	-11.6912
▁rains	-11.6915
▁titans	-11.6915
▁losers	-11.6918
▁christians	-11.6923
▁€1	-11.6923
bed	-11.6924
lf	-11.6925
▁cent	-11.6926
mc	-11.693
▁absolute	-11.6933
ado	-11.6933
▁hun	-11.6935
▁lanes	-11.6936
▁juvenile	-11.6938
▁beirut	-11.6938
▁cyclone	-11.6938
▁guantánamo	-11.6938
▁ibrahim	-11.6938
▁shepherd	-11.6938
▁obstacle	-11.6941
▁assignment	-11.6941
▁interception	-11.6941
▁$250	-11.6942
▁revise	-11.6942
pointers	-11.6944
▁shaken	-11.6948
ora	-11.6949
▁fulfill	-11.6952
▁cheers	-11.6952
▁pga	-11.6953
▁outright	-11.6957
▁cartel	-11.6959
▁19.	-11.696
▁advantages	-11.6969
▁reactions	-11.697
section	-11.6977
▁th	-11.6982
▁swim	-11.6984
▁ideology	-11.6984
▁innovative	-11.6984
▁kanagawa	-11.6984
▁saitama	-11.6984
▁stoudemire	-11.6984
▁yonkers	-11.6984
▁randolph	-11.6984
▁syrians	-11.6984
▁ballpark	-11.6985
▁committing	-11.6985
▁shortfall	-11.6985
▁pressures	-11.6986
5-	-11.6988
▁zen	-11.6989
▁rings	-11.6989
did	-11.6995
▁favors	-11.6995
linked	-11.6997
▁3-0	-11.6998
▁shocking	-11.7001
▁ala	-11.7001
▁europeans	-11.7006
▁belonging	-11.7009
case	-11.7011
▁predators	-11.7013
▁oust	-11.7014
nk	-11.7015
▁andrews	-11.702
▁thrive	-11.702
shaped	-11.7023
ula	-11.7025
▁$15.	-11.7026
▁butter	-11.7027
▁attitudes	-11.7027
▁roth	-11.7027
▁experiencing	-11.703
▁formidable	-11.703
▁dim	-11.703
▁hamstring	-11.703
▁skating	-11.703
▁mitch	-11.7031
▁fiber	-11.7031
▁drills	-11.7032
▁sunny	-11.7033
▁rejection	-11.7033
▁fairfield	-11.7033
▁misleading	-11.7033
▁raped	-11.7033
▁outnumbered	-11.7034
9,000	-11.7034
▁kor	-11.7036
ata	-11.7036
▁bosses	-11.7037
▁mouse	-11.7038
▁rams	-11.704
▁specialized	-11.7041
▁launches	-11.7041
▁usher	-11.7043
61	-11.7043
istic	-11.7044
▁monument	-11.7048
ologist	-11.705
▁meng	-11.7052
▁seekers	-11.7052
▁stays	-11.7054
▁reservations	-11.7055
▁preserved	-11.7056
ened	-11.7059
▁0.1	-11.7061
▁bent	-11.7062
▁warns	-11.7066
▁uganda	-11.707
▁frankfurt	-11.7077
▁logistics	-11.7077
▁prestigious	-11.7077
▁sherman	-11.7078
▁hank	-11.7078
▁$400	-11.7079
▁marcus	-11.7081
▁fallout	-11.7086
▁organizer	-11.7087
▁sting	-11.7088
pass	-11.7088
▁siblings	-11.7089
▁robertson	-11.7089
▁colo	-11.709
▁borrowed	-11.7091
▁appoint	-11.7092
▁updated	-11.7092
▁naming	-11.7092
power	-11.7093
▁pal	-11.7097
▁wet	-11.7097
▁grill	-11.7098
▁planted	-11.71
hon	-11.7101
zy	-11.7102
rian	-11.7104
▁aaa	-11.7107
▁suite	-11.7108
▁fuels	-11.7109
▁27.	-11.7109
nothing	-11.7111
▁enact	-11.7111
▁tick	-11.7114
tsu	-11.7115
▁1997,	-11.7116
▁loves	-11.7119
▁monitored	-11.7122
▁plug	-11.7123
▁jenkins	-11.7124
▁thanksgiving	-11.7124
▁unhappy	-11.7124
▁imprisoned	-11.7125
▁sculpture	-11.7125
gal	-11.7125
▁$1,000	-11.7127
▁bennett	-11.7127
▁poorest	-11.7129
▁disruption	-11.7131
▁nigerian	-11.7137
04	-11.714
▁merit	-11.714
▁reconsider	-11.7141
▁scan	-11.7144
their	-11.7144
▁noble	-11.7146
▁patents	-11.7146
▁campaigned	-11.7149
▁mont	-11.7149
▁mer	-11.7151
boy	-11.7153
▁¥5	-11.7155
enhancing	-11.7157
▁neglect	-11.7158
▁eased	-11.7161
▁lacks	-11.7162
▁poses	-11.7162
▁trim	-11.7167
▁)	-11.717
▁affluent	-11.717
▁criteria	-11.717
▁equities	-11.717
▁espionage	-11.717
▁illicit	-11.717
▁refinancing	-11.717
▁brigade	-11.717
▁chaotic	-11.717
▁mizuho	-11.7171
uma	-11.7171
▁circulation	-11.7171
973)	-11.7171
▁considerably	-11.7172
▁experimental	-11.7173
▁hungry	-11.7175
▁brace	-11.7175
▁sab	-11.7176
▁bern	-11.7176
▁updates	-11.7178
form	-11.7181
▁buffett	-11.7182
▁cigarette	-11.7182
▁buyout	-11.7186
▁earthquakes	-11.7187
ase	-11.7188
▁gill	-11.7189
▁stemm	-11.719
▁yorker	-11.7191
▁wherever	-11.7193
▁insisting	-11.7199
real	-11.7199
▁joel	-11.72
▁dealer	-11.7201
▁gases	-11.7202
▁rosa	-11.7203
▁nash	-11.7206
governmental	-11.7207
59	-11.7208
ullah	-11.721
▁casinos	-11.721
▁fri	-11.7215
▁belarus	-11.7218
▁mahmoud	-11.7218
▁unaware	-11.7218
▁kidd	-11.7218
▁extinction	-11.7218
▁paperwork	-11.7219
▁laser	-11.7221
▁poet	-11.7221
▁barnes	-11.7222
▁reflection	-11.7222
▁deliberately	-11.7222
etti	-11.7223
▁albe	-11.7223
▁crushed	-11.7228
▁unfairly	-11.723
ovic	-11.7233
▁subtle	-11.7235
▁blown	-11.7239
▁belongs	-11.7244
▁junk	-11.7246
▁slaughter	-11.7252
▁musk	-11.7252
something	-11.7253
▁ivan	-11.7254
olo	-11.7254
cca	-11.7255
▁icon	-11.726
▁connecting	-11.7262
load	-11.7264
▁rust	-11.7265
▁fernando	-11.7265
▁racism	-11.7265
▁liverpool	-11.7265
▁comedian	-11.7265
▁rift	-11.7265
▁rubble	-11.7265
▁consulate	-11.7266
▁instructor	-11.7266
▁falcons	-11.727
▁diminished	-11.7273
▁separatist	-11.7274
▁1982	-11.7277
▁$1.3	-11.7278
▁0.2	-11.7279
▁moody	-11.728
-2)	-11.7284
ify	-11.7286
▁tru	-11.7287
▁glen	-11.729
▁er	-11.7296
through	-11.73
million	-11.73
▁costa	-11.7308
▁bou	-11.7308
ld	-11.731
▁containers	-11.731
aff	-11.7311
▁manafort	-11.7313
▁outskirts	-11.7313
▁steinbrenner	-11.7313
▁draghi	-11.7313
▁pivotal	-11.7313
▁nightmare	-11.7314
▁depot	-11.7314
▁upstate	-11.7316
▁paulson	-11.7321
▁glasses	-11.7322
▁faded	-11.7323
▁relaxed	-11.7324
▁dispatched	-11.7324
▁saleh	-11.733
pat	-11.7332
▁lowering	-11.7333
▁editors	-11.7337
с	-11.7342
▁tended	-11.7344
▁dubb	-11.7345
▁marketers	-11.7345
▁consume	-11.7346
bury	-11.7346
▁deliberations	-11.7351
▁jamaica	-11.7354
▁unsuccessful	-11.7355
bri	-11.7356
▁passionate	-11.7357
-18	-11.7359
▁favre	-11.736
▁gandhi	-11.736
▁nintendo	-11.736
▁patterson	-11.736
▁scrambling	-11.736
▁denmark	-11.7361
▁empress	-11.7361
▁cherry	-11.7361
▁accuracy	-11.7361
▁goalkeeper	-11.7362
▁stupid	-11.7362
▁propose	-11.7362
▁georgetown	-11.7363
▁sk	-11.7365
stage	-11.7368
▁explosions	-11.7369
▁$150	-11.7369
▁joan	-11.737
▁justified	-11.737
▁priced	-11.7371
▁bro	-11.7375
▁comb	-11.7377
▁liberals	-11.7379
▁worthy	-11.7379
▁graves	-11.7379
▁relate	-11.7386
leg	-11.7387
abi	-11.7394
floor	-11.7396
ole	-11.7398
▁intervene	-11.7399
▁discourage	-11.7399
bashir	-11.7401
▁curve	-11.7401
▁projections	-11.7405
cutting	-11.7405
▁cro	-11.7407
▁hawks	-11.7408
▁merchandise	-11.7409
▁probation	-11.7409
▁stabbing	-11.7409
▁accent	-11.7409
▁quarterfinals	-11.741
▁suffolk	-11.741
▁waterfront	-11.741
▁downhill	-11.7413
▁ouster	-11.7413
▁angered	-11.7416
▁dun	-11.7418
▁stuffed	-11.7419
▁protested	-11.7419
count	-11.742
▁kirk	-11.7423
lit	-11.7423
▁scare	-11.7424
illo	-11.7425
▁willie	-11.7427
▁debts	-11.7435
▁runoff	-11.7437
▁visitor	-11.7438
▁kurds	-11.744
▁anytime	-11.7441
▁bass	-11.7442
paid	-11.7444
ré	-11.7444
▁leaning	-11.7445
▁1989,	-11.7447
driven	-11.7447
city	-11.7448
▁exams	-11.7451
]	-11.7457
▁aerospace	-11.7457
▁fatigue	-11.7457
▁fraudulent	-11.7457
▁subsidy	-11.7457
▁detain	-11.7457
▁diving	-11.7457
▁defy	-11.7457
▁contrary	-11.7457
▁blair	-11.7457
▁slammed	-11.7457
▁lasting	-11.7457
▁martial	-11.7461
▁toughest	-11.7462
shima	-11.7463
▁1996,	-11.7465
▁breakdown	-11.7465
kel	-11.7466
▁practically	-11.7468
▁observation	-11.7469
▁correspondent	-11.7469
▁negotiator	-11.747
ón	-11.7472
▁160	-11.7478
4)	-11.7481
▁sato	-11.7483
▁origins	-11.7487
▁jab	-11.7488
▁tra	-11.7492
▁germans	-11.7493
▁carr	-11.7494
ching	-11.7496
▁enthusiastic	-11.7497
lav	-11.7498
▁bets	-11.75
start	-11.7504
▁ministries	-11.7505
▁panasonic	-11.7505
▁rouhani	-11.7505
▁widow	-11.7505
▁melbourne	-11.7505
▁glance	-11.7505
▁unlimited	-11.7506
▁kidney	-11.7506
hy	-11.7506
▁posing	-11.7506
▁grove	-11.7507
▁oath	-11.7507
mel	-11.7507
▁stan	-11.7508
▁privilege	-11.7509
▁shaped	-11.7509
▁envisioned	-11.7511
turn	-11.7516
▁mature	-11.7516
▁penny	-11.7517
р	-11.7518
▁40,000	-11.752
▁dolan	-11.7524
left	-11.7524
oma	-11.7525
▁¥12	-11.7526
▁gore	-11.7528
▁boyd	-11.7534
▁1991	-11.7536
▁coins	-11.7539
▁greene	-11.7543
anti	-11.7547
▁grounded	-11.7548
▁pools	-11.7549
▁leonard	-11.7551
▁predictions	-11.7554
▁kidnapped	-11.7554
▁fool	-11.7554
▁makeup	-11.7555
▁graffiti	-11.7555
▁magnetic	-11.7555
▁$19	-11.7556
▁lip	-11.7556
▁pardon	-11.7556
▁laundering	-11.7556
live	-11.7558
▁workforce	-11.7559
▁shutout	-11.756
▁poster	-11.756
▁answering	-11.7561
gumi	-11.7563
▁unrelated	-11.7563
▁viacom	-11.7565
▁aso	-11.7566
▁timetable	-11.7568
▁ducks	-11.7574
nik	-11.7583
▁pioneer	-11.7586
57	-11.7588
▁observe	-11.759
▁exchanged	-11.759
▁35-	-11.759
pet	-11.7591
▁surpass	-11.7591
▁gr	-11.7593
▁jae	-11.7597
▁ethiopia	-11.7597
▁mysterious	-11.7597
▁manual	-11.7598
▁interceptions	-11.7601
▁julian	-11.7603
▁9/11	-11.7603
▁ferrari	-11.7603
▁measuring	-11.7603
▁sequence	-11.7603
▁henoko	-11.7603
▁pra	-11.7606
ffer	-11.7606
▁1.7	-11.7607
▁diagnosed	-11.7608
ple	-11.7609
▁nest	-11.7614
▁woo	-11.7624
▁batter	-11.7626
zen	-11.7627
inger	-11.7627
four	-11.7629
core	-11.7631
▁capitals	-11.7637
▁(5	-11.764
hitter	-11.7642
▁exclude	-11.7643
late	-11.7643
▁guitar	-11.765
▁drunk	-11.7651
▁benghazi	-11.7652
▁trudeau	-11.7652
▁unauthorized	-11.7652
▁montclair	-11.7652
▁curator	-11.7653
▁aerial	-11.7653
▁cornell	-11.7653
ele	-11.7657
sworn	-11.7658
▁slice	-11.7659
▁partially	-11.7661
▁disagreed	-11.7667
▁dvd	-11.7668
▁smallest	-11.7669
▁ian	-11.7675
▁contended	-11.7676
0)	-11.7679
▁michel	-11.7682
▁satisfy	-11.7683
▁newest	-11.7687
▁1:	-11.7687
gr	-11.7692
▁1.6	-11.7699
▁magnet	-11.7701
▁bizarre	-11.7702
▁clutch	-11.7702
▁dignity	-11.7702
▁essence	-11.7702
▁futenma	-11.7702
▁résumé	-11.7702
▁sumitomo	-11.7702
▁vienna	-11.7702
▁hungarian	-11.7702
▁sacred	-11.7702
▁varied	-11.7702
▁chasing	-11.7703
▁hyper	-11.7703
▁powder	-11.7703
▁capability	-11.7703
▁opec	-11.7704
▁dismissal	-11.7704
▁felony	-11.7704
▁johan	-11.7706
▁scarce	-11.7706
▁halfway	-11.7713
▁screaming	-11.7713
▁victoria	-11.7719
▁consultants	-11.7719
▁allegation	-11.772
human	-11.772
▁tighter	-11.7721
▁countryside	-11.7722
come	-11.7722
▁catholics	-11.7726
▁900	-11.7731
hiko	-11.7733
▁keys	-11.7735
▁dealings	-11.7736
▁recommend	-11.7738
service	-11.7739
▁unfortunate	-11.7747
▁warrants	-11.7747
▁emanuel	-11.7752
▁kraft	-11.7752
▁niigata	-11.7752
▁shelves	-11.7752
▁settling	-11.7752
▁richmond	-11.7752
▁[	-11.7752
▁pleasure	-11.7752
▁lining	-11.7752
▁reckless	-11.7754
▁lieberman	-11.7754
▁capped	-11.7755
▁gerald	-11.7755
▁norm	-11.776
▁painter	-11.7764
▁bend	-11.7764
▁unexpectedly	-11.7764
▁revived	-11.7766
▁weird	-11.7769
▁purse	-11.7769
▁spectators	-11.777
used	-11.7772
▁disrupted	-11.7775
▁tightening	-11.7775
▁din	-11.7776
▁logic	-11.7778
▁infant	-11.778
▁resorts	-11.7781
col	-11.7783
trump	-11.7789
interest	-11.7789
▁reads	-11.7789
owner	-11.779
▁6-1	-11.7797
▁sochi	-11.7797
▁audiences	-11.7798
-1)	-11.7799
▁counseling	-11.7799
▁iranians	-11.7799
▁daunting	-11.7802
▁idaho	-11.7802
▁kyushu	-11.7802
▁lighthizer	-11.7802
▁troubling	-11.7802
▁juice	-11.7802
▁overturn	-11.7802
▁proving	-11.7803
▁prohibition	-11.7805
▁continental	-11.7805
▁shouting	-11.781
▁expire	-11.7811
▁1.8	-11.7815
▁forests	-11.7818
▁abduction	-11.7821
aire	-11.7823
▁0.3	-11.7826
▁rosen	-11.7831
bon	-11.7833
91	-11.7836
family	-11.7839
record	-11.7839
▁1964	-11.784
▁charm	-11.784
▁tha	-11.7843
▁paulo	-11.7843
▁mps	-11.7845
09	-11.7846
▁receivers	-11.7847
▁homered	-11.785
▁trauma	-11.7852
▁applause	-11.7852
▁autumn	-11.7852
▁believing	-11.7852
▁huskies	-11.7852
▁medvedev	-11.7852
▁lobbie	-11.7852
▁monica	-11.7852
▁kyodo	-11.7852
▁proposition	-11.7852
▁dramatically	-11.7853
▁ghost	-11.7853
▁sailors	-11.7853
▁unpaid	-11.7854
▁summoned	-11.7856
▁tainted	-11.7857
▁confessed	-11.7857
shirt	-11.7858
▁akin	-11.786
▁grandson	-11.7863
▁101	-11.7867
wal	-11.7868
▁absorb	-11.7871
▁21.	-11.7872
▁attraction	-11.7875
▁mara	-11.7876
▁bla	-11.7878
▁expectation	-11.7878
▁hug	-11.7879
store	-11.7879
▁breathing	-11.7879
▁vol	-11.7886
uz	-11.7887
var	-11.7896
▁casual	-11.7896
▁tweets	-11.7898
▁identical	-11.7902
▁precision	-11.7902
▁unpredictable	-11.7902
▁pistol	-11.7903
▁haram	-11.7904
▁huntington	-11.7904
▁bogey	-11.7908
▁hbo	-11.7908
tive	-11.7908
▁trainees	-11.7909
elected	-11.7912
▁cleaner	-11.7916
-17	-11.7917
▁enabled	-11.7921
▁stall	-11.7921
▁trustee	-11.7927
▁stationed	-11.7929
▁ter	-11.7931
▁shower	-11.7932
chieving	-11.7936
zel	-11.7944
▁beliefs	-11.7946
vy	-11.7949
ign	-11.795
▁tornado	-11.7951
▁rack	-11.7952
site	-11.7953
▁graduation	-11.7953
▁recognizing	-11.7953
▁psychology	-11.7953
▁intimate	-11.7953
▁provocative	-11.7954
▁precious	-11.7954
▁airspace	-11.7955
▁ripped	-11.7957
▁aisle	-11.7959
▁riots	-11.796
▁skies	-11.796
▁beloved	-11.796
▁specialty	-11.7961
▁faulty	-11.7965
both	-11.7967
▁restraint	-11.7968
▁sacks	-11.7973
▁beverage	-11.7976
▁graphic	-11.7976
▁flowing	-11.7981
▁debated	-11.7982
▁dell	-11.7985
▁occupy	-11.7987
▁beard	-11.7992
▁guilt	-11.7999
▁descent	-11.7999
▁emi	-11.8001
▁surplus	-11.8002
▁advancing	-11.8004
▁inevitably	-11.8004
▁practicing	-11.8004
▁tragic	-11.8004
▁oracle	-11.8004
▁kuroda	-11.8004
▁karachi	-11.8005
▁flies	-11.8006
▁compar	-11.8007
▁subjected	-11.8007
▁boris	-11.8007
51	-11.8013
▁hurdles	-11.8014
tas	-11.8014
▁tricky	-11.8014
▁blake	-11.8014
▁bath	-11.8015
eck	-11.8021
▁playhouse	-11.8021
▁layup	-11.8024
▁prevail	-11.8024
wash	-11.8026
edge	-11.8027
▁arc	-11.8027
sey	-11.8027
▁lesbian	-11.8028
▁precinct	-11.8028
▁subscription	-11.8028
▁consultation	-11.8028
▁abdel	-11.8029
▁durant	-11.803
▁trades	-11.8033
▁alarmed	-11.8033
risk	-11.8034
▁steering	-11.8035
ough	-11.8041
appointed	-11.8042
▁execute	-11.8046
workers	-11.8046
open	-11.8047
▁crunch	-11.8053
5)	-11.8054
▁avalanche	-11.8056
▁graduating	-11.8056
▁identities	-11.8056
▁memorandum	-11.8056
▁portuguese	-11.8056
▁vintage	-11.8056
▁snyder	-11.8056
▁toshiba	-11.8056
▁applies	-11.8056
▁meiji	-11.8056
▁adrian	-11.8057
▁1963	-11.8057
▁mai	-11.8057
▁jorge	-11.8058
▁achievements	-11.806
▁shirts	-11.8061
ius	-11.8065
▁bunker	-11.8065
▁dispatch	-11.8066
▁17.	-11.8066
▁richest	-11.8068
▁desperately	-11.8068
got	-11.8069
▁shar	-11.8069
▁1994,	-11.807
dr	-11.8071
▁inadequate	-11.8071
▁backward	-11.8073
▁cleric	-11.8078
ral	-11.8079
mura	-11.808
▁partnerships	-11.808
▁insurer	-11.8081
▁adventure	-11.8082
▁sw	-11.8085
▁nail	-11.8085
▁tumbled	-11.8086
▁tankers	-11.8091
▁texans	-11.8091
▁len	-11.8092
▁34,	-11.8094
nic	-11.8096
▁nutrition	-11.8096
▁expose	-11.8099
▁98	-11.8102
▁lan	-11.8102
▁infections	-11.8104
▁pedro	-11.8107
▁arch	-11.8107
▁dhabi	-11.8107
▁emmanuel	-11.8107
▁kawasaki	-11.8107
▁measles	-11.8107
▁moratorium	-11.8107
▁cotton	-11.8107
▁sponsorship	-11.8108
▁wrestling	-11.8108
▁leather	-11.8109
▁$50,000	-11.8111
cia	-11.8111
▁academics	-11.8112
matsu	-11.8112
▁catches	-11.8119
iron	-11.812
▁manga	-11.8121
cell	-11.8122
▁2:	-11.8123
▁1992,	-11.8129
▁booming	-11.8132
▁evangelical	-11.8133
,700	-11.8135
▁undergoing	-11.8136
▁moss	-11.8137
▁troop	-11.814
sports	-11.8141
ea	-11.8143
▁pledges	-11.8145
▁stein	-11.8146
▁hispanics	-11.8147
▁factions	-11.8147
▁contends	-11.8148
á	-11.8149
▁ir	-11.815
hart	-11.8153
▁logan	-11.8156
▁tibet	-11.8157
▁sm	-11.8158
▁sometime	-11.8158
▁contamination	-11.8159
▁disturbing	-11.8159
▁revolt	-11.8159
▁gallons	-11.816
▁simultaneously	-11.8161
▁worrying	-11.8161
▁heaven	-11.8161
▁jake	-11.8161
▁karen	-11.8162
▁browser	-11.8162
▁frequency	-11.8163
▁raiders	-11.8164
▁exclusively	-11.8168
▁analyzed	-11.8173
▁fog	-11.8173
aya	-11.8174
bell	-11.8175
▁mechanical	-11.8176
▁permanently	-11.8182
▁1-	-11.8186
▁syndicate	-11.8186
▁objected	-11.8189
▁technically	-11.819
▁assure	-11.82
▁stabilize	-11.8201
bert	-11.8201
make	-11.8205
hal	-11.8205
–	-11.8211
▁enabling	-11.8211
▁injunction	-11.8211
▁paramount	-11.8211
▁restoring	-11.8211
▁stuart	-11.8211
▁embarrassment	-11.8211
▁disposal	-11.8211
▁implementation	-11.8212
▁pref	-11.8212
▁1966	-11.8213
▁loop	-11.8214
▁constructed	-11.8217
juring	-11.8219
▁deported	-11.822
▁amendments	-11.8222
▁1973	-11.8223
▁spacex	-11.8224
▁medicines	-11.8225
▁defect	-11.8231
▁appointments	-11.8231
▁processed	-11.8231
▁pale	-11.8233
▁$75	-11.8237
▁instruction	-11.8239
share	-11.8243
▁settings	-11.8244
post	-11.8245
scoring	-11.8245
▁27-	-11.8248
awi	-11.8248
leading	-11.825
▁gan	-11.8251
▁qui	-11.8251
border	-11.8253
zan	-11.8254
▁donate	-11.8256
▁105	-11.8257
mmer	-11.8257
▁employs	-11.8263
▁proposing	-11.8263
▁schwartz	-11.8263
▁arbitration	-11.8263
▁availability	-11.8263
▁boots	-11.8264
▁disastrous	-11.8264
▁msnbc	-11.8265
▁diaz	-11.8265
▁southwestern	-11.8265
▁katz	-11.8265
▁0.5	-11.8266
▁hayes	-11.8267
▁rented	-11.8268
▁exhausted	-11.8268
▁scoreless	-11.8269
▁nova	-11.8269
▁skip	-11.8271
▁browne	-11.8271
working	-11.8273
▁timeline	-11.8278
fired	-11.8279
non	-11.8287
▁devote	-11.8289
▁1995,	-11.8289
▁denial	-11.8292
▁motorcycle	-11.8292
▁blanket	-11.8293
▁landlord	-11.8293
▁bout	-11.8293
gel	-11.8296
▁scam	-11.8297
▁broadcasters	-11.8297
▁figur	-11.8298
▁luke	-11.83
source	-11.8303
nuclear	-11.8303
although	-11.8304
▁traditions	-11.8304
▁tablets	-11.8307
▁putt	-11.8307
▁founders	-11.8308
▁24.	-11.8308
▁corrections	-11.831
.&	-11.8312
▁carpenter	-11.8316
▁congestion	-11.8316
▁lavrov	-11.8316
▁mercury	-11.8316
▁throat	-11.8316
▁lebron	-11.8316
▁travis	-11.8316
▁tamil	-11.8317
▁intersection	-11.8317
▁theories	-11.8317
▁$500,000	-11.8317
▁simpson	-11.8317
▁mold	-11.8318
▁organs	-11.8319
▁piano	-11.832
▁armored	-11.8322
▁recreational	-11.8324
miss	-11.8326
gram	-11.8329
▁paused	-11.8329
▁assemblyman	-11.8332
▁dash	-11.8335
▁substances	-11.8337
▁cure	-11.8339
▁hon	-11.8343
▁preference	-11.8347
russia	-11.8352
▁wounding	-11.8353
▁nominees	-11.8356
▁propell	-11.8356
▁bite	-11.836
▁arise	-11.8361
▁mergers	-11.8363
▁loft	-11.8365
▁julie	-11.8365
▁upside	-11.8368
▁bloom	-11.8368
came	-11.8369
▁intriguing	-11.8369
▁kushner	-11.8369
▁hofstra	-11.8369
▁warfare	-11.8369
▁forehand	-11.8369
▁microphone	-11.8369
▁¥6	-11.8369
▁cried	-11.8369
▁miura	-11.8369
▁brutality	-11.837
sure	-11.8371
▁1948	-11.8371
▁makeshift	-11.8371
mine	-11.8371
▁keyboard	-11.8372
step	-11.8375
▁fin	-11.8376
▁colony	-11.8376
▁releases	-11.8377
▁busch	-11.838
gun	-11.8383
▁overseen	-11.8386
▁lar	-11.8386
▁gloves	-11.8387
cio	-11.8389
▁nan	-11.8389
▁decent	-11.8392
▁$1.1	-11.8394
▁225	-11.8399
▁renovation	-11.84
▁commentator	-11.8402
▁loses	-11.8403
digit	-11.8409
▁adjustments	-11.8414
south	-11.8421
▁thrust	-11.8422
▁proxy	-11.8422
▁flint	-11.8422
▁undermining	-11.8422
▁expelled	-11.8422
▁verge	-11.8423
▁ridiculous	-11.8424
▁carpet	-11.8424
▁pew	-11.8428
▁consolidated	-11.8429
▁von	-11.843
idi	-11.8431
▁alike	-11.8432
▁sl	-11.8436
▁kenyan	-11.8437
▁deserved	-11.8438
▁dive	-11.8439
▁regulated	-11.844
setting	-11.8443
▁contents	-11.8446
▁males	-11.8448
▁ambition	-11.8455
▁consequence	-11.8455
▁survivor	-11.8456
6)	-11.8457
▁2030	-11.8459
wo	-11.8459
▁pe	-11.8461
food	-11.8461
▁striker	-11.8463
bats	-11.8466
▁arrange	-11.8466
▁incoming	-11.8467
▁bypass	-11.8468
▁trailer	-11.8468
▁siege	-11.8471
▁relentless	-11.8475
▁summary	-11.8476
▁wagner	-11.8476
▁nashville	-11.8476
▁unofficial	-11.8477
▁shutting	-11.8478
▁scottish	-11.8479
▁poly	-11.8479
▁hallway	-11.848
▁intentionally	-11.848
▁illustrated	-11.8484
▁venues	-11.8484
▁transitional	-11.8485
▁binding	-11.8485
▁1976	-11.8491
▁aligned	-11.8491
▁greeting	-11.8491
▁humble	-11.8493
▁prey	-11.8506
lle	-11.8507
▁stronghold	-11.851
lad	-11.851
▁delegate	-11.8511
02	-11.8513
52	-11.8516
▁candy	-11.8519
▁sr	-11.8523
▁brilliant	-11.8524
▁statistical	-11.8524
▁gabriel	-11.8529
▁bankrupt	-11.8529
▁cinema	-11.8529
▁automated	-11.8529
▁clarify	-11.8529
▁consolidation	-11.8529
▁corzine	-11.8529
▁electorate	-11.8529
▁impoverished	-11.8529
▁legitimacy	-11.8529
▁ralph	-11.8529
▁reversal	-11.8529
▁scalia	-11.8529
▁hydrogen	-11.8529
▁prudential	-11.8529
▁packaging	-11.8529
▁overly	-11.8531
▁racetrack	-11.8532
▁chapel	-11.8532
▁dividends	-11.8532
▁shattered	-11.8533
▁acid	-11.8533
▁illnesses	-11.8534
wall	-11.8537
▁scrambled	-11.8538
▁15,000	-11.8539
▁36,	-11.8541
sim	-11.8541
given	-11.8541
▁13,	-11.8543
blaming	-11.855
rou	-11.8551
▁relax	-11.8551
▁monte	-11.8552
▁slovakia	-11.8554
▁watches	-11.8554
▁dump	-11.8556
▁suspicions	-11.8556
▁kir	-11.8556
hat	-11.8558
▁raided	-11.8565
▁cracked	-11.8569
could	-11.857
▁reinforce	-11.8573
▁prosecute	-11.8574
▁pets	-11.8574
gro	-11.8574
▁distinct	-11.8576
▁explicit	-11.8578
▁thorough	-11.8578
▁ce	-11.858
▁rot	-11.8581
▁unwilling	-11.8583
▁irving	-11.8583
▁dwindling	-11.8583
▁elimination	-11.8583
▁primaries	-11.8583
▁ankara	-11.8583
chu	-11.8584
▁wreckage	-11.8584
▁drastically	-11.8584
▁remembers	-11.8584
▁pretend	-11.8584
▁interstate	-11.8585
▁renowned	-11.8585
▁directive	-11.8586
▁jumper	-11.8593
▁intercepted	-11.8594
▁airplanes	-11.8595
▁presenting	-11.8598
▁maliki	-11.8599
▁33,	-11.8603
▁lama	-11.8606
▁altered	-11.8611
▁spirits	-11.8612
tur	-11.8613
▁prop	-11.8615
▁accusation	-11.862
▁persist	-11.8627
▁surgeon	-11.8629
▁concentrate	-11.8633
▁500-	-11.8634
▁slap	-11.8636
▁brennan	-11.8638
▁ramirez	-11.8638
▁mugabe	-11.8638
▁meteorological	-11.8638
▁endure	-11.8638
▁naked	-11.8638
▁litter	-11.8639
▁fisheries	-11.8639
▁1947	-11.8639
▁profitability	-11.864
▁circulated	-11.864
▁harper	-11.8641
▁govern	-11.8641
▁countless	-11.8642
▁winston	-11.8642
gri	-11.8645
▁deserves	-11.8647
▁maple	-11.8647
▁batters	-11.865
▁powerhouse	-11.8652
▁cooling	-11.8656
▁35,	-11.8658
▁(2	-11.8662
▁exceeding	-11.8665
▁advocated	-11.8666
▁8-	-11.8667
▁towards	-11.8669
▁masks	-11.8672
▁judged	-11.8672
▁highlighting	-11.8674
▁knees	-11.8675
having	-11.8677
democracy	-11.8679
▁evacuate	-11.8683
rc	-11.8686
▁37,	-11.8686
▁2.2	-11.8688
amp	-11.8691
▁abducted	-11.8692
▁charitable	-11.8692
▁miguel	-11.8692
▁rodgers	-11.8692
▁ontario	-11.8692
▁biography	-11.8693
▁wives	-11.8693
gui	-11.8697
▁clearing	-11.8697
▁salon	-11.8698
▁7-6	-11.87
7)	-11.8704
▁assurances	-11.8704
feld	-11.8704
▁1,0	-11.8705
▁floating	-11.8706
▁stringer	-11.8707
▁stroll	-11.8708
▁reopened	-11.8713
sur	-11.8714
pol	-11.8716
▁withdrawn	-11.8716
▁aunt	-11.8716
▁fixing	-11.8716
holder	-11.8721
adi	-11.8724
▁stamps	-11.8725
▁125	-11.8729
▁wil	-11.873
ological	-11.873
▁elephant	-11.8731
▁lighting	-11.8734
▁suppress	-11.8734
lis	-11.8739
disciplinary	-11.8747
▁apparel	-11.8747
▁bratton	-11.8747
▁curriculum	-11.8747
▁petraeus	-11.8747
▁shibuya	-11.8747
▁embracing	-11.8747
▁instability	-11.8747
▁hicks	-11.8747
▁eddie	-11.8748
▁potent	-11.8748
▁copper	-11.8748
▁evolutionary	-11.8748
mor	-11.8749
▁wished	-11.8749
▁heroes	-11.8752
▁berg	-11.8753
▁initiated	-11.8756
▁reinforced	-11.8757
kind	-11.8761
▁rand	-11.8763
▁indexes	-11.8765
br	-11.8766
▁maneuver	-11.8768
▁bids	-11.877
▁7,000	-11.8771
▁springs	-11.8772
▁enforced	-11.8774
eng	-11.8774
front	-11.8776
▁puzzle	-11.8777
▁trap	-11.878
ipped	-11.878
show	-11.8782
▁awful	-11.8782
▁treasure	-11.8785
verse	-11.8786
▁negotiation	-11.8787
▁om	-11.8793
▁ears	-11.8794
▁constituents	-11.8794
▁levi	-11.8796
ridge	-11.8797
▁deliberate	-11.8799
pal	-11.88
▁$1.4	-11.8801
▁appreciation	-11.8803
▁convenient	-11.8803
▁deflation	-11.8803
▁revenge	-11.8803
▁hitachi	-11.8803
▁nielsen	-11.8803
▁tongue	-11.8803
▁competed	-11.8803
▁hague	-11.8803
▁rides	-11.8803
▁fantastic	-11.8803
▁françois	-11.8804
▁timber	-11.8804
▁$250,000	-11.8804
▁nod	-11.8804
▁catastrophic	-11.8804
▁1956	-11.8805
▁barber	-11.8806
▁outreach	-11.8807
▁battlefield	-11.8807
zar	-11.881
▁arrives	-11.8812
▁excluded	-11.8814
▁$1.6	-11.8815
ense	-11.8818
rant	-11.882
▁(10	-11.8823
▁positioned	-11.8825
▁jobless	-11.8825
▁particles	-11.8826
▁mie	-11.8826
▁vin	-11.8827
▁neo	-11.8828
aba	-11.8829
▁cartoon	-11.8837
▁spiral	-11.8839
62	-11.8839
bomb	-11.8845
▁manufacture	-11.8845
sector	-11.8845
▁turnover	-11.885
▁kon	-11.8852
name	-11.8853
att	-11.8853
kov	-11.8857
utter	-11.8858
▁abraham	-11.8858
▁animated	-11.8858
▁happiness	-11.8858
▁takahashi	-11.8858
▁supervision	-11.8859
▁granderson	-11.8859
▁adopting	-11.8859
▁straw	-11.886
▁courage	-11.8861
▁rescuers	-11.8862
▁promotional	-11.8862
▁90-	-11.8864
▁provoked	-11.8865
▁escalated	-11.8865
▁kerr	-11.8868
▁friedman	-11.8868
▁forged	-11.8872
▁boko	-11.8874
▁raj	-11.8877
▁rage	-11.8878
▁relat	-11.8884
▁tightly	-11.8888
▁vent	-11.889
ean	-11.8899
▁elevator	-11.89
erman	-11.8903
▁reef	-11.8904
▁collateral	-11.8905
▁wip	-11.8906
▁cows	-11.8909
ties	-11.8913
▁curtain	-11.8914
▁emeritus	-11.8914
▁impasse	-11.8914
▁edison	-11.8914
▁resentment	-11.8914
▁$5,000	-11.8915
▁handgun	-11.8915
▁strauss	-11.8917
▁unanimously	-11.8919
▁township	-11.8919
▁roadside	-11.892
▁inherited	-11.8921
▁qu	-11.8921
▁anthem	-11.8922
▁2019,	-11.8922
▁manufactured	-11.8924
▁sil	-11.8924
ique	-11.8925
▁rover	-11.8925
▁youths	-11.8927
▁distinguish	-11.8927
▁sheik	-11.893
rio	-11.8931
▁signaling	-11.8934
▁affects	-11.8936
▁scout	-11.8941
ening	-11.8942
▁mt	-11.8946
filled	-11.8948
▁yasu	-11.8953
▁kent	-11.8958
▁oliver	-11.8961
▁914-	-11.8962
▁amsterdam	-11.897
▁glory	-11.897
▁prominence	-11.897
▁reluctance	-11.897
▁reynolds	-11.897
▁southampton	-11.897
▁sgt	-11.897
▁dependence	-11.8971
▁blatter	-11.8971
▁volatility	-11.8971
▁sympathetic	-11.8971
▁nathan	-11.8971
▁battled	-11.8972
▁ste	-11.8972
rod	-11.8972
esh	-11.8974
▁playground	-11.8974
▁presided	-11.8974
▁handles	-11.8975
▁recounted	-11.8978
▁og	-11.8979
▁lei	-11.8981
▁cannon	-11.8984
▁schedules	-11.8987
▁papa	-11.8989
▁filmed	-11.8989
▁tortured	-11.899
▁reply	-11.899
▁commissioned	-11.8998
▁kam	-11.8998
▁var	-11.8998
▁confronting	-11.9003
▁rooted	-11.9008
▁predecessors	-11.901
▁7.	-11.9012
▁marriages	-11.9013
roots	-11.9014
▁lobbyist	-11.9017
▁anticipate	-11.9017
▁tolerate	-11.9017
▁obscure	-11.9018
▁sensor	-11.9019
blower	-11.902
▁fiorina	-11.9027
▁inaugural	-11.9027
▁lyft	-11.9027
▁sizable	-11.9027
▁cushion	-11.9027
▁imagination	-11.9027
▁lavish	-11.9027
▁policing	-11.9027
▁auburn	-11.9027
▁belmont	-11.9027
▁dictatorship	-11.9027
▁gravity	-11.9028
away	-11.9028
▁gaps	-11.9034
▁jackets	-11.9034
▁jared	-11.9044
going	-11.9045
▁printing	-11.9047
▁appreciated	-11.9047
▁carol	-11.9048
▁scho	-11.9058
isa	-11.906
▁fearful	-11.906
pop	-11.9062
before	-11.907
significant	-11.907
▁exemption	-11.9073
▁$80	-11.9073
▁aviv	-11.9076
▁unite	-11.9078
▁breathe	-11.9079
▁someday	-11.9081
log	-11.9083
▁alibaba	-11.9083
▁halloween	-11.9083
▁hyogo	-11.9083
▁kosovo	-11.9083
▁meddling	-11.9083
▁¥111	-11.9084
▁weiner	-11.9084
▁absurd	-11.9086
▁$700	-11.9086
▁trader	-11.9086
▁heating	-11.9087
▁tau	-11.9089
▁clearance	-11.9089
▁cabin	-11.9091
rise	-11.9092
▁bullying	-11.9095
▁laps	-11.9099
dom	-11.9101
▁forge	-11.9101
▁nat	-11.9101
▁surrendered	-11.9102
▁tam	-11.9102
burn	-11.9103
▁2.3	-11.9103
▁newer	-11.9103
▁scratch	-11.9107
▁cheering	-11.9109
mails	-11.911
▁amy	-11.9112
▁jokes	-11.9113
,200	-11.9114
▁hurdle	-11.9114
▁2.6	-11.9115
aging	-11.9118
▁owe	-11.9119
▁tuck	-11.912
▁somali	-11.912
▁pill	-11.9123
▁shine	-11.9124
public	-11.9124
gawa	-11.9125
▁performers	-11.9126
▁tires	-11.9127
▁tse	-11.9128
dozen	-11.9129
▁chased	-11.9129
▁fer	-11.913
▁album	-11.9131
▁saint	-11.9131
▁confession	-11.9132
▁abilities	-11.9141
▁slept	-11.9141
▁lounge	-11.9141
▁telegraph	-11.9141
▁vargas	-11.9141
▁valentine	-11.9142
▁liquidity	-11.9142
▁canvas	-11.9142
▁iconic	-11.9142
▁bookstore	-11.9142
▁decorated	-11.9142
▁contracted	-11.9142
pec	-11.9144
▁hostages	-11.9147
▁translated	-11.915
▁wales	-11.915
▁promptly	-11.915
▁marie	-11.9152
▁pic	-11.9153
▁themes	-11.9154
▁decides	-11.9154
▁automobiles	-11.9154
▁colombian	-11.9155
ore	-11.9158
▁chunk	-11.9164
▁disclosures	-11.9164
▁framed	-11.9165
▁tales	-11.9165
▁clashed	-11.9167
▁38,	-11.9167
▁suu	-11.9169
▁divorced	-11.9169
ese	-11.9171
▁hatch	-11.9171
▁bee	-11.9173
etic	-11.9175
▁sail	-11.9177
▁installing	-11.9177
▁hack	-11.9177
▁linda	-11.9178
fashioned	-11.9179
word	-11.9182
bedroom	-11.9185
▁rab	-11.9188
▁corridor	-11.9189
▁inconsistent	-11.9192
mori	-11.9197
▁abbott	-11.9198
▁geithner	-11.9198
▁khamenei	-11.9198
▁navigation	-11.9198
▁8:30	-11.9198
▁admiral	-11.9198
▁forensic	-11.9198
▁purple	-11.9198
▁boundaries	-11.9198
▁distinctive	-11.9198
▁enrichment	-11.9198
▁stirred	-11.9198
▁vista	-11.9199
▁livestock	-11.9201
▁1,200	-11.9201
imi	-11.9201
tom	-11.9202
▁interrupted	-11.9203
▁yoga	-11.9205
▁weiss	-11.9207
▁upbeat	-11.9208
▁spi	-11.9212
▁nam	-11.9213
▁sidelined	-11.9214
▁muster	-11.9218
▁announcements	-11.922
▁bang	-11.922
▁idol	-11.9222
▁ivy	-11.9224
nar	-11.9226
▁cm	-11.9228
▁crow	-11.9229
▁punt	-11.9232
▁overhead	-11.9233
▁authoritarian	-11.9234
▁references	-11.9235
▁celebrations	-11.9236
tell	-11.9237
▁intern	-11.9242
check	-11.9243
▁nationality	-11.9243
▁guatemala	-11.9247
▁safeguard	-11.9248
▁cables	-11.9252
▁seated	-11.9252
▁vy	-11.9252
▁consult	-11.9255
▁endowment	-11.9256
▁prostitution	-11.9256
▁alumni	-11.9256
▁santorum	-11.9256
▁ryder	-11.9256
▁romantic	-11.9258
▁slid	-11.9258
▁wears	-11.9259
sho	-11.9259
▁depressed	-11.926
▁traces	-11.926
▁drum	-11.926
▁competitiveness	-11.9261
▁derived	-11.9261
▁explicitly	-11.9262
▁suitable	-11.9263
▁shun	-11.9264
▁chess	-11.9264
▁weber	-11.9269
▁finishes	-11.9271
▁assert	-11.9276
▁proponents	-11.9277
▁$600	-11.9283
▁$23	-11.9284
▁successes	-11.9284
▁admits	-11.9288
▁input	-11.9292
▁oral	-11.9292
▁destroying	-11.9295
▁glenn	-11.9299
yer	-11.9301
▁specifics	-11.9304
▁bug	-11.9306
▁thorn	-11.9306
▁blogger	-11.9308
▁plaintiff	-11.9309
▁sword	-11.9309
▁deepen	-11.931
▁capt	-11.931
▁pep	-11.9311
▁alzheimer	-11.9314
▁unesco	-11.9314
▁welcoming	-11.9314
▁genetically	-11.9315
▁composed	-11.9315
▁thirty	-11.9316
▁takata	-11.9316
▁brisk	-11.9316
▁renewal	-11.9317
▁kickoff	-11.9318
▁dragon	-11.9321
▁vanished	-11.9322
▁respects	-11.9326
▁jin	-11.9329
▁contests	-11.9329
▁freeman	-11.9332
▁assessments	-11.9336
▁booker	-11.9338
▁$24	-11.9341
▁buys	-11.9342
▁undercover	-11.9342
▁solved	-11.9344
▁dose	-11.9345
▁kyi	-11.9349
▁concerts	-11.9355
▁mosques	-11.9356
▁hut	-11.9358
▁54,	-11.9359
▁flaws	-11.936
ago	-11.9364
▁aided	-11.9366
▁psychologist	-11.9367
▁fortunate	-11.9367
▁lied	-11.9371
never	-11.9372
▁drastic	-11.9372
ão	-11.9373
▁anticipation	-11.9373
▁baghouz	-11.9373
▁hsbc	-11.9373
▁manipulation	-11.9373
▁nasdaq	-11.9373
▁wilpon	-11.9373
▁aggression	-11.9373
▁entrenched	-11.9374
▁lockout	-11.9374
▁rode	-11.9375
▁symphony	-11.9375
▁fairway	-11.9375
▁bible	-11.9377
▁mayo	-11.9379
▁designation	-11.938
▁chargers	-11.9381
▁directions	-11.9382
▁interpreted	-11.9384
▁marr	-11.9384
▁1993,	-11.9385
▁mack	-11.9385
▁hitler	-11.9388
▁sliding	-11.9392
quarters	-11.9399
dominated	-11.9399
▁rex	-11.9402
▁hats	-11.9407
▁jal	-11.941
▁jeans	-11.9411
▁workout	-11.9411
▁historians	-11.9412
▁thanked	-11.9418
child	-11.9419
▁evolve	-11.9422
▁yak	-11.9423
▁showa	-11.9423
▁interrogation	-11.9427
▁landslide	-11.9427
▁creatures	-11.9427
▁advertisement	-11.9427
▁relation	-11.9428
▁archdiocese	-11.9431
▁arguably	-11.9431
▁artillery	-11.9431
▁bachelor	-11.9431
▁hopkins	-11.9431
▁starbucks	-11.9431
▁digging	-11.9432
▁flagship	-11.9432
▁thaksin	-11.9433
▁hogan	-11.9434
▁exceptions	-11.9434
▁jacksonville	-11.9434
▁fedex	-11.9434
▁lance	-11.9437
▁swap	-11.9439
▁accidentally	-11.944
▁improperly	-11.944
▁25,000	-11.944
▁kicking	-11.944
▁carmakers	-11.9441
▁pipes	-11.9441
▁unfolded	-11.9441
keeper	-11.9444
▁forbes	-11.9445
▁ipod	-11.9448
▁prone	-11.9449
▁envelope	-11.9452
▁lamb	-11.9453
▁hinted	-11.946
▁wheels	-11.9462
▁$70	-11.9469
▁bureaucrats	-11.9471
strong	-11.9471
▁rewards	-11.9472
lum	-11.9473
▁ros	-11.9475
anna	-11.9477
bach	-11.9478
▁wong	-11.948
▁interfere	-11.9481
▁supplement	-11.9484
call	-11.9485
▁romania	-11.9486
▁touching	-11.9487
▁flows	-11.9487
fall	-11.9488
▁outdoors	-11.9488
▁contingent	-11.9491
▁defining	-11.9491
▁grapple	-11.9491
▁ligament	-11.9491
▁uncommon	-11.9491
▁garment	-11.9492
▁horrible	-11.9492
▁erik	-11.9493
▁danish	-11.9494
▁midway	-11.9494
▁360	-11.9497
▁novak	-11.9497
▁(12	-11.95
▁nasty	-11.95
▁$27	-11.95
▁calculations	-11.9501
▁pills	-11.9501
▁whoever	-11.9504
▁bah	-11.9512
went	-11.9514
▁reds	-11.9514
horn	-11.9517
▁crush	-11.9521
▁wedge	-11.9523
▁assisted	-11.9523
▁janet	-11.9525
▁baseline	-11.9525
▁tomb	-11.9529
▁recordings	-11.9532
▁strengthened	-11.9533
▁overthrow	-11.9533
▁characteristics	-11.9537
▁auctions	-11.9538
8)	-11.954
▁scramble	-11.954
▁noah	-11.9545
▁premature	-11.9545
▁multinational	-11.9547
▁console	-11.9547
▁quotas	-11.9548
▁blockbuster	-11.955
▁deteriorating	-11.955
▁ignoring	-11.955
▁jakarta	-11.955
▁misdemeanor	-11.955
▁riyadh	-11.955
▁vacuum	-11.955
▁margaret	-11.955
▁orientation	-11.955
▁serial	-11.955
▁consciousness	-11.9551
▁bedford	-11.9551
▁sketch	-11.9551
▁pleasant	-11.9551
▁seafood	-11.9551
active	-11.9552
▁hansen	-11.9552
▁nafta	-11.9553
▁defeating	-11.9554
▁obtaining	-11.9557
▁wield	-11.9563
▁beers	-11.9563
▁mayors	-11.9565
▁alleg	-11.9567
sum	-11.9568
▁downside	-11.9575
▁ailing	-11.9584
▁supposedly	-11.959
▁urges	-11.9591
▁rub	-11.9592
▁mint	-11.9594
ller	-11.9595
wen	-11.9599
ender	-11.9601
postwar	-11.9602
▁dressing	-11.9603
▁rifles	-11.9604
▁withdrawing	-11.9604
▁pedestrian	-11.9609
▁transcript	-11.9609
▁abdication	-11.961
▁cyprus	-11.961
▁slalom	-11.961
▁lockheed	-11.961
▁kuwait	-11.961
▁pedal	-11.961
▁marbury	-11.961
▁captive	-11.9611
▁($3	-11.9611
god	-11.9612
▁observer	-11.9613
▁redstone	-11.9613
force	-11.9613
▁chanted	-11.9618
▁signatures	-11.9619
▁easter	-11.9621
▁indefinitely	-11.9626
funded	-11.9628
▁sailing	-11.963
▁rated	-11.9635
eye	-11.9637
▁businessmen	-11.9638
▁walt	-11.9643
▁rangel	-11.9648
brook	-11.9654
donnell	-11.9654
lies	-11.9655
▁shan	-11.9655
storm	-11.9657
▁liver	-11.9658
▁disadvantage	-11.966
▁ruin	-11.9664
clock	-11.9665
▁assumption	-11.967
▁airbnb	-11.967
▁atmospheric	-11.967
▁hewlett	-11.967
▁prejudice	-11.967
▁sacramento	-11.967
▁donovan	-11.967
▁prototype	-11.967
▁resolving	-11.9671
▁landfill	-11.9671
▁petersburg	-11.9671
▁poetry	-11.9671
▁destroyer	-11.9671
▁interpreter	-11.9673
▁bucket	-11.9675
▁1920	-11.9677
▁descended	-11.9677
▁225-	-11.9677
▁sheer	-11.9678
uf	-11.9678
▁jamal	-11.968
▁administered	-11.9681
uni	-11.9682
▁rows	-11.9683
strom	-11.9683
▁shaw	-11.9685
▁departing	-11.9685
▁wipe	-11.9689
▁scha	-11.969
▁deepening	-11.9691
▁dear	-11.9691
▁macy	-11.9694
▁8,000	-11.9696
▁lightly	-11.9697
ath	-11.9698
▁(7	-11.9701
hoe	-11.9703
▁rats	-11.9705
▁advises	-11.9706
reaching	-11.9707
hoo	-11.9709
ees	-11.9709
▁fade	-11.9715
▁leaking	-11.9717
stroke	-11.9717
▁marvel	-11.9718
▁fumble	-11.9721
uchi	-11.9723
iva	-11.9725
▁volumes	-11.9725
▁exempt	-11.9726
▁swings	-11.9727
▁psychiatri	-11.973
▁enters	-11.973
▁gillibrand	-11.9731
▁rachel	-11.9731
▁footprint	-11.9731
▁rampant	-11.9731
shin	-11.9732
pur	-11.9733
▁codes	-11.9733
▁prediction	-11.9734
▁accountant	-11.9736
▁artistic	-11.9737
▁bas	-11.9738
▁pr	-11.9738
▁worsened	-11.9743
▁traced	-11.9744
type	-11.9744
▁hamid	-11.9746
▁prohibits	-11.9749
▁protesting	-11.975
▁tire	-11.9751
▁designers	-11.9753
pel	-11.9754
▁extends	-11.9754
thank	-11.9755
▁seasonal	-11.9759
▁neal	-11.976
▁1997.	-11.9763
▁stunt	-11.9763
▁smugglers	-11.9768
▁crab	-11.9771
mis	-11.9773
▁archives	-11.9776
▁commute	-11.9778
▁bands	-11.978
proof	-11.9781
▁whit	-11.9782
▁predicting	-11.9783
▁translate	-11.9784
▁$2.5	-11.979
▁delight	-11.979
atic	-11.979
▁advis	-11.9791
breaking	-11.9791
▁bleeding	-11.9792
▁celsius	-11.9792
▁collaborate	-11.9792
▁creativity	-11.9792
▁cockpit	-11.9792
▁unnamed	-11.9792
▁cnbc	-11.9792
▁unlawful	-11.9793
tat	-11.9793
▁thumb	-11.9794
▁williamsburg	-11.9794
▁fairness	-11.9799
▁killers	-11.98
▁departed	-11.9802
change	-11.9802
▁oceans	-11.9807
▁strictly	-11.9808
▁switching	-11.9808
▁26-	-11.981
▁tightened	-11.981
▁occurs	-11.9813
▁vonn	-11.9815
oni	-11.9816
▁enjoys	-11.9819
,400	-11.9822
▁summers	-11.9825
▁mock	-11.9825
dell	-11.9827
▁bump	-11.9832
▁sums	-11.9832
▁shall	-11.9832
▁¥10	-11.9838
▁mao	-11.9839
▁kazu	-11.984
▁pav	-11.9841
▁sim	-11.9841
▁separatists	-11.9842
▁ancestors	-11.9843
▁destinations	-11.9845
▁strangers	-11.9847
▁monarch	-11.9848
▁profound	-11.9848
▁buoy	-11.9853
▁staunch	-11.9853
▁flurry	-11.9853
▁hemisphere	-11.9853
▁presiding	-11.9853
▁rockefeller	-11.9853
▁capsule	-11.9853
▁zuckerberg	-11.9853
▁clever	-11.9853
▁skipped	-11.9853
▁heavyweight	-11.9854
▁shaky	-11.9854
▁exert	-11.9855
▁commemorate	-11.9855
▁schneiderman	-11.9856
▁legislator	-11.9857
▁leo	-11.9857
▁credits	-11.9857
cle	-11.9858
una	-11.9861
▁floated	-11.9863
▁dodd	-11.9863
▁goodell	-11.9864
2.5	-11.9864
▁hum	-11.9865
▁tohoku	-11.9866
▁boot	-11.9867
▁strikeouts	-11.9868
▁builders	-11.9869
▁les	-11.9872
▁bowles	-11.9873
▁compell	-11.988
try	-11.9884
▁server	-11.989
lov	-11.9896
▁guarded	-11.9897
rock	-11.9901
▁intercept	-11.9901
library	-11.9902
▁0.4	-11.9905
▁admire	-11.9905
▁fond	-11.9914
▁appellat	-11.9915
▁baptist	-11.9915
▁mcilroy	-11.9915
▁suárez	-11.9915
▁acquitted	-11.9915
▁darfur	-11.9915
▁surging	-11.9915
▁whitney	-11.9915
▁tendency	-11.9915
▁carmelo	-11.9916
▁swine	-11.9916
▁monster	-11.9918
▁golfers	-11.9918
▁23.	-11.9918
▁monopoly	-11.9919
▁distraction	-11.9919
▁superstar	-11.992
▁1⁄2	-11.992
▁devised	-11.9921
▁brave	-11.9925
▁plight	-11.9926
ranging	-11.9928
▁¥110.	-11.9928
▁1,5	-11.9936
-22	-11.9939
▁lid	-11.994
▁rational	-11.994
▁rebounded	-11.9949
▁jihad	-11.9952
ctor	-11.9955
▁1999.	-11.9961
▁patricia	-11.9961
▁(9	-11.9962
aq	-11.9963
expected	-11.9964
▁wreck	-11.9964
women	-11.9964
▁kate	-11.9966
▁reassure	-11.9967
paul	-11.997
▁goat	-11.9975
graph	-11.9975
▁intimidation	-11.9977
▁montgomery	-11.9977
▁rebellion	-11.9977
▁blackhawks	-11.9977
▁burress	-11.9977
▁christchurch	-11.9977
▁dalai	-11.9977
▁authorization	-11.9979
▁underdog	-11.998
▁2.1	-11.9982
▁indicator	-11.9982
▁soda	-11.9984
▁tur	-11.9985
gli	-11.9986
ose	-11.9989
▁39,	-11.9991
▁hugo	-11.9991
▁seller	-11.9994
▁enhanced	-11.9997
▁jihadi	-11.9999
▁troy	-12
lessness	-12.0001
▁washed	-12.0005
alyzing	-12.0017
▁stretching	-12.0022
▁trainers	-12.0028
rating	-12.0029
▁memorable	-12.0039
▁watanabe	-12.0039
▁abstract	-12.0039
▁tinker	-12.004
▁mavericks	-12.004
▁transferring	-12.0041
hir	-12.0041
▁1961	-12.0041
▁pedestrians	-12.0041
▁senard	-12.0041
▁tactical	-12.0041
▁rattled	-12.0043
▁sanford	-12.0044
▁scary	-12.0045
▁homicide	-12.0046
▁evade	-12.0046
▁bloggers	-12.0047
▁41,	-12.0047
▁merchant	-12.0048
▁43,	-12.0048
▁mash	-12.0049
▁abide	-12.005
▁browns	-12.0052
▁alley	-12.0053
▁ike	-12.0055
▁cheating	-12.0057
▁kang	-12.0057
▁monk	-12.0058
does	-12.0061
hai	-12.0061
▁architects	-12.0062
▁cite	-12.0067
▁59,	-12.0068
▁placement	-12.0071
▁aung	-12.0074
▁clan	-12.0082
sub	-12.0084
▁seniors	-12.0087
books	-12.009
▁weed	-12.0091
▁por	-12.0092
▁rebuke	-12.0092
other	-12.0093
gas	-12.0094
▁tattoo	-12.0097
▁mut	-12.0099
▁calhoun	-12.0102
▁confined	-12.0102
▁kazakhstan	-12.0102
▁mahathir	-12.0102
▁seldom	-12.0102
▁cybersecurity	-12.0102
▁remarkably	-12.0103
▁gakuen	-12.0103
▁prints	-12.0103
▁peacekeeping	-12.0103
▁nightclub	-12.0103
▁vault	-12.0104
▁potatoes	-12.0104
▁obliged	-12.0107
▁toppled	-12.0108
▁invented	-12.0108
▁overlooked	-12.0109
▁55,	-12.011
▁shelling	-12.0111
▁xiao	-12.0116
▁stranger	-12.012
boat	-12.012
▁lew	-12.0126
nor	-12.0129
▁undermined	-12.0132
▁condemn	-12.0133
▁yielded	-12.0136
▁bart	-12.0138
▁shade	-12.0139
▁logical	-12.014
lou	-12.014
380	-12.0141
▁swat	-12.0143
▁jaw	-12.0147
▁bolstered	-12.0149
space	-12.0149
▁48,	-12.0157
ido	-12.016
▁morales	-12.0162
▁roller	-12.0162
▁pond	-12.0164
▁peaked	-12.0165
▁expedition	-12.0166
▁gibson	-12.0166
▁quebec	-12.0166
▁skull	-12.0166
▁crosby	-12.0166
▁infectious	-12.0166
▁imprisonment	-12.0166
▁kathleen	-12.0166
▁bradford	-12.0166
▁minaya	-12.0166
▁condemnation	-12.0167
▁ghana	-12.0167
▁revisions	-12.0168
▁lynn	-12.0168
▁surname	-12.0168
▁plummeted	-12.0169
sol	-12.0169
▁instrument	-12.017
▁kindle	-12.017
▁elliott	-12.017
▁fractured	-12.017
▁invoked	-12.0171
▁stray	-12.0175
▁filipino	-12.0175
▁newman	-12.0175
▁campuses	-12.0176
▁interaction	-12.0176
▁sumo	-12.0177
▁adjustment	-12.0178
▁checkpoint	-12.0179
▁squeezed	-12.018
▁myth	-12.018
▁gran	-12.0183
▁quot	-12.0186
▁$55	-12.0189
▁disciplined	-12.0194
▁newcomers	-12.0196
lyn	-12.0196
▁lind	-12.0197
anne	-12.0201
aga	-12.0202
▁branded	-12.0204
▁frankly	-12.0208
▁premiere	-12.0214
▁203-	-12.0216
yeah	-12.0217
▁thwart	-12.0217
super	-12.0222
▁gradual	-12.0224
▁monkeys	-12.0224
paying	-12.0225
▁46,	-12.0227
▁ariz	-12.0227
д	-12.0229
▁birmingham	-12.0229
▁extremism	-12.0229
▁gossip	-12.0229
▁malcolm	-12.0229
▁mccann	-12.0229
▁punitive	-12.0229
▁schultz	-12.0229
▁abusive	-12.0229
▁balancing	-12.0229
▁osama	-12.0229
▁lindsey	-12.0229
▁nokia	-12.0229
▁cruel	-12.0229
▁approving	-12.0229
▁tebow	-12.023
▁skirt	-12.023
▁lyon	-12.023
▁gem	-12.0233
▁gaze	-12.0236
▁certainty	-12.0236
▁thoroughly	-12.0236
▁skiing	-12.0236
▁hunters	-12.0238
▁creator	-12.024
oda	-12.024
▁sag	-12.024
▁wrap	-12.0241
▁sharks	-12.0241
▁в	-12.0242
▁consulted	-12.0243
▁surpassed	-12.0246
▁artifacts	-12.0252
▁rewarded	-12.0255
▁commentators	-12.0256
nel	-12.0256
▁ascend	-12.0261
▁est	-12.0263
▁ransom	-12.0263
▁ser	-12.0263
date	-12.0264
▁pros	-12.0266
using	-12.0267
▁chin	-12.0267
flight	-12.0268
▁51,	-12.0268
▁2.4	-12.0271
▁replica	-12.0275
▁announcer	-12.0276
deep	-12.0277
jima	-12.0277
ras	-12.0277
_	-12.028
▁kato	-12.0282
ax	-12.0283
▁facilitate	-12.0288
▁croatia	-12.0288
▁merge	-12.0289
▁diamonds	-12.0291
▁pas	-12.0291
▁kindergarten	-12.0293
▁elusive	-12.0293
▁4:30	-12.0293
▁5:30	-12.0293
▁garrett	-12.0293
▁villanova	-12.0293
▁censorship	-12.0294
▁deferred	-12.0294
▁woodstock	-12.0294
▁admitting	-12.0294
▁exceptional	-12.0295
▁gunshot	-12.0295
▁readily	-12.0295
▁delaying	-12.0296
▁grind	-12.0297
▁sana	-12.0297
▁lighter	-12.0299
▁muscles	-12.0299
▁meltdown	-12.0305
▁instantly	-12.0306
▁revelation	-12.0306
▁guides	-12.0306
31)	-12.0306
wick	-12.031
▁portions	-12.0311
ault	-12.0312
national	-12.0314
▁fundamentally	-12.0318
▁scholarships	-12.032
▁amend	-12.0323
▁asserting	-12.0325
▁greet	-12.0329
▁fold	-12.0333
kim	-12.0333
▁fil	-12.0339
hold	-12.0339
▁franco	-12.0345
▁interpret	-12.0346
▁patrols	-12.0346
▁boo	-12.0347
baum	-12.0351
▁insects	-12.0352
▁53,	-12.0355
▁flor	-12.0356
▁discretion	-12.0357
▁elegant	-12.0358
▁santiago	-12.0358
▁syndrome	-12.0358
▁undefeated	-12.0358
▁morocco	-12.0358
▁traffickers	-12.0358
rak	-12.0358
▁chorus	-12.0358
▁tackling	-12.0358
▁traction	-12.0358
▁sedan	-12.0359
▁preserving	-12.0359
▁1962	-12.0359
▁feedback	-12.036
▁travels	-12.036
▁antigovernment	-12.0361
▁overshadowed	-12.0362
▁suited	-12.0363
▁yong	-12.0365
▁blogs	-12.0365
▁remainder	-12.0366
▁broadcasts	-12.0368
▁ministerial	-12.037
▁steroid	-12.0373
▁growers	-12.0375
▁uighurs	-12.0379
▁trails	-12.0382
ifying	-12.0384
▁whereas	-12.0389
sai	-12.0389
cross	-12.0392
▁container	-12.0395
▁mia	-12.0396
▁saudis	-12.0398
▁snake	-12.0398
▁exporters	-12.0399
▁kara	-12.0399
▁65,	-12.0405
around	-12.0406
▁bean	-12.0407
▁golfer	-12.0409
-40	-12.041
whether	-12.041
judge	-12.041
▁(11	-12.0411
ction	-12.0412
▁calculate	-12.0414
▁$32	-12.0419
+	-12.0423
у	-12.0423
▁emphasizing	-12.0423
▁galleries	-12.0423
▁grappling	-12.0423
▁havana	-12.0423
▁stalemate	-12.0423
▁tuberculosis	-12.0423
▁evasion	-12.0423
▁hashtag	-12.0423
▁wyoming	-12.0423
▁sergio	-12.0423
▁architectural	-12.0423
▁panetta	-12.0423
▁ladder	-12.0423
▁gdp	-12.0423
▁bureaucratic	-12.0423
▁legendary	-12.0424
▁battleground	-12.0424
▁lump	-12.0424
▁drunken	-12.0424
▁sensitivity	-12.0425
▁mortar	-12.0426
kha	-12.0426
▁mentality	-12.0427
▁embarrassed	-12.0427
▁mobil	-12.0429
▁2,500	-12.0429
▁thrilled	-12.0433
▁60,000	-12.0436
▁pouring	-12.0437
05	-12.044
▁davidson	-12.044
▁poles	-12.044
▁grilled	-12.044
▁medalist	-12.0441
gna	-12.0445
▁bothered	-12.0447
▁(18	-12.0448
▁$65	-12.045
eva	-12.045
spiring	-12.0453
▁breeding	-12.0454
▁3.3	-12.0464
▁wy	-12.0465
▁haul	-12.0465
▁imagined	-12.0465
▁requesting	-12.0466
▁jockey	-12.0469
▁acknowledges	-12.0471
▁commanding	-12.0472
please	-12.0476
▁beneficiaries	-12.0488
▁eligibility	-12.0488
▁grief	-12.0488
▁poroshenko	-12.0488
▁qualcomm	-12.0488
▁tycoon	-12.0488
▁coffin	-12.0488
▁steak	-12.0488
▁paramilitary	-12.0488
▁centrist	-12.0488
▁occurring	-12.0489
▁rebuilt	-12.0489
▁capitalize	-12.049
▁unsure	-12.049
▁honey	-12.0491
▁45,	-12.0491
▁salman	-12.0491
▁eaten	-12.0495
▁12,000	-12.0496
▁void	-12.0496
▁cur	-12.0497
▁subsidized	-12.0498
▁reap	-12.05
▁brewer	-12.0501
▁outcomes	-12.0501
▁uphold	-12.0503
say	-12.0503
▁ecosystem	-12.0503
▁elephants	-12.0508
▁commuters	-12.0509
▁cater	-12.0512
watch	-12.0521
▁blowing	-12.0526
▁realm	-12.0526
mounted	-12.053
eyed	-12.0531
osa	-12.0531
▁corey	-12.0532
walk	-12.0533
saving	-12.0542
▁notification	-12.0545
▁$28	-12.0546
▁associations	-12.0548
▁tentative	-12.0549
▁readings	-12.0549
ucci	-12.055
▁champagne	-12.0554
▁roast	-12.0554
▁satisfaction	-12.0555
▁mobility	-12.0555
▁thriving	-12.0555
▁frederick	-12.0555
▁tapping	-12.0555
▁intelligent	-12.0555
▁solomon	-12.0555
▁unarmed	-12.0556
▁blockade	-12.0556
▁1949	-12.0556
▁evolving	-12.0556
▁centerpiece	-12.0557
▁saga	-12.0557
▁911	-12.0559
▁stra	-12.056
▁stumbled	-12.0561
▁spate	-12.0561
▁500,000	-12.0561
▁strategists	-12.0564
▁promotes	-12.0565
▁mul	-12.0566
▁bald	-12.0567
▁porter	-12.0569
▁layers	-12.057
▁dynamics	-12.0571
▁lau	-12.0572
▁ballet	-12.0578
▁spared	-12.0581
м	-12.0584
▁newton	-12.0588
▁drain	-12.059
▁comparisons	-12.0592
dine	-12.0595
▁assaulted	-12.0598
eo	-12.0599
▁fend	-12.0601
▁woke	-12.0605
league	-12.0607
double	-12.0607
▁quell	-12.0612
▁museums	-12.0613
▁cain	-12.0614
▁shale	-12.0614
▁booked	-12.0616
▁cameroon	-12.0618
▁sandwich	-12.0618
▁footing	-12.0619
▁berlusconi	-12.062
▁cognitive	-12.062
▁rousseff	-12.062
▁forefront	-12.062
▁podium	-12.062
▁crawl	-12.062
▁dismal	-12.062
▁coveted	-12.0621
▁funnel	-12.0621
▁trenton	-12.0621
▁discriminatory	-12.0622
▁hefty	-12.0622
▁jesse	-12.0622
▁julia	-12.0623
hill	-12.0624
▁rory	-12.0625
▁chronicle	-12.0626
▁urine	-12.0626
▁yelled	-12.0627
▁unleashed	-12.0629
▁1988,	-12.063
▁ng	-12.0631
▁zach	-12.0634
▁ev	-12.0637
▁4.5	-12.0638
▁seals	-12.0639
body	-12.0639
▁devil	-12.064
▁pumped	-12.0643
▁ei	-12.0644
▁katsu	-12.0645
▁fra	-12.0646
▁recorder	-12.065
▁behavioral	-12.0651
▁hurd	-12.0652
▁webb	-12.0654
▁rallying	-12.0658
each	-12.0659
▁jeb	-12.0662
▁gentle	-12.0663
▁cel	-12.0665
▁2.7	-12.0666
ó	-12.0666
lene	-12.0668
▁alarming	-12.0674
▁1991,	-12.0674
duty	-12.0675
▁pleas	-12.0676
▁grades	-12.0677
ington	-12.0679
aro	-12.068
▁educate	-12.0682
▁cites	-12.0683
▁proceeding	-12.0686
▁canadiens	-12.0687
▁corbyn	-12.0687
[...]
