<unk>	0
<s>	0
</s>	0
▁the	-2.91884
.	-3.29779
▁of	-3.40651
,	-3.47135
▁and	-3.77562
▁a	-3.82255
-	-3.98212
▁to	-4.00098
▁in	-4.02456
▁is	-4.32402
▁for	-4.43274
▁that	-4.83738
▁(	-4.91589
▁we	-4.92299
▁this	-5.01458
▁on	-5.03291
▁with	-5.0422
▁are	-5.08512
)	-5.0982
▁by	-5.26319
s	-5.26338
▁an	-5.31857
▁as	-5.36358
▁be	-5.45448
▁can	-5.74899
▁from	-5.80454
▁which	-5.85381
▁it	-5.91492
▁data	-5.92382
▁paper	-5.93693
▁model	-5.95793
▁using	-6.01629
▁system	-6.07044
▁method	-6.10526
▁algorithm	-6.13771
▁results	-6.1806
:	-6.18361
▁based	-6.19442
▁our	-6.26249
▁time	-6.28281
▁two	-6.29003
▁have	-6.29126
▁at	-6.29663
▁proposed	-6.30421
▁or	-6.3224
▁problem	-6.33611
▁has	-6.35779
▁used	-6.36701
▁these	-6.38582
▁approach	-6.40932
▁not	-6.42183
▁such	-6.44626
▁also	-6.4811
▁performance	-6.48301
▁information	-6.49182
▁new	-6.50535
▁systems	-6.50965
▁analysis	-6.53559
▁one	-6.56678
(	-6.57256
d	-6.59248
based	-6.59655
▁each	-6.65372
▁between	-6.65674
▁network	-6.66113
▁number	-6.66134
▁design	-6.66543
▁set	-6.66931
▁been	-6.68298
'	-6.69797
▁show	-6.70367
▁use	-6.71528
▁different	-6.72002
▁all	-6.733
▁more	-6.73631
/	-6.75011
▁its	-6.75559
▁n	-6.76256
▁their	-6.76838
;	-6.80323
▁i	-6.8036
▁was	-6.8125
▁study	-6.83207
e	-6.85609
▁methods	-6.86863
▁than	-6.87892
▁process	-6.88983
▁when	-6.89195
▁2	-6.89202
▁models	-6.89793
▁into	-6.90982
▁both	-6.91192
▁p	-6.92531
▁other	-6.92538
▁some	-6.93604
▁algorithms	-6.9496
▁if	-6.97041
▁first	-6.99363
▁high	-7.00749
▁control	-7.01165
▁networks	-7.01358
▁then	-7.02422
▁only	-7.02646
▁present	-7.0286
▁problems	-7.04561
).	-7.04563
▁were	-7.06376
▁well	-7.07146
▁order	-7.07766
▁-	-7.09559
▁k	-7.09913
n	-7.09988
▁where	-7.12745
▁over	-7.13484
▁applications	-7.13585
▁function	-7.14026
▁case	-7.14219
▁c	-7.14764
▁1	-7.14819
▁,	-7.15954
▁but	-7.15964
▁non	-7.16511
▁t	-7.1782
▁image	-7.17979
▁multi	-7.19095
▁large	-7.19108
▁given	-7.20054
▁may	-7.20598
▁s	-7.22281
▁however	-7.22846
▁real	-7.23027
▁most	-7.23292
),	-7.2345
i	-7.2433
▁work	-7.24724
▁3	-7.27052
▁application	-7.27595
▁solution	-7.2812
▁simulation	-7.28432
▁learning	-7.2855
▁three	-7.28585
▁e	-7.28978
▁scheme	-7.29113
▁will	-7.29222
a	-7.30152
▁there	-7.30457
▁techniques	-7.30774
▁how	-7.32091
▁user	-7.32426
▁m	-7.32646
▁propose	-7.32681
▁presented	-7.34273
▁research	-7.34284
▁r	-7.34365
▁any	-7.35121
▁through	-7.36005
▁framework	-7.36827
g	-7.36995
▁software	-7.37263
▁they	-7.39056
▁x	-7.40512
▁many	-7.40827
▁optimization	-7.41105
▁structure	-7.41253
▁efficient	-7.42179
▁linear	-7.42698
▁power	-7.42981
▁fuzzy	-7.43075
▁several	-7.43507
▁d	-7.43813
▁while	-7.43921
▁technique	-7.44536
▁under	-7.4464
▁g	-7.4579
▁optimal	-7.46163
▁f	-7.46176
▁space	-7.46381
▁multiple	-7.4674
▁provide	-7.47404
▁developed	-7.47603
▁state	-7.48306
▁search	-7.4861
t	-7.49868
▁test	-7.5059
▁dynamic	-7.50764
▁support	-7.51212
▁.	-7.51269
▁knowledge	-7.52461
▁important	-7.53165
▁obtained	-7.53455
▁b	-7.54913
▁web	-7.55868
▁functions	-7.56038
▁so	-7.5636
p	-7.56861
▁same	-7.5689
2	-7.57348
▁parameters	-7.57752
▁l	-7.57755
▁features	-7.57896
▁single	-7.58128
▁v	-7.58538
▁compared	-7.58803
▁numerical	-7.59149
▁"	-7.59595
▁cost	-7.59732
▁experimental	-7.59908
▁applied	-7.60636
▁level	-7.60933
▁development	-7.61295
▁quality	-7.61511
▁general	-7.618
▁size	-7.61898
▁no	-7.62394
▁local	-7.63723
"	-7.63985
m	-7.64594
▁low	-7.64888
▁properties	-7.66422
▁distributed	-7.66866
▁error	-7.66891
▁graph	-7.66924
▁very	-7.66941
▁terms	-7.67357
▁value	-7.67551
c	-7.67683
r	-7.67694
▁implementation	-7.67813
▁users	-7.68354
▁novel	-7.68599
▁point	-7.69244
▁distribution	-7.69566
time	-7.70556
▁images	-7.70648
▁communication	-7.70742
▁within	-7.71894
▁service	-7.72444
▁shown	-7.73052
▁energy	-7.73149
x	-7.7348
▁thus	-7.73569
▁result	-7.73729
▁rate	-7.73866
▁second	-7.73888
▁evaluation	-7.74036
▁experiments	-7.74047
▁j	-7.74497
▁example	-7.74682
▁simple	-7.7504
▁accuracy	-7.75071
▁possible	-7.75429
▁computer	-7.75468
▁conditions	-7.75498
ing	-7.75805
▁flow	-7.75946
▁management	-7.76075
k	-7.76469
▁decision	-7.76652
▁	-7.7673
▁classification	-7.76765
▁computational	-7.76831
▁detection	-7.7716
▁about	-7.77564
▁various	-7.77678
▁finite	-7.78085
▁since	-7.78144
▁type	-7.78201
▁program	-7.78927
▁0	-7.78929
▁h	-7.79292
▁nodes	-7.7936
▁existing	-7.79434
▁values	-7.79741
▁modeling	-7.7983
▁memory	-7.79864
▁solutions	-7.80365
▁complex	-7.80527
▁due	-7.8072
▁complexity	-7.80857
▁parallel	-7.80871
▁current	-7.81205
▁approaches	-7.81769
▁environment	-7.82011
▁class	-7.82037
▁mobile	-7.82723
▁sets	-7.82899
▁without	-7.83045
▁input	-7.83116
▁better	-7.83137
▁theory	-7.83647
▁object	-7.84003
▁during	-7.8415
▁programming	-7.85048
▁computing	-7.85462
▁o	-7.85589
▁particular	-7.85821
▁code	-7.86249
▁processing	-7.86424
▁presents	-7.86482
▁matrix	-7.86722
▁small	-7.86731
b	-7.87654
▁feature	-7.87709
▁provides	-7.87904
to	-7.87945
▁architecture	-7.88654
▁out	-7.88702
▁)	-7.8985
▁demonstrate	-7.90267
▁domain	-7.90626
▁consider	-7.90731
▁language	-7.91634
▁task	-7.92291
dimensional	-7.92544
▁=	-7.93172
▁context	-7.93585
▁form	-7.93684
▁access	-7.93719
▁field	-7.94065
▁because	-7.94098
▁neural	-7.94566
▁constraints	-7.9464
▁node	-7.94903
▁points	-7.96671
▁standard	-7.96725
▁key	-7.96903
▁among	-7.96968
▁technology	-7.9713
▁selection	-7.9721
▁behavior	-7.97383
▁those	-7.97512
▁human	-7.9803
▁efficiency	-7.98092
▁found	-7.98103
▁improve	-7.98391
▁effective	-7.98485
▁query	-7.98859
▁way	-7.99499
▁do	-8.00282
▁wireless	-8.01077
▁studies	-8.01591
▁known	-8.0165
▁finally	-8.01759
▁them	-8.01807
▁further	-8.01898
▁called	-8.02108
▁protocol	-8.02218
▁available	-8.02472
▁estimation	-8.0255
▁adaptive	-8.02589
▁equations	-8.02606
▁video	-8.02627
▁considered	-8.02978
▁?	-8.03533
▁up	-8.04031
▁processes	-8.04255
▁main	-8.04268
▁even	-8.04443
▁need	-8.04654
▁random	-8.04874
▁significant	-8.05111
▁global	-8.05383
▁allows	-8.05538
▁element	-8.0555
▁path	-8.05924
▁[	-8.06288
▁tree	-8.06346
ed	-8.06592
▁representation	-8.06604
▁computation	-8.06723
▁group	-8.06831
▁q	-8.06907
▁best	-8.07408
▁tool	-8.07455
▁sensor	-8.07529
▁routing	-8.081
▁scheduling	-8.08112
▁related	-8.08271
▁objects	-8.08418
▁types	-8.08418
▁therefore	-8.08741
▁variables	-8.08788
▁does	-8.09185
▁probability	-8.09235
▁cases	-8.10154
▁previous	-8.1025
1	-8.10297
▁including	-8.10535
▁vector	-8.10645
▁effect	-8.10783
▁components	-8.1121
▁range	-8.11268
▁defined	-8.11407
▁strategy	-8.11499
▁services	-8.11595
▁figure	-8.11675
▁machine	-8.11798
▁structures	-8.11821
▁effects	-8.12081
▁potential	-8.13242
▁addition	-8.13247
in	-8.13703
▁higher	-8.14472
▁find	-8.14504
▁recognition	-8.14756
▁step	-8.15031
▁sequence	-8.15197
▁describe	-8.15208
▁part	-8.15227
▁following	-8.15238
▁traffic	-8.15495
▁surface	-8.15589
▁after	-8.15607
▁u	-8.1586
▁procedure	-8.15991
▁lower	-8.16081
▁patterns	-8.16477
v	-8.16778
o	-8.16975
▁uses	-8.17061
▁required	-8.17547
▁\	-8.17827
▁requirements	-8.17951
▁examples	-8.18011
▁source	-8.18255
▁nonlinear	-8.18268
▁shows	-8.18503
▁area	-8.1896
▁should	-8.19038
▁distance	-8.19078
▁parameter	-8.19141
▁good	-8.19349
?	-8.19511
▁must	-8.19631
▁database	-8.19654
▁spatial	-8.20068
▁average	-8.20158
▁specific	-8.20227
level	-8.20539
▁similar	-8.20591
▁schemes	-8.20609
▁interaction	-8.20764
▁security	-8.20802
▁implemented	-8.20817
▁rules	-8.21627
▁maximum	-8.22027
▁total	-8.22092
▁signal	-8.22314
▁obtain	-8.22633
▁reduce	-8.22963
▁mechanism	-8.22987
▁section	-8.23034
▁w	-8.23089
or	-8.2338
▁performed	-8.23621
▁logic	-8.23854
▁self	-8.23909
▁noise	-8.24368
▁designed	-8.25009
▁approximation	-8.2533
▁characteristics	-8.25424
▁robust	-8.25485
▁simulations	-8.25572
▁frequency	-8.25593
▁often	-8.2561
▁associated	-8.25638
▁content	-8.25885
▁could	-8.25887
▁delay	-8.2617
▁virtual	-8.26213
▁boundary	-8.26252
▁prediction	-8.26444
▁social	-8.26607
▁comparison	-8.2693
▁channel	-8.27283
▁interface	-8.27512
ly	-8.27554
f	-8.27977
▁clustering	-8.28219
▁fast	-8.28279
▁effectiveness	-8.28323
▁via	-8.28558
▁y	-8.28762
▁less	-8.28769
▁make	-8.28781
l	-8.28795
▁common	-8.28912
▁tools	-8.28962
▁motion	-8.29056
▁4	-8.29112
▁equation	-8.29266
the	-8.29438
▁re	-8.29609
▁phase	-8.29638
▁bound	-8.29815
▁elements	-8.29944
▁concept	-8.29974
▁corresponding	-8.30065
▁training	-8.30072
▁methodology	-8.30562
▁introduced	-8.30724
▁pattern	-8.31012
▁significantly	-8.31125
▁described	-8.31452
▁here	-8.31598
▁generation	-8.31637
▁least	-8.31918
▁product	-8.32176
▁measure	-8.32183
▁operations	-8.32358
▁changes	-8.32423
▁minimum	-8.32673
▁component	-8.32692
▁being	-8.3298
▁achieve	-8.33015
▁tasks	-8.3331
▁graphs	-8.33435
▁four	-8.33436
▁develop	-8.33517
▁reduction	-8.33581
▁let	-8.33768
▁resources	-8.33864
▁means	-8.33912
▁impact	-8.3399
▁generated	-8.35122
▁basis	-8.35143
▁provided	-8.35202
▁factors	-8.35207
▁improved	-8.35278
▁visual	-8.35662
▁resource	-8.35721
▁execution	-8.35799
▁solve	-8.36088
of	-8.36425
▁much	-8.36507
▁traditional	-8.36582
▁online	-8.36845
▁programs	-8.37207
▁evaluate	-8.37231
▁variable	-8.37504
▁accurate	-8.38269
▁solving	-8.38536
▁digital	-8.38751
▁able	-8.38766
y	-8.38818
▁useful	-8.38959
▁derived	-8.39035
▁practical	-8.39376
▁discussed	-8.39397
▁output	-8.39498
▁length	-8.3954
▁every	-8.39608
▁hybrid	-8.3967
▁strategies	-8.39761
▁end	-8.39848
▁response	-8.40043
▁proof	-8.40101
▁internet	-8.40151
▁times	-8.40404
▁initial	-8.40655
▁article	-8.4096
▁would	-8.41004
▁original	-8.41038
▁role	-8.41111
▁issues	-8.41134
▁increase	-8.413
▁determine	-8.41548
▁introduce	-8.41721
▁shape	-8.42024
▁retrieval	-8.42113
▁load	-8.42482
▁theorem	-8.42707
▁literature	-8.4286
▁change	-8.4297
▁respect	-8.43739
▁discrete	-8.43982
▁condition	-8.44009
▁location	-8.44034
▁cell	-8.44113
▁z	-8.44162
▁recent	-8.44279
order	-8.44283
▁objective	-8.44288
▁sub	-8.4452
▁individual	-8.44623
▁grid	-8.44718
▁moreover	-8.44738
▁rule	-8.45594
▁statistical	-8.45595
▁levels	-8.45939
▁according	-8.46015
▁furthermore	-8.46486
▁convergence	-8.46794
▁future	-8.47551
▁testing	-8.47767
3	-8.47885
▁address	-8.48188
▁give	-8.48238
▁target	-8.4835
▁agent	-8.48416
▁us	-8.48507
j	-8.49105
▁integration	-8.4927
h	-8.49604
▁agents	-8.49611
▁operation	-8.49681
▁fixed	-8.4971
▁long	-8.49887
▁queries	-8.50361
▁genetic	-8.50376
▁integrated	-8.50403
▁polynomial	-8.50604
▁prove	-8.50664
▁resulting	-8.50992
▁hardware	-8.51062
▁environments	-8.51182
▁basic	-8.51875
▁made	-8.51897
▁devices	-8.51928
▁stability	-8.5197
▁fault	-8.52018
▁measures	-8.52077
▁either	-8.52234
▁studied	-8.52489
▁speed	-8.52601
▁critical	-8.52682
▁identify	-8.52739
▁purpose	-8.52755
▁region	-8.52817
▁engineering	-8.52907
▁matching	-8.52927
▁certain	-8.52936
▁edge	-8.53021
▁factor	-8.5315
▁independent	-8.53339
▁requires	-8.53441
▁automatic	-8.53486
▁open	-8.53552
▁+	-8.53759
▁continuous	-8.54323
▁line	-8.54383
▁reduced	-8.54573
▁ratio	-8.54851
▁construction	-8.55064
▁'	-8.55248
▁functional	-8.55312
▁theoretical	-8.55365
▁natural	-8.55516
▁classes	-8.55737
▁constant	-8.55945
▁constraint	-8.56041
▁complete	-8.56158
▁view	-8.56241
▁although	-8.56525
▁conventional	-8.56741
▁dynamics	-8.56742
▁achieved	-8.56798
▁scale	-8.56802
▁states	-8.5693
▁block	-8.56988
▁degree	-8.56996
▁transmission	-8.57109
▁series	-8.57325
▁perform	-8.58217
▁physical	-8.58323
▁mean	-8.58729
▁semantic	-8.59079
▁positive	-8.59612
▁log	-8.59812
▁investigate	-8.59889
▁evaluated	-8.59944
▁necessary	-8.59972
▁per	-8.60265
▁respectively	-8.60301
▁cells	-8.60679
▁co	-8.60705
▁extended	-8.60804
▁focus	-8.61064
▁5	-8.61376
▁bounds	-8.61389
▁active	-8.61435
▁discuss	-8.61549
▁above	-8.61854
▁generalized	-8.61999
▁text	-8.62107
▁sequences	-8.62483
▁partial	-8.62755
▁appropriate	-8.6284
▁limited	-8.63174
▁index	-8.63268
▁al	-8.63359
▁whether	-8.6338
▁#	-8.63471
▁errors	-8.63772
▁goal	-8.63926
▁next	-8.64077
▁capacity	-8.64118
▁estimate	-8.64187
▁describes	-8.64254
▁recently	-8.64329
▁like	-8.64441
▁protocols	-8.6459
▁investigated	-8.64628
▁mesh	-8.64809
▁segmentation	-8.65058
▁mechanisms	-8.65141
▁special	-8.65186
▁property	-8.65228
al	-8.65388
▁highly	-8.65496
▁full	-8.65561
▁additional	-8.65671
▁overall	-8.65805
▁combination	-8.6597
▁structural	-8.65998
▁hand	-8.66015
▁increasing	-8.66131
▁project	-8.66175
▁improvement	-8.66181
▁feedback	-8.66272
▁activity	-8.66294
▁table	-8.66571
▁message	-8.66835
▁compare	-8.66866
▁major	-8.67143
▁another	-8.67283
▁mapping	-8.67301
▁account	-8.67484
▁students	-8.67488
▁identification	-8.67498
▁define	-8.67606
▁suitable	-8.6764
▁link	-8.67898
▁what	-8.67991
▁making	-8.6821
▁pre	-8.68347
▁packet	-8.68451
▁cannot	-8.68484
▁codes	-8.6851
▁require	-8.68604
▁allow	-8.68621
▁bandwidth	-8.68622
▁still	-8.68749
▁filter	-8.68801
▁interest	-8.68885
▁version	-8.6891
▁processor	-8.69051
▁hence	-8.69056
▁understanding	-8.6909
▁temporal	-8.69146
▁against	-8.69155
▁mining	-8.69231
▁cache	-8.69502
▁similarity	-8.69548
scale	-8.69744
▁compute	-8.69752
▁binary	-8.69817
▁stochastic	-8.69929
▁analyze	-8.70042
er	-8.70056
▁density	-8.70075
▁along	-8.70115
▁proposes	-8.70386
▁observed	-8.70663
▁expected	-8.70671
▁circuit	-8.70773
▁difficult	-8.70817
▁layer	-8.70925
▁map	-8.70948
▁event	-8.71011
▁tested	-8.71134
▁now	-8.71405
▁generate	-8.71573
▁direct	-8.71668
▁regions	-8.71803
▁include	-8.71887
▁relevant	-8.71923
▁cross	-8.72235
▁relative	-8.72297
▁regression	-8.72471
▁efficiently	-8.72553
▁difference	-8.7262
▁et	-8.72658
▁definition	-8.72682
▁relationship	-8.72779
▁loss	-8.72898
▁tracking	-8.72901
▁reliability	-8.72985
▁influence	-8.72999
▁formulation	-8.73094
▁demonstrated	-8.73511
▁ability	-8.73524
▁finding	-8.73702
▁allocation	-8.73853
u	-8.73889
▁production	-8.73953
▁help	-8.74026
▁evolution	-8.74347
▁amount	-8.74995
▁interval	-8.7514
▁policy	-8.75155
▁wide	-8.75296
▁expression	-8.75512
▁groups	-8.7557
▁differential	-8.75733
▁fact	-8.75884
▁consists	-8.76033
▁cluster	-8.76157
and	-8.76367
▁technologies	-8.76409
▁documents	-8.76425
▁term	-8.76481
▁alternative	-8.76632
▁planning	-8.76724
q	-8.7696
▁combined	-8.77067
▁indicate	-8.77197
▁computed	-8.7734
▁sample	-8.7778
▁few	-8.77984
▁embedded	-8.78132
▁processors	-8.78245
▁interactive	-8.78584
▁empirical	-8.78641
▁concepts	-8.7886
▁across	-8.7887
▁face	-8.79211
▁base	-8.79326
▁business	-8.7934
▁automatically	-8.7957
▁makes	-8.79767
▁reference	-8.79799
▁signals	-8.79843
▁approximate	-8.79899
▁become	-8.80328
▁take	-8.8035
▁presence	-8.80398
▁whose	-8.80445
▁needed	-8.80478
▁modelling	-8.80709
▁findings	-8.81102
▁illustrate	-8.81104
▁decomposition	-8.81127
oriented	-8.81174
▁needs	-8.81174
▁static	-8.81379
▁classical	-8.81418
▁risk	-8.81577
▁issue	-8.81582
▁interactions	-8.81737
▁free	-8.8176
▁apply	-8.818
▁modified	-8.81808
▁follows	-8.81811
▁especially	-8.81839
▁selected	-8.8191
▁represent	-8.81971
▁document	-8.82177
▁relation	-8.82274
▁criteria	-8.82288
▁directly	-8.82457
▁transform	-8.82631
▁before	-8.82792
▁aspects	-8.82838
▁upper	-8.82905
▁tests	-8.82928
▁game	-8.82954
▁languages	-8.83039
▁arbitrary	-8.83401
▁coding	-8.83708
▁server	-8.84158
▁providing	-8.84191
▁measurement	-8.84202
▁description	-8.84287
▁consumption	-8.84472
▁run	-8.84648
▁storage	-8.84833
▁analyzed	-8.84901
▁practice	-8.84943
▁events	-8.84976
▁employed	-8.85479
▁inter	-8.85651
▁sources	-8.85794
▁position	-8.86089
▁construct	-8.86098
▁(1)	-8.86146
▁monitoring	-8.8624
▁correlation	-8.86274
▁simulated	-8.86317
▁years	-8.86333
▁unit	-8.86377
▁heuristic	-8.86395
▁extension	-8.86457
line	-8.86652
▁6	-8.86695
▁normal	-8.8694
▁mathematical	-8.86973
▁easily	-8.87099
▁note	-8.87179
▁hierarchical	-8.87255
▁paths	-8.87284
▁determined	-8.8735
▁together	-8.8752
▁controller	-8.87864
▁conducted	-8.87894
▁measurements	-8.87962
▁fully	-8.87987
▁underlying	-8.87996
▁exact	-8.88118
▁nature	-8.88354
▁transformation	-8.8888
▁extraction	-8.89032
▁short	-8.89033
▁failure	-8.89116
▁variety	-8.89201
▁usually	-8.8922
▁machines	-8.89303
▁areas	-8.89418
▁semantics	-8.89516
▁call	-8.8962
▁probabilistic	-8.89721
▁transfer	-8.89758
▁building	-8.89775
▁world	-8.90058
▁analytical	-8.90246
▁topology	-8.90327
▁applying	-8.9085
▁color	-8.91074
▁mode	-8.91312
▁assume	-8.91421
▁operators	-8.91473
▁(2)	-8.91514
▁rather	-8.91651
▁relationships	-8.91712
▁experiment	-8.91804
▁costs	-8.9217
▁collection	-8.92211
▁formal	-8.92296
▁rates	-8.92636
▁activities	-8.92664
▁science	-8.92925
▁experience	-8.93039
▁matrices	-8.93042
▁volume	-8.93113
▁identified	-8.93451
▁operator	-8.93528
▁geometric	-8.93561
▁10	-8.9395
▁chain	-8.93994
▁attention	-8.94059
gamma	-8.9406
▁distributions	-8.94231
▁stage	-8.94233
▁optical	-8.94309
▁importance	-8.94359
▁edges	-8.94384
▁shared	-8.94396
▁robot	-8.94458
free	-8.94524
▁quantum	-8.94641
▁sharing	-8.94681
▁steps	-8.9476
▁effectively	-8.94865
▁device	-8.94958
▁relations	-8.9496
▁overhead	-8.95076
▁increased	-8.95097
▁trees	-8.95146
▁instead	-8.95449
▁challenges	-8.9549
▁semi	-8.95517
z	-8.95586
▁considering	-8.95686
▁resolution	-8.95759
▁advantage	-8.95796
▁lead	-8.95993
▁measured	-8.9601
▁artificial	-8.96274
▁equal	-8.96276
▁fields	-8.96378
▁weighted	-8.96399
▁de	-8.964
w	-8.96427
▁differences	-8.96538
▁strong	-8.96735
▁specification	-8.96879
▁sampling	-8.96888
▁speech	-8.97026
▁solved	-8.97269
▁flexible	-8.9773
▁constructed	-8.97983
▁patients	-8.98017
on	-8.9805
▁widely	-8.98058
▁uncertainty	-8.98374
▁kernel	-8.98409
es	-8.9862
▁showed	-8.9871
▁weight	-8.98911
▁previously	-8.99107
▁operating	-8.99121
▁assessment	-8.99199
▁databases	-8.99311
▁verification	-8.99712
▁carried	-8.99792
▁health	-8.99875
]	-8.99971
▁iterative	-9.0009
▁numbers	-9.00418
▁throughput	-9.0043
▁medical	-9.00471
▁demand	-9.00607
▁circuits	-9.00792
▁equivalent	-9.01144
▁suggest	-9.01174
▁aim	-9.01548
▁bounded	-9.0176
▁larger	-9.01992
▁contains	-9.02018
▁media	-9.02214
▁stable	-9.02255
▁last	-9.02288
▁evolutionary	-9.02302
▁multimedia	-9.02525
▁wavelet	-9.02629
▁loop	-9.02645
▁enables	-9.0275
▁un	-9.02767
up	-9.02785
▁increases	-9.02831
▁improving	-9.02855
▁derive	-9.0301
▁heterogeneous	-9.03181
▁done	-9.03278
▁vertices	-9.03354
▁advantages	-9.03473
▁towards	-9.0352
th	-9.03633
▁channels	-9.03688
▁8	-9.03738
▁taken	-9.03739
▁choice	-9.03774
▁subset	-9.03828
▁domains	-9.03844
▁reported	-9.03873
▁sufficient	-9.04126
▁mixed	-9.04151
▁developing	-9.04248
▁parts	-9.04252
▁leads	-9.04426
▁classifier	-9.04684
▁review	-9.04748
▁scenarios	-9.04755
▁platform	-9.0479
▁clusters	-9.04942
▁exists	-9.0499
▁threshold	-9.05021
▁reasoning	-9.05105
▁action	-9.05123
▁connected	-9.05128
▁temperature	-9.05265
▁ad	-9.05272
▁cycle	-9.05387
▁gives	-9.05427
▁lemma	-9.05488
▁array	-9.05528
▁material	-9.05566
▁flows	-9.05622
▁prior	-9.05686
▁zero	-9.05746
▁direction	-9.05789
▁words	-9.05915
▁particle	-9.0597
▁produce	-9.06103
▁explicit	-9.06123
▁specifically	-9.06136
▁sparse	-9.06156
▁represented	-9.06233
▁reconstruction	-9.06282
▁supply	-9.06416
▁implement	-9.0673
▁coefficients	-9.06746
▁1.	-9.06786
▁electronic	-9.06822
▁subject	-9.07076
▁detect	-9.07101
▁samples	-9.07195
▁cognitive	-9.07469
▁core	-9.07503
▁instance	-9.07667
▁contrast	-9.07742
▁minimal	-9.07751
▁bit	-9.07924
+	-9.07967
▁idea	-9.07992
4	-9.08191
▁messages	-9.08235
▁people	-9.08268
▁np	-9.08335
▁automated	-9.0855
▁includes	-9.08609
▁sequential	-9.08638
▁water	-9.08751
▁metric	-9.08789
▁estimates	-9.08826
▁who	-9.08832
▁synthesis	-9.08836
▁having	-9.08912
▁micro	-9.09011
▁compression	-9.0911
▁public	-9.09548
▁voltage	-9.09579
▁closed	-9.09704
▁architectures	-9.09855
▁actual	-9.10011
▁involved	-9.10028
▁combining	-9.10105
▁configuration	-9.10324
▁evidence	-9.10399
▁products	-9.10641
▁visualization	-9.10717
▁lines	-9.10769
▁upon	-9.10893
▁instances	-9.11029
▁molecular	-9.11194
▁assumption	-9.11251
▁collaborative	-9.11265
▁transition	-9.11315
▁fundamental	-9.11389
▁unique	-9.11396
▁extensive	-9.11397
▁setting	-9.11461
▁integer	-9.11551
▁benchmark	-9.11718
▁always	-9.11791
▁sensitivity	-9.11883
▁takes	-9.11965
▁namely	-9.11984
▁assignment	-9.11986
▁market	-9.12023
▁near	-9.12056
▁detailed	-9.12206
▁vertex	-9.12255
▁moving	-9.12274
▁stress	-9.12362
▁easy	-9.12604
▁clinical	-9.12747
▁family	-9.12751
▁robustness	-9.12871
▁gaussian	-9.12889
▁running	-9.13161
▁community	-9.13259
▁reducing	-9.13323
▁simultaneously	-9.13704
▁bayesian	-9.13706
▁growth	-9.13751
▁estimated	-9.1378
▁period	-9.13785
▁criterion	-9.13805
▁variation	-9.14091
▁benefits	-9.14223
▁survey	-9.14467
▁final	-9.1472
▁spectral	-9.1477
▁attributes	-9.14797
▁frame	-9.15057
▁consistent	-9.15158
▁metrics	-9.15301
▁true	-9.15545
▁sensors	-9.15721
▁see	-9.15823
▁datasets	-9.15882
▁weights	-9.15979
▁correct	-9.16009
▁pair	-9.16088
▁extend	-9.16119
▁list	-9.16208
▁gain	-9.16215
▁links	-9.16426
▁protein	-9.16506
▁reliable	-9.16794
▁behaviour	-9.16816
▁usage	-9.16829
▁prototype	-9.16889
▁filtering	-9.16986
▁propagation	-9.17025
▁might	-9.17057
▁convex	-9.17166
▁joint	-9.17324
▁fluid	-9.17325
art	-9.17373
▁sense	-9.17409
▁population	-9.17427
dependent	-9.17793
▁built	-9.18122
▁top	-9.1837
▁primary	-9.18538
▁dual	-9.18545
▁explore	-9.18609
▁file	-9.18763
▁word	-9.1882
▁far	-9.18898
▁established	-9.19035
▁interesting	-9.19043
▁markov	-9.19069
▁internal	-9.19112
▁blocks	-9.19219
▁sum	-9.19221
▁geometry	-9.19257
▁deal	-9.19287
▁inference	-9.19401
▁depth	-9.19623
▁curve	-9.19715
like	-9.19744
▁third	-9.19797
▁abstract	-9.19825
▁interfaces	-9.19827
▁minimize	-9.199
▁library	-9.19957
▁works	-9.19977
▁policies	-9.2001
▁7	-9.20045
▁right	-9.20083
known	-9.20188
▁five	-9.20452
▁vectors	-9.20476
▁close	-9.20502
▁external	-9.20507
▁etc	-9.20542
▁dimension	-9.2063
▁smaller	-9.20672
▁becomes	-9.20692
▁precision	-9.20705
▁light	-9.2071
▁early	-9.20764
▁create	-9.20852
▁particularly	-9.20874
▁update	-9.20889
▁regular	-9.2113
▁whole	-9.21181
▁side	-9.21225
▁predict	-9.21233
▁generating	-9.21238
▁capture	-9.21526
▁procedures	-9.21597
▁maps	-9.21615
▁implications	-9.21714
▁depends	-9.21834
▁decisions	-9.21869
▁pressure	-9.21924
▁reduces	-9.22247
▁extracted	-9.22306
▁existence	-9.22339
▁notion	-9.22503
▁essential	-9.22522
ii	-9.22565
▁chosen	-9.22662
▁proved	-9.22679
▁intelligent	-9.2274
▁body	-9.2278
▁ones	-9.22791
▁gene	-9.2311
▁treatment	-9.23165
▁manufacturing	-9.23201
▁units	-9.23285
▁negative	-9.23442
▁adaptation	-9.23472
▁surfaces	-9.2363
▁capabilities	-9.23835
▁capability	-9.23931
▁generic	-9.24113
▁improves	-9.24318
▁manner	-9.24436
▁popular	-9.24687
▁yet	-9.24721
▁exist	-9.25048
▁examine	-9.25061
▁taking	-9.25167
▁dimensions	-9.25431
▁had	-9.25557
▁effort	-9.25657
▁attacks	-9.25682
▁spectrum	-9.25718
▁uniform	-9.25736
▁get	-9.25847
▁secure	-9.25862
▁researchers	-9.25886
▁life	-9.26046
▁typical	-9.26158
▁iteration	-9.26171
▁build	-9.262
▁analyses	-9.26586
▁contribution	-9.26632
▁designs	-9.26693
▁successfully	-9.26705
▁coupled	-9.26744
▁question	-9.26752
linear	-9.26789
▁spaces	-9.26813
▁comparing	-9.26861
▁typically	-9.2692
▁gradient	-9.26948
▁actions	-9.26972
▁calculated	-9.27025
▁faster	-9.27279
▁quantitative	-9.27283
▁deterministic	-9.27333
▁unknown	-9.27374
▁generally	-9.27406
world	-9.27485
▁trust	-9.27511
▁around	-9.2759
able	-9.27679
▁limitations	-9.27725
▁discovery	-9.27864
▁constrained	-9.28002
▁greater	-9.28122
▁report	-9.28126
▁privacy	-9.2815
ness	-9.28236
▁designing	-9.28284
▁9	-9.28308
driven	-9.28397
▁currently	-9.28398
▁site	-9.28467
▁variations	-9.28912
▁promising	-9.28924
▁ranking	-9.2897
▁plane	-9.29053
▁desired	-9.29069
=	-9.29088
▁diffusion	-9.2915
▁relatively	-9.29175
▁feasible	-9.29273
▁perspective	-9.29394
▁enable	-9.29506
▁force	-9.29689
▁representations	-9.29827
▁integral	-9.30007
▁back	-9.30375
▁infrastructure	-9.30402
▁challenge	-9.30439
ization	-9.30442
▁validation	-9.30455
▁coverage	-9.30462
▁sites	-9.30721
▁qos	-9.30799
▁authors	-9.3109
log	-9.3119
▁scalable	-9.31404
▁central	-9.31441
▁post	-9.31559
specific	-9.31944
▁limit	-9.3206
▁industry	-9.32187
▁handle	-9.32191
▁just	-9.32341
▁games	-9.32549
▁brain	-9.32608
▁pairs	-9.32661
▁{	-9.32733
▁produced	-9.32751
▁dependent	-9.32832
▁:	-9.3285
▁select	-9.32938
▁texture	-9.33125
▁velocity	-9.33219
▁diagnosis	-9.33288
▁participants	-9.33417
end	-9.33442
▁java	-9.33579
▁pages	-9.33681
ity	-9.33721
▁transport	-9.33736
▁enhance	-9.33773
▁capable	-9.33835
▁success	-9.3402
▁mobility	-9.3406
▁curves	-9.34164
▁vision	-9.34227
▁expressions	-9.34328
▁involving	-9.34522
▁performs	-9.34604
▁camera	-9.34705
re	-9.34921
▁understand	-9.35025
▁almost	-9.35042
▁international	-9.35064
▁allowing	-9.35131
▁ways	-9.35153
▁examined	-9.35331
▁hard	-9.35346
▁scientific	-9.35394
▁course	-9.35419
▁utility	-9.35463
▁optimized	-9.35487
▁challenging	-9.35754
▁synchronization	-9.35844
▁past	-9.35885
▁consistency	-9.35969
▁exponential	-9.35971
▁enhanced	-9.36013
▁generalization	-9.36121
as	-9.3618
▁little	-9.36225
▁achieves	-9.36274
▁industrial	-9.36274
▁rank	-9.36459
▁buffer	-9.3654
▁hoc	-9.3656
▁partition	-9.367
▁client	-9.36741
▁delivery	-9.36795
▁inverse	-9.3684
▁working	-9.3684
▁scenario	-9.36875
▁evaluating	-9.36895
_	-9.36923
▁interference	-9.37125
point	-9.37258
▁dynamically	-9.37388
▁ieee	-9.37536
▁symmetric	-9.37696
▁sizes	-9.37724
▁specified	-9.37783
▁situations	-9.37846
aware	-9.37918
▁avoid	-9.37928
▁outperforms	-9.37978
▁detail	-9.38027
▁controlled	-9.3803
▁latency	-9.38132
▁occur	-9.38337
▁successful	-9.3836
▁cellular	-9.38715
▁supporting	-9.38719
▁formula	-9.38826
▁classifiers	-9.38858
▁determining	-9.38932
▁multicast	-9.38945
▁wave	-9.39034
▁left	-9.39072
▁ontology	-9.39179
▁represents	-9.39345
▁realistic	-9.39363
▁forward	-9.39407
▁forms	-9.39484
▁customer	-9.3952
-2	-9.3958
▁containing	-9.39706
▁affect	-9.40077
▁disease	-9.40135
▁items	-9.40198
▁stream	-9.40208
▁university	-9.40248
▁instruction	-9.40276
▁own	-9.40281
▁imaging	-9.40461
▁background	-9.40519
▁lattice	-9.40629
▁packets	-9.40695
▁competitive	-9.40728
0	-9.4086
▁technical	-9.40867
▁cloud	-9.40892
▁vehicle	-9.40948
▁introduces	-9.40994
▁2-	-9.41038
type	-9.41093
▁composition	-9.41113
▁ensure	-9.41362
▁situation	-9.41455
▁projection	-9.41521
▁aims	-9.41544
▁included	-9.41554
▁identifying	-9.41561
▁computations	-9.41723
▁module	-9.41794
▁analyzing	-9.41797
▁connection	-9.41863
▁dataset	-9.41908
▁assumptions	-9.41935
▁remote	-9.42008
▁ip	-9.4203
▁page	-9.42086
▁collected	-9.42109
▁modeled	-9.42188
▁job	-9.42227
▁supports	-9.42431
ic	-9.42432
▁statistics	-9.42527
▁exchange	-9.42659
▁mass	-9.42727
▁algebraic	-9.42792
▁topic	-9.42853
-1	-9.42968
▁maintenance	-9.43343
▁environmental	-9.43357
[	-9.4342
▁quadratic	-9.43472
▁partitioning	-9.43695
▁representing	-9.43698
▁created	-9.43717
▁introduction	-9.43831
▁place	-9.43998
▁patient	-9.44031
▁paradigm	-9.4405
▁inputs	-9.44055
▁queue	-9.4407
▁3-	-9.44102
▁lack	-9.4417
▁calculation	-9.44311
▁recovery	-9.44322
▁kind	-9.44335
▁meta	-9.44366
▁flexibility	-9.44371
▁implicit	-9.44408
▁already	-9.44448
▁contain	-9.44569
▁principle	-9.44582
▁addresses	-9.44626
▁locations	-9.44671
▁illustrated	-9.44802
▁soft	-9.44809
▁fusion	-9.44867
▁care	-9.44903
▁investigation	-9.44944
▁center	-9.45036
▁hierarchy	-9.45059
▁advanced	-9.45144
▁distinct	-9.45231
▁boolean	-9.45489
▁others	-9.45634
▁assumed	-9.45761
▁sensing	-9.45812
▁2.	-9.4585
▁likely	-9.45866
▁play	-9.45882
▁profile	-9.46014
▁involves	-9.46328
▁implementations	-9.46361
▁powerful	-9.46389
▁&	-9.46425
▁structured	-9.46455
▁whereas	-9.46512
▁observations	-9.46588
▁schedule	-9.46605
▁suggested	-9.46634
▁biological	-9.4683
▁establish	-9.46922
▁timing	-9.46993
▁supported	-9.47035
▁yield	-9.47041
▁faults	-9.47078
▁projects	-9.4708
▁relevance	-9.47082
▁satisfy	-9.47109
▁bi	-9.4713
▁verify	-9.47219
▁induced	-9.47225
▁xml	-9.47356
▁itself	-9.47364
▁scaling	-9.47412
▁switching	-9.47439
▁entire	-9.47472
▁equilibrium	-9.47571
▁engine	-9.47642
▁automata	-9.47724
▁window	-9.47771
▁conceptual	-9.47835
▁filters	-9.47855
▁adopted	-9.47892
▁safety	-9.479
▁radio	-9.47983
▁enough	-9.48048
▁checking	-9.48075
▁requirement	-9.48131
▁thermal	-9.48316
▁improvements	-9.48331
▁expert	-9.48419
5	-9.4847
▁details	-9.48626
▁entropy	-9.48654
▁(3)	-9.48658
▁compiler	-9.48713
▁characteristic	-9.48774
▁20	-9.48885
▁hidden	-9.48985
▁offers	-9.48997
▁utilization	-9.49106
▁assess	-9.49169
▁display	-9.49283
▁personal	-9.49376
▁synthetic	-9.49384
\	-9.49384
▁received	-9.49426
▁interpolation	-9.49494
▁organization	-9.49815
▁once	-9.49845
▁variance	-9.49848
▁price	-9.49952
▁operational	-9.49955
▁<	-9.50091
▁proceedings	-9.502
off	-9.5027
▁extract	-9.5043
▁commonly	-9.50504
#	-9.50578
▁varying	-9.50647
▁interpretation	-9.50763
▁|	-9.50805
▁scene	-9.50863
▁minimization	-9.50997
▁binding	-9.51125
▁false	-9.5122
▁attack	-9.51392
▁agreement	-9.51709
▁systematic	-9.51823
▁starting	-9.51831
▁great	-9.52011
▁association	-9.52073
▁detecting	-9.52099
▁weak	-9.52107
state	-9.52148
▁observation	-9.52278
▁square	-9.52321
▁depending	-9.52368
▁comprehensive	-9.5253
▁aggregation	-9.52587
▁accurately	-9.52602
6	-9.52617
▁candidate	-9.52618
▁request	-9.52625
▁yields	-9.52627
▁latter	-9.52661
term	-9.52676
▁transactions	-9.52709
▁attribute	-9.52751
▁1)	-9.52771
▁share	-9.5291
▁mainly	-9.52939
▁oe	-9.53116
▁overcome	-9.53129
▁communications	-9.53238
▁likelihood	-9.53278
▁minimizing	-9.53324
▁root	-9.53334
▁discussion	-9.53416
▁expansion	-9.535
▁dependence	-9.53607
▁scalability	-9.53704
en	-9.5378
▁offer	-9.53781
▁branch	-9.53854
▁quasi	-9.54081
▁focused	-9.54166
▁concurrent	-9.54371
▁vertical	-9.54386
▁coupling	-9.54389
▁orthogonal	-9.54547
▁seen	-9.54648
is	-9.54752
▁estimating	-9.5477
▁subjects	-9.54885
▁infinite	-9.54897
▁cause	-9.55138
▁ffl	-9.55227
▁facilitate	-9.55292
▁combines	-9.55314
▁clock	-9.55398
▁responses	-9.55423
▁off	-9.55481
▁availability	-9.55491
▁coefficient	-9.55494
▁handling	-9.55497
▁caused	-9.55509
▁compact	-9.55535
▁principles	-9.55642
▁translation	-9.55749
▁worst	-9.55783
▁contact	-9.55845
▁expressed	-9.55865
▁parametric	-9.55872
▁formation	-9.55932
▁crucial	-9.55973
▁benefit	-9.56103
▁performing	-9.56253
▁leading	-9.56368
▁connectivity	-9.56514
delta	-9.56586
▁characterized	-9.56637
▁hypothesis	-9.56695
▁periodic	-9.5671
▁peer	-9.56725
▁movement	-9.56796
▁bar	-9.56809
▁optimum	-9.56828
▁min	-9.5686
▁six	-9.56936
▁medium	-9.57003
▁showing	-9.5701
▁quite	-9.57047
▁transformations	-9.57058
▁applicable	-9.5709
▁feasibility	-9.571
▁regarding	-9.57108
▁validated	-9.57127
▁addressed	-9.57158
▁changing	-9.5716
▁receiver	-9.57471
▁proper	-9.5756
▁net	-9.57565
▁localization	-9.57592
▁trade	-9.57891
▁aspect	-9.58072
▁increasingly	-9.58099
▁predictive	-9.5814
▁modules	-9.58176
▁heuristics	-9.5825
▁materials	-9.58278
▁chemical	-9.5828
characterization	-9.58392
▁holds	-9.58501
▁gap	-9.58601
▁questions	-9.58808
▁commercial	-9.58868
▁encoding	-9.59008
▁customers	-9.5901
▁character	-9.59025
▁stages	-9.5904
valued	-9.59218
▁collaboration	-9.59243
▁~	-9.59445
▁validate	-9.5974
▁constructing	-9.59798
▁too	-9.60018
▁magnetic	-9.60068
▁diversity	-9.60073
▁guarantee	-9.60091
▁asymptotic	-9.60115
▁read	-9.60211
▁detected	-9.60361
▁strongly	-9.60368
▁modern	-9.6039
▁denote	-9.60532
▁implementing	-9.60539
▁ff	-9.60561
▁though	-9.60602
▁monte	-9.60705
▁authentication	-9.60707
▁max	-9.60919
▁ordering	-9.60933
▁ground	-9.61036
▁considers	-9.61055
▁gate	-9.61089
▁signature	-9.61116
▁behaviors	-9.61125
▁principal	-9.61137
▁acm	-9.61162
▁layers	-9.6141
▁exactly	-9.61821
▁searching	-9.61834
▁predicted	-9.61954
▁modes	-9.61978
▁double	-9.62129
▁directions	-9.62216
▁orientation	-9.62261
▁rendering	-9.6233
▁published	-9.62339
▁exploit	-9.62425
▁conditional	-9.625
▁until	-9.62566
it	-9.62567
▁recursive	-9.62624
▁specifications	-9.62659
▁disk	-9.6267
see	-9.62696
▁servers	-9.62714
▁computationally	-9.62733
▁broadcast	-9.62748
▁graphics	-9.62762
▁logical	-9.62767
▁protection	-9.62811
▁cover	-9.62823
▁combinatorial	-9.62832
▁organizations	-9.63034
▁smooth	-9.63055
▁1,	-9.63097
▁added	-9.63173
▁runtime	-9.63225
▁probabilities	-9.63227
▁column	-9.63237
▁restricted	-9.63261
▁focuses	-9.63391
▁exploration	-9.63419
▁assigned	-9.63428
▁match	-9.63493
▁cooperative	-9.63499
▁turn	-9.6356
theta	-9.63569
▁sensitive	-9.63587
▁education	-9.63626
▁tcp	-9.63632
▁segments	-9.63781
▁separation	-9.63844
▁bits	-9.6395
▁cancer	-9.63967
▁below	-9.64031
▁start	-9.64118
▁objectives	-9.64125
▁possibility	-9.64176
▁super	-9.64222
ally	-9.64239
▁views	-9.6439
space	-9.64473
▁priority	-9.64574
▁consisting	-9.64701
rs	-9.64721
▁>	-9.64799
▁;	-9.64822
▁choose	-9.64881
▁intelligence	-9.64956
▁congestion	-9.6498
▁rapid	-9.65015
▁conference	-9.65038
▁route	-9.65086
▁remains	-9.65151
▁consideration	-9.65265
▁journal	-9.65269
▁kinds	-9.65335
▁learn	-9.65354
▁balance	-9.6556
▁requests	-9.65659
▁superior	-9.6584
▁relational	-9.65861
▁100	-9.65872
▁delays	-9.65883
▁incremental	-9.65892
▁carlo	-9.6591
▁implies	-9.66053
▁unified	-9.66283
▁placement	-9.66333
▁deployment	-9.66335
▁maximal	-9.66423
▁degrees	-9.66456
▁formulated	-9.66851
▁boundaries	-9.67018
▁computers	-9.67064
▁individuals	-9.67139
▁categories	-9.67187
▁explicitly	-9.67208
▁heat	-9.67237
▁strength	-9.67254
▁layout	-9.67269
▁qualitative	-9.67296
▁intensity	-9.67431
ers	-9.67449
ga	-9.675
▁suggests	-9.67566
value	-9.67586
(2)	-9.67654
▁uncertain	-9.67684
▁failures	-9.67716
▁goals	-9.67763
▁magnitude	-9.67869
▁intervals	-9.67882
▁down	-9.67932
▁pseudo	-9.68054
▁smart	-9.68152
▁stored	-9.68181
▁registration	-9.68237
▁jobs	-9.68303
▁robots	-9.68345
▁earlier	-9.68554
▁configurations	-9.68618
▁toward	-9.6873
▁valid	-9.68806
▁composed	-9.68846
▁characterize	-9.68965
▁completely	-9.68976
▁produces	-9.69045
▁written	-9.691
▁clearly	-9.69109
▁navigation	-9.69289
▁occurs	-9.69324
▁mechanical	-9.69414
▁members	-9.69427
▁simply	-9.69432
▁perceived	-9.69503
▁validity	-9.69614
▁comparisons	-9.69635
▁graphical	-9.69691
▁refinement	-9.69691
▁consequently	-9.69733
an	-9.69748
▁extensions	-9.69756
▁despite	-9.69767
▁satisfaction	-9.69768
for	-9.69845
▁maintain	-9.69856
▁separate	-9.69889
related	-9.69922
by	-9.69976
▁topological	-9.70257
▁decrease	-9.70428
▁coordination	-9.7048
▁history	-9.7053
▁precise	-9.70743
▁cpu	-9.70761
▁fine	-9.70765
▁write	-9.7086
▁invariant	-9.70894
▁growing	-9.7092
▁streams	-9.70923
▁selecting	-9.70942
▁economic	-9.7104
chip	-9.71372
▁trace	-9.71462
▁register	-9.71483
▁head	-9.7154
▁planar	-9.71658
▁clear	-9.71728
▁answer	-9.71737
▁ii	-9.71749
▁connections	-9.7181
+1	-9.71818
▁his	-9.71836
▁simulate	-9.71903
▁confidence	-9.71958
▁discusses	-9.72059
▁verified	-9.72224
▁integrating	-9.72339
▁mixture	-9.72618
▁/	-9.72651
▁segment	-9.72784
called	-9.72838
▁pixel	-9.72906
de	-9.72969
▁settings	-9.73037
▁cmos	-9.73079
▁gas	-9.73256
▁allowed	-9.73349
objective	-9.73422
▁exploiting	-9.73515
▁simulator	-9.73522
▁frames	-9.73543
tree	-9.73563
▁law	-9.73601
▁meet	-9.73624
▁optimize	-9.73632
▁multivariate	-9.73861
▁positions	-9.73926
▁comparative	-9.74027
▁solid	-9.74151
▁appear	-9.74229
▁anti	-9.74275
▁concrete	-9.74379
▁emerging	-9.74431
▁intermediate	-9.74485
▁demonstrates	-9.74569
▁predictions	-9.7459
▁reuse	-9.74612
▁abstraction	-9.74731
▁cycles	-9.7476
▁calculations	-9.74981
at	-9.75383
▁versions	-9.75488
▁overview	-9.75556
▁generates	-9.75569
▁preference	-9.75687
))	-9.75892
▁alignment	-9.75904
▁shift	-9.75959
hard	-9.75967
▁applicability	-9.76059
▁utilized	-9.76067
▁he	-9.76122
▁solver	-9.76186
▁approximations	-9.76207
▁fig	-9.76334
▁fit	-9.76379
▁embedding	-9.76598
▁audio	-9.76643
bit	-9.7678
▁achieving	-9.76926
▁comparable	-9.76938
▁otherwise	-9.77076
▁measuring	-9.77179
▁string	-9.77206
▁sound	-9.77271
▁deformation	-9.77334
▁frequently	-9.77431
▁indicates	-9.77622
▁check	-9.77709
▁calculate	-9.77744
▁team	-9.77781
▁predicting	-9.7779
▁usability	-9.77899
▁reasonable	-9.77996
layer	-9.78109
▁composite	-9.78176
▁modification	-9.7831
▁dna	-9.78328
▁functionality	-9.7836
▁profiles	-9.78562
▁simultaneous	-9.78572
▁autonomous	-9.78587
▁ga	-9.78622
▁estimator	-9.78624
▁bias	-9.78666
▁transient	-9.78792
▁inside	-9.78899
▁swarm	-9.78902
▁electrical	-9.78912
one	-9.78936
▁cut	-9.79026
▁directed	-9.79094
▁scales	-9.79167
agent	-9.79284
▁reports	-9.79324
▁neurons	-9.79367
▁ideal	-9.79395
▁conclude	-9.7942
▁shapes	-9.79448
▁iterations	-9.79478
▁di	-9.79487
▁identity	-9.79499
▁induction	-9.7954
▁steady	-9.79568
▁combine	-9.79669
▁discretization	-9.79684
▁ideas	-9.79691
▁chip	-9.79749
▁reason	-9.7976
▁algebra	-9.79774
▁depend	-9.79799
▁introducing	-9.79814
▁phases	-9.79841
▁followed	-9.79883
▁age	-9.79935
▁unlike	-9.79977
▁streaming	-9.80029
▁maintaining	-9.80066
▁additionally	-9.80202
▁12	-9.80249
▁acquisition	-9.80344
▁did	-9.80484
▁residual	-9.80585
▁symbolic	-9.80663
▁reveal	-9.80706
▁guarantees	-9.80734
▁meshes	-9.8074
▁!	-9.80797
▁partially	-9.81003
▁employing	-9.81085
▁know	-9.8111
▁decoding	-9.81147
▁15	-9.81179
▁describing	-9.812
▁indexing	-9.81308
▁variability	-9.81326
phase	-9.81498
▁equivalence	-9.81668
▁hold	-9.81703
▁preliminary	-9.81732
▁adoption	-9.81764
▁package	-9.81794
step	-9.81914
▁locally	-9.81954
▁plan	-9.82003
set	-9.82032
ms	-9.82036
▁preferences	-9.82056
▁creating	-9.82069
▁dimensional	-9.82204
▁organizational	-9.8226
▁transaction	-9.82269
▁polynomials	-9.82314
▁move	-9.82325
▁reaction	-9.82327
▁--	-9.82357
▁beyond	-9.82421
▁noisy	-9.82464
▁shortest	-9.82483
▁concerns	-9.82591
way	-9.82714
▁store	-9.8272
▁correction	-9.82839
▁asynchronous	-9.83082
▁adding	-9.83129
▁3.	-9.83231
▁grids	-9.83299
▁genes	-9.83372
▁frequent	-9.83394
▁neighborhood	-9.83399
▁expensive	-9.83529
▁efforts	-9.83598
▁potentially	-9.83681
cs	-9.83723
▁creation	-9.83803
▁determination	-9.83945
min	-9.83951
▁named	-9.8413
▁inequality	-9.84175
ability	-9.84186
▁extent	-9.84303
▁enhancement	-9.84309
class	-9.8437
▁correctness	-9.84409
▁track	-9.84441
▁instructions	-9.84464
▁air	-9.84477
▁return	-9.84685
▁later	-9.84706
▁runs	-9.84715
▁fourier	-9.84742
▁representative	-9.84761
▁membership	-9.84781
▁contributions	-9.8487
▁correlated	-9.85108
▁children	-9.85269
▁11	-9.85602
▁indices	-9.85724
▁calibration	-9.85742
▁rotation	-9.85754
▁assembly	-9.85772
▁student	-9.85798
▁approximately	-9.85827
st	-9.85965
optimal	-9.86071
▁diverse	-9.86075
▁records	-9.86189
▁distortion	-9.86271
▁indeed	-9.86384
▁maximize	-9.8652
▁secondary	-9.86534
▁activation	-9.86607
▁universal	-9.86823
making	-9.86944
▁parallelism	-9.87038
stage	-9.8706
▁explain	-9.87064
▁svm	-9.87087
▁randomly	-9.87127
▁observe	-9.87169
▁half	-9.87179
▁missing	-9.87201
▁enterprise	-9.87331
▁switch	-9.87394
case	-9.87497
▁modular	-9.87675
▁deals	-9.8785
▁outputs	-9.87905
▁label	-9.87925
▁beam	-9.87959
▁rational	-9.8802
▁fractional	-9.8807
▁onto	-9.88103
▁follow	-9.88193
▁employ	-9.88249
▁extra	-9.88273
▁rough	-9.88284
▁balancing	-9.88543
▁concerning	-9.88672
▁financial	-9.88748
▁hyper	-9.88866
▁optimizing	-9.88899
▁home	-9.8893
▁perception	-9.88969
▁forces	-9.88974
▁degradation	-9.89018
▁experts	-9.89053
▁longer	-9.89054
▁add	-9.8907
▁format	-9.89099
▁squares	-9.89099
▁affected	-9.8922
▁adapted	-9.89248
▁variants	-9.89321
▁plant	-9.8936
▁row	-9.89395
▁variant	-9.89402
▁formulas	-9.89413
▁practices	-9.89478
▁greatly	-9.89584
▁host	-9.89629
▁adapt	-9.89636
▁peak	-9.89705
▁singular	-9.89744
▁satisfies	-9.89745
▁tolerance	-9.89816
▁purposes	-9.89829
▁utilizing	-9.89837
▁demands	-9.89878
▁arithmetic	-9.89886
▁mutual	-9.8998
▁elastic	-9.8998
▁ensemble	-9.90219
co	-9.90223
▁ca	-9.90251
▁entities	-9.90341
▁arrays	-9.90429
▁relaxation	-9.905
▁intra	-9.90524
▁attempt	-9.90592
▁thereby	-9.90622
▁neighbor	-9.90641
▁executed	-9.90709
▁exhibit	-9.90726
▁defining	-9.90816
▁designers	-9.90908
▁revealed	-9.91018
▁integrate	-9.91083
▁platforms	-9.9113
▁appears	-9.91133
▁experiences	-9.91217
▁behavioral	-9.91283
▁band	-9.91321
▁recall	-9.91321
▁insights	-9.91372
▁norm	-9.91389
▁damage	-9.91492
▁angle	-9.91512
▁standards	-9.91515
▁conclusions	-9.91557
▁frequencies	-9.91571
▁trajectory	-9.91617
▁score	-9.91627
▁today	-9.91658
out	-9.91718
▁presentation	-9.91777
nm	-9.91838
▁topics	-9.91856
▁category	-9.91884
▁files	-9.91886
▁independently	-9.91935
▁driven	-9.91937
learning	-9.92043
▁motor	-9.92101
ation	-9.92181
▁ordered	-9.92209
▁workload	-9.9222
1,	-9.9225
▁mac	-9.92355
▁generator	-9.92362
▁learned	-9.92498
▁remaining	-9.9257
▁identical	-9.92606
▁suppose	-9.9262
}	-9.92678
▁linguistic	-9.92718
▁enabling	-9.9277
▁benchmarks	-9.92773
▁workflow	-9.92924
▁go	-9.93033
▁satisfying	-9.93056
&	-9.93091
▁teaching	-9.93154
▁companies	-9.93193
▁explored	-9.9334
▁actually	-9.93441
▁inherent	-9.93468
▁rely	-9.93488
▁distances	-9.93525
▁trained	-9.93532
▁forecasting	-9.93668
man	-9.93712
▁architectural	-9.93906
▁quickly	-9.9396
▁alpha	-9.93989
▁art	-9.9399
▁tissue	-9.93997
▁species	-9.94019
▁considerable	-9.94023
▁4.	-9.94119
▁causes	-9.94171
▁phenomena	-9.94196
complete	-9.94242
ca	-9.9433
▁limits	-9.94443
▁analytic	-9.94475
);	-9.94578
▁updates	-9.94769
▁status	-9.94835
▁16	-9.94929
if	-9.95009
▁calls	-9.95075
▁facial	-9.95213
▁national	-9.9529
▁obtaining	-9.95301
▁experimentally	-9.95445
▁particles	-9.95559
▁incorporating	-9.95791
▁item	-9.95797
▁subspace	-9.96014
▁neuro	-9.96034
▁scan	-9.96036
tr	-9.96119
▁pixels	-9.96135
▁definitions	-9.96141
▁guide	-9.96211
▁orders	-9.96303
▁ring	-9.96321
domain	-9.96333
▁investigates	-9.96344
▁perfect	-9.96353
▁progress	-9.96426
▁look	-9.96461
▁variational	-9.9651
▁combinations	-9.96537
▁simplified	-9.96537
▁complicated	-9.96546
▁pp	-9.96676
▁reach	-9.96682
▁difficulty	-9.96747
▁reality	-9.96788
▁derivatives	-9.96868
▁confirm	-9.96882
▁usefulness	-9.96908
▁secret	-9.96941
▁assuming	-9.97028
▁bio	-9.97135
▁lifetime	-9.97403
▁motivated	-9.97438
▁tables	-9.97444
▁coordinate	-9.97457
▁performances	-9.97503
▁laboratory	-9.97584
▁alternatives	-9.97625
▁outcomes	-9.97654
▁redundant	-9.97686
▁split	-9.97796
▁acoustic	-9.97799
▁manual	-9.97839
▁thin	-9.97948
▁stationary	-9.97961
▁fraction	-9.97996
mm	-9.98102
▁schema	-9.98375
core	-9.98382
resolution	-9.98391
▁pose	-9.98463
▁soil	-9.9847
▁tuning	-9.98517
▁inequalities	-9.98558
▁record	-9.9863
▁rapidly	-9.98742
▁developers	-9.98746
▁drug	-9.99074
▁dependencies	-9.99109
▁again	-9.99236
▁relies	-9.99258
▁corresponds	-9.99279
▁employs	-9.99401
▁50	-9.99406
▁dealing	-9.99435
▁targets	-9.99551
▁clients	-9.99594
▁communities	-9.99643
▁eye	-9.99645
▁duration	-9.997
ac	-9.9981
▁proteins	-9.99887
▁fpga	-9.99921
▁desirable	-9.99928
▁coordinates	-10.0001
▁extremely	-10.0007
▁intersection	-10.0007
▁contexts	-10.002
▁subsequent	-10.002
▁urban	-10.0023
▁oriented	-10.0027
▁radial	-10.0043
▁guaranteed	-10.0047
▁extends	-10.0054
less	-10.0056
▁manage	-10.0068
▁precisely	-10.011
▁theories	-10.011
▁networking	-10.0111
id	-10.0115
▁becoming	-10.0118
{	-10.0119
▁vehicles	-10.0121
▁homogeneous	-10.0127
▁serve	-10.0145
▁correctly	-10.0153
▁contribute	-10.0155
▁contour	-10.0164
un	-10.0166
(1)	-10.0167
▁descriptors	-10.0168
▁preserving	-10.0169
▁highest	-10.0174
▁largest	-10.0179
▁pure	-10.0188
▁labels	-10.0189
▁transformed	-10.0193
▁greedy	-10.0199
▁regularization	-10.0199
▁30	-10.0213
▁2)	-10.0213
▁plays	-10.0222
▁throughout	-10.0223
▁factorization	-10.0228
|	-10.0229
▁blood	-10.0242
▁redundancy	-10.0243
▁heart	-10.0244
▁destination	-10.0252
▁concerned	-10.0256
▁mu	-10.0258
▁concentration	-10.0264
▁evaluations	-10.0269
▁versus	-10.0275
▁synchronous	-10.0279
▁subsets	-10.028
▁specify	-10.0288
▁summary	-10.0316
▁transitions	-10.0319
net	-10.0324
▁completion	-10.0352
▁proven	-10.0352
▁strategic	-10.0373
▁involve	-10.0374
▁augmented	-10.0387
ar	-10.0399
▁why	-10.0402
!	-10.041
*	-10.0422
▁arrival	-10.0426
▁name	-10.0426
▁roles	-10.0434
▁numerous	-10.0449
▁encryption	-10.0458
▁incorporated	-10.0467
▁loading	-10.0472
▁argument	-10.0485
▁aaaa	-10.0496
▁session	-10.0503
▁guidelines	-10.051
▁intended	-10.0511
▁music	-10.0515
▁nearest	-10.052
▁descriptions	-10.0523
▁similarly	-10.0527
▁resistance	-10.0542
▁proposal	-10.0549
▁applies	-10.0554
▁located	-10.0558
▁delta	-10.0558
▁reasons	-10.056
▁conflict	-10.0569
▁dense	-10.057
▁locality	-10.059
form	-10.0593
hop	-10.0596
▁coarse	-10.0601
▁pi	-10.0603
▁phenomenon	-10.0603
▁classified	-10.0608
▁join	-10.0614
▁insight	-10.0621
▁monitor	-10.0634
▁constructs	-10.0636
▁atomic	-10.0637
▁requiring	-10.0638
▁players	-10.0641
▁indicated	-10.0642
▁formed	-10.0645
▁bus	-10.0645
▁prevent	-10.0655
▁labeled	-10.0663
▁randomized	-10.0675
▁classify	-10.0675
▁academic	-10.0679
▁fi	-10.0684
▁detector	-10.0691
▁private	-10.0693
▁optimisation	-10.0693
▁splitting	-10.0699
▁smoothing	-10.07
▁controllers	-10.0702
▁batch	-10.0705
us	-10.0707
▁skills	-10.0711
▁numerically	-10.0721
▁front	-10.0724
▁pc	-10.0727
▁width	-10.073
▁divided	-10.0734
▁template	-10.0739
varying	-10.0743
▁adjacent	-10.0744
7	-10.0749
▁entry	-10.0761
▁utilize	-10.0765
▁symmetry	-10.0782
▁slow	-10.0791
▁argue	-10.0795
▁opportunities	-10.0799
▁satisfied	-10.0799
▁valuable	-10.08
▁consequence	-10.0805
▁advances	-10.0815
▁inventory	-10.0817
▁helps	-10.0817
▁libraries	-10.0822
▁incomplete	-10.0838
▁round	-10.0846
▁laser	-10.0855
▁besides	-10.0855
▁optimality	-10.0866
▁algorithmic	-10.0866
▁fitting	-10.0871
flow	-10.0875
▁collision	-10.0877
8	-10.0884
▁deployed	-10.0886
▁si	-10.0895
▁dynamical	-10.0899
▁electric	-10.0904
▁providers	-10.0906
▁contents	-10.0906
▁poor	-10.0911
▁outcome	-10.0916
ized	-10.0929
pi	-10.0933
▁difficulties	-10.0937
▁poisson	-10.0938
▁straightforward	-10.094
nn	-10.0944
▁aggregate	-10.0958
▁countries	-10.0959
▁loops	-10.0962
▁managing	-10.0966
▁scores	-10.0967
▁methodologies	-10.0967
▁fail	-10.097
▁style	-10.0975
▁modulation	-10.0977
▁appearance	-10.0979
▁proportional	-10.0984
▁recommendation	-10.0996
▁reactive	-10.0997
▁unfortunately	-10.1005
▁majority	-10.1018
▁arise	-10.1032
▁proofs	-10.1041
performance	-10.1047
▁treated	-10.1061
▁educational	-10.1063
▁diagrams	-10.1064
svm	-10.1081
we	-10.1089
path	-10.109
▁incorporate	-10.1091
▁closely	-10.1091
▁determines	-10.1114
▁calculus	-10.1117
▁attempts	-10.1121
▁believe	-10.1122
▁diagram	-10.1127
▁illumination	-10.1134
▁reverse	-10.1136
▁chains	-10.1138
▁triangular	-10.1153
▁additive	-10.1155
▁modifications	-10.1155
▁analog	-10.1159
▁say	-10.1173
▁led	-10.1173
▁box	-10.1175
▁consensus	-10.1185
efficient	-10.1199
frequency	-10.1211
▁remain	-10.1217
▁uncertainties	-10.1223
▁carry	-10.1243
▁placed	-10.1243
▁traces	-10.1255
▁substantial	-10.1259
▁tensor	-10.1263
▁recommendations	-10.1269
▁derivative	-10.1275
▁extracting	-10.1279
si	-10.1287
▁station	-10.1291
▁families	-10.1296
▁loads	-10.1299
▁cyclic	-10.1301
▁ir	-10.1302
▁references	-10.1317
▁dependency	-10.1321
▁strain	-10.1324
▁annealing	-10.1327
▁processed	-10.133
▁firstly	-10.1342
▁formulate	-10.1358
▁cooperation	-10.1358
os	-10.1362
speed	-10.1365
▁express	-10.1369
▁correspondence	-10.1373
▁stock	-10.1381
▁conclusion	-10.1411
defined	-10.142
▁wavelength	-10.1423
▁absolute	-10.1425
▁acceptance	-10.1454
▁db	-10.1457
cost	-10.1459
▁covering	-10.1462
independent	-10.1466
▁release	-10.1467
▁tight	-10.1477
▁keep	-10.1485
▁penalty	-10.1488
▁essentially	-10.1506
▁gpu	-10.1515
▁interior	-10.1523
ml	-10.1527
▁company	-10.1529
,"	-10.1529
▁displacement	-10.153
▁captured	-10.1534
▁car	-10.1536
▁possibly	-10.1547
▁passive	-10.1558
▁road	-10.1564
ary	-10.1566
▁14	-10.157
▁selective	-10.1582
▁controlling	-10.1583
▁linked	-10.1586
▁subjective	-10.1586
db	-10.1587
▁sufficiently	-10.1595
▁vibration	-10.1599
▁exploring	-10.16
rate	-10.1603
▁scalar	-10.1603
▁engines	-10.1606
▁neighbors	-10.1608
▁updated	-10.1613
▁euclidean	-10.1614
://	-10.1624
▁updating	-10.1625
▁normalized	-10.163
▁deviation	-10.1632
▁seems	-10.1633
▁intrinsic	-10.1635
▁inspired	-10.1643
▁conversion	-10.1653
▁interested	-10.1655
▁circular	-10.166
▁nearly	-10.1662
▁em	-10.1672
▁leakage	-10.1673
▁interact	-10.1686
▁molecules	-10.1688
▁referred	-10.1691
▁inner	-10.1692
▁arguments	-10.1696
▁shear	-10.1703
▁poly	-10.1707
2)	-10.1711
▁wall	-10.1717
▁exploits	-10.172
▁voice	-10.1731
▁collections	-10.1739
▁windows	-10.174
▁count	-10.1753
▁complementary	-10.1761
▁realized	-10.1765
▁speedup	-10.1773
peer	-10.1778
▁division	-10.1778
▁put	-10.178
▁aimed	-10.1789
▁http	-10.1798
▁ordinary	-10.1799
▁electron	-10.18
▁setup	-10.1803
▁tag	-10.181
▁bases	-10.1814
▁moment	-10.1822
▁annotation	-10.1828
▁simpler	-10.1833
▁rich	-10.1837
▁dimensionality	-10.1839
▁entries	-10.1839
▁movements	-10.1842
▁slightly	-10.1842
▁lp	-10.1845
▁sent	-10.1851
▁author	-10.1854
▁choosing	-10.1856
▁stereo	-10.186
▁mm	-10.1861
▁consumer	-10.1866
▁transportation	-10.1867
▁bottom	-10.1868
▁relay	-10.1868
▁fair	-10.1869
▁extending	-10.1873
▁hash	-10.1874
▁baseline	-10.1878
▁receptor	-10.1879
▁originality	-10.1881
▁live	-10.1885
▁vs	-10.1887
▁person	-10.1892
▁acceptable	-10.1895
▁discriminant	-10.1905
▁lot	-10.1906
▁contained	-10.1915
▁ct	-10.1925
▁examines	-10.1927
▁nets	-10.1934
▁permutation	-10.1934
▁scope	-10.1935
▁balanced	-10.1949
▁caching	-10.1952
▁artifacts	-10.1955
▁antenna	-10.1961
▁arc	-10.1969
▁piecewise	-10.197
▁viewed	-10.1973
▁assessed	-10.1976
▁manipulation	-10.1981
▁trajectories	-10.1982
▁rigid	-10.1988
▁broad	-10.1989
▁receive	-10.1991
▁−	-10.1992
▁diagnostic	-10.2008
▁supervised	-10.2014
▁initially	-10.2016
▁aid	-10.2018
▁trends	-10.2019
▁5.	-10.2021
▁significance	-10.2023
▁innovative	-10.2031
▁stack	-10.2038
▁awareness	-10.2039
power	-10.2044
▁802.11	-10.2055
loop	-10.2067
▁belief	-10.2072
▁ubiquitous	-10.2075
▁correspond	-10.2079
▁estimators	-10.2086
▁nor	-10.2088
▁computes	-10.209
induced	-10.2092
▁smallest	-10.2095
▁dc	-10.2097
▁recorded	-10.2098
▁sign	-10.2107
max	-10.2112
▁fairness	-10.2122
fuzzy	-10.2126
▁except	-10.2129
▁formally	-10.213
▁choices	-10.2132
▁utilizes	-10.2133
▁deep	-10.2134
▁1-	-10.2141
▁excellent	-10.2144
▁refer	-10.2145
▁metadata	-10.2146
▁silicon	-10.2149
▁acquired	-10.2151
▁discover	-10.2153
▁sections	-10.2156
ta	-10.2166
▁concern	-10.2182
iii	-10.2188
le	-10.219
▁formulations	-10.219
▁elimination	-10.2192
▁reflect	-10.2199
▁compressed	-10.2201
▁wind	-10.2201
▁properly	-10.2205
▁middleware	-10.2213
approach	-10.2215
▁themselves	-10.2221
▁moments	-10.2223
▁operate	-10.2225
▁fitness	-10.2227
▁simplicity	-10.2227
▁date	-10.223
2,	-10.2237
▁managers	-10.2238
▁innovation	-10.2247
▁simulating	-10.2251
di	-10.2257
▁metal	-10.2258
▁derivation	-10.2262
▁occurrence	-10.2263
▁subsequently	-10.2264
▁land	-10.2268
▁naturally	-10.2268
▁exploited	-10.2271
▁act	-10.2274
▁usual	-10.2278
▁diseases	-10.2285
▁replication	-10.2288
▁extreme	-10.2291
▁predictor	-10.2294
▁eight	-10.2308
].	-10.2318
▁correlations	-10.2322
output	-10.2323
▁spanning	-10.2331
▁videos	-10.2331
▁studying	-10.2335
▁assessing	-10.234
▁unsupervised	-10.2347
▁ratios	-10.2348
with	-10.2348
▁meaning	-10.2354
▁foundation	-10.2355
▁conservation	-10.2363
▁decreases	-10.2365
▁geo	-10.2367
mode	-10.2371
▁height	-10.2377
▁replacement	-10.2378
▁fiber	-10.2388
▁firms	-10.2392
ma	-10.2392
▁dominant	-10.2393
▁affine	-10.24
▁migration	-10.2401
▁spread	-10.2416
▁meaningful	-10.2425
▁motivation	-10.2425
▁(2	-10.2427
means	-10.2431
▁columns	-10.2433
▁25	-10.2434
▁ontologies	-10.2438
▁attractive	-10.245
▁reconfigurable	-10.2451
▁predicate	-10.2462
▁uniformly	-10.2469
▁animation	-10.247
▁options	-10.247
▁fashion	-10.2475
▁want	-10.2477
▁technological	-10.2496
▁corpus	-10.2498
▁restrictions	-10.2519
▁contextual	-10.2531
▁partitions	-10.2532
▁priori	-10.2536
▁signaling	-10.2539
▁beta	-10.2543
em	-10.2547
▁fewer	-10.2551
▁negotiation	-10.2552
user	-10.2555
▁resonance	-10.2557
▁barrier	-10.2568
▁arising	-10.2579
▁humans	-10.2579
▁tags	-10.2582
▁hypotheses	-10.2596
▁competition	-10.2609
▁focusing	-10.2618
▁electro	-10.2624
▁facilities	-10.2631
methodology	-10.2631
temporal	-10.2633
▁axis	-10.2634
▁incorporates	-10.2639
which	-10.2649
▁router	-10.2654
▁freedom	-10.2654
▁theorems	-10.2659
▁topologies	-10.266
▁unstructured	-10.266
▁adopt	-10.2672
▁eliminate	-10.2673
▁lists	-10.2676
▁rest	-10.2677
▁amplitude	-10.2678
▁notation	-10.2684
▁adequate	-10.2688
▁40	-10.269
▁emphasis	-10.2698
▁necessarily	-10.2699
▁evolving	-10.2702
▁chaotic	-10.2708
▁harmonic	-10.271
▁compounds	-10.2728
▁removal	-10.2732
▁multimodal	-10.2737
▁pareto	-10.2757
▁percent	-10.2759
▁healthcare	-10.2762
▁13	-10.2763
▁facility	-10.2763
▁trend	-10.2764
▁repeated	-10.2766
▁inclusion	-10.2769
▁proposition	-10.2771
▁send	-10.2772
▁papers	-10.2776
▁suited	-10.2781
▁perturbation	-10.2793
▁quantization	-10.2797
▁lengths	-10.2808
▁decide	-10.2815
▁cad	-10.2817
▁vary	-10.2819
▁percentage	-10.2823
▁denoted	-10.2829
▁),	-10.283
▁chinese	-10.283
▁newly	-10.285
▁assist	-10.2857
▁thickness	-10.2858
▁mutation	-10.2859
▁id	-10.286
▁sometimes	-10.2862
▁petri	-10.2864
▁weighting	-10.2875
▁controls	-10.2885
▁(1	-10.2889
▁remove	-10.2893
▁outside	-10.2898
▁player	-10.2899
ia	-10.2917
▁candidates	-10.2918
cm	-10.2925
▁pro	-10.2931
▁flux	-10.2933
size	-10.2934
▁indicators	-10.2945
▁execute	-10.2946
▁identifies	-10.2949
▁calculating	-10.2949
▁blind	-10.2953
▁driving	-10.2959
▁periods	-10.2965
▁nano	-10.2969
▁faces	-10.2971
▁dedicated	-10.2977
ra	-10.2991
▁defects	-10.2995
▁regulation	-10.3004
▁auto	-10.3008
▁automaton	-10.3022
++	-10.3025
▁blocking	-10.3037
▁intuitive	-10.3045
▁entity	-10.305
▁geographic	-10.3061
▁pairwise	-10.3064
▁inspection	-10.3068
▁overlap	-10.3069
▁charge	-10.3073
ch	-10.3074
▁gains	-10.3074
▁transmit	-10.3077
▁drawing	-10.3077
▁defines	-10.3077
▁bridge	-10.308
▁returns	-10.3081
▁teams	-10.3083
▁differ	-10.3097
▁trans	-10.3099
▁automation	-10.31
▁reveals	-10.3105
▁waves	-10.3111
▁lagrangian	-10.3112
wise	-10.3113
▁interconnection	-10.3114
▁primitive	-10.3116
cell	-10.3121
▁immune	-10.3121
▁eigenvalues	-10.3125
▁optimizations	-10.313
▁distinguish	-10.3134
▁considerably	-10.3135
▁explained	-10.3141
▁equipment	-10.3142
iv	-10.3144
▁white	-10.3149
▁rise	-10.3149
▁plasma	-10.3151
pso	-10.3152
▁addressing	-10.316
▁day	-10.3164
▁centralized	-10.3168
▁latent	-10.3174
▁pricing	-10.3176
sensitive	-10.3179
me	-10.318
▁counter	-10.3181
▁sorting	-10.3181
▁continuously	-10.3184
▁enhancing	-10.3185
▁membrane	-10.319
sigma	-10.3197
▁black	-10.3198
▁st	-10.3198
▁safe	-10.3206
▁reading	-10.3213
▁denotes	-10.3221
▁exposure	-10.323
▁overlapping	-10.3232
▁tend	-10.3234
▁compensation	-10.3239
▁seven	-10.324
▁savings	-10.3242
▁fading	-10.3251
▁productivity	-10.3253
▁mentioned	-10.3254
omega	-10.3255
▁producing	-10.3257
ion	-10.3259
▁substrate	-10.3263
▁empirically	-10.3271
▁syntax	-10.3271
▁quantity	-10.3276
▁conduct	-10.328
quality	-10.3281
▁separately	-10.3285
▁drive	-10.3287
▁changed	-10.3289
▁confirmed	-10.3289
▁plans	-10.3293
▁diameter	-10.3296
▁spectra	-10.3297
▁pass	-10.3297
▁strings	-10.3298
processing	-10.3299
▁accepted	-10.3299
▁affects	-10.33
▁train	-10.33
▁symbol	-10.3304
▁physics	-10.3307
▁merging	-10.3316
no	-10.3321
▁@	-10.3327
cl	-10.3328
▁intensive	-10.3335
▁conjunction	-10.3343
▁giving	-10.3344
▁former	-10.3345
▁sophisticated	-10.3348
▁satisfactory	-10.336
▁disjoint	-10.3363
▁kernels	-10.3365
▁easier	-10.337
▁defect	-10.3372
▁transmitted	-10.3372
channel	-10.3374
▁scenes	-10.3377
▁elliptic	-10.3383
▁radius	-10.3389
▁1:	-10.3392
▁finds	-10.3395
▁plate	-10.34
▁outperform	-10.3407
mc	-10.3413
▁explores	-10.3415
ant	-10.3416
▁largely	-10.3423
▁pipeline	-10.3425
▁mis	-10.3431
▁news	-10.3439
tolerant	-10.3441
▁daily	-10.3443
▁successive	-10.3458
▁fl	-10.346
▁(4)	-10.3463
▁behind	-10.3469
constrained	-10.3471
▁integrity	-10.3472
▁statistically	-10.3472
▁integrates	-10.3473
▁quantify	-10.3487
▁repair	-10.3492
▁claim	-10.35
▁answers	-10.3507
▁ranging	-10.3508
▁coherence	-10.351
▁proxy	-10.352
down	-10.3522
▁drawn	-10.3527
▁copy	-10.3531
▁signatures	-10.3534
▁termination	-10.3537
9	-10.3538
▁substantially	-10.3539
▁rfid	-10.3542
▁auction	-10.3545
▁amounts	-10.3553
▁never	-10.3554
▁briefly	-10.3565
▁ease	-10.3567
▁geometrical	-10.3574
all	-10.3586
▁queueing	-10.3592
phi	-10.3593
▁heavy	-10.3594
▁advance	-10.3595
▁insertion	-10.3595
▁extensively	-10.3595
▁illustrates	-10.3596
▁newton	-10.3599
▁laws	-10.361
▁regard	-10.3611
▁empty	-10.3614
▁schedules	-10.3616
▁mappings	-10.3619
▁forwarding	-10.3619
▁articles	-10.3627
▁modal	-10.3632
▁eigenvalue	-10.3641
com	-10.3642
▁responsible	-10.3642
▁considerations	-10.3656
▁cutting	-10.366
▁approximated	-10.3671
ian	-10.3672
▁centers	-10.3676
▁huge	-10.3679
▁statement	-10.3686
ts	-10.3694
ip	-10.3709
▁nested	-10.3711
▁covariance	-10.3712
▁communicate	-10.3712
▁stations	-10.3716
▁compatible	-10.3716
▁overlay	-10.3718
▁whenever	-10.3729
▁reviews	-10.3731
▁primarily	-10.3732
▁strictly	-10.3742
▁film	-10.3744
▁horizontal	-10.3759
such	-10.376
▁generalize	-10.3771
10	-10.3784
▁die	-10.3788
▁asymmetric	-10.379
▁conservative	-10.3792
▁diagonal	-10.3792
▁characters	-10.3796
▁absence	-10.3796
▁multiplication	-10.3798
▁causal	-10.38
▁impacts	-10.3805
▁analysed	-10.3811
▁european	-10.3811
▁matches	-10.3814
▁preserve	-10.3814
▁green	-10.3816
▁displays	-10.3817
▁lambda	-10.3822
▁peers	-10.3839
▁thread	-10.3841
ir	-10.3841
▁ms	-10.3843
▁recognized	-10.3843
▁removed	-10.3843
▁travel	-10.3848
▁alone	-10.3848
▁(3	-10.3854
▁modify	-10.3861
▁17	-10.3866
▁globally	-10.3869
▁resulted	-10.3871
▁collective	-10.3895
▁keys	-10.3917
▁bone	-10.3918
▁24	-10.3918
▁histogram	-10.3927
▁curvature	-10.393
▁cope	-10.3937
▁moves	-10.3937
▁serious	-10.3937
1)	-10.394
▁union	-10.3962
▁cores	-10.3962
▁consumers	-10.3967
▁multiprocessor	-10.3969
▁intention	-10.3973
▁transforms	-10.3974
▁mapped	-10.3991
▁nevertheless	-10.4
▁lyapunov	-10.4008
▁mr	-10.4013
▁0,	-10.4021
▁cd	-10.4028
-3	-10.4029
▁aware	-10.403
▁complement	-10.403
node	-10.4032
▁lies	-10.4041
▁th	-10.4049
▁exhibits	-10.405
data	-10.4058
▁profit	-10.4071
▁accesses	-10.4076
▁routes	-10.4077
▁threads	-10.4082
▁sliding	-10.4091
▁offered	-10.4093
▁master	-10.4104
)(	-10.4107
▁differentiation	-10.4125
life	-10.4131
▁robotic	-10.4155
▁highlight	-10.4156
▁efficacy	-10.4174
▁ten	-10.4178
▁ensures	-10.4179
▁symbols	-10.4181
▁investment	-10.4199
▁tradeoff	-10.4201
▁come	-10.4202
▁photo	-10.4229
▁strict	-10.4229
▁statements	-10.4239
▁linearly	-10.4251
▁capturing	-10.4252
▁markets	-10.4255
▁pulse	-10.4257
▁scanning	-10.426
il	-10.4262
▁gray	-10.4262
noise	-10.4263
▁firm	-10.4265
▁school	-10.4272
ct	-10.4274
▁theoretically	-10.4276
▁government	-10.428
▁quantities	-10.4288
▁interacting	-10.4288
▁origin	-10.4289
▁maximizing	-10.4299
▁rf	-10.43
▁specialized	-10.4302
▁perspectives	-10.4305
▁scattering	-10.4308
▁plus	-10.4311
▁restriction	-10.4313
map	-10.4318
▁sp	-10.4318
▁losses	-10.4321
▁independence	-10.4321
▁old	-10.4324
length	-10.4327
model	-10.4329
▁forest	-10.4343
▁developments	-10.4352
▁compares	-10.4355
▁suite	-10.436
nd	-10.4362
▁irregular	-10.4362
▁acid	-10.4363
field	-10.4363
▁coherent	-10.4364
▁decentralized	-10.4366
theoretic	-10.4367
▁notions	-10.4368
▁interconnect	-10.437
▁viewpoint	-10.4373
▁surveillance	-10.4376
▁year	-10.4378
▁replaced	-10.4391
▁screen	-10.4394
▁beginning	-10.44
▁contention	-10.44
▁manually	-10.4404
bi	-10.4406
▁consequences	-10.4407
▁sigma	-10.4408
▁pso	-10.4411
▁cameras	-10.4424
▁decreasing	-10.4437
▁skin	-10.4439
▁scheduler	-10.4441
▁canonical	-10.4442
▁watermarking	-10.4442
ray	-10.4445
adaptive	-10.4446
per	-10.445
▁facilitates	-10.4452
▁zone	-10.4452
▁realize	-10.4456
▁electromagnetic	-10.4463
cf	-10.4472
▁waiting	-10.4474
▁liquid	-10.4478
▁primitives	-10.4481
▁bottleneck	-10.4481
▁historical	-10.4492
▁preprocessing	-10.4494
▁mostly	-10.4501
▁trial	-10.4505
▁su	-10.4506
▁epsilon	-10.451
▁manifold	-10.4511
▁discovered	-10.4517
▁).	-10.452
▁writing	-10.4521
▁red	-10.4521
▁proving	-10.4526
▁spatially	-10.4539
▁rectangular	-10.454
commerce	-10.4544
▁acceleration	-10.4555
▁solvers	-10.4558
▁malicious	-10.4561
▁minimized	-10.4563
▁backward	-10.4567
▁perceptual	-10.4579
▁minimizes	-10.4589
▁frameworks	-10.4592
▁preferred	-10.4594
▁severe	-10.4597
▁recover	-10.4599
▁stiffness	-10.4604
▁19	-10.4604
▁asymptotically	-10.4605
▁partitioned	-10.461
▁reinforcement	-10.4614
▁22	-10.4615
▁discontinuous	-10.4622
▁directional	-10.4622
▁matter	-10.4623
▁investigating	-10.4625
▁enabled	-10.4628
teroperability	-10.4638
▁neither	-10.4642
▁concurrency	-10.4649
▁incompressible	-10.4668
▁consecutive	-10.4673
▁suffer	-10.4677
▁[1]	-10.4683
▁tumor	-10.4685
▁labeling	-10.4686
▁counting	-10.4687
▁terminal	-10.4688
▁ultra	-10.469
ff	-10.4706
▁parameterized	-10.4719
▁option	-10.4722
▁her	-10.4728
▁rst	-10.4729
▁refined	-10.4735
▁influences	-10.4738
▁member	-10.474
▁immediately	-10.4742
▁sa	-10.4753
▁anisotropic	-10.4754
▁expressive	-10.4756
▁hot	-10.4761
▁pruning	-10.4762
▁2004	-10.4762
▁elementary	-10.4766
▁crack	-10.4776
▁21	-10.4777
▁null	-10.4781
deterministic	-10.4781
▁flat	-10.4785
▁wire	-10.4789
▁breast	-10.4792
memory	-10.4796
▁matched	-10.4797
source	-10.4803
▁organized	-10.4804
band	-10.4804
▁visible	-10.4811
▁encoded	-10.482
▁registers	-10.4821
▁completed	-10.4822
▁closure	-10.4824
▁lie	-10.4826
▁respective	-10.4829
▁recurrent	-10.4833
▁phone	-10.4835
▁china	-10.4837
▁fourth	-10.4844
use	-10.4849
▁2005	-10.4857
▁continuity	-10.4866
▁monotone	-10.4874
▁decreased	-10.4876
▁constants	-10.4879
▁oil	-10.4882
▁hospital	-10.4898
▁grouping	-10.4906
▁keeping	-10.4916
▁pr	-10.4918
▁learners	-10.492
▁converge	-10.4923
▁gamma	-10.4927
▁motions	-10.4929
▁radiation	-10.494
▁reached	-10.4948
▁english	-10.4954
▁matlab	-10.4959
▁2:	-10.4965
▁ever	-10.4965
▁comes	-10.4971
ge	-10.4982
▁turns	-10.499
▁tri	-10.4996
▁captures	-10.4996
▁imposed	-10.4997
da	-10.5005
▁shall	-10.5007
▁prime	-10.5007
▁grammar	-10.5012
▁resolve	-10.5018
▁limitation	-10.5018
▁packing	-10.5024
▁try	-10.5024
▁realization	-10.5026
uniform	-10.5028
▁arbitrarily	-10.5028
▁invariants	-10.5034
▁courses	-10.5037
▁multiscale	-10.5037
▁recognize	-10.5037
▁interpreted	-10.5039
▁screening	-10.5041
▁coloring	-10.5045
▁li	-10.5045
▁equality	-10.5049
▁dispersion	-10.5051
norm	-10.5053
▁portion	-10.5057
non	-10.5057
-4	-10.5058
▁analyse	-10.5064
▁copies	-10.5068
▁formalism	-10.5074
te	-10.5077
▁regulatory	-10.5077
test	-10.5081
hoc	-10.5083
▁understood	-10.5085
▁cryptographic	-10.5093
▁prices	-10.5097
▁galerkin	-10.5099
▁macro	-10.5099
▁?-	-10.5102
▁:=	-10.5102
▁consist	-10.5109
▁limiting	-10.5112
izing	-10.5117
▁satellite	-10.5118
▁assign	-10.512
▁avoiding	-10.5123
▁solves	-10.5126
▁examining	-10.5138
▁names	-10.5142
▁isolated	-10.5144
▁outliers	-10.5146
▁arises	-10.5146
▁positioning	-10.5154
▁encountered	-10.5156
im	-10.5157
▁browsing	-10.5157
pass	-10.5166
▁intrusion	-10.5169
▁2000	-10.517
▁executing	-10.5172
▁personalized	-10.5173
▁mpi	-10.5175
▁leaf	-10.5181
service	-10.5185
be	-10.5196
▁star	-10.5205
▁practitioners	-10.521
▁starts	-10.521
▁spherical	-10.5211
▁presenting	-10.5212
▁uml	-10.5223
▁cardiac	-10.5231
▁triangle	-10.5235
▁parallelization	-10.5242
▁neighboring	-10.5244
▁switches	-10.5245
▁der	-10.5245
preserving	-10.5249
▁continue	-10.5255
▁truth	-10.526
▁meeting	-10.5261
ns	-10.5265
um	-10.527
▁fe	-10.5285
▁]	-10.5286
▁annual	-10.5288
over	-10.5295
▁big	-10.5301
▁dissipation	-10.5302
▁bank	-10.5307
▁begin	-10.5314
▁}	-10.5323
▁expect	-10.5342
▁biology	-10.5343
▁regional	-10.5347
▁participation	-10.5348
▁voting	-10.5357
▁citation	-10.5358
▁sector	-10.5367
lt	-10.5369
▁patent	-10.5374
▁6.	-10.5379
▁speaker	-10.5379
▁probe	-10.5381
▁conjecture	-10.5382
▁designer	-10.5384
▁admission	-10.5386
▁possibilities	-10.5391
▁replace	-10.5392
▁conflicts	-10.5395
ive	-10.5395
▁systematically	-10.5399
▁raw	-10.5402
▁reconstructed	-10.5408
▁4.1	-10.5415
▁logics	-10.5418
▁films	-10.5418
▁18	-10.5426
▁floating	-10.5427
▁deliver	-10.5427
▁secondly	-10.543
▁converges	-10.5442
▁ray	-10.5451
▁∈	-10.5454
▁ml	-10.546
pa	-10.5462
▁expectation	-10.5464
▁generators	-10.5467
▁vlsi	-10.5467
▁cues	-10.5469
▁ict	-10.5475
▁collect	-10.5476
▁sessions	-10.5482
▁intervention	-10.5484
▁doing	-10.5491
▁3.1	-10.5491
▁flash	-10.5496
▁approximating	-10.5502
▁ic	-10.5505
▁moderate	-10.5507
▁caches	-10.5511
▁searches	-10.5518
▁gates	-10.5518
▁indirect	-10.5526
▁ma	-10.5527
▁mechanics	-10.5535
],	-10.5551
▁muscle	-10.5554
▁analytically	-10.5557
▁atoms	-10.556
▁biomedical	-10.556
▁proximity	-10.5563
▁fragments	-10.5575
▁categorization	-10.5575
ad	-10.558
▁teachers	-10.5588
▁modelled	-10.5588
bound	-10.5589
box	-10.559
▁affecting	-10.5591
▁multiobjective	-10.5592
▁bipartite	-10.5593
▁emission	-10.5596
▁dictionary	-10.5604
▁brief	-10.5605
▁passing	-10.5605
▁prefix	-10.5606
▁lu	-10.5608
▁programmable	-10.5611
▁forming	-10.5612
▁similarities	-10.5616
▁emotional	-10.5621
▁neuron	-10.5626
▁faulty	-10.5628
▁carbon	-10.5632
▁cs	-10.5633
ps	-10.5633
ism	-10.5637
▁median	-10.564
▁lock	-10.5644
▁symposium	-10.5649
▁adjustment	-10.5649
▁routers	-10.5653
▁indicator	-10.5658
▁rigorous	-10.5661
fs	-10.5662
cp	-10.5669
▁influenced	-10.5687
▁normalization	-10.5694
ist	-10.5695
▁exponentially	-10.5699
▁descriptor	-10.5708
▁sender	-10.5713
▁occurring	-10.5721
▁tracing	-10.573
▁driver	-10.5733
▁parent	-10.5748
organizing	-10.5749
sub	-10.5753
▁specifying	-10.5754
▁accordingly	-10.5756
▁serial	-10.5761
▁sleep	-10.5767
▁inversion	-10.5771
ann	-10.5779
▁lowest	-10.578
▁200	-10.5781
▁mathematics	-10.5783
▁auxiliary	-10.5783
▁bayes	-10.5786
▁default	-10.579
▁cubic	-10.5795
▁ranges	-10.58
▁ill	-10.5805
▁predicates	-10.5805
▁adversary	-10.5807
▁miss	-10.5817
▁divide	-10.5819
▁mc	-10.5823
▁accessible	-10.5827
▁drop	-10.5831
▁ann	-10.5832
parallel	-10.5836
▁guidance	-10.584
▁0.5	-10.5844
▁saving	-10.5845
▁establishing	-10.5847
▁lost	-10.5848
▁restoration	-10.5852
▁reflection	-10.5853
▁gained	-10.5859
▁risks	-10.5869
▁beneficial	-10.587
▁queues	-10.5873
▁localized	-10.5877
▁heterogeneity	-10.5886
el	-10.5887
ne	-10.5888
▁workshop	-10.59
▁credit	-10.5907
▁maintained	-10.5908
ate	-10.5909
grained	-10.5922
fi	-10.5927
▁decoder	-10.5928
▁patch	-10.5929
▁develops	-10.5935
▁mpeg	-10.5944
demand	-10.5946
▁indicating	-10.5962
▁city	-10.5965
▁mental	-10.5971
▁eeg	-10.5977
▁opportunity	-10.598
▁convenient	-10.5984
cr	-10.5986
dr	-10.5988
▁ex	-10.5988
▁tomography	-10.5989
▁subgraph	-10.5993
▁reconfiguration	-10.5996
▁hamiltonian	-10.6005
▁professional	-10.6007
▁dis	-10.6008
▁multilevel	-10.601
▁feed	-10.6011
▁broadcasting	-10.6013
▁carefully	-10.6016
▁therapy	-10.6017
▁2006	-10.6022
▁away	-10.6025
▁battery	-10.6035
▁outer	-10.6036
▁integers	-10.6039
am	-10.6051
▁kinetic	-10.606
▁regardless	-10.6061
▁receiving	-10.6063
▁ion	-10.6067
▁immediate	-10.6076
tm	-10.6077
▁constructions	-10.6082
▁mixing	-10.6082
▁colors	-10.6084
▁rows	-10.6098
▁spatio	-10.6115
view	-10.6119
▁syntactic	-10.6123
▁ant	-10.6129
mac	-10.6149
▁60	-10.6153
▁taxonomy	-10.6156
▁im	-10.616
▁traditionally	-10.6161
▁pca	-10.6168
▁fabricated	-10.6174
key	-10.6175
ine	-10.6176
sc	-10.6191
▁completeness	-10.6195
▁creates	-10.6197
isation	-10.6198
▁textual	-10.62
▁receivers	-10.6212
▁permits	-10.6213
ap	-10.6223
▁gis	-10.6225
▁tv	-10.6225
▁fortran	-10.6231
▁fabrication	-10.6235
▁templates	-10.6237
▁offset	-10.6238
centric	-10.6239
▁inhibitors	-10.624
▁observer	-10.6245
▁corollary	-10.625
con	-10.625
▁sciences	-10.6251
▁se	-10.6251
▁discrimination	-10.6256
▁ffi	-10.6262
▁picture	-10.6263
▁pathways	-10.6264
▁3.2	-10.6265
▁popularity	-10.6266
▁projections	-10.6271
▁bond	-10.6273
▁united	-10.6277
▁retrieved	-10.6282
▁emerged	-10.6285
connected	-10.6288
pr	-10.6293
▁none	-10.6296
▁physiological	-10.6299
▁sphere	-10.6302
▁fragment	-10.6304
▁adjust	-10.6305
▁contract	-10.6306
mp	-10.6308
▁consistently	-10.6308
▁odd	-10.6309
▁society	-10.6316
▁dr	-10.6323
qos	-10.6332
▁omega	-10.6337
▁pa	-10.6342
▁isolation	-10.6342
▁allocated	-10.6344
▁32	-10.6344
▁removing	-10.6345
▁implements	-10.6347
cut	-10.6348
▁spin	-10.635
▁maximization	-10.6355
ated	-10.636
▁covered	-10.6363
▁budget	-10.6364
▁repository	-10.6364
▁fails	-10.6367
▁marginal	-10.6373
▁classic	-10.6384
▁cultural	-10.6385
▁helpful	-10.6385
▁achievable	-10.6386
▁manager	-10.6387
▁room	-10.6388
▁initialization	-10.6391
▁compilation	-10.6393
▁logistic	-10.6399
wide	-10.6407
▁mimo	-10.641
▁mouse	-10.6412
▁outline	-10.6415
▁engineers	-10.6421
▁ensuring	-10.6425
aided	-10.6427
input	-10.6432
▁transparent	-10.6432
▁sampled	-10.6434
▁legal	-10.6434
▁en	-10.6434
ex	-10.6437
▁contours	-10.6442
▁department	-10.6443
▁discriminative	-10.6444
▁belong	-10.6448
▁injection	-10.6449
sa	-10.6449
server	-10.6454
▁impossible	-10.646
▁eventually	-10.646
▁cm	-10.6462
op	-10.6465
▁predictors	-10.6466
▁90	-10.6491
son	-10.6494
▁posterior	-10.6497
▁pervasive	-10.6507
na	-10.6511
vi	-10.6526
▁margin	-10.653
▁4-	-10.6531
▁retrieve	-10.6532
ba	-10.6533
▁naive	-10.6538
dt	-10.6538
▁simplify	-10.6543
first	-10.6543
▁angles	-10.6546
▁trials	-10.6547
▁covers	-10.6554
▁stronger	-10.6556
▁optimally	-10.6563
▁slot	-10.6573
ha	-10.6579
▁emergency	-10.6596
▁2.1	-10.6598
▁experienced	-10.6599
▁seconds	-10.6605
▁2.0	-10.6612
ment	-10.6612
side	-10.6615
▁sharp	-10.6628
lp	-10.6635
▁straight	-10.6638
▁seem	-10.664
▁guided	-10.6641
▁healthy	-10.6657
▁portable	-10.6659
▁buffers	-10.6659
▁diabetes	-10.6661
▁sort	-10.6664
system	-10.6666
ities	-10.6673
▁equipped	-10.6674
▁demonstrating	-10.6681
▁adaptively	-10.6686
▁volumes	-10.6687
▁regarded	-10.6688
▁obstacles	-10.669
▁viewing	-10.6695
▁varied	-10.6698
▁obvious	-10.6698
▁classifying	-10.6706
▁impedance	-10.6714
▁patches	-10.6718
▁indoor	-10.6737
▁visually	-10.6739
▁populations	-10.674
▁middle	-10.6744
▁gps	-10.6745
▁cu	-10.6746
▁avoids	-10.6749
▁handled	-10.6754
▁ram	-10.6756
▁shock	-10.6756
▁subdivision	-10.6757
(3)	-10.6758
▁2002	-10.676
oe	-10.676
▁investigations	-10.6762
▁rewriting	-10.6764
▁iso	-10.6769
▁marketing	-10.6773
▁delayed	-10.6775
▁gender	-10.6778
her	-10.6782
ds	-10.6783
pc	-10.6791
fold	-10.6792
▁provider	-10.6792
▁oracle	-10.6796
▁child	-10.6797
▁sequencing	-10.6803
▁con	-10.6805
▁tackle	-10.6815
▁separated	-10.6816
▁morphological	-10.6817
mu	-10.682
ul	-10.6821
▁emotion	-10.6826
range	-10.6826
▁28	-10.6836
▁workloads	-10.6844
▁broadband	-10.6853
▁analyzes	-10.6867
▁leaves	-10.6868
so	-10.687
▁cr	-10.6875
▁offline	-10.6891
▁assumes	-10.6894
▁decades	-10.6896
▁selects	-10.6903
▁reputation	-10.6903
▁prefetching	-10.6905
▁polygon	-10.6914
▁dissemination	-10.6917
▁treat	-10.692
▁annotations	-10.6926
▁debugging	-10.6934
▁inductive	-10.6941
▁reactions	-10.6941
▁programmers	-10.6942
rank	-10.6946
diffusion	-10.6956
uk	-10.6956
▁layered	-10.6957
▁granularity	-10.6961
hand	-10.6964
▁geometries	-10.6967
▁accessibility	-10.6968
▁characterizing	-10.6971
▁4,	-10.6974
▁perceptions	-10.6982
▁places	-10.6987
▁targeted	-10.6996
▁compound	-10.6998
▁assignments	-10.6999
▁2007	-10.7008
▁token	-10.7012
▁slope	-10.7012
▁instability	-10.7015
▁branches	-10.7015
mo	-10.702
ce	-10.7025
▁euler	-10.7026
▁decomposed	-10.7036
▁decade	-10.7043
▁fractal	-10.7046
▁portfolio	-10.706
▁keyword	-10.7061
▁converter	-10.7068
pp	-10.707
▁auctions	-10.7076
▁million	-10.7081
▁compatibility	-10.7083
▁editing	-10.7086
▁documentation	-10.7087
▁pilot	-10.7088
▁23	-10.709
▁relate	-10.7095
▁nash	-10.7101
▁surrounding	-10.7105
▁stabilization	-10.7111
▁protect	-10.7117
se	-10.7118
▁journals	-10.712
▁accomplished	-10.7123
▁readily	-10.7124
▁porous	-10.7124
▁hosts	-10.7124
▁ph	-10.7125
▁26	-10.7129
▁geographical	-10.7131
▁er	-10.7134
▁competing	-10.7141
ve	-10.7143
▁shell	-10.7145
▁originally	-10.715
▁substitution	-10.7153
▁contributes	-10.7156
▁genome	-10.7156
fe	-10.7162
▁visibility	-10.7162
▁locate	-10.7164
▁comments	-10.7166
dm	-10.7181
▁discovering	-10.7183
▁reader	-10.7183
▁walk	-10.7185
▁docking	-10.719
▁colony	-10.7194
▁ambient	-10.7207
▁hop	-10.7207
▁integrals	-10.7214
▁evaluates	-10.7215
▁formulae	-10.7223
www	-10.7228
▁notice	-10.7231
machine	-10.7231
▁weakly	-10.7233
bp	-10.7234
▁carrier	-10.7237
▁usa	-10.7238
▁comput	-10.7239
ro	-10.724
▁divergence	-10.7247
▁routine	-10.7248
▁os	-10.725
▁sink	-10.7252
np	-10.7254
▁watermark	-10.7257
▁days	-10.7262
▁dialogue	-10.7264
dc	-10.7269
▁equally	-10.7273
▁branching	-10.7276
purpose	-10.7279
▁exploratory	-10.728
▁multiplexing	-10.728
▁deriving	-10.7287
▁crystal	-10.7291
▁examination	-10.7317
▁looking	-10.7317
▁proposals	-10.7323
▁said	-10.7323
delay	-10.7326
sim	-10.7327
▁trading	-10.7329
▁hydrogen	-10.7332
▁expertise	-10.734
▁reviewed	-10.7345
▁scheduled	-10.7346
rt	-10.7347
▁adopting	-10.7349
▁ongoing	-10.7349
ci	-10.7352
▁explanation	-10.7352
▁bring	-10.7355
▁evolve	-10.7355
▁physically	-10.7357
▁multiplier	-10.7363
fr	-10.7363
do	-10.7364
▁occlusion	-10.7367
▁serves	-10.7369
▁stimuli	-10.7371
▁infer	-10.7372
▁varies	-10.7376
▁recommender	-10.7385
▁networked	-10.7385
▁scoring	-10.7389
▁ratings	-10.7389
▁mind	-10.7406
▁evolved	-10.7409
▁accessed	-10.7411
▁institutions	-10.7416
▁detectors	-10.7418
▁card	-10.7431
cycle	-10.7437
▁man	-10.744
▁backbone	-10.7449
▁disciplines	-10.7449
▁barriers	-10.7452
▁plants	-10.7453
▁sat	-10.7454
▁%	-10.7458
▁aging	-10.7459
▁shorter	-10.7463
▁iteratively	-10.7463
ol	-10.7465
squares	-10.7473
▁le	-10.7475
ls	-10.7477
▁synthesized	-10.7477
=1	-10.7479
▁damping	-10.7481
▁cl	-10.7483
▁querying	-10.7486
rf	-10.7488
▁acyclic	-10.7491
ti	-10.7492
▁sc	-10.7498
▁met	-10.7498
▁radar	-10.7502
link	-10.7503
▁poses	-10.7506
▁custom	-10.7507
▁primal	-10.7512
mi	-10.7512
▁algebras	-10.7513
▁mid	-10.7523
▁reductions	-10.7524
▁fall	-10.7532
▁circle	-10.7534
▁workers	-10.7535
ke	-10.7541
▁crossover	-10.7549
▁profiling	-10.7556
▁reconstruct	-10.7571
▁exp	-10.7574
▁adjusted	-10.7574
▁chi	-10.7581
▁thousands	-10.7585
▁complexes	-10.7595
▁densities	-10.7599
intensive	-10.7609
code	-10.7611
▁sentences	-10.7613
▁governing	-10.7618
▁coded	-10.7629
▁interests	-10.7629
▁publications	-10.7632
▁averaging	-10.7635
▁2(	-10.7641
▁keywords	-10.7647
mr	-10.765
▁fairly	-10.765
▁skew	-10.7652
▁kalman	-10.7653
▁4.2	-10.7654
▁seek	-10.7658
▁sentence	-10.766
▁neuronal	-10.7665
▁ge	-10.7672
=2	-10.7675
▁incident	-10.7676
▁mice	-10.7678
ating	-10.7679
▁clustered	-10.7679
▁june	-10.7683
▁save	-10.7685
▁bulk	-10.7694
▁bounding	-10.7699
mb	-10.7701
▁terrain	-10.7704
▁gp	-10.7705
▁port	-10.7707
▁earth	-10.7709
▁associative	-10.7712
▁superiority	-10.7713
▁figures	-10.7718
▁survival	-10.7725
▁vital	-10.7726
▁drivers	-10.7732
▁constructive	-10.7736
▁enterprises	-10.774
▁normally	-10.774
▁website	-10.7744
▁culture	-10.775
▁drawbacks	-10.7754
sp	-10.7755
▁regime	-10.7767
▁2.2	-10.7768
network	-10.7771
▁exception	-10.7776
▁arm	-10.7779
▁quadrature	-10.778
▁minor	-10.779
▁intuitionistic	-10.7791
▁jointly	-10.7793
▁ranked	-10.7797
▁cumulative	-10.7799
▁antennas	-10.7801
graph	-10.7803
▁nm	-10.7807
▁strengths	-10.7808
yl	-10.7814
▁grammars	-10.7825
▁amplifier	-10.7826
▁massive	-10.7827
rr	-10.7833
▁shop	-10.7835
▁pointer	-10.7836
▁sensory	-10.7839
local	-10.7842
▁[2]	-10.7845
▁promote	-10.7847
plane	-10.7847
▁tends	-10.7849
▁ar	-10.785
▁illustrative	-10.7854
▁memories	-10.7854
▁progressive	-10.7856
▁merge	-10.7856
▁attitudes	-10.7858
(2	-10.7876
▁alternating	-10.7876
▁7.	-10.7877
▁stores	-10.7886
▁dielectric	-10.789
▁disturbances	-10.7897
▁dot	-10.7901
▁cartesian	-10.7902
▁emergence	-10.7913
▁conjugate	-10.7919
▁receives	-10.7919
▁subjected	-10.7927
consuming	-10.7939
▁parties	-10.7942
▁cube	-10.7943
▁fingerprint	-10.7949
▁supplier	-10.7952
▁mo	-10.7952
▁potentials	-10.7954
▁*	-10.7955
▁opinion	-10.7963
95	-10.7966
▁imply	-10.7973
▁delivered	-10.7984
▁speeds	-10.7987
▁narrow	-10.799
▁fill	-10.7993
▁expectations	-10.7993
▁maintains	-10.7997
▁hit	-10.8
▁professionals	-10.8
▁generality	-10.8001
▁dramatically	-10.8011
▁adapting	-10.8013
▁oscillations	-10.8014
supervised	-10.803
▁testbed	-10.803
ber	-10.8032
▁leave	-10.8032
▁pathway	-10.8036
▁bad	-10.8036
▁idle	-10.8041
▁women	-10.8052
▁young	-10.8054
▁boltzmann	-10.8056
▁suggesting	-10.8058
▁my	-10.8058
▁turbulent	-10.8059
▁operates	-10.8066
▁machining	-10.8067
▁steel	-10.8067
▁assigning	-10.8068
▁connecting	-10.8074
▁purely	-10.8076
▁misses	-10.8083
▁relating	-10.8086
only	-10.8087
▁ra	-10.8088
▁50%	-10.8091
dual	-10.8093
▁stated	-10.8095
▁medicine	-10.8097
▁accommodate	-10.8101
▁predefined	-10.8108
error	-10.8109
25	-10.811
▁programmer	-10.8113
▁proves	-10.8117
html	-10.8121
▁capital	-10.8121
forward	-10.8122
▁preservation	-10.8124
▁op	-10.8125
▁cone	-10.8125
▁tuple	-10.8128
wave	-10.8128
▁preserves	-10.8129
▁linux	-10.8131
not	-10.8132
▁lateral	-10.8135
▁imagery	-10.814
▁marked	-10.8143
▁animal	-10.8145
grid	-10.815
ling	-10.815
▁tabu	-10.815
):	-10.8153
▁phones	-10.8156
let	-10.8169
@	-10.8172
pe	-10.8176
▁projected	-10.818
structured	-10.8183
▁instrument	-10.8185
▁switched	-10.8186
▁mix	-10.8193
▁segmented	-10.8194
▁routines	-10.8198
▁belongs	-10.8198
▁norms	-10.8202
sat	-10.8205
ies	-10.8206
▁convection	-10.8207
▁span	-10.8213
▁reservation	-10.8218
▁learner	-10.822
negative	-10.8222
ler	-10.8225
▁triangulation	-10.8226
ial	-10.823
▁salient	-10.823
▁lightweight	-10.8231
invariant	-10.8239
▁scientists	-10.8245
▁living	-10.8246
▁saturation	-10.8246
▁logarithmic	-10.8246
▁spline	-10.8247
edge	-10.8252
▁denoising	-10.8253
▁proportion	-10.8254
▁lighting	-10.8255
▁forecast	-10.8257
age	-10.8261
▁native	-10.8273
▁administration	-10.828
▁walking	-10.8282
et	-10.8282
▁discipline	-10.8284
▁math	-10.8284
▁managed	-10.8285
from	-10.8286
▁microarray	-10.8296
▁recording	-10.8297
▁descent	-10.83
▁handoff	-10.8302
ft	-10.8308
▁triple	-10.8311
element	-10.8312
▁burst	-10.8317
▁excitation	-10.8319
▁transmissions	-10.8321
▁cortex	-10.8327
rd	-10.8328
▁else	-10.8335
▁interviews	-10.8336
▁command	-10.8337
approximation	-10.8338
▁concentrations	-10.8339
▁belonging	-10.8339
this	-10.8345
▁suggestions	-10.8346
▁van	-10.8347
▁closer	-10.8347
▁leader	-10.8349
▁unless	-10.8353
▁sending	-10.8355
▁july	-10.8359
▁friction	-10.8359
▁nine	-10.8361
▁heavily	-10.8365
▁quantification	-10.8369
▁hyperbolic	-10.8373
▁acquire	-10.8375
▁fire	-10.8376
▁avoidance	-10.8386
▁analogous	-10.8387
critical	-10.8388
▁induce	-10.8392
tic	-10.8393
▁regularity	-10.8393
▁thresholds	-10.8396
bo	-10.8397
▁incoming	-10.8404
▁longitudinal	-10.8404
▁constitute	-10.8418
▁unbounded	-10.8421
▁implicitly	-10.8434
▁scaled	-10.8437
▁arcs	-10.8439
▁replacing	-10.844
▁commitment	-10.8441
▁appropriately	-10.8443
▁unnecessary	-10.8443
▁storing	-10.8451
▁stop	-10.8453
▁cortical	-10.8456
▁costly	-10.8457
gs	-10.8457
▁deformable	-10.8463
▁continuum	-10.8467
▁ibm	-10.8472
▁answering	-10.8472
▁semiconductor	-10.8472
▁nowadays	-10.8475
▁recognizing	-10.8487
mt	-10.8487
▁transistor	-10.8488
▁bands	-10.8489
▁bodies	-10.8491
body	-10.8495
▁experimentation	-10.8497
▁volumetric	-10.8503
▁indexes	-10.8506
▁trivial	-10.8511
▁questionnaire	-10.8519
br	-10.8526
cc	-10.8526
▁reward	-10.8529
gp	-10.8529
▁linking	-10.8536
fm	-10.8536
▁parity	-10.8544
ton	-10.8548
lo	-10.8549
▁2.5	-10.8549
▁counts	-10.8554
▁accounts	-10.8555
▁break	-10.8558
▁landscape	-10.8563
▁mri	-10.8563
dl	-10.8572
▁anomaly	-10.8574
cd	-10.858
▁na	-10.8587
▁enhances	-10.8589
▁simplification	-10.8595
▁consuming	-10.8598
▁revenue	-10.8611
▁colour	-10.8612
ab	-10.8613
text	-10.8616
▁food	-10.8621
ung	-10.8628
computer	-10.863
▁deposition	-10.8631
▁board	-10.8633
▁vi	-10.8635
▁mp	-10.8643
▁thought	-10.8643
▁deformations	-10.8644
▁conflicting	-10.8647
▁ultrasound	-10.8649
▁desktop	-10.8649
▁sparsity	-10.8653
▁multilayer	-10.8656
▁modifying	-10.866
▁reporting	-10.8662
▁clique	-10.8664
▁drift	-10.8671
▁ambiguity	-10.8677
▁nonparametric	-10.868
▁fr	-10.8683
▁pe	-10.8685
▁displayed	-10.8685
▁3)	-10.8688
▁me	-10.8688
▁transmitter	-10.8692
3)	-10.87
▁receptors	-10.87
▁>=	-10.8701
▁par	-10.8708
▁mask	-10.8711
pm	-10.8714
>	-10.8725
▁stimulation	-10.873
▁eliminated	-10.873
▁jump	-10.8733
▁compliance	-10.8734
▁interpret	-10.874
▁oxygen	-10.8743
▁500	-10.8744
▁vivo	-10.875
▁paradigms	-10.8751
▁burden	-10.8754
ri	-10.8755
▁viable	-10.8756
▁1000	-10.8757
depth	-10.8758
▁cardinality	-10.8758
sum	-10.8759
ter	-10.876
parameter	-10.8761
effective	-10.8762
▁failed	-10.8773
▁3.3	-10.8776
▁implication	-10.8781
pt	-10.8782
▁draw	-10.8797
▁lattices	-10.8803
la	-10.8805
▁tractable	-10.8807
▁devoted	-10.8807
▁roughly	-10.8809
ka	-10.8811
▁specificity	-10.8811
▁negligible	-10.8819
▁ns	-10.882
▁constitutive	-10.8823
▁surveys	-10.8823
2+	-10.8824
▁pay	-10.883
▁alphabet	-10.8832
fa	-10.8832
gen	-10.8838
▁computable	-10.8841
▁wider	-10.8846
fl	-10.8847
▁imprecise	-10.8847
▁coordinated	-10.8861
▁mg	-10.8861
▁shifts	-10.8863
▁lessons	-10.8864
▁exploitation	-10.8866
dp	-10.8869
▁hypercube	-10.8871
▁la	-10.8871
▁uniqueness	-10.8873
▁terminals	-10.8875
▁anonymous	-10.8882
▁ts	-10.8882
▁widespread	-10.8884
▁auditory	-10.8888
▁verifying	-10.8889
▁tail	-10.8891
▁late	-10.8892
▁grey	-10.8893
▁overheads	-10.8894
▁3:	-10.8894
▁stresses	-10.89
▁neutral	-10.8903
▁formats	-10.8909
▁mark	-10.8914
▁clauses	-10.8917
▁novelty	-10.892
$	-10.8924
▁ci	-10.8935
▁27	-10.8938
pca	-10.8939
▁multiplicative	-10.8946
li	-10.8946
▁builds	-10.8949
▁climate	-10.895
▁vocabulary	-10.895
infinity	-10.8958
▁<=	-10.8972
▁older	-10.8977
table	-10.8977
control	-10.8978
▁vol	-10.8982
back	-10.8988
▁clause	-10.8991
▁nuclear	-10.8991
▁checks	-10.8994
▁hierarchies	-10.8999
▁wait	-10.9003
▁worse	-10.9003
▁returned	-10.9008
▁aggregated	-10.9009
%	-10.901
▁rating	-10.9019
▁impulse	-10.902
▁bytes	-10.9022
▁atom	-10.9023
▁propositional	-10.9025
▁oxide	-10.904
▁cryptography	-10.9045
▁offering	-10.9053
▁cyber	-10.9053
go	-10.9056
▁traveling	-10.9056
▁acts	-10.9059
▁pool	-10.906
▁publication	-10.906
▁march	-10.9061
▁attitude	-10.9061
▁infinity	-10.9062
▁panel	-10.9062
▁tuples	-10.9064
▁cavity	-10.907
ae	-10.9074
▁occurrences	-10.9078
▁communicating	-10.9078
▁staff	-10.9079
sized	-10.9079
spline	-10.9079
▁ec	-10.908
▁perceptron	-10.9087
shaped	-10.909
▁extensible	-10.9095
▁letter	-10.9096
ize	-10.9098
▁accessing	-10.9101
▁viscous	-10.9103
▁textures	-10.9104
▁makers	-10.9106
▁packages	-10.9107
▁quantitatively	-10.9112
product	-10.9121
▁iii	-10.9127
▁provision	-10.9128
▁eliminating	-10.9128
▁refers	-10.9133
▁recovered	-10.9138
▁websites	-10.9141
▁garbage	-10.9141
ni	-10.9143
▁nonnegative	-10.9145
12	-10.9146
▁10%	-10.915
▁office	-10.9153
▁slice	-10.9157
▁6=	-10.9159
ous	-10.9167
▁tailored	-10.9167
3,	-10.9171
▁energies	-10.9173
▁discretized	-10.9174
▁obstacle	-10.9175
99	-10.9181
int	-10.9184
tions	-10.9185
▁sales	-10.9186
ica	-10.9196
▁dierent	-10.9196
(0)	-10.9198
▁sr	-10.92
▁informatics	-10.92
▁flight	-10.9201
▁disorders	-10.9202
▁aiming	-10.9203
pl	-10.9207
▁exhaustive	-10.921
▁ab	-10.9215
▁deciding	-10.9217
▁fa	-10.9219
nc	-10.9224
▁thinking	-10.9225
▁demonstration	-10.9226
▁vehicular	-10.923
▁relaxed	-10.9235
▁ligand	-10.9235
▁incorrect	-10.9236
static	-10.9237
▁sun	-10.9241
▁summarization	-10.9242
▁associations	-10.9247
▁prescribed	-10.9249
▁plates	-10.9255
▁morphology	-10.9255
▁exposed	-10.9257
▁boosting	-10.9266
▁converted	-10.9267
▁conducting	-10.9267
▁momentum	-10.9273
▁contrary	-10.9281
90	-10.9286
▁faced	-10.929
tc	-10.929
▁modalities	-10.9294
▁styles	-10.9294
▁preserved	-10.9296
▁devised	-10.9301
▁von	-10.9302
▁subsystem	-10.9305
bl	-10.9308
▁connect	-10.931
▁cuts	-10.931
▁angular	-10.9311
▁haptic	-10.9312
▁reflects	-10.9315
▁unstable	-10.9315
area	-10.9317
▁multicore	-10.9317
▁projective	-10.9317
▁ni	-10.9319
▁reynolds	-10.9319
section	-10.9321
▁mixtures	-10.9324
lr	-10.9325
fem	-10.9327
▁checked	-10.9333
▁seeking	-10.9338
▁positively	-10.9341
▁expanded	-10.9343
▁ds	-10.9346
▁highlights	-10.9348
▁shallow	-10.9349
lc	-10.935
dis	-10.9352
▁skeleton	-10.9353
mer	-10.9354
▁persistent	-10.9355
▁ghz	-10.9356
▁bid	-10.9357
▁discussions	-10.9358
▁snr	-10.9364
▁stakeholders	-10.9364
▁compressible	-10.9366
▁nominal	-10.9367
▁polygons	-10.9379
ting	-10.9385
that	-10.9387
▁80	-10.9388
▁promise	-10.9388
▁grows	-10.9389
▁fuel	-10.9395
▁decay	-10.9398
▁generalizes	-10.94
▁ball	-10.9403
▁encouraging	-10.9405
▁heap	-10.9406
▁capacities	-10.9409
▁gaps	-10.941
▁und	-10.941
▁concluded	-10.9413
▁provisioning	-10.9414
▁disturbance	-10.9415
▁encode	-10.9419
▁tuned	-10.9421
▁unconstrained	-10.9424
▁ne	-10.9426
alpha	-10.9427
▁fracture	-10.9436
▁reversible	-10.944
▁differs	-10.9444
▁pieces	-10.9448
lin	-10.9448
▁hiding	-10.9449
▁infrastructures	-10.9456
▁tries	-10.9465
▁mb	-10.9481
directed	-10.9481
▁theoretic	-10.9488
▁smoothness	-10.9491
▁opportunistic	-10.9492
▁inhibition	-10.9492
▁100%	-10.9493
sr	-10.9503
▁gf	-10.9508
▁aircraft	-10.9509
▁sends	-10.9509
▁arrive	-10.9514
▁gaze	-10.9514
▁proc	-10.9516
▁navier	-10.9518
▁64	-10.9518
▁drugs	-10.9518
▁transcription	-10.9523
assisted	-10.9527
▁da	-10.9528
▁molecule	-10.9529
▁goes	-10.953
▁annotated	-10.954
▁axioms	-10.9542
▁identifier	-10.9542
▁ecg	-10.9543
▁nn	-10.9544
▁pipelined	-10.9548
hr	-10.9549
▁convergent	-10.9553
government	-10.9557
▁closest	-10.9557
▁hours	-10.9557
▁disks	-10.9558
▁atm	-10.9562
▁tolerant	-10.9565
▁apparent	-10.9568
▁detects	-10.9568
▁handover	-10.9571
40	-10.9576
})	-10.9579
▁compromise	-10.9581
▁cognition	-10.9584
▁instantaneous	-10.9594
▁importantly	-10.9594
ai	-10.9601
▁recommended	-10.9607
▁wavelets	-10.9614
ws	-10.9614
▁squared	-10.962
▁concludes	-10.9622
▁accounting	-10.9624
▁preconditioner	-10.9626
▁deadline	-10.9627
gt	-10.9633
▁fem	-10.9635
▁fluctuations	-10.964
generation	-10.9649
▁seed	-10.965
vector	-10.9652
▁yielding	-10.9655
▁permutations	-10.9661
▁twice	-10.9663
▁google	-10.9663
▁kept	-10.9664
▁informative	-10.9667
▁lab	-10.9674
▁timed	-10.9684
▁organic	-10.9686
▁respond	-10.9687
▁hull	-10.969
stokes	-10.9694
▁undirected	-10.9695
▁gave	-10.9699
▁abstractions	-10.9709
▁accelerate	-10.971
▁gathering	-10.971
rc	-10.9714
▁gesture	-10.9715
▁spike	-10.9715
▁pd	-10.9716
he	-10.9717
▁ch	-10.9718
group	-10.972
▁planes	-10.9722
pro	-10.9723
▁agree	-10.9724
▁thresholding	-10.9731
▁ti	-10.9732
▁(5)	-10.9732
▁dominating	-10.9734
▁cylinder	-10.9737
▁collocation	-10.9738
▁vortex	-10.9738
▁prototyping	-10.9743
▁foundations	-10.9745
▁polygonal	-10.9747
▁inconsistent	-10.9752
▁[3]	-10.9758
▁title	-10.976
▁involvement	-10.9761
▁careful	-10.9763
▁cc	-10.9765
▁statistic	-10.9766
▁tissues	-10.9768
land	-10.9769
▁avoided	-10.9771
ised	-10.9773
▁assistance	-10.9774
index	-10.9775
▁accept	-10.9775
▁turbulence	-10.9779
▁thanks	-10.9781
▁chronic	-10.9783
centered	-10.9794
▁taiwan	-10.9796
▁rotating	-10.9801
▁multipliers	-10.9802
▁sql	-10.981
?1	-10.981
ance	-10.9811
▁firing	-10.9813
▁deadlock	-10.9813
▁gradients	-10.9816
▁jpeg	-10.9819
trivial	-10.9825
▁multiresolution	-10.9826
sh	-10.9826
▁occurred	-10.9828
fp	-10.983
▁5.1	-10.9839
ut	-10.9845
▁itemsets	-10.9849
zero	-10.9854
ec	-10.9855
ie	-10.986
▁exercise	-10.9863
▁restrict	-10.9865
▁shadow	-10.9866
▁outlined	-10.987
▁industries	-10.9873
▁abilities	-10.9874
convex	-10.9874
▁horizon	-10.9877
▁quantified	-10.9877
▁rare	-10.9879
▁email	-10.9879
▁triangles	-10.9885
validation	-10.9885
bar	-10.9892
▁grow	-10.9892
▁erp	-10.9894
▁spent	-10.9896
▁locating	-10.9896
processor	-10.9897
▁hole	-10.9897
▁gait	-10.9898
▁remark	-10.9899
▁attached	-10.9901
▁collisions	-10.9902
▁replicated	-10.9905
▁kinematic	-10.9906
epsilon	-10.9907
▁satisfiability	-10.9909
▁toolkit	-10.991
▁psychological	-10.991
▁tr	-10.9911
ev	-10.9917
structure	-10.9919
▁press	-10.992
.1,	-10.9921
▁recursion	-10.9923
▁affective	-10.9924
▁arrangement	-10.9927
po	-10.9927
▁[4]	-10.9927
▁35	-10.9927
▁resolved	-10.9928
▁opposed	-10.9932
▁lithography	-10.9932
▁suppression	-10.9932
ak	-10.9935
▁facts	-10.9936
▁curriculum	-10.9936
design	-10.994
▁abnormal	-10.994
ner	-10.9945
▁isotropic	-10.9947
▁url	-10.9951
▁transferred	-10.9951
▁reachability	-10.9952
▁inherently	-10.9953
▁publicly	-10.9953
▁makespan	-10.9956
▁loaded	-10.9959
▁sar	-10.9961
▁deviations	-10.9961
▁iv	-10.997
▁complexities	-10.9974
▁amino	-10.9978
▁opt	-10.9983
▁classroom	-10.9983
▁multipath	-10.9985
▁5,	-10.9988
▁trusted	-10.999
▁sketch	-10.9997
▁hundreds	-10.9999
▁logs	-11.0004
▁facilitating	-11.0005
▁stem	-11.0005
▁tele	-11.0012
▁quick	-11.0015
bounded	-11.0023
▁[5]	-11.0024
▁entirely	-11.0026
offs	-11.0027
▁dirichlet	-11.0028
▁noted	-11.0039
▁perturbations	-11.0044
ative	-11.0044
▁backup	-11.0045
▁texts	-11.0049
▁entanglement	-11.0051
▁stimulus	-11.0051
af	-11.0053
▁turing	-11.0054
▁robotics	-11.0056
face	-11.0063
▁asked	-11.0063
▁invariance	-11.0065
▁accelerated	-11.0066
▁adjusting	-11.0071
▁dominance	-11.0074
▁inverted	-11.0075
▁discontinuities	-11.0078
▁capacitance	-11.0079
▁tradeoffs	-11.0082
▁circumstances	-11.0084
rp	-11.0084
▁commerce	-11.0086
▁browser	-11.009
▁pm	-11.009
▁relying	-11.0091
▁going	-11.0092
▁actuator	-11.0093
▁bin	-11.0095
▁1.5	-11.0098
▁beams	-11.01
▁oscillation	-11.0102
▁rejection	-11.0102
▁fix	-11.0105
▁summarize	-11.0107
degree	-11.0108
ll	-11.0109
▁regularized	-11.011
ag	-11.0111
▁mhz	-11.0113
▁slots	-11.0113
▁rna	-11.012
block	-11.0125
▁animals	-11.0131
▁playing	-11.0136
▁affinity	-11.0139
mediated	-11.0157
▁45	-11.0159
▁il	-11.016
▁cascade	-11.0168
▁synaptic	-11.0176
▁hilbert	-11.0181
▁steiner	-11.0181
▁metabolic	-11.0185
including	-11.0186
▁bifurcation	-11.0191
▁corner	-11.0192
▁rc	-11.0192
▁laplacian	-11.0195
day	-11.0196
ee	-11.0197
▁you	-11.02
▁warehouse	-11.02
▁spreading	-11.0204
▁prevention	-11.0209
▁300	-11.0211
▁advertising	-11.0218
▁paid	-11.0221
▁convert	-11.0224
86	-11.0224
▁suitability	-11.0227
parametric	-11.0228
▁nonlinearity	-11.0231
bs	-11.0233
▁emotions	-11.0239
▁reaches	-11.025
▁recursively	-11.0251
▁rounds	-11.0253
▁reaching	-11.0254
▁compilers	-11.0255
▁comprises	-11.0256
hs	-11.0265
▁participating	-11.0269
▁sizing	-11.0273
▁held	-11.0274
▁country	-11.0275
▁attracted	-11.0275
▁gets	-11.0277
▁somewhat	-11.0286
▁wish	-11.0287
▁8.	-11.0288
▁january	-11.0293
access	-11.0294
▁concurrently	-11.0294
random	-11.0298
▁seeks	-11.0298
root	-11.0301
▁banks	-11.0311
ent	-11.0322
▁longest	-11.0323
▁oscillator	-11.033
▁bootstrap	-11.034
▁seamless	-11.0343
▁transforming	-11.0345
year	-11.0348
ctr	-11.0349
▁nursing	-11.035
mail	-11.0353
▁polymer	-11.0365
multi	-11.0365
▁excessive	-11.0366
▁lexical	-11.037
▁chance	-11.0372
▁convolution	-11.0382
▁tagging	-11.0383
ins	-11.0384
▁residues	-11.039
md	-11.039
▁refine	-11.0391
▁notes	-11.0393
▁termed	-11.0394
▁semantically	-11.0395
▁surprisingly	-11.0399
▁$	-11.0406
▁roots	-11.0406
▁translated	-11.0407
▁ls	-11.0407
▁bending	-11.0409
list	-11.0411
▁2.4	-11.0412
▁political	-11.0417
▁sn	-11.0417
▁compositional	-11.0418
▁declarative	-11.0418
function	-11.0428
pd	-11.043
▁push	-11.0435
▁alleviate	-11.0438
▁continues	-11.0439
▁markers	-11.0439
▁prototypes	-11.0442
▁lagrange	-11.0445
▁opposite	-11.0445
▁dea	-11.0446
▁hashing	-11.045
▁transistors	-11.0458
▁individually	-11.0459
▁mismatch	-11.0463
▁methodological	-11.0474
search	-11.0484
les	-11.0487
.2,	-11.0489
▁vulnerability	-11.0493
▁eigen	-11.0497
▁spam	-11.0498
▁pitch	-11.0499
▁meanwhile	-11.0503
▁reasonably	-11.0503
▁electricity	-11.0505
▁proposing	-11.0507
criteria	-11.0509
▁functionalities	-11.051
▁november	-11.0512
▁appeared	-11.0514
▁customized	-11.0516
",	-11.0517
▁unsteady	-11.0522
+1)	-11.0523
▁gathered	-11.0529
▁synchronized	-11.0537
▁exponent	-11.0539
▁infection	-11.0539
▁actors	-11.054
▁lookup	-11.0553
weight	-11.0559
▁handwritten	-11.0566
▁stand	-11.0571
▁beliefs	-11.0571
▁separating	-11.0575
▁river	-11.0578
▁therapeutic	-11.0585
▁touch	-11.0585
pre	-11.0592
axis	-11.0592
▁monitored	-11.0593
▁generative	-11.0595
▁preparation	-11.0604
friendly	-11.0605
▁compile	-11.061
▁permanent	-11.0621
cluster	-11.0624
difference	-11.0624
▁waste	-11.0625
▁mono	-11.0626
▁things	-11.0627
▁plot	-11.0628
df	-11.0631
▁cp	-11.0635
ph	-11.0636
▁obviously	-11.0637
▁uk	-11.0637
▁logistics	-11.0637
▁intuitively	-11.0639
▁md	-11.064
▁acting	-11.0645
▁apart	-11.065
▁payment	-11.0652
ten	-11.0657
▁carrying	-11.0659
▁poorly	-11.0659
▁el	-11.0664
▁traversal	-11.0666
▁insufficient	-11.067
64	-11.0671
process	-11.0678
▁equilibria	-11.0682
▁permit	-11.0686
▁necessity	-11.0687
97	-11.0687
▁gateway	-11.0688
▁weather	-11.0697
▁collecting	-11.0699
▁south	-11.0701
▁scans	-11.0709
▁possess	-11.0713
sec	-11.0713
▁predicts	-11.0714
sided	-11.072
▁cylindrical	-11.0723
▁reflected	-11.0724
enabled	-11.0729
▁inserted	-11.0729
▁seismic	-11.0732
▁1.0	-11.0732
where	-11.0733
▁orientations	-11.0739
▁iris	-11.0743
▁4:	-11.0748
ht	-11.0753
▁prominent	-11.0756
▁rings	-11.0759
▁absorption	-11.0761
km	-11.0764
▁obtains	-11.0769
▁counterparts	-11.077
▁vessel	-11.077
▁laplace	-11.0771
cv	-11.0777
▁repositories	-11.0781
▁wsn	-11.0784
square	-11.0787
▁causing	-11.0791
implications	-11.0794
▁des	-11.0795
part	-11.0796
▁[6]	-11.0796
controlled	-11.0805
▁requested	-11.0815
▁coming	-11.0815
▁encoder	-11.082
▁weaknesses	-11.0826
▁san	-11.0828
−	-11.083
base	-11.0835
low	-11.0841
▁brings	-11.0843
▁expressing	-11.0846
▁mitigate	-11.0851
▁latest	-11.0851
▁expand	-11.0852
▁holding	-11.0855
elecommunication	-11.0859
▁visualize	-11.0863
▁think	-11.0866
▁hmm	-11.0866
▁freely	-11.0869
60	-11.0874
▁currents	-11.0875
▁mod	-11.0883
but	-11.0891
gi	-11.0891
factor	-11.0895
▁bearing	-11.0897
▁km	-11.0898
▁protected	-11.0905
fc	-11.0905
=0	-11.0906
▁jitter	-11.0907
▁mutually	-11.0908
▁eliminates	-11.0913
▁dened	-11.0915
▁locking	-11.0918
▁inform	-11.0921
▁biometric	-11.0921
▁activated	-11.0922
-1)	-11.093
▁peripheral	-11.093
▁inconsistency	-11.0933
▁accumulation	-11.0935
est	-11.0935
▁practically	-11.0937
▁multiprocessors	-11.0938
<	-11.0942
▁opinions	-11.0943
▁parsing	-11.0946
▁temperatures	-11.0949
▁exhibited	-11.095
▁disparity	-11.095
▁agile	-11.095
48	-11.0951
▁informal	-11.0954
▁definite	-11.0954
▁alternate	-11.0958
▁categorical	-11.0961
▁irrelevant	-11.0961
real	-11.0962
▁perhaps	-11.0966
▁gestures	-11.0967
▁subsystems	-11.0971
▁priorities	-11.0972
bc	-11.0976
▁discharge	-11.0981
/2	-11.0984
▁engagement	-11.0986
▁cg	-11.099
▁devise	-11.0992
▁illustration	-11.0996
▁surgery	-11.0996
▁piece	-11.1001
▁plots	-11.1003
▁comprising	-11.1006
▁ij	-11.1009
word	-11.1015
▁nonzero	-11.1016
▁vast	-11.1016
▁maximizes	-11.1017
port	-11.1021
▁viscosity	-11.1021
image	-11.1029
▁holes	-11.103
▁outlier	-11.1032
4,	-11.1033
▁fp	-11.1036
▁explains	-11.1036
rm	-11.1038
▁monotonicity	-11.1038
▁1.2	-11.1046
▁queuing	-11.1047
▁correspondences	-11.1047
▁torque	-11.1047
car	-11.1048
▁wdm	-11.1062
▁drawback	-11.1063
▁randomness	-11.1072
▁book	-11.1076
▁multigrid	-11.1077
▁ultimately	-11.1079
▁inefficient	-11.1083
▁nd	-11.1087
▁stopping	-11.1087
▁1/	-11.1088
▁employees	-11.1091
weighted	-11.1093
▁purchase	-11.1095
▁party	-11.1099
▁suppliers	-11.1105
▁accomplish	-11.1106
▁started	-11.1106
▁reliably	-11.1113
▁fatigue	-11.1113
▁`	-11.1113
▁biased	-11.1115
▁mi	-11.1118
▁90%	-11.1124
▁knapsack	-11.1128
cient	-11.1135
▁attributed	-11.1138
▁wsns	-11.1148
▁adds	-11.115
▁forced	-11.1153
▁outsourcing	-11.1154
▁duality	-11.1155
▁compensate	-11.1157
▁cast	-11.116
▁pet	-11.1161
▁rt	-11.1161
▁establishment	-11.1162
▁partners	-11.1169
▁bidirectional	-11.117
▁denition	-11.1171
89	-11.1174
▁phi	-11.1176
▁chaos	-11.1178
▁2001	-11.1179
object	-11.1181
▁deletion	-11.1187
▁targeting	-11.1191
▁uniquely	-11.1193
▁played	-11.1196
▁indexed	-11.1197
pls	-11.1198
▁suffers	-11.1199
▁worlds	-11.1202
hi	-11.1202
▁roughness	-11.1203
▁chart	-11.1205
▁alarm	-11.121
▁rayleigh	-11.1211
▁modulus	-11.1211
▁20%	-11.1215
▁recordings	-11.1216
-5	-11.1217
▁sheet	-11.1218
▁resist	-11.1221
▁solar	-11.1223
▁reflectance	-11.1232
11	-11.1233
▁fidelity	-11.1233
▁envelope	-11.1236
▁electrostatic	-11.1237
▁manipulator	-11.1238
▁simplex	-11.124
▁incorporation	-11.1242
ring	-11.1242
▁resultant	-11.1246
▁4.3	-11.1247
vs	-11.1254
▁death	-11.1255
▁lung	-11.1256
▁induces	-11.1257
▁participate	-11.1261
bb	-11.1263
▁anomalies	-11.1267
▁trec	-11.1268
io	-11.1268
sharing	-11.1269
ho	-11.1279
▁elasticity	-11.1281
▁familiar	-11.1287
date	-11.1288
▁corporate	-11.1289
▁[10]	-11.1293
▁anatomical	-11.1296
gr	-11.1299
▁cosine	-11.1301
▁mission	-11.1302
▁vulnerable	-11.1304
▁socio	-11.1304
▁rbf	-11.1307
▁gabor	-11.1309
▁universities	-11.1325
rl	-11.1325
▁workflows	-11.1326
▁interventions	-11.1327
▁instant	-11.1327
▁comprehension	-11.133
▁october	-11.133
▁slicing	-11.133
▁fluids	-11.1331
tp	-11.1334
▁automotive	-11.1335
▁trying	-11.1343
20	-11.1343
▁incidence	-11.1346
▁pollution	-11.1346
▁clouds	-11.135
▁pen	-11.135
▁gauss	-11.1351
▁ready	-11.1357
▁[8]	-11.1358
▁leverage	-11.136
ors	-11.1362
▁->	-11.1363
▁zones	-11.1363
bus	-11.1365
▁intel	-11.1367
▁chen	-11.1367
▁multiagent	-11.1368
▁analysing	-11.1372
▁workstations	-11.1378
der	-11.138
▁retrieving	-11.1382
▁judgments	-11.1387
ram	-11.139
▁grain	-11.1393
▁sci	-11.1396
▁rotational	-11.1397
▁adopts	-11.1397
res	-11.1399
▁eq	-11.1401
ot	-11.1401
2000	-11.1403
▁mos	-11.1409
▁inheritance	-11.1409
▁ha	-11.1411
▁liver	-11.1413
▁imperfect	-11.1416
▁rock	-11.1417
▁dominated	-11.1418
▁constitutes	-11.1424
▁displacements	-11.1428
▁fpgas	-11.143
symmetric	-11.1434
ur	-11.1434
modal	-11.144
▁assurance	-11.1441
▁bp	-11.1441
▁impose	-11.1445
▁gold	-11.1447
▁american	-11.1447
▁tm	-11.1449
▁checkpoint	-11.145
▁rotor	-11.1453
▁timely	-11.1454
▁extracts	-11.1456
▁sustainable	-11.1457
▁modulo	-11.1462
▁soc	-11.1465
▁rat	-11.1468
ty	-11.1473
▁interconnects	-11.1474
▁incrementally	-11.1478
series	-11.1481
ghz	-11.1495
using	-11.1498
98	-11.1499
▁29	-11.15
▁solely	-11.1505
▁distinguishing	-11.1508
▁dose	-11.1513
▁tension	-11.1514
▁reusable	-11.1515
▁physicians	-11.1518
▁mit	-11.152
▁hope	-11.1525
▁enumeration	-11.1525
▁specifies	-11.1525
▁sides	-11.1529
▁stroke	-11.1534
▁subspaces	-11.1537
width	-11.1538
▁highlighted	-11.1542
▁plausible	-11.1558
▁posed	-11.1567
▁shortcomings	-11.1568
▁voronoi	-11.1568
▁directory	-11.1569
▁periodically	-11.1572
▁thorough	-11.1576
sets	-11.1577
▁ps	-11.158
fd	-11.1584
▁tangent	-11.1584
▁sorted	-11.1585
▁som	-11.1585
regular	-11.1588
▁infrared	-11.1596
ley	-11.1597
▁sequentially	-11.1604
▁summarized	-11.1605
.3,	-11.161
▁advice	-11.1611
work	-11.1615
▁contracts	-11.1627
▁velocities	-11.1627
ry	-11.1627
top	-11.1628
▁unlabeled	-11.1628
▁iff	-11.1633
▁ignored	-11.1637
53	-11.1638
▁taylor	-11.1639
▁(4	-11.1641
▁probably	-11.1644
▁plasticity	-11.1645
▁reservoir	-11.1647
▁commands	-11.1654
▁spectroscopy	-11.1654
matrix	-11.1659
▁[9]	-11.1666
▁enforce	-11.1671
▁floor	-11.1671
au	-11.1672
▁polar	-11.1674
matching	-11.1675
▁legacy	-11.1676
▁handles	-11.1688
▁months	-11.169
▁infeasible	-11.169
▁ve	-11.169
▁expense	-11.1691
▁wi	-11.1696
▁2.3	-11.1696
▁sea	-11.1701
frame	-11.1704
software	-11.1704
▁tune	-11.1705
high	-11.1711
som	-11.1714
▁agricultural	-11.1714
▁unexpected	-11.1717
▁unreliable	-11.1719
▁she	-11.1724
▁ver	-11.1724
▁standardized	-11.1725
business	-11.1731
▁spec	-11.1732
▁creative	-11.1736
▁elevation	-11.1736
▁acute	-11.1736
▁buildings	-11.1739
cdma	-11.1742
site	-11.1742
▁executable	-11.1745
▁economy	-11.1747
▁september	-11.1747
▁wlan	-11.1749
▁posteriori	-11.175
▁spot	-11.175
▁interconnected	-11.175
▁brought	-11.1752
▁advection	-11.1752
▁proceed	-11.1752
▁fisher	-11.1756
▁descriptive	-11.1757
▁story	-11.1758
sample	-11.1759
(2))	-11.176
▁[7]	-11.1761
▁contemporary	-11.1763
-?	-11.1763
normal	-11.1764
▁hiv	-11.1764
▁gradually	-11.1764
75	-11.1768
▁para	-11.1769
▁anonymity	-11.1769
▁edit	-11.1769
▁crisp	-11.1774
▁blue	-11.1774
▁31	-11.1776
wa	-11.1777
▁threats	-11.1779
▁distinguished	-11.1781
▁allocate	-11.1781
▁centered	-11.1785
▁jacobian	-11.1786
▁manipulate	-11.1786
▁ac	-11.1788
cg	-11.1789
tt	-11.1809
▁signed	-11.1809
om	-11.1817
77	-11.1819
▁weaker	-11.1821
▁1.1	-11.1825
▁bilinear	-11.1829
30	-11.1835
calculus	-11.1835
▁rats	-11.1837
▁repeatedly	-11.184
▁chemistry	-11.184
▁gui	-11.1844
▁dispatch	-11.1845
vm	-11.1848
▁microscopy	-11.1851
tf	-11.1857
▁instruments	-11.1857
100	-11.1862
▁problematic	-11.1867
number	-11.187
ep	-11.1873
▁separable	-11.1874
▁curved	-11.1879
▁telecommunica	-11.1879
▁dead	-11.1882
▁saliency	-11.1884
pf	-11.1886
lm	-11.1894
▁structuring	-11.1895
▁rarely	-11.1898
▁grounded	-11.1899
energy	-11.1907
▁typing	-11.1907
▁minima	-11.1908
-7	-11.191
▁semidefinite	-11.1912
▁incentive	-11.1922
▁proliferation	-11.1922
▁cooling	-11.1923
▁click	-11.1924
▁mas	-11.1932
▁monotonic	-11.1934
▁centre	-11.1937
ted	-11.1937
ea	-11.1941
▁hardness	-11.1941
▁5-	-11.1941
▁served	-11.1942
▁undergraduate	-11.1945
▁musical	-11.1949
▁solvable	-11.195
▁threat	-11.1962
▁ka	-11.1968
4)	-11.1979
4%	-11.198
▁aligned	-11.1981
▁really	-11.1982
trees	-11.1984
▁scatter	-11.1999
▁checker	-11.2003
▁distribute	-11.2004
▁dsp	-11.2005
▁enter	-11.201
▁feedforward	-11.2012
▁ensembles	-11.2022
▁spurious	-11.2028
▁discourse	-11.2028
▁crossing	-11.2029
▁disadvantages	-11.2034
▁concentrate	-11.2037
▁leveraging	-11.204
▁adequately	-11.2046
▁33	-11.2048
▁5.2	-11.2049
stationary	-11.2057
similar	-11.2062
▁marking	-11.2063
▁cap	-11.2066
/1	-11.2067
▁gen	-11.2068
▁waveform	-11.2088
va	-11.2093
▁vitro	-11.2096
▁36	-11.2097
▁behaviours	-11.2098
▁simulators	-11.2101
▁apoptosis	-11.2101
▁spatiotemporal	-11.2102
web	-11.2102
▁70	-11.2105
▁exceed	-11.2106
▁trigger	-11.2107
▁impulsive	-11.2107
▁ambiguous	-11.2107
generated	-11.2108
gas	-11.211
▁citations	-11.2111
disciplinary	-11.2112
▁plastic	-11.2114
density	-11.212
▁raised	-11.2129
▁broken	-11.213
▁getting	-11.2131
▁slices	-11.2135
▁transmitting	-11.2136
▁insulin	-11.2136
▁mt	-11.2139
▁readers	-11.2142
▁minutes	-11.2148
▁grant	-11.2149
mf	-11.2149
▁qsar	-11.2152
((	-11.2158
▁vascular	-11.2159
▁establishes	-11.216
▁enzyme	-11.2161
▁copper	-11.2164
var	-11.2165
▁00	-11.2168
▁axial	-11.2168
▁observing	-11.217
▁cf	-11.217
▁markovian	-11.2172
▁crop	-11.2173
language	-11.2175
▁facebook	-11.2177
▁printed	-11.2181
▁continuation	-11.2182
▁theta	-11.2187
50	-11.2189
▁undertaken	-11.219
▁gravity	-11.2198
▁enforcement	-11.2204
fit	-11.2207
▁proactive	-11.2207
surface	-11.2207
▁virus	-11.2209
▁ofdm	-11.2214
▁iterated	-11.2216
▁shares	-11.2224
▁compiled	-11.2226
▁expanding	-11.2231
▁hamming	-11.2232
▁inferred	-11.2238
▁institute	-11.2241
▁argued	-11.2241
▁sums	-11.2243
▁pointed	-11.2245
▁adult	-11.2251
▁assessments	-11.2253
▁overload	-11.2255
▁intentions	-11.2256
▁sim	-11.2257
▁overflow	-11.2258
▁rewrite	-11.2259
▁checkpointing	-11.226
▁visualizing	-11.226
▁persons	-11.226
▁counterpart	-11.2261
▁joints	-11.2262
▁vulnerabilities	-11.2267
▁procedural	-11.2267
▁specialization	-11.227
▁adults	-11.2277
▁claims	-11.2278
▁surgical	-11.2284
15	-11.2284
▁truncated	-11.2285
▁fan	-11.2287
nearest	-11.2291
▁0.2	-11.2291
▁transactional	-11.2292
dg	-11.2301
▁fed	-11.2305
▁bag	-11.2307
▁filtered	-11.2312
▁perfectly	-11.2316
▁pls	-11.2316
▁dm	-11.2316
▁chips	-11.2323
specified	-11.2323
▁typed	-11.2324
▁greatest	-11.2325
mod	-11.2328
▁mediated	-11.2329
▁bluetooth	-11.233
▁substrates	-11.2333
mn	-11.2335
▁br	-11.234
▁nontrivial	-11.2346
▁transfers	-11.2351
ng	-11.2353
▁gpus	-11.2354
▁ho	-11.2358
▁ordinal	-11.2359
▁specially	-11.2363
▁corrupted	-11.2366
14	-11.2381
▁appendix	-11.2382
▁wafer	-11.2385
▁lr	-11.2385
▁fft	-11.2386
▁grown	-11.2393
resp	-11.2395
▁lee	-11.2397
▁repeat	-11.2397
▁institutional	-11.2399
▁mv	-11.2399
▁hydraulic	-11.24
▁reads	-11.24
▁lo	-11.242
▁precedence	-11.2423
▁unable	-11.2426
functional	-11.2427
▁replica	-11.2429
▁sw	-11.244
▁0.1	-11.2442
▁flooding	-11.2449
rich	-11.2451
▁tutorial	-11.2452
▁du	-11.2454
96	-11.2458
▁wang	-11.2464
▁york	-11.2464
▁signs	-11.2465
▁thermo	-11.2467
▁aided	-11.2469
▁border	-11.2472
▁rooted	-11.2475
▁aggressive	-11.2478
▁glass	-11.2478
▁exceeds	-11.2481
▁flip	-11.2487
▁ed	-11.2494
ko	-11.2494
▁prepared	-11.2495
▁rs	-11.2504
integer	-11.2507
▁ws	-11.2507
▁faculty	-11.2511
▁facing	-11.2512
▁bugs	-11.2514
▁soon	-11.2515
▁suboptimal	-11.2515
▁numeric	-11.2516
70	-11.2518
▁remarkable	-11.2524
▁[11]	-11.2526
robot	-11.2528
▁ipv	-11.2528
▁accuracies	-11.2528
▁interpretations	-11.2533
▁gi	-11.2539
▁histograms	-11.2541
▁differently	-11.2542
▁slower	-11.2542
▁demanding	-11.2544
▁reactor	-11.2545
▁decidable	-11.2552
complexity	-11.2554
▁observable	-11.2555
▁formalization	-11.2556
▁uv	-11.2559
01	-11.2565
▁lan	-11.2565
▁broader	-11.2569
oo	-11.2569
▁nodal	-11.257
▁terminology	-11.2576
▁fits	-11.258
▁api	-11.2581
▁excess	-11.2581
▁symptoms	-11.2583
▁tracks	-11.2588
▁lin	-11.2593
▁happens	-11.2595
▁34	-11.2595
sch	-11.2595
▁attenuation	-11.2599
▁computerized	-11.2601
right	-11.2602
16	-11.2603
▁voxel	-11.2604
▁pt	-11.2606
our	-11.2606
▁everyday	-11.2608
85	-11.2614
▁grouped	-11.2614
▁residue	-11.2615
chi	-11.2616
opt	-11.2618
correlation	-11.2618
▁hypertext	-11.2618
inspired	-11.2619
▁ends	-11.262
▁relates	-11.2621
▁dt	-11.2625
▁executions	-11.2629
▁male	-11.2631
▁peptide	-11.2634
▁august	-11.2636
▁yielded	-11.2642
▁usable	-11.2645
▁distinction	-11.2646
▁informed	-11.2647
ru	-11.2651
▁contraction	-11.2652
▁talk	-11.2652
▁com	-11.2653
▁nc	-11.2654
▁rotations	-11.2656
▁totally	-11.2658
▁assigns	-11.2659
▁assisted	-11.2661
▁html	-11.2666
event	-11.2667
▁influencing	-11.2671
▁exclusion	-11.2671
▁spontaneous	-11.268
lan	-11.2684
▁argumentation	-11.2685
▁emphasize	-11.2685
▁consumed	-11.2687
1.	-11.2687
▁optimistic	-11.2689
▁pid	-11.269
▁downstream	-11.2695
▁syndrome	-11.2698
▁ilp	-11.27
ise	-11.2704
▁mathematically	-11.2705
▁teacher	-11.2718
dd	-11.2718
▁hp	-11.2723
▁phys	-11.2725
▁japanese	-11.2731
▁[1].	-11.2731
▁ber	-11.2735
▁tip	-11.274
▁biologically	-11.2752
▁cancellation	-11.2755
▁hydro	-11.2761
style	-11.2762
party	-11.2763
▁outdoor	-11.2768
▁dss	-11.277
▁recurrence	-11.277
▁passes	-11.277
▁genomic	-11.2772
▁imperative	-11.2779
▁transitive	-11.278
org	-11.2783
▁developer	-11.2784
▁perturbed	-11.2786
▁worldwide	-11.2788
▁schemas	-11.2789
▁univariate	-11.2803
cu	-11.2804
▁statically	-11.2805
▁took	-11.2806
▁lossless	-11.2808
▁personalization	-11.2809
variable	-11.2814
ens	-11.2815
▁≤	-11.2816
▁california	-11.2822
▁ship	-11.2825
▁ultimate	-11.2825
▁ow	-11.2828
▁favorable	-11.2828
▁lim	-11.2829
xi	-11.2832
red	-11.2833
▁breakdown	-11.2845
▁preconditioning	-11.2848
▁[13]	-11.2848
▁simplest	-11.2852
▁polyhedral	-11.2859
▁resilience	-11.2864
▁portal	-11.2872
ene	-11.2878
▁vice	-11.2878
▁mutations	-11.2879
▁progression	-11.288
▁suffix	-11.2881
▁adjoint	-11.2884
▁peaks	-11.2889
▁[14]	-11.2892
▁granular	-11.29
▁graphic	-11.2909
▁insert	-11.2911
▁pan	-11.2911
▁65	-11.2912
component	-11.2912
▁subproblems	-11.2918
▁conductivity	-11.2919
▁attacker	-11.2921
▁lazy	-11.2926
haracterizations	-11.2926
▁ri	-11.2927
▁bioinformatics	-11.2929
activity	-11.2931
▁linkage	-11.2933
volume	-11.2943
▁foreground	-11.2944
▁buyer	-11.295
▁organisations	-11.2951
ek	-11.2952
▁april	-11.2962
▁autocorrelation	-11.2962
▁www	-11.2963
▁college	-11.2967
analysis	-11.2968
38	-11.2968
)=	-11.2973
▁finger	-11.2973
▁personality	-11.2974
▁behave	-11.2974
▁admissible	-11.2975
▁corrected	-11.2977
▁grade	-11.2983
logic	-11.2984
5,	-11.2984
▁moved	-11.2985
▁password	-11.2986
▁4)	-11.2987
▁analogy	-11.2988
mean	-11.2988
▁csp	-11.2989
▁outlines	-11.2989
▁ada	-11.2989
▁[12]	-11.2991
▁rationale	-11.2992
θ	-11.2995
▁ba	-11.2999
tri	-11.3001
distance	-11.3001
▁render	-11.3002
voltage	-11.3009
▁actively	-11.3011
▁dem	-11.3012
load	-11.3012
▁macroscopic	-11.3018
han	-11.3018
▁remainder	-11.3024
▁filling	-11.3027
▁tube	-11.3031
▁merged	-11.3034
▁clean	-11.3035
▁virtualization	-11.3037
▁dg	-11.3038
▁owing	-11.3042
▁begins	-11.3047
▁·	-11.3049
▁shifting	-11.305
▁tra	-11.3054
▁spite	-11.3055
▁hypergraph	-11.306
▁strip	-11.3061
▁multihop	-11.3066
ach	-11.3067
▁simplifies	-11.3067
▁commodity	-11.3068
gc	-11.3073
▁female	-11.3073
▁portions	-11.3074
▁participant	-11.3079
▁treating	-11.3081
▁axes	-11.3083
▁ev	-11.3093
05	-11.3093
▁decompose	-11.3097
▁degraded	-11.3098
▁fitted	-11.31
▁differentiated	-11.3103
▁ss	-11.3106
▁engage	-11.311
▁complementarity	-11.3111
▁microprocessor	-11.3112
▁pl	-11.3115
▁summaries	-11.3126
▁polarization	-11.3126
▁distortions	-11.3131
▁meets	-11.3135
▁bridging	-11.3136
▁preventing	-11.3144
▁download	-11.3155
▁uni	-11.3161
▁learns	-11.3162
▁realizing	-11.3165
0,	-11.3166
▁released	-11.3167
▁autoregressive	-11.3167
▁sd	-11.3169
▁customization	-11.317
▁deploy	-11.3172
▁deadlines	-11.3176
information	-11.3179
▁economics	-11.3179
▁boxes	-11.318
▁spoken	-11.318
▁sand	-11.3183
des	-11.3185
87	-11.3187
▁maker	-11.3187
▁bo	-11.3192
80	-11.3194
▁sounds	-11.3197
▁pointing	-11.3198
▁benchmarking	-11.3199
▁drives	-11.3202
▁sl	-11.3202
users	-11.3203
78	-11.3203
▁associate	-11.3204
▁parabolic	-11.3205
▁viewpoints	-11.3209
▁exit	-11.321
▁transparency	-11.3212
▁initiatives	-11.3214
▁kinematics	-11.3218
cad	-11.3219
▁sup	-11.322
▁opening	-11.3222
▁north	-11.3229
▁qr	-11.3232
3%	-11.3233
▁twenty	-11.3237
▁explosion	-11.3237
▁9.	-11.3243
▁conduction	-11.3244
▁rights	-11.3245
▁instrumentation	-11.3257
ef	-11.3259
▁herein	-11.3262
▁millions	-11.3267
)]	-11.3271
▁digit	-11.3271
▁assets	-11.3274
▁judgment	-11.3275
▁crosstalk	-11.3275
04	-11.3277
▁transit	-11.3278
▁reinforced	-11.328
ase	-11.3281
signal	-11.3282
▁appearing	-11.3282
∗	-11.3283
▁prone	-11.3284
▁tion	-11.3285
▁quantifying	-11.3286
28	-11.3288
▁leaving	-11.3288
▁vessels	-11.3289
7%	-11.3293
▁pile	-11.33
▁surrogate	-11.3301
▁goods	-11.3301
cap	-11.3303
▁delivering	-11.3303
▁ports	-11.3304
▁subgraphs	-11.3304
▁converters	-11.3312
▁pictures	-11.3313
ey	-11.3317
▁charts	-11.3318
▁military	-11.3319
▁emergent	-11.3319
▁bubble	-11.3323
▁5:	-11.3325
lda	-11.3328
▁massively	-11.333
▁48	-11.3332
▁personnel	-11.3332
sl	-11.3335
▁lifting	-11.3335
water	-11.3341
▁reflecting	-11.3345
▁violations	-11.3345
65	-11.3349
▁3.5	-11.3351
▁revised	-11.3355
▁treatments	-11.3356
▁holistic	-11.3358
▁lens	-11.3367
unit	-11.3369
ik	-11.337
▁keeps	-11.3375
ig	-11.3376
action	-11.3377
18	-11.3378
▁anchor	-11.3382
▁repetitive	-11.3384
▁defense	-11.3384
▁selectivity	-11.3384
▁bl	-11.3386
▁eigenvectors	-11.3391
▁shopping	-11.3392
▁foreign	-11.3396
6,	-11.3401
▁irreducible	-11.3403
▁38	-11.3403
▁0.8	-11.3403
▁mirror	-11.3404
▁α	-11.3404
▁bivariate	-11.3409
▁monitors	-11.3409
▁400	-11.341
▁schools	-11.3412
▁colored	-11.3413
▁authoring	-11.3416
▁reproduce	-11.3416
▁intent	-11.3416
▁executes	-11.3417
▁30%	-11.342
▁men	-11.3421
ao	-11.3429
▁cards	-11.3431
▁exceptions	-11.3433
▁mine	-11.3443
stream	-11.3449
▁pcs	-11.345
▁concentrated	-11.3451
▁junction	-11.3455
▁prevents	-11.346
▁aerial	-11.3461
▁collector	-11.3462
▁ica	-11.3464
▁gaining	-11.3465
▁intellectual	-11.3467
standard	-11.3475
▁chooses	-11.3476
▁ownership	-11.348
▁catalogue	-11.348
▁linearization	-11.3483
ell	-11.3486
bm	-11.3487
▁2009	-11.3488
▁hospitals	-11.3488
likelihood	-11.3489
▁phrase	-11.3489
▁discriminate	-11.3489
▁discrepancy	-11.35
▁eu	-11.3501
▁modality	-11.3503
▁voltages	-11.3503
▁ce	-11.3504
response	-11.3508
▁bonding	-11.3509
▁organisation	-11.3513
1-	-11.3524
▁elderly	-11.3526
▁bucket	-11.3526
▁80%	-11.3527
▁merits	-11.353
▁fs	-11.3531
name	-11.3534
▁modularity	-11.3536
▁ethernet	-11.3545
▁geospatial	-11.3545
▁microsoft	-11.3546
▁piezoelectric	-11.3552
▁dct	-11.3558
▁slight	-11.3562
▁37	-11.3562
▁psychology	-11.3565
▁adapts	-11.3565
45	-11.3566
▁layouts	-11.3567
prone	-11.3568
oh	-11.3568
▁singularity	-11.3568
mann	-11.3569
▁gr	-11.3569
▁landmarks	-11.357
▁managerial	-11.3572
▁editor	-11.3572
▁wrong	-11.3575
task	-11.3577
▁shot	-11.3582
▁organize	-11.3584
▁immersed	-11.3584
nt	-11.3587
ov	-11.3587
(1	-11.359
disjoint	-11.3593
▁+/-	-11.3603
▁wrapper	-11.3606
▁passed	-11.3606
▁formalize	-11.3609
▁onset	-11.3611
▁initiated	-11.3615
▁grasp	-11.3621
▁marker	-11.3623
▁knowing	-11.3624
76	-11.3624
▁glucose	-11.3637
▁ask	-11.3638
▁encourage	-11.3638
▁preconditioners	-11.364
▁planned	-11.3644
▁folding	-11.3647
▁provably	-11.365
▁res	-11.3653
write	-11.3653
▁intuition	-11.3659
▁hypermedia	-11.367
▁salesman	-11.3671
▁splines	-11.3674
▁mn	-11.3674
▁dp	-11.3675
▁determinants	-11.3677
▁tracked	-11.3677
▁asset	-11.3679
▁smoothed	-11.3681
▁container	-11.3683
▁motivate	-11.3685
▁artifact	-11.3686
run	-11.3689
▁preconditioned	-11.3692
▁worth	-11.3693
▁vm	-11.3694
▁helping	-11.3694
▁intersections	-11.3696
directional	-11.3699
▁incurred	-11.3703
▁steering	-11.3704
▁partly	-11.3706
▁plug	-11.3707
▁homology	-11.371
▁resolving	-11.3712
▁revision	-11.3713
▁injury	-11.3716
▁navierstokes	-11.3716
▁rdf	-11.3719
▁scattered	-11.372
?2	-11.3722
sw	-11.3722
▁lesions	-11.3729
▁perpendicular	-11.373
▁geometrically	-11.3731
▁translate	-11.3739
▁submitted	-11.3743
▁pointers	-11.3746
▁permeability	-11.3756
▁tile	-11.3757
▁speaking	-11.3758
distortion	-11.3759
▁pump	-11.3759
▁whereby	-11.3759
▁var	-11.3763
▁pipe	-11.3768
bf	-11.3768
▁sram	-11.3772
▁pick	-11.3773
▁lc	-11.3774
▁0.4	-11.3778
two	-11.378
▁skill	-11.378
▁synthesize	-11.3781
▁emerge	-11.3781
▁visualizations	-11.3782
▁fastest	-11.3786
▁warping	-11.3786
▁automate	-11.3795
▁conf	-11.3795
▁adverse	-11.3801
den	-11.3801
▁philosophy	-11.3803
▁dec	-11.3806
▁contradiction	-11.3806
coloring	-11.3808
▁lossy	-11.3808
▁actuators	-11.3809
▁bug	-11.3812
▁organizing	-11.3813
▁hf	-11.3814
hp	-11.3817
▁contacts	-11.3819
gm	-11.3822
▁generalizations	-11.3823
▁cited	-11.3827
▁basically	-11.3828
ah	-11.3829
▁mild	-11.3832
▁ta	-11.3837
▁telephone	-11.3837
▁actor	-11.3841
ence	-11.3847
vis	-11.3848
▁walls	-11.3848
▁authorization	-11.385
▁fat	-11.3851
▁recovering	-11.3854
▁creativity	-11.3857
▁inexpensive	-11.3859
▁ecological	-11.3861
▁possesses	-11.3865
tier	-11.3868
▁movie	-11.3869
board	-11.3871
▁standardization	-11.3874
▁wired	-11.3874
chain	-11.3875
▁cardiovascular	-11.3877
http	-11.388
av	-11.3884
▁sweep	-11.3884
▁zhang	-11.3884
▁reconstructing	-11.3885
▁corpora	-11.389
54	-11.3892
▁riemann	-11.3894
▁turning	-11.3901
▁dene	-11.3905
▁proceeds	-11.3912
▁iron	-11.3913
▁tunnel	-11.3914
35	-11.3915
coded	-11.3918
▁believed	-11.3919
▁redistribution	-11.3919
▁autonomic	-11.3924
▁speedups	-11.3926
▁electrodes	-11.3926
▁disorder	-11.3926
▁rendered	-11.3928
ium	-11.3928
▁cfd	-11.3931
systems	-11.3937
▁exclusive	-11.3942
ification	-11.3944
▁inadequate	-11.3946
1%	-11.3949
▁hi	-11.3951
▁concave	-11.3952
▁overcomes	-11.3956
▁electrode	-11.396
▁photos	-11.3961
▁hu	-11.3962
▁manufacturer	-11.3965
▁pagerank	-11.3967
▁upstream	-11.3969
▁letters	-11.3971
▁couple	-11.3971
ij	-11.3972
mechanical	-11.3972
▁summation	-11.3972
▁(?	-11.3972
▁authority	-11.3981
)).	-11.3988
▁breaking	-11.3993
propagation	-11.3994
edu	-11.3995
▁fragmentation	-11.4
▁(6)	-11.4001
▁powers	-11.4001
06	-11.4001
▁supplied	-11.4006
ou	-11.4016
cast	-11.4017
▁cpc	-11.4018
▁summarizes	-11.4019
▁rural	-11.4022
0)	-11.4023
well	-11.4024
can	-11.4029
▁cbr	-11.4029
ks	-11.403
▁compressive	-11.4033
▁resilient	-11.4035
▁propagate	-11.4038
▁vr	-11.4039
▁valuation	-11.4052
▁6,	-11.4056
through	-11.4056
check	-11.4059
▁subtle	-11.406
▁interactively	-11.4061
▁visited	-11.4064
▁blog	-11.4074
▁pin	-11.4078
▁isomorphism	-11.4079
▁aforementioned	-11.4081
▁preceding	-11.4081
solving	-11.4081
▁raises	-11.4087
▁8-	-11.4089
▁cold	-11.4091
▁surprising	-11.4093
ful	-11.4096
▁[15]	-11.4098
cam	-11.41
▁mw	-11.41
▁embed	-11.41
▁truncation	-11.4102
▁bidding	-11.4102
▁installed	-11.4103
0;	-11.4104
od	-11.4105
▁amongst	-11.4105
▁equals	-11.4106
sar	-11.4107
▁enhancements	-11.4109
▁atmospheric	-11.4109
▁linearity	-11.411
▁pn	-11.411
▁ui	-11.4113
79	-11.4115
▁5%	-11.4117
▁spiking	-11.4123
▁decompositions	-11.4126
rk	-11.4126
6%	-11.4127
▁elaborate	-11.4128
▁calibrated	-11.4129
▁inaccurate	-11.4132
▁clarify	-11.4132
cpc	-11.4134
▁severity	-11.4137
positive	-11.4137
▁busy	-11.4138
lf	-11.4143
▁ln	-11.4146
▁investments	-11.4148
▁pedagogical	-11.4149
▁trip	-11.415
▁penetration	-11.4151
▁po	-11.4153
▁behavioural	-11.4153
▁blocked	-11.4157
▁shaped	-11.4157
▁convenience	-11.4157
▁...	-11.4161
▁illustrating	-11.4164
mhz	-11.4166
▁rounding	-11.4166
▁severely	-11.4171
▁tau	-11.4173
▁pg	-11.4176
▁identities	-11.4178
▁singularities	-11.4179
attribute	-11.418
▁tendency	-11.4185
▁te	-11.4186
gaussian	-11.4188
hm	-11.4189
passing	-11.4192
snr	-11.4192
▁reordering	-11.4195
▁discussing	-11.4198
▁quorum	-11.4204
ld	-11.4211
▁stories	-11.4213
▁multiuser	-11.4213
▁es	-11.4215
▁dft	-11.4215
lambda	-11.4216
dynamic	-11.4219
▁fetch	-11.4221
lines	-11.4222
▁oscillatory	-11.4224
▁arterial	-11.4227
▁accordance	-11.4227
▁cdma	-11.4228
▁cable	-11.423
wt	-11.4233
mas	-11.4235
▁rr	-11.4239
▁noc	-11.4239
▁calculates	-11.424
84	-11.4241
▁hands	-11.4246
▁degrade	-11.4248
▁versatile	-11.4248
▁systemic	-11.4248
▁valued	-11.425
mg	-11.4251
▁placing	-11.4255
▁canada	-11.4259
00	-11.4262
▁decoupling	-11.4262
▁shifted	-11.4265
▁appl	-11.4266
▁discontinuity	-11.4269
▁subclass	-11.4272
▁chromatic	-11.4276
▁modest	-11.4277
▁microwave	-11.4278
▁ligands	-11.4283
▁blur	-11.4284
▁imbalance	-11.4297
▁compliant	-11.4298
▁thousand	-11.4303
▁latencies	-11.4304
▁phylogenetic	-11.4304
▁underwater	-11.4318
▁pde	-11.4321
▁coalition	-11.4323
▁publish	-11.4323
lib	-11.4323
▁cooperate	-11.4323
wsns	-11.4325
▁[16]	-11.4329
▁probes	-11.4329
▁decoupled	-11.433
▁modulated	-11.4332
▁averaged	-11.4333
-10	-11.4334
▁reachable	-11.4337
▁autonomy	-11.4339
▁ko	-11.4345
▁explaining	-11.4345
▁volatility	-11.4354
▁slip	-11.4359
su	-11.4361
▁adaptability	-11.4363
active	-11.4366
▁dissimilarity	-11.4368
▁alternatively	-11.4368
36	-11.4369
▁derives	-11.4371
▁workstation	-11.4371
▁deploying	-11.4372
dy	-11.4373
▁duplicate	-11.4376
ect	-11.4379
▁commit	-11.4381
▁vendor	-11.4382
▁delaunay	-11.4382
▁visit	-11.4387
▁wikipedia	-11.4389
figure	-11.4392
▁concise	-11.4393
▁confirms	-11.4402
▁3.4	-11.4403
▁[0,	-11.4404
▁ng	-11.4405
▁wires	-11.4406
sen	-11.4409
▁december	-11.441
visual	-11.4411
▁ontological	-11.4411
▁150	-11.4412
▁cipher	-11.4412
▁script	-11.4415
▁instructional	-11.4416
bt	-11.4417
▁retention	-11.4417
▁lip	-11.442
▁44	-11.442
27	-11.4426
▁violation	-11.4431
▁pathological	-11.4432
▁emissions	-11.4432
▁maximized	-11.4435
▁happen	-11.4437
▁contributing	-11.4439
▁unchanged	-11.4439
▁(\	-11.4442
▁nite	-11.4446
▁rolling	-11.445
▁fibers	-11.445
▁messaging	-11.4453
▁correcting	-11.4454
2/	-11.4456
▁intractable	-11.4457
▁rankings	-11.4457
metric	-11.4458
▁fish	-11.4461
▁dependences	-11.4463
▁1/2	-11.4466
▁•	-11.4467
▁focal	-11.4468
▁jet	-11.4474
▁don	-11.4475
▁electronics	-11.4478
▁bids	-11.4479
▁sentiment	-11.4481
▁validating	-11.4483
mesh	-11.4485
▁nurses	-11.4485
kb	-11.4486
▁θ	-11.4486
mv	-11.4489
▁listed	-11.449
▁downlink	-11.4493
▁subtree	-11.4493
▁innovations	-11.4495
▁drastically	-11.4496
▁merely	-11.4497
▁justified	-11.4511
▁encrypted	-11.4511
▁degenerate	-11.4512
ard	-11.4512
▁stabilized	-11.4512
hc	-11.4512
▁partner	-11.4515
▁john	-11.4518
▁unbiased	-11.4518
▁dataflow	-11.452
▁advantageous	-11.4522
▁negation	-11.4525
tolerance	-11.4528
▁soundness	-11.453
▁certificate	-11.4532
▁respiratory	-11.4532
▁whilst	-11.4532
▁decided	-11.4533
▁masking	-11.4533
▁optimizer	-11.4536
▁1]	-11.4539
new	-11.4548
▁initiation	-11.4554
▁parallelized	-11.4554
▁tightly	-11.4556
()	-11.4559
▁0.6	-11.456
▁undesirable	-11.4561
▁predictable	-11.4563
▁diffuse	-11.4563
▁virtually	-11.4564
▁1).	-11.4565
▁characterizes	-11.4566
▁disaster	-11.4568
▁95	-11.4569
▁versa	-11.4574
ez	-11.4581
▁researches	-11.4582
▁race	-11.4582
vo	-11.4588
▁lda	-11.4591
▁continued	-11.4595
▁sought	-11.4597
checking	-11.4597
▁etching	-11.46
shift	-11.4601
▁43	-11.4601
label	-11.4601
▁assertions	-11.4602
▁spacing	-11.4605
▁explanations	-11.4607
▁tf	-11.4607
▁sectors	-11.4608
▁publishing	-11.4608
media	-11.4611
▁retain	-11.4612
▁gather	-11.4612
▁situ	-11.4615
▁residuals	-11.462
▁[17]	-11.4621
ham	-11.4624
▁spring	-11.4624
ide	-11.4626
24	-11.4628
▁fd	-11.4628
tl	-11.4629
▁motifs	-11.463
par	-11.4633
▁impaired	-11.4635
▁pore	-11.4635
▁probing	-11.4636
best	-11.4636
▁speculative	-11.4638
▁mar	-11.4642
▁cubes	-11.4648
dss	-11.465
▁era	-11.4651
▁transverse	-11.4653
▁forensic	-11.4656
▁eulerian	-11.4657
▁archive	-11.4657
▁organisms	-11.466
beam	-11.4661
▁competence	-11.4663
▁regimes	-11.4668
zi	-11.467
▁raise	-11.4672
tz	-11.4675
▁conditioning	-11.4676
▁governance	-11.4678
hz	-11.4679
▁viability	-11.468
19	-11.4684
▁meshless	-11.4685
▁truly	-11.4685
▁outage	-11.4685
▁retinal	-11.4686
▁hazard	-11.4693
occurrence	-11.4694
▁chebyshev	-11.4699
▁aggregates	-11.47
▁accumulated	-11.4704
▁europe	-11.4705
32	-11.4706
▁looks	-11.4712
ising	-11.4714
ny	-11.4717
dominated	-11.4719
▁anxiety	-11.4721
▁ˆ	-11.4722
▁kinase	-11.4723
▁nonuniform	-11.4727
▁mlp	-11.4727
▁256	-11.4727
▁tumors	-11.4732
▁enormous	-11.4733
▁developmental	-11.4733
▁solids	-11.4735
▁inferring	-11.4736
▁achievement	-11.4742
▁centroid	-11.4745
▁designated	-11.4745
▁optimizes	-11.4749
▁neumann	-11.4751
▁metaheuristic	-11.4752
▁comp	-11.4755
▁deeper	-11.4756
▁wear	-11.4758
▁ignore	-11.476
cn	-11.4762
▁allocating	-11.4765
▁inhibitory	-11.4767
▁forcing	-11.4775
▁retaining	-11.4777
▁boost	-11.4777
67	-11.4779
▁frontier	-11.4782
▁crash	-11.4792
vr	-11.4794
▁david	-11.4794
▁duty	-11.4795
▁bundle	-11.4797
▁landmark	-11.48
inter	-11.4802
−1	-11.4803
▁pain	-11.4806
ology	-11.4807
ists	-11.4808
▁vague	-11.4809
▁kinetics	-11.4812
▁worked	-11.4812
▁labor	-11.4815
▁bilateral	-11.4817
▁qualitatively	-11.4817
▁selectively	-11.4819
gram	-11.4821
▁rectangles	-11.4822
▁superposition	-11.4825
▁arrivals	-11.4829
▁evident	-11.4829
▁attained	-11.483
▁turned	-11.4836
center	-11.4837
-6	-11.4838
▁stokes	-11.4839
▁compete	-11.4839
▁governed	-11.4841
▁(5	-11.4844
ons	-11.4854
▁biochemical	-11.4854
8,	-11.4854
▁alter	-11.4857
▁admits	-11.4857
49	-11.4861
88	-11.4863
▁rl	-11.4866
▁bridges	-11.4868
▁antibodies	-11.4869
▁installation	-11.4871
▁zeros	-11.4871
▁fly	-11.4874
▁compositions	-11.4874
▁wavelengths	-11.4875
▁malware	-11.4876
▁echo	-11.4884
▁hundred	-11.4886
concept	-11.4887
▁hill	-11.4889
kin	-11.4891
▁controllable	-11.4892
▁altered	-11.4894
▁62	-11.4895
ib	-11.4899
▁disjunctive	-11.4899
▁protecting	-11.49
▁reflective	-11.49
coupled	-11.4901
▁pb	-11.4901
▁interestingly	-11.4901
▁ea	-11.4901
▁uplink	-11.4902
-8	-11.4903
▁hops	-11.4905
▁cities	-11.4909
▁exchanged	-11.491
▁japan	-11.4914
13	-11.4914
▁buffering	-11.4919
iss	-11.492
29	-11.492
nf	-11.492
▁[1],	-11.4922
500	-11.4923
▁triggered	-11.4927
▁ocean	-11.4929
▁revealing	-11.4929
▁voip	-11.493
▁frontal	-11.493
▁lecture	-11.493
▁organisational	-11.4936
▁agency	-11.4936
▁strains	-11.4937
▁rectangle	-11.4939
guided	-11.4941
▁unicast	-11.4941
law	-11.4941
▁unpredictable	-11.4951
▁hyperspectral	-11.4951
▁foot	-11.4952
▁simplifying	-11.4953
▁books	-11.4956
▁aids	-11.4958
limited	-11.496
light	-11.4961
▁subsequence	-11.4963
▁erroneous	-11.4964
fo	-11.4965
▁hits	-11.4967
knowledge	-11.4969
oc	-11.4973
▁manipulating	-11.4974
▁linearized	-11.4977
▁asymmetry	-11.4985
ker	-11.4985
ze	-11.4986
▁microscopic	-11.4989
▁compromised	-11.499
▁merit	-11.4992
▁guaranteeing	-11.4994
▁facets	-11.4994
head	-11.5
▁fulfill	-11.5
▁assertion	-11.5001
▁attempted	-11.5004
▁ru	-11.5008
▁bs	-11.5009
▁gb	-11.5011
▁vegetation	-11.5011
poly	-11.5013
)),	-11.5016
▁inconsistencies	-11.5019
▁sustainability	-11.5019
''	-11.5021
▁hci	-11.5027
▁gl	-11.5028
▁inhibitor	-11.5029
▁tracker	-11.5031
▁formalized	-11.5032
arc	-11.5037
▁cam	-11.5038
▁interpreter	-11.504
ari	-11.5041
shape	-11.5043
▁sch	-11.5046
▁thank	-11.505
▁joins	-11.505
▁dropping	-11.505
▁infinitely	-11.5052
▁magneto	-11.5052
▁multithreaded	-11.5054
▁dramatic	-11.5056
▁adjacency	-11.5057
▁hydrodynamic	-11.5058
▁fm	-11.5059
▁ids	-11.506
02	-11.506
are	-11.506
▁parents	-11.5062
▁prefer	-11.5069
▁outperformed	-11.5074
▁mitigation	-11.508
▁horn	-11.508
▁lifecycle	-11.5081
▁eddy	-11.5081
▁cv	-11.5081
▁operated	-11.5084
▁guiding	-11.5087
▁functionally	-11.5087
▁subtraction	-11.5088
▁ranks	-11.5088
led	-11.5089
▁authenticated	-11.5093
▁qualities	-11.5095
▁thick	-11.5101
▁administrative	-11.5102
▁elicitation	-11.5103
▁recommend	-11.5103
▁fu	-11.5104
▁manufacturers	-11.5106
du	-11.5109
▁mitochondrial	-11.5111
▁saturated	-11.5114
(1),	-11.5114
▁acids	-11.5114
▁reciprocal	-11.5118
▁distinctive	-11.5119
protein	-11.512
▁unix	-11.5124
points	-11.5125
▁influential	-11.5125
▁1990	-11.5127
▁registered	-11.5129
▁print	-11.513
▁metabolism	-11.5133
▁95%	-11.5135
▁configurable	-11.5141
automatic	-11.5142
▁42	-11.5144
▁1999	-11.5145
mat	-11.5147
▁nearby	-11.5147
target	-11.5149
ron	-11.5152
▁xi	-11.5155
▁negatively	-11.5157
▁mrna	-11.5158
▁coincide	-11.5159
▁heating	-11.5161
fluid	-11.5167
-0	-11.5168
▁clutter	-11.5168
ible	-11.517
▁pipelining	-11.5171
▁[1,	-11.5173
▁phantom	-11.5175
▁capacitor	-11.5176
▁approximates	-11.5176
▁codebook	-11.5177
▁doppler	-11.5179
mw	-11.5181
▁bibliometric	-11.5187
▁restrictive	-11.5187
also	-11.5187
17	-11.5194
qub	-11.5198
▁geographically	-11.5202
▁retailer	-11.5208
34	-11.5209
▁pursuit	-11.521
▁gaming	-11.5211
rn	-11.5217
wi	-11.5218
▁visualisation	-11.5219
▁remotely	-11.523
▁forecasts	-11.5234
▁causality	-11.5236
.4,	-11.5237
)}	-11.5237
▁adaptable	-11.5246
psi	-11.5246
lab	-11.5246
09	-11.5251
sm	-11.5252
▁axiom	-11.5252
▁fused	-11.5254
▁roc	-11.5254
pn	-11.5255
▁critically	-11.526
▁payoff	-11.5261
▁traceability	-11.5267
▁ran	-11.5267
▁dialog	-11.527
▁tam	-11.527
▁gm	-11.5272
▁blending	-11.5274
fly	-11.5275
▁converting	-11.5279
▁dl	-11.5279
▁unitary	-11.5285
▁collapse	-11.5285
▁gibbs	-11.5287
▁tunable	-11.5295
▁brand	-11.53
▁combinational	-11.5302
▁contributed	-11.5303
▁expansions	-11.5306
▁ecosystem	-11.5307
▁svms	-11.5307
▁conversation	-11.531
▁wimax	-11.5312
continuous	-11.5312
▁situated	-11.5318
▁vendors	-11.5319
▁pairing	-11.532
▁resolutions	-11.5321
37	-11.5322
pb	-11.5324
gb	-11.5325
▁became	-11.5326
5)	-11.5329
▁buyers	-11.5329
▁sin	-11.5329
pair	-11.5333
▁thoroughly	-11.5337
4.5	-11.5339
sequence	-11.5339
motion	-11.5342
▁hysteresis	-11.5342
cache	-11.5342
▁traits	-11.5342
▁128	-11.535
▁prolog	-11.5352
▁prostate	-11.5365
▁7,	-11.5367
▁goodness	-11.5368
▁election	-11.537
gate	-11.5371
hl	-11.5374
▁audience	-11.5377
▁disc	-11.5379
▁dealt	-11.5384
▁instantiation	-11.5385
ong	-11.5388
▁drawings	-11.5388
▁acquiring	-11.5389
▁relaying	-11.5389
▁initiative	-11.5394
▁functioning	-11.5395
▁suppress	-11.5396
▁ser	-11.5397
▁seller	-11.5397
▁flood	-11.5399
▁respondents	-11.5402
▁haskell	-11.5404
▁nitrogen	-11.5405
-1,	-11.5408
▁generalised	-11.5408
▁tried	-11.541
▁appealing	-11.5414
▁animations	-11.5415
▁kl	-11.5415
▁owner	-11.5416
▁wild	-11.5419
▁cerebral	-11.542
▁coronary	-11.542
▁rsa	-11.5421
▁gc	-11.5428
▁unification	-11.543
▁jacobi	-11.5435
▁39	-11.5435
ped	-11.5436
▁owl	-11.5439
▁exchanges	-11.5443
▁conversely	-11.5445
▁uwb	-11.5447
▁estimations	-11.545
▁oo	-11.5452
▁capacitated	-11.5452
pg	-11.5452
lu	-11.5455
▁attain	-11.5456
03	-11.546
▁notably	-11.546
▁prevalent	-11.546
ck	-11.5461
gis	-11.547
rbf	-11.5471
▁geological	-11.5472
▁epidemic	-11.5472
▁temporary	-11.5475
▁geodesic	-11.5481
▁manets	-11.5481
supported	-11.5482
ki	-11.5484
▁variances	-11.5485
▁rm	-11.5486
08	-11.5488
▁differentiate	-11.5491
▁reception	-11.5491
bd	-11.5493
nl	-11.5497
ier	-11.5498
▁sh	-11.5499
▁twitter	-11.5499
▁century	-11.5499
▁remarks	-11.5501
▁removes	-11.5502
▁proximal	-11.5507
▁serving	-11.5508
▁dividing	-11.5515
▁pull	-11.5522
▁consumes	-11.5522
▁≥	-11.5523
▁expressiveness	-11.5526
▁machinery	-11.5527
5-	-11.5528
ics	-11.553
▁pop	-11.553
▁bonds	-11.553
▁fluxes	-11.5535
▁archives	-11.5538
▁circles	-11.5539
200	-11.5543
ob	-11.5544
▁turbo	-11.5547
▁endpoints	-11.5552
ster	-11.5554
▁disclosure	-11.5556
▁convexity	-11.5557
▁assistant	-11.5559
▁transformer	-11.5561
▁artery	-11.5563
▁multistage	-11.5563
gf	-11.5565
▁slowly	-11.5566
support	-11.5568
▁analogue	-11.5569
▁replicas	-11.5569
▁ternary	-11.5571
▁lipschitz	-11.5571
ln	-11.5571
▁enriched	-11.5573
▁justify	-11.5575
programming	-11.5575
▁utilities	-11.5579
▁railway	-11.5579
tion	-11.558
▁pedestrian	-11.5584
▁hessian	-11.5587
dh	-11.5588
▁entertainment	-11.5595
▁augment	-11.56
▁tc	-11.5601
▁cas	-11.5603
▁40%	-11.5606
▁propositions	-11.5608
▁drops	-11.5608
digital	-11.5612
▁parse	-11.5614
period	-11.5615
▁fluorescence	-11.5619
▁handheld	-11.562
(-)	-11.5622
▁motif	-11.5626
▁containment	-11.5631
▁conformational	-11.5634
▁nonconvex	-11.5634
▁filled	-11.5635
▁slack	-11.5636
ping	-11.5641
▁corners	-11.5641
tin	-11.5642
▁distributing	-11.5643
ably	-11.5645
▁rho	-11.5652
throughput	-11.5655
similarity	-11.5655
ana	-11.5655
▁australia	-11.5657
▁quad	-11.566
▁consequent	-11.5664
▁posture	-11.5666
▁isomorphic	-11.5668
▁tone	-11.5671
6)	-11.5672
▁td	-11.5672
▁interactivity	-11.5685
▁roll	-11.5686
bed	-11.5686
▁ro	-11.5687
▁delete	-11.5693
▁stands	-11.5694
▁deduce	-11.5694
▁searched	-11.5694
▁robustly	-11.5695
▁clocks	-11.5696
bem	-11.5698
▁navigate	-11.5699
▁interplay	-11.5701
▁solvent	-11.5702
▁insensitive	-11.5704
▁pdf	-11.5705
])	-11.5706
▁propagated	-11.5707
▁prevalence	-11.5708
▁bottlenecks	-11.5708
▁crowd	-11.571
ini	-11.571
ator	-11.5711
▁maturity	-11.5716
▁knows	-11.5716
▁confidentiality	-11.5716
▁organ	-11.5719
▁photon	-11.5722
▁spheres	-11.5722
ofdm	-11.5725
▁comprised	-11.5727
▁speakers	-11.5728
▁increment	-11.5731
▁verbal	-11.5732
▁guard	-11.5732
▁rp	-11.5735
▁workspace	-11.5738
lb	-11.5741
▁-1	-11.5742
▁unifying	-11.5742
▁tar	-11.5744
pattern	-11.5747
consistent	-11.575
region	-11.5753
erent	-11.5754
val	-11.5756
gl	-11.5764
▁anisotropy	-11.5764
▁arriving	-11.5764
▁destinations	-11.5765
▁park	-11.5766
division	-11.5766
▁lemmas	-11.5768
query	-11.577
▁optima	-11.5774
91	-11.5775
posed	-11.5776
▁[18]	-11.5777
▁ridge	-11.5777
▁imposing	-11.5781
▁tactile	-11.5781
▁sediment	-11.5787
physical	-11.5792
▁buses	-11.5796
▁consolidation	-11.5797
▁priors	-11.5799
▁highlighting	-11.5802
▁pressures	-11.5803
▁favor	-11.5804
▁banking	-11.5809
▁progressively	-11.5811
▁deterioration	-11.5813
▁den	-11.5816
▁translations	-11.5816
▁deleted	-11.5819
▁falls	-11.582
▁equivalently	-11.5822
self	-11.5823
air	-11.5824
▁sure	-11.5827
▁phrases	-11.5828
▁duplication	-11.5829
▁cue	-11.5829
▁immersive	-11.583
▁nerve	-11.583
periodic	-11.5838
▁promoting	-11.5838
▁interpreting	-11.5838
▁accepts	-11.584
▁dilation	-11.5847
tuning	-11.585
▁money	-11.5855
▁twofold	-11.5859
left	-11.586
▁neglected	-11.5864
▁tape	-11.5865
price	-11.5869
▁resonant	-11.5871
56	-11.5872
(\	-11.5873
▁multiclass	-11.5874
▁hip	-11.5876
join	-11.588
∈	-11.5883
▁determinant	-11.5886
▁credibility	-11.5887
▁oblivious	-11.5889
▁ep	-11.5893
▁weeks	-11.5894
tv	-11.5903
▁epi	-11.5906
▁unity	-11.5907
▁evolves	-11.5909
▁constituent	-11.5911
even	-11.5911
differential	-11.5914
scan	-11.5915
▁audit	-11.5918
▁regulated	-11.5919
▁fc	-11.5919
(4)	-11.5921
ries	-11.5923
▁0.3	-11.5927
▁walks	-11.5928
▁scanner	-11.5929
▁turbine	-11.593
▁4.4	-11.593
tal	-11.5932
derived	-11.5933
uc	-11.5935
▁stay	-11.5935
▁documented	-11.5937
▁yes	-11.5937
▁favorably	-11.5937
▁atlas	-11.5938
▁orderings	-11.594
▁enforced	-11.5941
▁dry	-11.5944
▁consisted	-11.5946
▁confined	-11.5949
rep	-11.595
neighbor	-11.5958
▁sensed	-11.5958
▁reproduction	-11.5963
▁perceive	-11.5965
▁issued	-11.5966
▁vocal	-11.5967
▁translating	-11.597
▁guess	-11.597
▁schur	-11.5971
▁compaction	-11.5973
▁aperture	-11.5978
▁mature	-11.5982
94	-11.5984
▁4.5	-11.5986
▁refactoring	-11.5986
▁shaping	-11.5987
▁accompanied	-11.5995
▁2010	-11.5998
▁patents	-11.5999
▁multicriteria	-11.6
▁tedious	-11.6003
▁violated	-11.6004
▁domination	-11.6004
▁configured	-11.6004
▁120	-11.6006
9,	-11.6008
▁comment	-11.6015
▁medial	-11.6018
▁doubly	-11.602
▁accelerating	-11.602
▁pyramid	-11.6023
▁envelopment	-11.6028
▁clinicians	-11.6034
▁susceptible	-11.6037
▁wideband	-11.6043
▁differing	-11.6044
▁interleaving	-11.6046
▁valve	-11.6047
hmm	-11.6048
shelf	-11.605
▁prioritization	-11.6054
▁embodied	-11.6054
nic	-11.6054
▁hr	-11.6057
method	-11.6058
▁subgroup	-11.6063
▁adder	-11.6066
beta	-11.6069
▁diabetic	-11.6071
▁dom	-11.6071
▁inflammatory	-11.6072
▁depicted	-11.6072
▁hair	-11.6077
▁lag	-11.608
▁thermodynamic	-11.6081
▁finitely	-11.6084
▁advent	-11.6087
▁intensities	-11.6087
▁invoked	-11.6088
▁ld	-11.6091
▁fold	-11.6093
▁conjunctive	-11.6096
▁possibilistic	-11.6096
used	-11.6096
▁cauchy	-11.6096
▁writes	-11.6097
▁lacking	-11.6098
▁mini	-11.6102
▁departure	-11.6105
▁escape	-11.6107
precision	-11.6108
▁literals	-11.6109
pv	-11.611
▁void	-11.611
▁extremal	-11.6114
▁differentiable	-11.6114
▁constantly	-11.6115
▁inertia	-11.6115
heuristic	-11.6116
▁unbalanced	-11.6117
reduction	-11.6117
▁ft	-11.6119
▁extrapolation	-11.6121
▁spanish	-11.6121
▁universe	-11.6121
▁anfis	-11.6122
▁75	-11.6122
▁ice	-11.6124
▁animated	-11.6125
▁manipulated	-11.6125
▁spare	-11.6125
0.5	-11.6128
▁presentations	-11.6131
▁bidders	-11.6133
▁locomotion	-11.6138
▁interpolating	-11.6138
▁persistence	-11.6138
▁encounter	-11.614
▁2008	-11.614
▁dam	-11.6141
note	-11.6146
▁tour	-11.6148
▁10-	-11.6154
▁copyright	-11.6155
▁abc	-11.6156
▁deposited	-11.6157
▁loosely	-11.6157
▁distillation	-11.6172
▁distant	-11.6172
▁disadvantage	-11.6172
▁groundwater	-11.6173
▁tolerate	-11.6176
=(	-11.6177
rb	-11.618
▁oscillators	-11.6186
▁liu	-11.6187
▁compose	-11.6188
▁autoimmune	-11.6189
▁opens	-11.619
▁labelled	-11.619
▁sm	-11.6195
vc	-11.6195
▁introductory	-11.6197
▁sec	-11.6199
74	-11.6201
stable	-11.6202
▁mat	-11.6202
▁parser	-11.6203
aco	-11.6203
▁consume	-11.6204
▁equi	-11.6205
▁nonlocal	-11.6205
▁accepting	-11.6214
▁agencies	-11.6214
▁intracellular	-11.6214
▁obtainable	-11.6216
▁analysts	-11.6219
▁implied	-11.6223
▁binomial	-11.6223
▁wearable	-11.6224
nes	-11.6227
▁[19]	-11.6228
mis	-11.623
▁fluctuation	-11.6232
▁openmp	-11.6232
▁vibrations	-11.6235
▁genomes	-11.6237
item	-11.6238
▁scanned	-11.624
▁δ	-11.6241
▁2004,	-11.6243
▁skewed	-11.6247
▁susceptibility	-11.6248
▁1%	-11.6255
terdisciplinary	-11.6261
particle	-11.6263
▁xor	-11.6264
▁essence	-11.6274
▁dark	-11.6275
▁harmonics	-11.6281
72	-11.6283
▁fabric	-11.6283
▁lift	-11.6283
men	-11.6284
cube	-11.6285
▁joining	-11.6285
▁graded	-11.6286
▁terminates	-11.6286
▁finer	-11.6291
▁bacterial	-11.6293
▁plain	-11.6296
▁noises	-11.6298
▁mortality	-11.63
ish	-11.63
▁calcium	-11.63
▁2005,	-11.6302
▁scripts	-11.6304
▁temporally	-11.6304
▁exhibiting	-11.6306
▁legitimate	-11.6308
▁controllability	-11.6309
▁neighbourhood	-11.631
pos	-11.6312
▁25%	-11.6318
7,	-11.632
▁pulses	-11.6321
▁functionals	-11.6322
22	-11.6322
4-	-11.6326
▁σ	-11.6328
▁businesses	-11.633
▁conserved	-11.6331
distribution	-11.6335
vertex	-11.6338
▁bem	-11.634
ran	-11.6341
ratio	-11.6349
▁homotopy	-11.6351
▁enforcing	-11.6352
▁krylov	-11.6352
optical	-11.6352
▁bisimulation	-11.6352
▁header	-11.6355
cas	-11.6356
▁rainfall	-11.636
balanced	-11.6361
47	-11.6361
▁sports	-11.6362
▁(7)	-11.6365
▁2006,	-11.6366
▁sha	-11.6367
polynomial	-11.6373
pixel	-11.6373
detection	-11.6373
▁dispatching	-11.6375
ble	-11.6376
gu	-11.6376
▁biases	-11.6377
▁maxwell	-11.6378
▁modulator	-11.6379
▁uniformity	-11.6379
39	-11.638
oid	-11.6384
9%	-11.6387
▁imposes	-11.6391
▁sized	-11.6396
▁sustained	-11.6397
▁exclusively	-11.6398
▁simd	-11.6403
▁collaborate	-11.6403
▁retransmission	-11.6406
▁depression	-11.6412
▁tangible	-11.6412
threshold	-11.6419
implicit	-11.6421
▁simulates	-11.6425
▁unknowns	-11.6425
▁capacitors	-11.6426
▁feel	-11.6426
established	-11.6426
ano	-11.6427
▁penalties	-11.643
▁mold	-11.6431
▁crawler	-11.6432
mol	-11.6437
92	-11.6438
▁portability	-11.644
▁watershed	-11.644
grain	-11.6447
▁spiral	-11.6447
▁propagating	-11.6448
▁disruption	-11.6449
▁orbit	-11.645
▁reject	-11.645
qp	-11.6452
▁questionnaires	-11.6454
▁discriminating	-11.6464
▁german	-11.6465
▁selfish	-11.6466
dea	-11.6468
▁ethical	-11.6473
▁narrative	-11.6475
▁argues	-11.6478
▁stratified	-11.6482
▁conceptually	-11.6486
▁mach	-11.6495
enhanced	-11.6495
▁conversational	-11.6496
tracking	-11.6497
▁adaboost	-11.65
.264/	-11.65
▁normative	-11.65
▁hide	-11.65
▁thesis	-11.6506
▁fresh	-11.6508
▁sinusoidal	-11.6508
58	-11.6509
▁inertial	-11.6515
▁schedulers	-11.6516
▁diffraction	-11.6517
▁inexact	-11.6518
▁hopfield	-11.6518
▁ahead	-11.652
▁decides	-11.6522
▁ideally	-11.6525
▁hong	-11.6525
▁payload	-11.6526
uv	-11.6527
▁[2].	-11.6529
▁motivations	-11.653
cyclic	-11.6531
▁eco	-11.6532
▁minimax	-11.6533
▁sip	-11.6534
▁comfort	-11.6534
pet	-11.6538
57	-11.6538
▁logarithm	-11.6544
open	-11.655
▁generalizing	-11.655
▁friends	-11.6551
▁manifolds	-11.6552
ids	-11.6553
▁institution	-11.6558
ates	-11.6558
▁cars	-11.6559
93	-11.656
▁participatory	-11.6561
▁_	-11.6562
▁notations	-11.6563
▁[0;	-11.6567
▁cmp	-11.6568
▁preemption	-11.657
▁paired	-11.6572
rom	-11.6573
▁retailers	-11.6575
aa	-11.6577
current	-11.6578
▁pf	-11.658
its	-11.658
▁indirectly	-11.6585
▁warning	-11.6591
▁bu	-11.6595
07	-11.6607
berg	-11.661
▁seamlessly	-11.661
empty	-11.6611
▁bn	-11.6612
▁toolbox	-11.6612
▁saved	-11.6613
▁^	-11.6613
▁earthquake	-11.6617
▁byte	-11.6617
▁warp	-11.6619
▁remained	-11.662
▁tens	-11.6622
more	-11.6624
ite	-11.6625
▁0.01	-11.6627
▁departments	-11.6629
▁adc	-11.663
▁literacy	-11.6632
▁formulating	-11.6635
▁worm	-11.6636
▁generations	-11.6638
ffl	-11.664
▁viscoelastic	-11.664
▁explanatory	-11.6641
▁india	-11.6646
layered	-11.6647
▁recombination	-11.665
▁automating	-11.6651
21	-11.6652
▁masses	-11.6653
▁graduate	-11.6653
▁tiling	-11.6654
▁carries	-11.6659
▁multiphase	-11.6662
efficacy	-11.6663
feedback	-11.6664
▁ob	-11.6665
ses	-11.6665
▁retail	-11.6671
▁arg	-11.6672
possibly	-11.6672
▁buy	-11.6673
▁torus	-11.6673
▁desire	-11.6676
▁indication	-11.668
round	-11.6682
start	-11.6682
▁deficiency	-11.6685
▁nu	-11.6686
▁shadows	-11.6687
ger	-11.6691
array	-11.6692
▁refining	-11.6694
▁gear	-11.6696
▁react	-11.6696
scheduling	-11.6696
nu	-11.6699
▁cn	-11.67
▁nice	-11.67
26	-11.6701
▁emulation	-11.6703
▁incentives	-11.6704
▁augmentation	-11.6705
000	-11.6708
kg	-11.6711
▁nonlinearities	-11.6712
▁defective	-11.6713
mimo	-11.6715
▁boundedness	-11.6716
▁subproblem	-11.6717
▁unlikely	-11.6719
▁visualized	-11.6721
▁television	-11.6721
▁cached	-11.6723
▁segmenting	-11.6723
▁fx	-11.6724
▁wu	-11.6725
▁cracks	-11.6726
▁incurs	-11.6726
▁[3].	-11.6729
▁backpropagation	-11.6731
▁1998	-11.6732
▁bipolar	-11.6732
▁-(	-11.6734
efficiency	-11.6736
51	-11.6738
old	-11.674
▁eyes	-11.6742
▁invocation	-11.6752
▁sellers	-11.6752
▁harder	-11.6756
▁disambiguation	-11.6757
▁suitably	-11.6757
▁interfacial	-11.6757
▁revisited	-11.6759
▁delivers	-11.676
▁rd	-11.6765
")	-11.6766
▁shading	-11.6767
▁keyboard	-11.6771
▁justification	-11.6771
king	-11.6772
▁lg	-11.6774
▁mapreduce	-11.6776
▁pu	-11.6781
▁elegant	-11.6782
▁mandatory	-11.6784
▁nucleus	-11.6784
▁unequal	-11.6785
▁logging	-11.6785
▁translates	-11.6789
ves	-11.679
iso	-11.6792
▁basin	-11.6792
▁scratch	-11.6793
▁remarkably	-11.6793
spatial	-11.6794
▁chemicals	-11.6795
▁aliasing	-11.6797
ser	-11.6798
ino	-11.6799
ical	-11.6802
▁observers	-11.6805
▁impractical	-11.6811
▁synthesizing	-11.6811
1;	-11.6821
▁literal	-11.6822
▁scarce	-11.6823
▁backtracking	-11.6823
▁arranged	-11.6825
▁locks	-11.6829
▁categorized	-11.6829
▁reed	-11.6831
▁symmetries	-11.6838
▁regulate	-11.6838
my	-11.6839
▁guideline	-11.6841
▁photonic	-11.6842
▁syn	-11.6842
▁nf	-11.6845
▁1.8	-11.6846
▁kb	-11.6847
▁discretizations	-11.6852
▁5.3	-11.6853
▁divides	-11.6854
▁continuing	-11.6856
polar	-11.6857
▁deduced	-11.6863
▁composing	-11.6866
▁cons	-11.687
▁svd	-11.687
▁tremendous	-11.6872
▁bc	-11.6877
▁commercially	-11.6877
hu	-11.6881
(-1)	-11.6886
▁economical	-11.6894
▁fcm	-11.6894
▁leverages	-11.6898
▁ack	-11.69
▁unidirectional	-11.6902
▁shannon	-11.6903
▁facilitated	-11.6908
46	-11.6909
▁hormone	-11.6917
binding	-11.6917
person	-11.6918
▁domestic	-11.692
▁responsibility	-11.692
ina	-11.6924
▁sig	-11.6924
▁reused	-11.6927
▁competitiveness	-11.6929
▁cb	-11.6929
risk	-11.6935
▁decomposing	-11.6939
▁unclear	-11.6939
ver	-11.6939
▁overcoming	-11.694
▁soa	-11.6941
▁multichannel	-11.6941
▁4.1.	-11.6942
▁novice	-11.6943
},	-11.6943
▁skip	-11.6945
▁lm	-11.6946
▁february	-11.6948
▁pad	-11.6951
effect	-11.6952
▁equalization	-11.6953
▁manet	-11.6957
▁tokens	-11.6961
▁yang	-11.6962
mes	-11.6963
▁manipulators	-11.6964
▁prover	-11.6966
▁drag	-11.6966
▁arabic	-11.6966
anti	-11.6967
▁positives	-11.6969
▁banach	-11.6975
comp	-11.6975
▁erosion	-11.6976
▁correlate	-11.6976
▁stuck	-11.6976
▁buckling	-11.6976
▁ll	-11.6979
fer	-11.6984
▁unrelated	-11.6984
ada	-11.6984
istic	-11.6987
competitive	-11.699
▁footprint	-11.699
▁photographs	-11.699
▁ldpc	-11.6992
ub	-11.6992
ras	-11.6993
83	-11.6996
▁teach	-11.7001
average	-11.7004
▁saw	-11.7004
▁sex	-11.7004
▁8,	-11.7006
▁profits	-11.7009
▁participated	-11.7009
▁ia	-11.7009
▁decidability	-11.7012
▁6.1	-11.7013
▁ahp	-11.7021
ahead	-11.7022
▁subsection	-11.7022
▁γ	-11.7023
▁metaphor	-11.7023
▁claimed	-11.7024
▁polynomially	-11.7027
▁wheel	-11.7031
▁sb	-11.7032
▁alarms	-11.7037
▁nonempty	-11.7039
▁mems	-11.7046
▁waveforms	-11.7048
▁soils	-11.705
▁41	-11.7054
▁crisis	-11.7058
▁earliest	-11.7059
mos	-11.7059
▁arrangements	-11.7059
▁maximally	-11.7059
▁spice	-11.706
▁oc	-11.7063
avc	-11.7067
▁oxidative	-11.7068
▁neighborhoods	-11.707
▁snapshot	-11.7073
▁campus	-11.7077
hf	-11.7077
▁1997	-11.7077
▁suffices	-11.7078
dof	-11.7078
55	-11.7079
▁yu	-11.7081
▁breaks	-11.7082
pen	-11.7082
▁realizations	-11.7086
hd	-11.7088
▁dram	-11.7089
▁estrogen	-11.7092
▁prefetch	-11.7098
▁articulated	-11.71
▁calling	-11.71
▁codewords	-11.71
▁vc	-11.7101
▁quotient	-11.7101
vertical	-11.7101
▁senior	-11.7105
▁beamforming	-11.7105
qsar	-11.7107
▁inappropriate	-11.7107
▁transferring	-11.7107
▁inhomogeneous	-11.7108
▁leg	-11.7111
▁autonomously	-11.7113
▁interchange	-11.7114
+2	-11.7116
▁crawling	-11.7117
▁cat	-11.7117
▁wants	-11.7119
▁planner	-11.7121
▁preventive	-11.7125
▁terminate	-11.7125
▁week	-11.7133
▁serum	-11.7133
▁visits	-11.7134
▁commutative	-11.7134
▁win	-11.7136
▁unusual	-11.714
▁admit	-11.714
rigid	-11.714
▁korea	-11.7142
▁cha	-11.7143
▁randomization	-11.7143
hy	-11.7148
▁routed	-11.7148
▁77	-11.7149
sem	-11.7152
▁hub	-11.7153
▁engaged	-11.7153
▁forum	-11.7154
▁analyzer	-11.7158
▁7:	-11.7161
▁procurement	-11.7162
▁tagged	-11.7162
▁2003.	-11.7165
23	-11.7167
▁debate	-11.7168
▁citizens	-11.7169
▁fraud	-11.717
▁250	-11.717
▁tetrahedral	-11.7172
▁bins	-11.7172
▁dates	-11.7174
▁lastly	-11.7179
▁ventricular	-11.7181
ox	-11.7183
▁+1	-11.7183
▁wake	-11.719
▁playback	-11.7191
▁od	-11.7194
▁pos	-11.7195
ions	-11.7196
▁3.1.	-11.7197
▁promotion	-11.7197
▁membranes	-11.7197
▁outgoing	-11.7201
▁cal	-11.7203
tu	-11.7207
▁corba	-11.7209
balancing	-11.7211
▁allocations	-11.7213
▁df	-11.7218
▁gmres	-11.7218
66	-11.7221
▁rejected	-11.723
▁decode	-11.7233
izable	-11.7236
late	-11.7238
▁blogs	-11.724
44	-11.7243
▁anomalous	-11.7246
▁histories	-11.7246
▁oral	-11.7251
▁mal	-11.7251
loss	-11.7254
▁1=	-11.7255
▁reset	-11.7255
▁nervous	-11.7255
▁gauge	-11.7256
▁springer	-11.7257
▁spots	-11.7258
ui	-11.726
▁indian	-11.7264
▁axiomatic	-11.7265
▁2003,	-11.7266
▁stepwise	-11.7267
▁regulator	-11.7269
43	-11.7271
version	-11.7272
▁multicasting	-11.7274
▁erasure	-11.7274
fb	-11.7276
73	-11.7278
▁polytope	-11.7281
▁programmed	-11.7282
▁shrinkage	-11.7284
▁enrichment	-11.7284
▁injected	-11.7285
▁[20]	-11.7286
distributed	-11.7287
▁hypothetical	-11.7293
▁multiplicity	-11.7293
▁draws	-11.7297
▁amplitudes	-11.7301
▁2011	-11.7301
▁provisions	-11.7302
sensor	-11.7303
▁hyperplane	-11.731
▁stiff	-11.7312
▁something	-11.7312
▁markup	-11.7315
▁identifiers	-11.7317
organizational	-11.7324
▁chromosome	-11.7328
▁compensated	-11.7329
▁twin	-11.733
▁fifo	-11.7334
place	-11.7337
▁sdp	-11.734
kutta	-11.7341
▁55	-11.7342
▁skyline	-11.7342
▁reformulation	-11.7348
▁ultrasonic	-11.735
▁exchanging	-11.735
▁amplification	-11.735
▁align	-11.7352
▁charged	-11.7352
▁outstanding	-11.7352
▁dependability	-11.7354
▁interfere	-11.7356
▁themes	-11.7357
▁restricting	-11.7359
▁fifth	-11.736
▁distorted	-11.7361
ified	-11.7362
▁agreements	-11.7362
▁au	-11.7363
paths	-11.7366
68	-11.7367
▁immunity	-11.7369
▁preferable	-11.737
▁comprise	-11.7372
▁pivoting	-11.7373
newton	-11.7374
▁relays	-11.7376
lets	-11.7376
▁bed	-11.7379
sampling	-11.7384
ane	-11.7394
chemical	-11.7396
▁inferences	-11.7396
▁datapath	-11.7397
▁war	-11.7398
▁unfolding	-11.7399
▁entering	-11.7405
▁licensing	-11.7407
▁acknowledgments	-11.7408
terminal	-11.7408
▁bgp	-11.7408
▁tu	-11.7412
▁augmenting	-11.7422
▁runge	-11.7425
▁confusion	-11.7427
▁sixth	-11.7428
▁attraction	-11.7428
▁toxicity	-11.7428
position	-11.7429
elm	-11.7432
ani	-11.7433
▁um	-11.7436
▁incur	-11.7436
▁agenda	-11.7437
cos	-11.7438
▁reserved	-11.7441
▁dag	-11.7443
▁worker	-11.7445
▁aggregating	-11.7446
▁handwriting	-11.7446
59	-11.7447
▁hpc	-11.7452
selection	-11.7452
▁denial	-11.7456
algebras	-11.7458
▁spine	-11.7465
▁assembled	-11.7465
▁efficiencies	-11.7465
lv	-11.7466
▁notification	-11.7467
▁reserve	-11.7469
words	-11.7469
color	-11.7469
ans	-11.7472
▁sensitivities	-11.7475
▁amenable	-11.7475
▁restore	-11.7481
nets	-11.7481
▁cart	-11.7484
▁degrades	-11.7486
▁redesign	-11.7488
69	-11.7491
^{	-11.7491
▁accounted	-11.7493
tra	-11.7493
▁vicinity	-11.7494
▁vis	-11.7502
▁cryptosystem	-11.7502
62	-11.7508
▁ago	-11.751
▁analytics	-11.7512
▁hypothesized	-11.7512
▁imp	-11.7513
▁info	-11.7513
2(	-11.7514
organization	-11.7517
▁slave	-11.7518
mit	-11.7525
▁loose	-11.7526
tuple	-11.7527
▁corrections	-11.7528
care	-11.7532
vp	-11.7532
▁deduction	-11.7533
▁deductive	-11.7533
▁digraph	-11.7533
▁microprocessors	-11.7534
▁nothing	-11.7534
▁nurbs	-11.7534
▁dns	-11.7534
methyl	-11.7537
▁1.3	-11.754
▁compress	-11.7551
▁ireland	-11.7553
und	-11.7555
fcm	-11.7559
▁workplace	-11.756
▁98	-11.756
oa	-11.7561
▁pivot	-11.7562
connectivity	-11.7567
constant	-11.7568
training	-11.7569
▁microstructure	-11.7571
▁chose	-11.7574
▁bringing	-11.7574
▁alterations	-11.7578
▁amplifiers	-11.7579
discrete	-11.7579
▁periodicity	-11.7581
▁polymorphic	-11.7582
▁hs	-11.7582
splines	-11.7585
years	-11.7589
▁circulation	-11.7592
▁digits	-11.7593
▁ions	-11.7595
▁deflection	-11.76
▁restructuring	-11.7602
▁polymorphism	-11.761
▁welfare	-11.7611
▁replenishment	-11.7611
▁occupancy	-11.7611
▁harvesting	-11.7613
▁(8)	-11.7614
▁polling	-11.7614
▁96	-11.7614
▁paging	-11.7615
ied	-11.7615
▁purchasing	-11.7621
300	-11.7622
amp	-11.7625
▁certainly	-11.7625
▁interpolated	-11.7629
▁engineer	-11.7629
document	-11.7631
▁dipole	-11.7632
▁resampling	-11.7633
▁resistant	-11.7634
▁compactness	-11.764
▁inflammation	-11.7641
▁60%	-11.7643
▁codeword	-11.7647
▁your	-11.7647
▁adaptivity	-11.7651
▁70%	-11.7652
▁mail	-11.7653
▁viewer	-11.7655
=3	-11.7658
ended	-11.766
▁eigenvector	-11.766
▁probable	-11.7661
▁formalisms	-11.7662
td	-11.7665
▁fo	-11.7665
▁wherein	-11.7667
▁pragmatic	-11.767
▁0.9	-11.7671
graphs	-11.7673
win	-11.768
exp	-11.7683
▁initiate	-11.7685
▁attempting	-11.7687
▁lives	-11.7693
▁0;	-11.7703
▁bell	-11.7703
▁dsm	-11.7704
▁reflections	-11.7706
▁accelerator	-11.7709
both	-11.7709
global	-11.7713
▁rail	-11.7715
▁seeds	-11.7718
▁committee	-11.7719
▁chapter	-11.772
▁optic	-11.7721
▁gradual	-11.7727
eo	-11.7728
▁anticipated	-11.7728
▁tandem	-11.773
▁imprecision	-11.773
▁brightness	-11.773
▁lane	-11.7735
▁tiles	-11.7735
▁fir	-11.7739
▁hausdorff	-11.774
▁programme	-11.7741
▁supposed	-11.7745
semi	-11.7748
str	-11.7749
▁korean	-11.775
cb	-11.775
▁standing	-11.7751
app	-11.7751
izations	-11.7752
▁optional	-11.7757
ward	-11.7757
▁tardiness	-11.776
▁spinal	-11.7761
stabilizing	-11.7765
▁val	-11.7766
▁extracellular	-11.777
▁predetermined	-11.777
▁helped	-11.7773
star	-11.7779
▁etal	-11.7781
▁trains	-11.7781
▁arrives	-11.7784
gg	-11.7784
▁spi	-11.7786
▁generalisation	-11.7789
▁circuitry	-11.7792
▁olap	-11.7793
▁jumps	-11.7794
mri	-11.7805
associated	-11.7805
▁tank	-11.7807
▁conformation	-11.7811
▁49	-11.782
▁muscles	-11.7821
▁peptides	-11.7824
▁prepare	-11.7825
▁chat	-11.7828
▁ignoring	-11.7829
▁observational	-11.7833
33	-11.7836
▁afterwards	-11.7839
▁western	-11.784
▁[2,	-11.784
▁hybridization	-11.7841
▁inquiry	-11.7849
▁coordinating	-11.785
bin	-11.7856
▁xy	-11.7859
als	-11.786
▁stretch	-11.7861
▁unary	-11.7865
▁46	-11.7865
▁diagnostics	-11.7866
sic	-11.7867
▁metamodel	-11.7871
video	-11.7875
technical	-11.7875
▁diagnose	-11.7876
dimension	-11.7877
▁cohesion	-11.7879
▁anatomy	-11.7879
▁[21]	-11.7883
▁structurally	-11.7886
good	-11.7886
▁shells	-11.7888
▁productive	-11.7888
▁displaying	-11.7891
cal	-11.7891
▁sio	-11.7896
▁medication	-11.79
▁intersect	-11.7901
norms	-11.791
▁behaves	-11.7911
▁occluded	-11.7913
mlp	-11.7913
▁farm	-11.7917
▁island	-11.7918
iz	-11.792
▁quantized	-11.7922
▁multiply	-11.7926
interface	-11.7926
^	-11.7927
human	-11.7931
▁germany	-11.7932
▁foster	-11.7935
61	-11.7938
▁deficiencies	-11.794
gpu	-11.7946
▁radical	-11.7948
▁wormhole	-11.795
▁reversal	-11.7951
▁encodes	-11.7953
lock	-11.796
▁compromising	-11.796
▁winning	-11.7961
gh	-11.7967
▁prospective	-11.797
dem	-11.7971
▁systolic	-11.7971
cca	-11.7971
long	-11.7972
▁occlusions	-11.7973
▁sf	-11.7976
▁hierarchically	-11.7976
▁complements	-11.798
▁coe	-11.7982
▁exponents	-11.7985
▁convolutional	-11.7986
▁undecidable	-11.7991
▁verifier	-11.7992
▁hough	-11.7992
▁homo	-11.7993
▁milling	-11.7995
▁interleaved	-11.7995
licence	-11.7997
▁fmri	-11.7999
▁assimilation	-11.8001
simulation	-11.8005
▁localize	-11.8006
▁vp	-11.8008
▁nt	-11.8011
▁rehabilitation	-11.8011
▁attachment	-11.8012
▁3.6	-11.8019
cy	-11.8019
▁imbalanced	-11.8021
isclassification	-11.8022
▁triangulations	-11.8023
▁lexicon	-11.8023
▁classifies	-11.8023
amine	-11.803
▁[24]	-11.8031
▁permission	-11.8033
▁app	-11.8034
▁retained	-11.8036
vf	-11.8037
lg	-11.8041
▁breadth	-11.8042
▁reusability	-11.8042
▁wiener	-11.8043
▁topographic	-11.8044
za	-11.8045
micro	-11.8049
▁michael	-11.8052
▁reproducing	-11.8053
▁φ	-11.8054
med	-11.8054
▁anywhere	-11.8055
▁16-	-11.8055
▁constrain	-11.8059
▁99	-11.8059
▁rep	-11.8061
▁laboratories	-11.8062
vt	-11.8068
▁motivates	-11.8068
▁predictability	-11.8069
▁pharmacophore	-11.8076
values	-11.8078
models	-11.8084
▁56	-11.8086
player	-11.8087
▁fetal	-11.8094
measure	-11.8094
▁salt	-11.8096
match	-11.8103
▁bm	-11.8107
▁wa	-11.8108
▁ads	-11.8109
▁takagi	-11.8114
page	-11.8119
▁1.4	-11.812
bandwidth	-11.812
▁0.7	-11.812
▁isolate	-11.8122
▁cuda	-11.8124
ade	-11.8124
▁referring	-11.8125
▁10.	-11.8125
▁raster	-11.8125
optimization	-11.8128
▁2002,	-11.8131
▁subdomains	-11.8131
▁expose	-11.8132
▁trap	-11.8135
▁homogeneity	-11.8135
▁inverter	-11.8136
▁passage	-11.8137
plus	-11.8138
▁2002.	-11.8139
▁meetings	-11.8141
▁sk	-11.8144
▁vorticity	-11.8145
▁provenance	-11.8146
▁lesion	-11.8158
▁arrow	-11.8163
▁epistemic	-11.8166
ice	-11.8166
▁ith	-11.8168
▁antecedents	-11.8171
▁reconstructions	-11.8173
▁quadrilateral	-11.8177
fnn	-11.8178
▁dominates	-11.8179
▁mol	-11.818
▁dia	-11.8185
▁contiguous	-11.8187
▁abuse	-11.8187
▁congruence	-11.8188
▁preemptive	-11.8188
sd	-11.8191
▁manages	-11.8192
▁vo	-11.8192
▁friendly	-11.8196
▁stacks	-11.8196
▁discarded	-11.8199
sb	-11.82
71	-11.8203
▁inserting	-11.8203
▁hardly	-11.8205
▁leadership	-11.8207
▁pdes	-11.8209
▁carriers	-11.8212
▁coincides	-11.8213
shop	-11.8215
▁xpath	-11.8215
routing	-11.8221
▁convey	-11.823
ix	-11.823
▁emphasized	-11.823
ris	-11.8231
▁shots	-11.8232
▁editors	-11.8232
▁facet	-11.8235
algorithm	-11.8237
▁durations	-11.8237
▁stat	-11.824
clustering	-11.8241
▁waveguide	-11.8243
col	-11.8243
▁47	-11.8244
▁mimic	-11.8251
▁pole	-11.8256
▁reply	-11.8263
rule	-11.8266
31	-11.8268
▁bt	-11.8269
▁concatenation	-11.8269
▁insurance	-11.827
▁smoothly	-11.8271
▁shed	-11.8275
▁demographic	-11.8283
science	-11.8284
▁knn	-11.8287
▁symmetrical	-11.8288
▁house	-11.8288
▁churn	-11.829
▁nl	-11.8293
▁[4].	-11.8296
management	-11.8297
▁helmholtz	-11.8301
63	-11.8302
▁wood	-11.8303
diagonal	-11.8306
▁uci	-11.8309
lms	-11.831
▁exercises	-11.8313
ja	-11.8314
▁motors	-11.8314
▁mediator	-11.8315
▁circumvent	-11.8319
▁drain	-11.832
▁cor	-11.8321
▁completes	-11.8325
/3	-11.8327
cover	-11.8328
▁physician	-11.8336
gap	-11.8341
▁15%	-11.8343
▁certification	-11.8343
▁alert	-11.8344
arm	-11.8347
▁fundamentally	-11.8349
tw	-11.8353
▁speculation	-11.8354
ict	-11.8354
ski	-11.8354
▁ideals	-11.8354
52	-11.8355
physiological	-11.8357
▁cultures	-11.8361
▁birth	-11.8362
▁translational	-11.8362
nns	-11.8363
▁tsp	-11.8364
▁rms	-11.8365
▁zu	-11.8367
▁adjustable	-11.8367
▁winner	-11.8368
▁artefacts	-11.8371
▁measurable	-11.8375
▁vanishing	-11.8377
▁2.6	-11.8381
bid	-11.8384
_{	-11.8385
▁adequacy	-11.8385
▁omitted	-11.8385
▁stringent	-11.839
▁bb	-11.839
ieee	-11.8392
▁saddle	-11.8396
ric	-11.8397
▁alignments	-11.8405
force	-11.8406
▁treats	-11.8406
▁combustion	-11.8406
▁collectively	-11.8406
▁inducing	-11.8407
row	-11.8409
▁repetition	-11.8409
▁swing	-11.8412
▁clinically	-11.8413
▁willing	-11.8413
fn	-11.842
met	-11.8421
▁gsm	-11.8426
▁license	-11.8427
▁802.16	-11.8428
▁knee	-11.843
finite	-11.8431
call	-11.8432
▁memoryless	-11.8434
▁weakness	-11.8436
▁luminance	-11.8438
▁hermite	-11.8439
eg	-11.844
▁gross	-11.8446
eb	-11.845
▁sustain	-11.8452
▁hypercubes	-11.8452
sphere	-11.8456
▁classifications	-11.8457
ok	-11.8458
▁sacrificing	-11.846
▁imputation	-11.846
▁axisymmetric	-11.846
▁relief	-11.846
▁vote	-11.8463
▁adsorption	-11.847
▁xed	-11.8472
dft	-11.8473
spec	-11.8473
▁ties	-11.8475
▁pac	-11.8476
conditioned	-11.8478
▁''	-11.8488
▁bind	-11.849
▁(1998)	-11.8492
▁symplectic	-11.8493
▁les	-11.8494
▁{0,	-11.8494
▁suit	-11.8494
▁hypo	-11.8497
bio	-11.8497
tsp	-11.8498
▁clips	-11.8499
ffi	-11.8502
▁safely	-11.8503
▁lb	-11.8504
▁gaas	-11.8505
▁tunneling	-11.8509
▁seasonal	-11.851
▁rising	-11.8512
▁tin	-11.8515
▁str	-11.8516
▁dysfunction	-11.8518
increasing	-11.852
each	-11.8521
▁2003	-11.8522
▁2004.	-11.8522
▁vapor	-11.8528
▁ku	-11.8533
▁substitute	-11.8535
los	-11.8537
relevant	-11.854
▁identically	-11.8541
ale	-11.8544
▁elm	-11.8544
▁relax	-11.8544
▁conditioned	-11.8545
ups	-11.8548
▁emphasizes	-11.855
spectral	-11.8554
▁contingency	-11.8556
▁ja	-11.8557
▁disconnected	-11.8558
▁answered	-11.856
▁gram	-11.8561
harmonic	-11.8562
▁regulations	-11.8568
▁initialized	-11.8571
string	-11.8572
ces	-11.8577
rg	-11.8579
ow	-11.8579
▁cpus	-11.8581
▁ht	-11.8584
▁mention	-11.8585
▁stereoscopic	-11.8589
▁subgroups	-11.859
sugeno	-11.8595
speech	-11.8595
circuit	-11.8598
▁54	-11.8599
▁lisp	-11.86
▁ramp	-11.8603
▁employee	-11.8604
(+)	-11.8605
mar	-11.8605
effort	-11.8606
location	-11.861
▁witness	-11.8613
qr	-11.8613
▁timestamp	-11.8614
▁street	-11.8615
▁dots	-11.8618
then	-11.8619
▁secrecy	-11.8621
▁leaders	-11.8621
▁crime	-11.8623
ibility	-11.8629
▁10,	-11.8631
▁curvilinear	-11.8632
▁97	-11.8632
▁printing	-11.8638
▁upwind	-11.864
▁(19	-11.8641
81	-11.8641
▁benign	-11.8643
▁refinements	-11.8646
▁phenotype	-11.8647
under	-11.865
▁regards	-11.8651
.264	-11.8652
▁brownian	-11.8654
▁permitted	-11.8654
uni	-11.8657
▁promotes	-11.866
▁adhesion	-11.8664
▁broker	-11.8664
▁memetic	-11.8664
▁deconvolution	-11.8664
motor	-11.8664
▁committed	-11.8665
▁counters	-11.8668
infinite	-11.8675
▁neuroscience	-11.8676
▁responsiveness	-11.8676
▁(2000)	-11.8677
▁?1	-11.8683
▁mip	-11.8683
(1/	-11.869
▁mainstream	-11.8692
pad	-11.8692
lic	-11.8695
▁successively	-11.8698
lam	-11.87
▁sem	-11.87
▁multilingual	-11.8701
ack	-11.8703
▁magnet	-11.8703
nas	-11.8703
sectional	-11.8706
▁adjusts	-11.8707
▁urls	-11.8707
▁oxidation	-11.8708
▁hd	-11.8711
homogeneous	-11.8714
▁cleaning	-11.8715
▁subdomain	-11.8716
▁monolithic	-11.8719
▁entangled	-11.8719
▁finished	-11.8722
▁copying	-11.8727
▁rigorously	-11.8728
ug	-11.873
▁ear	-11.873
mon	-11.8735
mic	-11.8737
▁[9].	-11.8739
▁itemset	-11.874
▁cholesky	-11.8741
▁rgb	-11.8742
▁600	-11.8742
▁2005.	-11.8744
soc	-11.8746
bu	-11.8752
book	-11.8753
▁australian	-11.8755
▁pcr	-11.8758
rec	-11.8761
▁gating	-11.8761
▁weibull	-11.8763
▁episodes	-11.8766
▁sake	-11.8767
▁forests	-11.8767
▁fg	-11.8769
▁richer	-11.8772
▁hydrophobic	-11.8773
▁52	-11.8775
▁[2],	-11.878
mpi	-11.8784
▁dictionaries	-11.8785
▁unmanned	-11.8785
▁centrality	-11.8785
▁dropped	-11.8785
▁originating	-11.8786
▁2001.	-11.8787
▁deformed	-11.8788
bn	-11.8788
▁lte	-11.8788
▁converts	-11.8793
many	-11.8794
▁[5].	-11.8796
tor	-11.8798
house	-11.88
sf	-11.8802
▁ctl	-11.8804
▁voxels	-11.8808
▁suites	-11.8809
▁relaxations	-11.8815
▁rays	-11.8817
▁humanoid	-11.8819
▁rated	-11.8819
threaded	-11.882
▁π	-11.882
how	-11.8828
▁stencil	-11.8834
▁dist	-11.8837
▁kr	-11.8838
▁ut	-11.8839
▁exterior	-11.884
▁substituting	-11.884
▁(1999)	-11.884
ros	-11.8841
▁sg	-11.8841
context	-11.8844
▁excited	-11.8845
▁instantiated	-11.8848
▁(0;	-11.8849
material	-11.8857
ert	-11.8859
▁biometrics	-11.8863
▁referenced	-11.8863
▁topography	-11.8863
az	-11.8864
ile	-11.8864
▁aco	-11.8866
▁navigational	-11.8868
trip	-11.8868
py	-11.8871
▁liveness	-11.8878
▁inclusions	-11.8879
vehicle	-11.888
▁commitments	-11.8883
▁prioritized	-11.8883
gan	-11.8883
▁cascaded	-11.8884
ological	-11.8886
▁mounted	-11.8888
▁reusing	-11.889
82	-11.8891
▁med	-11.8892
reference	-11.8893
▁airborne	-11.8896
qua	-11.8896
feature	-11.8898
▁finish	-11.8899
▁administrators	-11.89
▁widths	-11.8904
▁fixpoint	-11.8905
▁retains	-11.8906
▁endogenous	-11.8907
▁myocardial	-11.8907
▁stabilizing	-11.8911
planar	-11.8912
▁conductance	-11.8913
carlo	-11.8914
▁connects	-11.8915
▁guides	-11.8918
▁occupied	-11.8918
▁potent	-11.892
▁marks	-11.892
economic	-11.8923
▁chordal	-11.8925
invasive	-11.8928
▁lacks	-11.8929
▁pulmonary	-11.893
cor	-11.893
▁[22]	-11.893
▁mutant	-11.8934
▁invalid	-11.8938
▁attackers	-11.8938
▁adaptations	-11.8939
▁[8].	-11.894
▁residential	-11.894
▁interprocedural	-11.8941
▁metallic	-11.8941
▁renewal	-11.8942
▁tackled	-11.8944
van	-11.8944
▁cliques	-11.8945
▁equational	-11.8946
lyp	-11.8949
▁elsewhere	-11.8952
▁elicit	-11.8955
▁replaces	-11.8956
▁realism	-11.8956
▁premise	-11.8957
store	-11.8958
-9	-11.8958
▁dbms	-11.8959
▁1.6	-11.896
▁gs	-11.8965
bank	-11.8966
▁evenly	-11.8968
▁masks	-11.8968
▁ics	-11.8969
▁ot	-11.897
▁bacteria	-11.8971
change	-11.8972
▁companion	-11.8974
▁employment	-11.8976
▁selling	-11.8978
median	-11.8981
▁smt	-11.8984
ening	-11.8984
▁parametrization	-11.8986
▁penalized	-11.8988
▁diode	-11.8988
▁5.4	-11.8989
▁alzheimer	-11.8991
▁conform	-11.8992
▁superscalar	-11.8997
▁hall	-11.8998
▁coder	-11.9
▁sinks	-11.9002
ordered	-11.9003
wsn	-11.9007
copy	-11.9007
▁fleet	-11.9008
▁splits	-11.9013
▁decoded	-11.9015
▁french	-11.9019
cis	-11.9019
▁catalytic	-11.902
ender	-11.9022
▁supervision	-11.9031
▁bloom	-11.9031
▁pertaining	-11.9031
▁alice	-11.9033
▁spill	-11.9033
del	-11.9037
▁trellis	-11.904
roc	-11.9041
▁interview	-11.9041
▁listening	-11.9044
▁parallelizing	-11.9046
oy	-11.9047
▁das	-11.905
▁ke	-11.9052
▁8:	-11.9053
)))	-11.9055
▁pda	-11.9055
▁alloy	-11.906
▁imaginary	-11.9064
▁kriging	-11.9065
▁lidar	-11.9065
▁kappa	-11.9066
▁checkpoints	-11.9071
▁maxima	-11.9071
▁kn	-11.9075
lis	-11.9075
▁africa	-11.9077
ahp	-11.9078
▁sift	-11.9079
▁6-	-11.9082
decision	-11.9083
▁derivations	-11.9084
▁skeletal	-11.9087
▁inferior	-11.9087
▁specimens	-11.9087
▁viral	-11.9089
▁pace	-11.9094
▁han	-11.9095
▁tighter	-11.9096
▁tp	-11.9097
▁factory	-11.9098
topic	-11.9098
▁famous	-11.9098
▁subclasses	-11.9101
▁arch	-11.9102
▁bursty	-11.9105
▁shi	-11.9106
read	-11.9108
▁([	-11.911
ei	-11.9111
▁separates	-11.9112
hole	-11.9116
alone	-11.9117
▁hc	-11.9117
ella	-11.912
og	-11.9123
▁tutoring	-11.9123
▁losing	-11.9124
▁cylinders	-11.9124
ivity	-11.9125
▁mel	-11.9126
angle	-11.9128
▁fibre	-11.9129
correcting	-11.913
interval	-11.9138
small	-11.9138
▁bidder	-11.9139
▁menu	-11.9142
market	-11.9144
▁pharmaceutical	-11.9144
▁hypergraphs	-11.9145
▁subtrees	-11.9148
▁del	-11.9151
ground	-11.9152
▁180	-11.9153
without	-11.9154
▁[6].	-11.9155
▁delegation	-11.9155
aps	-11.9156
ue	-11.9156
groups	-11.9157
eas	-11.9163
freedom	-11.9164
▁lay	-11.9164
▁immuno	-11.9164
lar	-11.9164
▁lose	-11.9167
▁byzantine	-11.9167
via	-11.9168
programmable	-11.9174
kn	-11.9176
ql	-11.9177
▁broadly	-11.9181
second	-11.9181
buffer	-11.9182
▁irrespective	-11.9184
partition	-11.9185
▁factorial	-11.9185
▁ode	-11.9188
▁har	-11.9189
▁tan	-11.9189
ning	-11.919
wall	-11.9192
▁bent	-11.9193
▁traverse	-11.9194
▁passenger	-11.9197
▁notable	-11.92
▁metaheuristics	-11.92
▁missed	-11.9201
▁certainty	-11.9205
▁meant	-11.9207
▁sudden	-11.921
safe	-11.9212
▁entails	-11.9213
▁abstracts	-11.9214
▁pv	-11.9214
▁hz	-11.9219
▁parasitic	-11.922
▁readings	-11.922
▁rice	-11.9221
▁manipulations	-11.9229
count	-11.923
▁undergoing	-11.9232
csp	-11.9232
▁charges	-11.9235
▁converging	-11.9236
made	-11.9236
che	-11.9237
▁closing	-11.9237
▁minimally	-11.9244
▁iterates	-11.9244
▁agriculture	-11.9247
▁seriously	-11.9247
▁python	-11.9247
▁malignant	-11.9247
▁orthonormal	-11.9248
▁ef	-11.9249
▁elevated	-11.9249
fpga	-11.9252
▁subband	-11.9252
▁stimulate	-11.9252
▁quantifier	-11.9254
▁nmr	-11.9254
▁stabilize	-11.9259
▁convective	-11.9259
▁asks	-11.9262
▁fin	-11.9263
trans	-11.9265
▁512	-11.9267
boundary	-11.9267
algebraic	-11.9269
▁2.1.	-11.9269
▁schedulability	-11.927
▁adversarial	-11.927
42	-11.9273
▁vliw	-11.9282
▁monadic	-11.9284
▁regularly	-11.9285
▁payments	-11.9285
▁invasive	-11.9286
▁nonstationary	-11.9286
▁ensured	-11.9288
▁enzymes	-11.9288
▁aesthetic	-11.9289
▁polyhedra	-11.9291
allocation	-11.9291
▁(0,	-11.9291
overlapping	-11.9293
▁capillary	-11.9293
▁bursts	-11.9293
▁conformance	-11.9293
5%	-11.9296
fault	-11.9298
pu	-11.9299
▁gossip	-11.9301
fire	-11.9304
▁kolmogorov	-11.9306
tailed	-11.9311
▁civil	-11.9315
act	-11.9316
▁centres	-11.9317
▁putting	-11.9318
ranking	-11.9318
▁conversations	-11.9322
▁mistakes	-11.9328
svd	-11.9328
ess	-11.9329
▁endpoint	-11.933
▁laminar	-11.9332
rst	-11.9332
▁dominate	-11.9334
filling	-11.9338
station	-11.934
▁etch	-11.9341
▁characterised	-11.9342
▁pipelines	-11.9342
when	-11.9346
add	-11.9349
▁stacking	-11.9352
▁datalog	-11.9359
▁mon	-11.9359
▁multispectral	-11.936
▁moisture	-11.9363
▁antibody	-11.9365
▁sv	-11.937
▁cox	-11.937
svr	-11.9373
▁(2001)	-11.9375
▁packed	-11.9377
score	-11.9377
▁noticeable	-11.9378
▁uncover	-11.9379
ret	-11.9384
▁alcohol	-11.9387
▁01	-11.9388
post	-11.9395
terpretability	-11.9396
▁silico	-11.9396
▁mathematica	-11.9397
dom	-11.9397
far	-11.94
▁0.25	-11.9401
closed	-11.9402
wr	-11.9406
▁martin	-11.9406
▁premature	-11.9407
▁informational	-11.9408
oma	-11.9409
▁modifies	-11.941
▁diamond	-11.941
▁6.2	-11.9411
1000	-11.9414
destination	-11.9417
▁57	-11.9421
▁prop	-11.9421
▁casting	-11.9422
▁hy	-11.9423
▁obs	-11.9423
▁spend	-11.9424
▁sketches	-11.9425
large	-11.9428
▁dd	-11.943
▁bytecode	-11.9432
▁singleton	-11.9441
die	-11.9442
▁comparatively	-11.9444
▁elsevier	-11.9445
▁exogenous	-11.9445
▁fuzziness	-11.9445
▁congested	-11.9446
qi	-11.9446
sta	-11.9447
▁interacts	-11.9447
▁disabled	-11.9449
most	-11.9449
qs	-11.945
▁(0	-11.9457
▁finance	-11.9458
orthogonal	-11.9458
rin	-11.9459
▁uptake	-11.946
▁fingerprints	-11.9463
▁meanings	-11.9465
▁ergodic	-11.9468
▁survivability	-11.9469
▁polyhedron	-11.9469
▁italy	-11.947
▁1980	-11.9474
▁promises	-11.9477
▁alerts	-11.9478
▁prune	-11.9478
▁viz	-11.9479
▁supercomputing	-11.9481
▁mood	-11.9488
▁lanczos	-11.9493
▁overlapped	-11.9493
▁doi	-11.9494
▁organs	-11.9495
▁orbital	-11.9496
▁fractions	-11.9497
yan	-11.9498
▁eine	-11.9499
ria	-11.9503
▁tions	-11.9503
▁pentium	-11.9504
▁optimised	-11.9504
▁dissipative	-11.9505
▁smith	-11.9505
▁hydrodynamics	-11.9513
gz	-11.9515
dec	-11.9516
sup	-11.9517
~	-11.9522
2),	-11.9524
▁spreadsheet	-11.9525
ned	-11.9528
▁nonsmooth	-11.9531
hyper	-11.9531
▁funding	-11.9531
▁intersecting	-11.9534
founded	-11.9536
▁85	-11.9537
▁textured	-11.9538
▁bezier	-11.9538
acm	-11.9538
▁integrative	-11.954
▁tensile	-11.954
▁ib	-11.9551
tcp	-11.9552
▁initialize	-11.9556
▁damaged	-11.9562
▁lms	-11.9563
▁replay	-11.9564
▁wealth	-11.9564
variant	-11.9565
▁0.35	-11.9567
▁experimented	-11.9568
▁strokes	-11.9569
▁meshing	-11.957
mir	-11.9572
ang	-11.9577
smooth	-11.9581
subscribe	-11.9583
▁ju	-11.9584
▁successor	-11.9585
41	-11.9587
▁intense	-11.9588
ops	-11.9592
qu	-11.9594
-12	-11.9598
▁trustworthiness	-11.96
nb	-11.9601
▁je	-11.9603
ute	-11.9603
▁pathology	-11.9605
tag	-11.9606
▁gu	-11.9608
▁west	-11.9608
designed	-11.9612
dct	-11.9615
▁impairment	-11.9621
▁motivating	-11.9623
▁strengthen	-11.9625
▁succeed	-11.9626
tive	-11.9628
selective	-11.9631
▁engaging	-11.9635
▁flaws	-11.9636
▁heads	-11.9638
tg	-11.9638
mass	-11.9641
ideal	-11.9645
mathcal	-11.9645
▁droplet	-11.9646
▁ambiguities	-11.9647
▁encapsulation	-11.9647
▁(1997)	-11.9648
▁53	-11.965
▁beat	-11.9653
▁logically	-11.9653
1?	-11.9657
ya	-11.9661
▁vhdl	-11.9673
▁feeding	-11.9676
▁fixing	-11.9682
mus	-11.9683
rna	-11.9684
▁encompasses	-11.9684
▁unlimited	-11.9685
▁[7].	-11.9685
coding	-11.9686
▁apparently	-11.969
plastic	-11.9692
▁elaborated	-11.9695
▁nanoscale	-11.9696
▁(1996)	-11.9696
▁unavailable	-11.9696
▁nonsingular	-11.9701
▁triggers	-11.9706
▁proxies	-11.9708
▁(0)	-11.9711
▁[3,	-11.9715
har	-11.9718
▁nonetheless	-11.972
▁supplementary	-11.972
▁adjustments	-11.972
▁revisit	-11.9723
▁[11].	-11.9723
▁88	-11.9725
entropy	-11.9728
priority	-11.9728
▁intermittent	-11.9729
stone	-11.9731
▁females	-11.9733
itis	-11.9734
▁chromosomes	-11.9735
▁prerequisite	-11.9742
eq	-11.9743
▁remedy	-11.9744
▁unseen	-11.9744
▁spirit	-11.9744
dic	-11.9744
▁[28]	-11.9744
▁welding	-11.9746
cycles	-11.9746
eu	-11.9747
ure	-11.9749
▁dim	-11.9749
▁downloaded	-11.975
sis	-11.9751
▁replicate	-11.9753
▁bob	-11.9753
▁victim	-11.9754
▁decline	-11.9755
▁transversal	-11.9756
▁varieties	-11.9756
▁agreed	-11.9757
▁fec	-11.9758
ations	-11.9761
▁chang	-11.9763
pressure	-11.9764
tech	-11.9766
▁harmony	-11.9769
▁conformations	-11.9769
▁scholarly	-11.9769
▁movies	-11.977
▁spacetime	-11.977
▁kong	-11.9773
card	-11.9775
▁locus	-11.9775
virtual	-11.9776
▁ref	-11.9776
aka	-11.9779
▁responsive	-11.9781
condition	-11.9781
▁trapezoidal	-11.9783
▁strongest	-11.9783
▁lying	-11.9785
thread	-11.9786
turn	-11.9787
▁0.18	-11.9788
▁bypass	-11.9788
▁collaborations	-11.9789
▁0:	-11.9791
▁[4,	-11.9792
▁energetic	-11.9792
▁france	-11.9793
▁wt	-11.9793
atom	-11.9793
▁infected	-11.9795
▁blast	-11.9795
▁socially	-11.9797
ship	-11.9799
bra	-11.98
▁tell	-11.98
▁existential	-11.9802
svms	-11.9803
▁suspension	-11.9803
mine	-11.9804
▁forbidden	-11.9805
▁thirty	-11.9805
▁bernoulli	-11.9805
▁rtl	-11.9809
vl	-11.9814
▁oa	-11.9817
▁antigen	-11.9823
▁32-	-11.9827
▁radix	-11.983
▁spikes	-11.9833
▁conformal	-11.9833
▁assay	-11.9838
▁...,	-11.9841
▁skeletons	-11.9842
▁endothelial	-11.9842
▁microstrip	-11.9842
▁separability	-11.9842
▁covariates	-11.9842
▁cray	-11.9843
▁[10].	-11.9844
organized	-11.985
▁[26]	-11.985
▁jj	-11.9852
▁lipid	-11.9853
proof	-11.9853
▁capacitive	-11.9854
▁indispensable	-11.9854
▁sigplan	-11.9854
ud	-11.9854
▁crystals	-11.9859
reg	-11.9865
▁income	-11.9866
▁honest	-11.9867
▁microscope	-11.9867
▁dispersed	-11.9868
▁educators	-11.9869
sel	-11.987
ren	-11.987
noc	-11.987
▁2000.	-11.9871
▁guarded	-11.9871
logical	-11.9871
▁psnr	-11.9873
▁undergo	-11.9878
▁italian	-11.9878
▁unused	-11.988
▁polarity	-11.988
▁("	-11.9883
▁nuclei	-11.9886
peak	-11.9889
▁nasa	-11.9894
simple	-11.9895
▁burn	-11.9896
1),	-11.99
▁belfast	-11.9903
▁cohesive	-11.9903
▁marine	-11.9904
stack	-11.9906
▁multiplications	-11.9908
▁neighbour	-11.9911
▁emg	-11.9912
▁instructors	-11.9914
▁completing	-11.9915
▁plotted	-11.9916
▁hearing	-11.9917
wdm	-11.9921
▁800	-11.9926
▁toeplitz	-11.9928
▁phonetic	-11.9929
▁sam	-11.9933
▁writer	-11.9937
▁[23]	-11.9938
▁supplies	-11.994
hal	-11.9942
▁balls	-11.9942
cha	-11.9943
▁says	-11.9943
▁pseudorandom	-11.9947
ware	-11.9952
▁junctions	-11.9952
▁dendritic	-11.9952
▁truck	-11.9953
▁song	-11.9957
sort	-11.9958
-2)	-11.9959
▁diagnosing	-11.9965
▁latin	-11.9965
▁profitability	-11.9967
cop	-11.9968
▁conic	-11.9969
▁reviewing	-11.997
)?	-11.997
matic	-11.9973
▁releases	-11.9974
ators	-11.9975
▁72	-11.9976
▁inevitable	-11.9977
▁3.2.	-11.9978
▁manufactured	-11.9978
rms	-11.9978
▁coastal	-11.998
tone	-11.9981
makers	-11.9982
▁synchronize	-11.9984
super	-11.9984
▁hour	-11.9987
eeg	-11.9991
ste	-11.9993
▁useless	-11.9994
wire	-11.9994
cur	-11.9997
gn	-11.9998
▁colon	-12.0001
cbr	-12.001
▁transducer	-12.0014
ua	-12.0014
▁soccer	-12.0014
▁superimposed	-12.0016
▁multinomial	-12.0017
doped	-12.0017
▁3.0	-12.0018
eng	-12.0018
▁hexagonal	-12.002
▁rb	-12.002
▁stops	-12.0022
▁export	-12.0026
▁flexibly	-12.0027
▁decryption	-12.0028
mapping	-12.0028
▁draft	-12.0029
▁cryptosystems	-12.0029
osis	-12.0031
▁subroutine	-12.0039
▁judge	-12.0046
▁observability	-12.0052
cells	-12.0054
▁learnt	-12.0056
▁roads	-12.0056
▁suppressed	-12.0057
genetic	-12.006
formed	-12.0066
▁loc	-12.0066
▁alias	-12.007
▁manufacture	-12.007
studied	-12.0073
▁cash	-12.0073
▁relaxin	-12.0074
▁hazards	-12.0075
qubit	-12.0076
▁ehr	-12.0076
▁rec	-12.0076
▁pointwise	-12.0077
▁producer	-12.0077
▁flowshop	-12.0078
▁authorities	-12.0078
wo	-12.0078
program	-12.0082
▁codec	-12.0089
▁aortic	-12.009
▁hw	-12.009
▁(2002)	-12.009
▁clone	-12.0091
wf	-12.0093
dot	-12.0097
▁hol	-12.0098
▁electrons	-12.01
mining	-12.0104
▁assure	-12.0106
▁pspace	-12.0106
▁io	-12.0111
▁rewards	-12.0111
▁servo	-12.0112
hn	-12.0113
▁thomas	-12.0115
ula	-12.0116
▁emerges	-12.0121
▁triggering	-12.0124
soft	-12.0124
▁conveniently	-12.0125
▁academia	-12.0127
byte	-12.0131
▁ciphers	-12.0137
▁moderately	-12.0138
▁smartphones	-12.0139
▁pertinent	-12.014
▁schrodinger	-12.014
▁(10)	-12.014
ax	-12.0142
▁rod	-12.0142
▁elicited	-12.0143
▁2000,	-12.0146
acc	-12.0147
▁contamination	-12.0153
▁stems	-12.0153
▁grading	-12.0154
▁inhibit	-12.0155
▁bisection	-12.0155
▁internally	-12.0157
▁rel	-12.0157
▁wing	-12.0159
▁proton	-12.016
▁pursue	-12.016
▁mad	-12.0161
▁universally	-12.0161
▁revolution	-12.0164
▁disparate	-12.0165
▁terminating	-12.0166
▁13.	-12.017
▁stepping	-12.0173
▁sla	-12.0174
▁connectionist	-12.0175
▁backgrounds	-12.0176
▁testability	-12.0176
▁mill	-12.0176
▁scholars	-12.0177
▁biomechanical	-12.0179
pid	-12.0181
▁launch	-12.0183
approximate	-12.0184
▁crew	-12.0184
summaries	-12.0186
▁deleting	-12.019
▁bagging	-12.0191
▁chord	-12.0192
▁digraphs	-12.0193
fig	-12.0194
▁interrupt	-12.0196
▁cheap	-12.0201
▁dopamine	-12.0203
ura	-12.0204
▁correlates	-12.0209
▁him	-12.021
▁fb	-12.021
pdf	-12.021
▁entered	-12.021
▁suggestion	-12.021
▁[3],	-12.0211
▁expresses	-12.0211
▁tensors	-12.0213
▁qi	-12.0215
▁virtue	-12.0216
▁gmm	-12.0217
▁eb	-12.0217
▁intrinsically	-12.022
▁clay	-12.0221
▁gravitational	-12.0224
▁mcmc	-12.0225
ilp	-12.0226
▁males	-12.0228
zy	-12.0229
▁composites	-12.0229
▁smartphone	-12.023
computation	-12.0231
lum	-12.0234
▁genre	-12.0235
knn	-12.0239
▁quaternion	-12.0241
ara	-12.0243
rie	-12.0245
▁sine	-12.0246
▁distinguishes	-12.0248
rad	-12.0248
suited	-12.0253
▁survive	-12.0254
avi	-12.0255
▁quantile	-12.0255
▁substitutions	-12.0262
▁raman	-12.0263
press	-12.0266
▁atmosphere	-12.0267
▁silhouette	-12.0268
▁integrator	-12.0268
▁intend	-12.0268
▁orbits	-12.0269
?3	-12.0277
▁constructor	-12.0279
▁verifies	-12.028
▁rendezvous	-12.028
▁charging	-12.028
temperature	-12.0288
▁(10	-12.0292
▁bigger	-12.0293
▁uncorrelated	-12.0293
▁hadamard	-12.0293
▁closeness	-12.0295
▁approaching	-12.0297
▁quadtree	-12.03
▁accidents	-12.03
▁pronounced	-12.0305
ants	-12.0306
▁initio	-12.0306
▁cybernetics	-12.0307
loc	-12.0307
▁spain	-12.0311
▁palm	-12.0311
▁hetero	-12.0316
▁nb	-12.0318
▁biomass	-12.0318
solid	-12.0319
▁2012	-12.0321
▁operands	-12.0322
▁highway	-12.0324
▁multipole	-12.0324
kp	-12.0329
▁cutoff	-12.0329
▁sph	-12.0329
▁utterances	-12.0336
▁cord	-12.0337
zo	-12.0338
▁11.	-12.0338
cat	-12.034
▁tax	-12.0343
▁distributive	-12.0344
▁ciphertext	-12.0346
▁east	-12.0346
integral	-12.0348
)(2)	-12.0349
▁synapses	-12.0352
interactive	-12.0353
▁normality	-12.0353
▁saves	-12.0356
mark	-12.0357
touch	-12.0363
ips	-12.0366
dn	-12.0369
▁assemblies	-12.037
▁violate	-12.037
▁protective	-12.0371
▁absorbing	-12.0372
wc	-12.0374
plate	-12.0376
stat	-12.0377
▁slopes	-12.038
▁def	-12.038
▁inefficiency	-12.0381
▁disabilities	-12.0383
▁catalog	-12.0385
▁haar	-12.0387
▁quantifiers	-12.0387
▁lesser	-12.0387
1]	-12.0387
▁discount	-12.0391
▁conjectured	-12.0392
▁1}	-12.0392
▁bars	-12.0395
▁suspended	-12.0396
▁staggered	-12.0397
▁pocket	-12.0397
▁mineral	-12.0402
transfer	-12.0403
eh	-12.0405
▁uc	-12.0406
tam	-12.0408
▁parkinson	-12.0408
▁archival	-12.0408
▁(2003)	-12.0409
services	-12.0414
▁mediation	-12.0415
▁exceeding	-12.0415
▁68	-12.0416
▁wiki	-12.0419
▁gan	-12.0424
▁smoother	-12.0428
gon	-12.0429
decomposition	-12.043
▁51	-12.0432
▁loyalty	-12.0435
▁tangential	-12.0435
flops	-12.0435
▁reviewers	-12.0436
▁assistive	-12.0436
=4	-12.0436
▁positional	-12.0436
gps	-12.0437
▁interpretable	-12.0438
▁rationality	-12.0442
drop	-12.0442
operation	-12.0444
▁unwanted	-12.0447
▁featuring	-12.0447
▁hermitian	-12.0448
shot	-12.0449
▁dilemma	-12.0449
▁fusing	-12.045
▁58	-12.0452
▁averages	-12.0454
▁granted	-12.0454
▁museum	-12.0457
▁warehouses	-12.0457
▁diodes	-12.0457
▁huffman	-12.046
play	-12.0461
▁cones	-12.0472
▁ny	-12.0474
▁oss	-12.0474
▁invoke	-12.0475
▁governments	-12.0479
▁likewise	-12.0483
▁11,	-12.0485
▁countermeasures	-12.0486
▁2001,	-12.0486
▁absent	-12.0487
zone	-12.0487
▁rhythm	-12.0488
▁calculi	-12.0488
▁mds	-12.049
▁psycho	-12.049
▁))	-12.0492
print	-12.0493
▁declared	-12.0495
▁tract	-12.0497
▁instrumental	-12.0497
▁concluding	-12.0499
▁12.	-12.0502
▁ste	-12.0503
▁0-1	-12.0503
filter	-12.0506
optimized	-12.051
▁[12].	-12.0512
▁annotate	-12.0512
wp	-12.0512
▁93	-12.0513
▁unrestricted	-12.0513
/?	-12.0515
abc	-12.0525
▁renders	-12.0528
▁bdd	-12.0528
▁href	-12.0528
▁kim	-12.0529
ciently	-12.0531
▁kth	-12.0534
ima	-12.0534
▁forth	-12.0535
▁rev	-12.0537
▁eclipse	-12.0539
▁cryptanalysis	-12.0539
▁rescue	-12.0539
▁magnitudes	-12.0539
▁transcoding	-12.0539
▁disjunction	-12.0541
▁billion	-12.0542
▁gateways	-12.0542
computing	-12.0545
pon	-12.0547
ball	-12.055
▁converged	-12.0551
▁cooperating	-12.0553
▁interpersonal	-12.0553
single	-12.0553
▁activate	-12.0555
▁came	-12.0555
▁1996	-12.0557
▁roi	-12.0559
▁//	-12.056
▁1),	-12.0562
▁deteriorating	-12.0565
▁extensibility	-12.0565
▁renewable	-12.0566
▁night	-12.0567
▁behalf	-12.0569
some	-12.057
▁mer	-12.0574
att	-12.0577
▁lumped	-12.0579
▁resistive	-12.0579
▁allowable	-12.0579
▁naming	-12.058
▁surveyed	-12.0582
operative	-12.0582
▁coping	-12.0584
saving	-12.0587
▁excluded	-12.0589
split	-12.0589
rus	-12.059
▁instabilities	-12.0591
▁radii	-12.0592
▁monotonically	-12.0593
▁topical	-12.0595
▁poster	-12.0596
▁graphically	-12.0596
vol	-12.0597
bits	-12.0598
▁practicality	-12.0599
▁maple	-12.0602
▁excel	-12.0602
▁fun	-12.0602
▁solder	-12.0602
▁elucidate	-12.0604
▁sic	-12.0604
▁traversing	-12.0605
otic	-12.0605
▁nsf	-12.0605
▁ellipse	-12.0606
▁(1.1)	-12.0606
▁failing	-12.0608
▁tie	-12.0611
fine	-12.0612
▁stator	-12.0613
▁prevented	-12.0614
kt	-12.0617
▁cy	-12.0617
▁smp	-12.0617
▁panels	-12.0619
▁censored	-12.0619
▁grammatical	-12.0621
labeled	-12.0621
▁mismatches	-12.0621
▁researcher	-12.0622
▁reactivity	-12.0623
▁landscapes	-12.0625
▁(2005)	-12.0632
last	-12.0634
ory	-12.0635
▁nand	-12.0635
▁minimizer	-12.0636
▁deployments	-12.064
▁aged	-12.0642
nk	-12.0645
▁stretching	-12.065
equivalent	-12.0651
▁sell	-12.0651
▁rotated	-12.0652
tan	-12.0655
.5,	-12.0655
▁prob	-12.0656
▁packaging	-12.0658
▁66	-12.0659
compatible	-12.0661
▁udp	-12.0661
▁titles	-12.0661
▁omit	-12.0665
▁complications	-12.0665
▁nest	-12.067
▁transducers	-12.0672
▁(2004)	-12.0672
▁va	-12.0675
▁advancement	-12.0675
▁subscribers	-12.0679
.15	-12.0684
▁abnormalities	-12.0685
que	-12.0689
times	-12.0691
kh	-12.0696
▁administered	-12.0699
algebra	-12.0709
functions	-12.0709
▁proprietary	-12.0711
▁(2-	-12.0711
mds	-12.0711
▁gel	-12.0713
oxide	-12.0714
▁inductance	-12.0714
▁everywhere	-12.0717
▁import	-12.0717
▁representatives	-12.0719
nr	-12.0723
▁truss	-12.0723
▁foraging	-12.0724
xml	-12.0724
▁communicative	-12.0724
▁yahoo	-12.0724
▁(2006)	-12.0725
▁contaminated	-12.0726
route	-12.0726
▁unweighted	-12.0727
▁genotype	-12.0728
▁crossbar	-12.0729
▁atp	-12.0729
▁coil	-12.0729
phone	-12.073
assembly	-12.0731
▁characterise	-12.0731
finding	-12.0733
▁endo	-12.0735
▁mammalian	-12.0738
▁ur	-12.0741
▁nesting	-12.0742
partial	-12.0745
▁tlb	-12.0745
kernel	-12.0745
stress	-12.0747
▁tilt	-12.0749
(2),	-12.0752
▁*/	-12.0753
oli	-12.0753
gene	-12.0755
▁combat	-12.0757
▁maintainability	-12.0757
▁peri	-12.0757
fast	-12.0758
carrier	-12.0764
▁manifest	-12.0764
▁clarity	-12.0765
nov	-12.0765
▁android	-12.0766
▁collects	-12.0768
1.0	-12.077
▁multivariable	-12.0771
▁eng	-12.0771
▁senses	-12.0774
interference	-12.0779
fitting	-12.078
onic	-12.0782
boxes	-12.0783
bel	-12.0784
▁demo	-12.0787
camera	-12.0788
located	-12.0788
▁(6	-12.0788
▁mrf	-12.0789
7-	-12.079
▁forensics	-12.079
▁ros	-12.079
▁implying	-12.0793
health	-12.0794
▁slowdown	-12.0794
▁iterate	-12.0795
▁meth	-12.0796
.27	-12.08
than	-12.0801
dia	-12.0801
▁unambiguous	-12.0803
▁sampler	-12.0803
▁renaming	-12.0805
▁(2009)	-12.0806
tes	-12.0808
▁2%	-12.081
▁pon	-12.0818
▁door	-12.082
ple	-12.0822
▁categorize	-12.0822
▁tiny	-12.0823
project	-12.083
▁interoperable	-12.0832
▁beacon	-12.0832
▁simplicial	-12.0833
▁microcontroller	-12.0833
▁reg	-12.0836
6-	-12.0838
▁4.2.	-12.084
▁worms	-12.0841
nodes	-12.0842
▁intact	-12.0846
ola	-12.085
▁notices	-12.0852
dv	-12.0854
grams	-12.0857
▁microfluidic	-12.0859
▁configure	-12.0859
▁articulation	-12.086
▁tier	-12.0861
▁ccr	-12.0864
▁mosfet	-12.0864
▁thereafter	-12.0864
▁fulfilled	-12.0865
▁cement	-12.0865
▁pes	-12.0866
▁mars	-12.0867
▁sorts	-12.0868
latency	-12.0868
▁gar	-12.0871
0.8	-12.0871
▁xilinx	-12.0873
multiple	-12.0876
window	-12.0877
▁bra	-12.0881
▁economies	-12.0886
▁tilde	-12.0887
▁1)-	-12.089
▁interruption	-12.0891
▁publishers	-12.0893
▁ineffective	-12.0894
▁ki	-12.0894
▁(11)	-12.0897
dw	-12.0898
▁synergy	-12.09
▁pooling	-12.09
▁telemedicine	-12.09
▁resistivity	-12.09
▁vacuum	-12.09
uck	-12.0901
▁impairments	-12.0903
▁discounted	-12.0903
▁restart	-12.0908
additive	-12.0909
▁dn	-12.0909
switched	-12.0911
typed	-12.0913
▁irrigation	-12.0913
▁versatility	-12.0913
▁perfusion	-12.0914
being	-12.0916
▁ter	-12.0919
▁optimise	-12.0921
▁rom	-12.0921
▁sta	-12.0921
▁deletions	-12.0924
▁orthogonality	-12.0925
els	-12.0925
▁bci	-12.0926
▁sketching	-12.0926
▁constituents	-12.0928
wm	-12.0932
dna	-12.0933
▁hints	-12.0936
ition	-12.094
▁official	-12.0941
▁divisible	-12.0941
▁coin	-12.0941
▁cent	-12.0941
▁hl	-12.0944
▁moore	-12.0946
▁conforming	-12.0948
▁boards	-12.0949
▁originated	-12.095
▁svr	-12.095
▁rain	-12.0952
▁overloaded	-12.0953
rel	-12.0953
▁lexicographic	-12.0953
▁compiling	-12.0955
▁smes	-12.0959
▁substituted	-12.0959
▁pred	-12.096
▁(9)	-12.096
▁embeddings	-12.0963
▁enjoy	-12.0964
kar	-12.0967
▁moral	-12.0968
▁diversification	-12.0968
▁automobile	-12.0968
▁migrate	-12.0969
▁implant	-12.0969
▁shocks	-12.0971
▁61	-12.0972
▁postures	-12.0972
cultural	-12.0976
▁informally	-12.0977
qm	-12.0977
▁[4],	-12.0978
.25	-12.0978
▁mf	-12.0979
▁summarizing	-12.0982
▁robert	-12.0982
▁groupware	-12.0985
qa	-12.0987
▁bootstrapping	-12.0996
▁pat	-12.0997
▁viruses	-12.0999
▁manuscript	-12.1
▁rollback	-12.1
conquer	-12.1005
contact	-12.1006
blocking	-12.1009
▁tractability	-12.101
▁rg	-12.1011
variance	-12.1012
tur	-12.1013
▁lots	-12.1014
▁portals	-12.1014
▁accelerometer	-12.1014
dar	-12.1022
▁grand	-12.1027
▁lans	-12.1027
▁timeout	-12.1028
▁[5,	-12.1031
ita	-12.1032
fidelity	-12.1033
▁eg	-12.1033
bss	-12.1033
resource	-12.1034
▁[19	-12.1035
▁taught	-12.1037
▁[15].	-12.1037
▁setups	-12.1039
▁umts	-12.104
linearity	-12.1041
ben	-12.1041
▁laminated	-12.1042
select	-12.1043
▁whom	-12.1044
hb	-12.1045
grade	-12.1047
▁6.3	-12.1049
▁tridiagonal	-12.1053
▁federated	-12.1054
▁csi	-12.1054
ave	-12.1054
▁minimise	-12.1056
packet	-12.1062
▁compensator	-12.1062
▁ik	-12.1064
▁certificates	-12.1064
▁genus	-12.1066
▁dangerous	-12.1066
▁subthreshold	-12.1068
▁browsers	-12.1078
▁pessimistic	-12.1079
▁terrestrial	-12.1079
▁deeply	-12.1081
▁clip	-12.1082
hen	-12.1083
completeness	-12.1086
▁grayscale	-12.1087
▁extractor	-12.1092
▁advancing	-12.1092
▁tackling	-12.1092
▁[13].	-12.1094
▁pla	-12.1096
▁valuations	-12.1097
wan	-12.1097
▁organism	-12.1099
▁paul	-12.1099
▁stacked	-12.1099
ious	-12.1101
1_0	-12.1101
maximization	-12.1102
▁federal	-12.1102
▁bundles	-12.1103
wait	-12.1105
▁[25]	-12.1106
▁(8	-12.1106
▁commission	-12.1106
▁qubits	-12.1107
▁chamber	-12.1112
▁restored	-12.1112
acs	-12.1115
ding	-12.1116
elastic	-12.1116
▁converse	-12.1118
▁qp	-12.1118
▁9:	-12.1118
▁bear	-12.112
▁proportions	-12.1121
▁judged	-12.1121
mcs	-12.1122
▁2.7	-12.1122
hardness	-12.1126
▁aerodynamic	-12.1126
wb	-12.1126
▁incidents	-12.1132
home	-12.1133
▁concentrates	-12.1133
▁porosity	-12.1134
▁owners	-12.1135
▁opponent	-12.1137
.13	-12.1138
▁flag	-12.1139
▁enrich	-12.1139
radio	-12.1139
(1))	-12.1144
capacity	-12.1144
-20	-12.1147
▁abundance	-12.1148
▁prosodic	-12.1148
▁seldom	-12.1148
ill	-12.115
▁vertically	-12.1153
ming	-12.1154
▁pram	-12.1154
▁sms	-12.1155
markov	-12.1158
▁stemming	-12.1162
2.5	-12.1162
▁supervisory	-12.1164
▁noting	-12.1164
▁basal	-12.1167
▁ergonomics	-12.1168
uch	-12.1168
▁1=2	-12.1168
▁verb	-12.1169
span	-12.117
▁knot	-12.1171
ulation	-12.1173
lived	-12.1173
▁flame	-12.1173
▁tap	-12.1173
▁discard	-12.1175
▁increments	-12.1179
ku	-12.1179
kl	-12.1182
▁[14].	-12.1184
robust	-12.1185
▁3.3.	-12.1185
gui	-12.1187
▁arteries	-12.119
▁valence	-12.1191
▁75%	-12.1193
ami	-12.1197
environment	-12.1198
▁browse	-12.1199
mps	-12.12
▁wifi	-12.1203
▁oscillating	-12.1204
▁interfering	-12.1204
▁downward	-12.1205
▁career	-12.1205
▁pathogenesis	-12.1206
▁reproduced	-12.1206
chen	-12.1206
rv	-12.1208
▁antecedent	-12.121
▁origins	-12.121
▁0.05	-12.121
▁decoders	-12.1212
ich	-12.1216
7)	-12.1217
(5)	-12.1218
▁actuation	-12.1218
▁lake	-12.1219
averaged	-12.1221
▁testable	-12.1229
▁retrospective	-12.1229
▁ripple	-12.1233
▁clones	-12.1233
▁pic	-12.1236
▁puts	-12.1246
▁heritage	-12.1246
▁(2007)	-12.1247
▁regulating	-12.1247
since	-12.125
▁ancestor	-12.1255
▁shoulder	-12.1258
ective	-12.1258
▁truthful	-12.1258
▁perceptually	-12.1259
▁volatile	-12.1262
▁λ	-12.1263
▁conceived	-12.1263
▁bsp	-12.1265
conversion	-12.1271
▁traced	-12.1271
▁[27]	-12.1272
▁coating	-12.1273
▁ig	-12.1274
▁fear	-12.1275
▁auf	-12.1275
▁sas	-12.1276
▁qa	-12.1283
▁78	-12.1284
▁factoring	-12.1285
▁parsimonious	-12.1288
▁trapped	-12.1289
respectively	-12.1291
▁passwords	-12.1291
▁vod	-12.1293
▁9,	-12.1297
ven	-12.1298
▁assisting	-12.1301
▁returning	-12.1301
ose	-12.1301
▁responding	-12.1302
▁94	-12.1302
▁choquet	-12.1303
▁raising	-12.1303
▁differentially	-12.1305
▁hmms	-12.1307
▁profitable	-12.1308
▁char	-12.1308
▁quantizer	-12.131
exponential	-12.131
▁psi	-12.1312
▁forums	-12.1312
era	-12.1316
▁twelve	-12.1317
▁nat	-12.1317
▁(2008)	-12.1317
?)	-12.1318
▁nanometer	-12.1319
▁succeeds	-12.132
hol	-12.132
gd	-12.1324
ew	-12.1324
▁nucleotide	-12.1325
▁cps	-12.1327
▁gh	-12.1329
ili	-12.1331
▁fur	-12.1332
▁perimeter	-12.1332
▁accident	-12.1334
▁ecosystems	-12.1338
▁hla	-12.134
▁month	-12.1341
calibration	-12.1341
▁2.2.	-12.1342
▁urgent	-12.1343
▁12,	-12.1343
▁circulant	-12.1346
▁fingerprinting	-12.1347
▁nurse	-12.1348
screen	-12.1351
▁aligning	-12.1351
▁stakeholder	-12.1352
▁analyst	-12.1353
linked	-12.1354
sampled	-12.1355
integrated	-12.1356
▁sir	-12.1358
▁adversaries	-12.1359
▁trigonometric	-12.1359
▁abelian	-12.136
▁negotiations	-12.1361
▁monthly	-12.1362
▁rescheduling	-12.1363
▁genuine	-12.1371
▁ingredients	-12.1372
problems	-12.1373
▁qualified	-12.1374
▁securing	-12.1374
▁(3-	-12.1374
▁thinning	-12.1375
▁principled	-12.1375
▁shaft	-12.1376
▁viewers	-12.1377
▁stimulated	-12.1377
▁renal	-12.1379
▁pq	-12.1379
▁lru	-12.138
▁competitors	-12.1382
▁cds	-12.1385
▁7.1	-12.1385
▁nanotubes	-12.1388
▁extrinsic	-12.1388
▁avatar	-12.1395
▁corporation	-12.1395
vq	-12.1398
▁batches	-12.1398
▁encounters	-12.1402
▁fictitious	-12.1402
▁sandwich	-12.1403
cooperative	-12.1404
▁corruption	-12.1405
▁stall	-12.1407
▁advertisement	-12.1409
track	-12.141
▁projector	-12.141
▁offsets	-12.1411
testing	-12.1411
▁dh	-12.1413
▁retiming	-12.1418
rail	-12.1418
monotonic	-12.1418
▁broadcasts	-12.1418
▁zoom	-12.1421
quadratic	-12.1424
96]	-12.1425
cps	-12.1426
▁000	-12.1427
▁joined	-12.1427
▁peter	-12.1427
▁consciousness	-12.1432
▁digitized	-12.1432
▁amortized	-12.1433
▁ipc	-12.1433
izability	-12.1434
▁containers	-12.1436
once	-12.1437
hellman	-12.144
▁[8],	-12.1443
▁america	-12.1444
▁blade	-12.1444
▁specular	-12.1445
▁802.15.4	-12.1446
▁greenhouse	-12.1446
▁legendre	-12.1446
▁tb	-12.1447
▁hydrological	-12.1447
ata	-12.1451
bis	-12.1451
▁flex	-12.1451
▁pheromone	-12.1453
▁inductor	-12.1453
▁appeal	-12.1456
mixed	-12.1457
▁transduction	-12.146
▁irradiation	-12.146
▁spans	-12.1462
▁partnership	-12.1463
don	-12.1466
▁incompatible	-12.1466
▁scripting	-12.1468
▁realizes	-12.1469
▁relaxing	-12.1473
izes	-12.1473
▁lsi	-12.1473
▁marching	-12.1475
▁johnson	-12.1475
segment	-12.148
▁mse	-12.148
nos	-12.148
▁wordnet	-12.1485
.10	-12.1488
▁bibliographic	-12.1489
▁nanoparticles	-12.1489
▁isogeometric	-12.1489
▁1995	-12.1489
▁[29]	-12.1489
▁catch	-12.149
▁volterra	-12.149
electron	-12.1493
slice	-12.1494
extended	-12.15
▁dwt	-12.1502
(2(	-12.1502
▁associating	-12.1503
fg	-12.1506
▁mediating	-12.1507
▁thirdly	-12.1508
▁backoff	-12.1508
▁mag	-12.1509
▁missions	-12.1513
mentioned	-12.1513
▁grooming	-12.1518
▁seemingly	-12.1518
soa	-12.152
▁cos	-12.1522
▁(12)	-12.1522
▁projecting	-12.1524
(2)(	-12.1525
▁ham	-12.1525
mate	-12.1525
▁encodings	-12.1529
ole	-12.1531
cho	-12.1531
▁galois	-12.1532
▁epipolar	-12.1532
▁64-	-12.1533
pic	-12.1534
aligned	-12.1543
▁letting	-12.1543
pin	-12.1545
▁enters	-12.1547
▁unconditionally	-12.1549
lag	-12.155
constraint	-12.155
▁jan	-12.1551
▁?2	-12.1552
▁[7,	-12.1553
▁overfitting	-12.1555
▁magic	-12.1556
meter	-12.1558
▁labelling	-12.1564
▁infections	-12.1567
accurate	-12.1567
="	-12.157
▁repeating	-12.1571
▁abrupt	-12.1573
proc	-12.1575
pack	-12.1575
▁92	-12.1576
▁homogenization	-12.1576
▁63	-12.1576
▁[30]	-12.1576
▁hm	-12.1578
▁modem	-12.1578
▁ortho	-12.1579
▁acknowledged	-12.1585
ams	-12.1587
bot	-12.1587
uml	-12.1588
isi	-12.1588
▁mitigating	-12.159
sky	-12.1593
math	-12.1595
definite	-12.1596
▁67	-12.1597
▁transformers	-12.1598
▁transmitters	-12.1598
bic	-12.1602
▁balances	-12.1604
▁kidney	-12.1605
▁unrealistic	-12.1605
rit	-12.1608
▁grades	-12.1608
▁recognizer	-12.1608
▁reside	-12.1608
tb	-12.1608
▁pk	-12.1609
problem	-12.161
ome	-12.1611
mse	-12.1612
ken	-12.1612
ace	-12.1617
.12	-12.1617
/4	-12.1618
▁(1995)	-12.1619
▁provable	-12.1619
file	-12.162
▁offspring	-12.162
1(	-12.1622
▁coli	-12.1623
▁theme	-12.1623
▁exemplar	-12.1625
▁buffered	-12.1627
▁timefrequency	-12.1632
▁[5],	-12.1636
▁pol	-12.1638
application	-12.1639
issue	-12.1642
▁transceiver	-12.1642
▁vq	-12.1643
▁firewall	-12.1644
▁fee	-12.1645
ux	-12.1649
▁robin	-12.1654
▁planners	-12.1655
squared	-12.1656
▁margins	-12.1657
engineering	-12.1658
queue	-12.1659
▁evacuation	-12.1663
pairs	-12.1664
▁conferencing	-12.1666
direct	-12.1666
ims	-12.1669
▁invisible	-12.1673
▁confirmation	-12.1673
▁acc	-12.1673
▁technically	-12.1673
▁ck	-12.1675
▁promoter	-12.1676
▁diagnoses	-12.1678
▁inherited	-12.168
▁cycling	-12.1681
▁allocates	-12.1681
▁laptop	-12.1681
column	-12.1682
▁idealized	-12.1683
▁lis	-12.1683
▁bas	-12.1684
▁ending	-12.1685
associative	-12.1688
following	-12.1689
▁materialized	-12.1691
▁gnu	-12.1691
▁falling	-12.1695
▁nr	-12.1696
automated	-12.1703
cross	-12.1705
▁floorplanning	-12.1708
▁rectilinear	-12.1708
▁diffusive	-12.1708
▁pushdown	-12.1709
8)	-12.1709
awareness	-12.1711
▁exam	-12.1712
▁parallelize	-12.1715
tar	-12.1717
▁1992	-12.172
▁buckets	-12.1722
▁ims	-12.1722
update	-12.1722
▁excitatory	-12.1722
▁metropolitan	-12.1722
▁unprecedented	-12.1722
▁dutch	-12.1722
▁cloning	-12.1723
▁[31]	-12.1723
▁toxic	-12.1723
▁neighbours	-12.1724
▁optics	-12.1724
▁predominantly	-12.1724
0.6	-12.1725
▁rts	-12.1732
▁::	-12.1733
▁tactical	-12.1736
▁tdma	-12.1737
▁speckle	-12.1737
▁harmful	-12.1738
▁securely	-12.1739
▁5.5	-12.1741
▁got	-12.1741
gar	-12.1742
▁bandwidths	-12.1744
▁utterance	-12.1746
analytical	-12.1746
▁inability	-12.1748
▁prohibitive	-12.175
itt	-12.1753
▁inactive	-12.1755
▁1;	-12.1756
mal	-12.1762
▁xu	-12.1766
▁cnf	-12.1766
▁blurring	-12.1767
ral	-12.1767
mel	-12.1768
phenyl	-12.1772
sk	-12.1773
▁coordinator	-12.1776
ifs	-12.1779
-15	-12.1781
▁revocation	-12.1782
▁allocator	-12.1782
▁pruned	-12.1784
▁islands	-12.1784
▁tactics	-12.1784
▁investors	-12.1785
links	-12.1786
▁visiting	-12.179
redundant	-12.1792
▁speeding	-12.1793
ography	-12.1794
▁spray	-12.1795
▁discrepancies	-12.1797
▁steganography	-12.1797
expert	-12.1797
ern	-12.1798
▁resort	-12.18
▁invalidation	-12.1805
.14	-12.1806
▁coal	-12.1807
▁marketplace	-12.1809
▁lean	-12.1811
cher	-12.1811
scaling	-12.1817
sense	-12.1818
▁heights	-12.1819
▁mutants	-12.1819
-2-	-12.182
▁acl	-12.182
arrival	-12.1821
▁picking	-12.1821
▁isosurface	-12.1821
▁lowering	-12.1823
▁attractor	-12.1823
ogenic	-12.1827
izer	-12.1828
tel	-12.183
400	-12.183
▁matroid	-12.1836
▁subsequences	-12.1839
▁sexual	-12.184
ular	-12.184
▁abundant	-12.1841
▁addiction	-12.1841
▁4.6	-12.1844
▁lv	-12.1845
▁poles	-12.1845
▁neglect	-12.1849
▁dy	-12.185
▁transcriptional	-12.1854
▁upward	-12.1856
dq	-12.1856
▁discretisation	-12.1856
ometry	-12.1858
▁approached	-12.1863
▁spaced	-12.1865
maps	-12.1872
▁evoked	-12.1877
▁regret	-12.1887
▁currency	-12.1887
▁willingness	-12.1888
▁tracer	-12.1888
▁races	-12.1893
.11	-12.1895
▁desk	-12.1896
▁87	-12.1897
▁routinely	-12.1897
▁fixation	-12.1898
▁operand	-12.1898
▁insertions	-12.1899
▁abstracted	-12.1902
▁accelerators	-12.1903
sns	-12.1904
monotone	-12.1904
cus	-12.1906
▁ergonomic	-12.1911
▁bitmap	-12.1915
▁ventricle	-12.1916
▁det	-12.1918
▁artificially	-12.1919
▁complemented	-12.192
itz	-12.192
lk	-12.1921
0.7	-12.1922
}.	-12.1925
resistant	-12.1927
▁cayley	-12.1931
▁meteorological	-12.1932
▁swap	-12.1933
entry	-12.1934
▁cw	-12.1936
▁pack	-12.1939
▁buying	-12.1939
▁deemed	-12.1947
▁brazilian	-12.1947
oids	-12.1955
▁[6,	-12.1955
regulated	-12.1956
▁fruit	-12.1957
▁84	-12.1958
▁opened	-12.196
▁visitors	-12.1963
▁damped	-12.1963
▁ul	-12.1963
▁stamp	-12.1963
▁0)	-12.1964
▁[6],	-12.1964
▁votes	-12.1966
▁forwarded	-12.1967
▁5)	-12.1968
▁tailor	-12.197
2.0	-12.1971
▁african	-12.1975
▁anytime	-12.1975
ala	-12.1976
▁receptive	-12.1977
▁inspiration	-12.1977
▁hippocampal	-12.1977
▁stride	-12.1979
ides	-12.198
▁oracles	-12.1981
eur	-12.1982
▁/*	-12.1982
▁detectable	-12.1983
pes	-12.1984
▁treewidth	-12.1986
1-3	-12.1989
switching	-12.1991
▁fn	-12.1991
0.2	-12.1992
script	-12.1994
▁traversed	-12.1995
▁interrelated	-12.1995
flop	-12.1996
▁uav	-12.1996
▁tournament	-12.2003
▁coulomb	-12.2007
▁subtyping	-12.2008
▁mortar	-12.2008
▁conscious	-12.2009
gal	-12.201
▁13,	-12.2012
icroarchitecture	-12.2017
▁nave	-12.202
▁palmprint	-12.2023
▁nlp	-12.2026
▁precursor	-12.2033
▁appliances	-12.2036
▁col	-12.2037
▁fer	-12.2038
ust	-12.2038
▁decompression	-12.2039
▁hardening	-12.2039
minimal	-12.2041
uring	-12.2041
talk	-12.2043
▁2.8	-12.205
▁collaborating	-12.2053
total	-12.2054
▁upgrade	-12.2054
▁59	-12.2054
▁james	-12.2054
▁latch	-12.2054
▁rewritten	-12.2055
▁minority	-12.2057
lev	-12.2058
manifold	-12.2062
▁volunteers	-12.2062
▁integrators	-12.2067
▁1991	-12.2067
ien	-12.2068
▁navigating	-12.2068
▁trustworthy	-12.2068
▁reciprocity	-12.2069
▁federation	-12.2069
▁wirelength	-12.207
▁poset	-12.2071
▁wlans	-12.2073
▁sym	-12.2074
▁mor	-12.2075
fu	-12.2076
▁regeneration	-12.2077
▁grounding	-12.2078
▁prognostic	-12.2079
mapped	-12.2079
[1]	-12.2089
ties	-12.209
▁rn	-12.209
▁neck	-12.209
▁homomorphism	-12.2095
cons	-12.2096
▁prognosis	-12.2099
▁societies	-12.2099
boost	-12.21
▁tended	-12.2101
▁76	-12.2102
las	-12.2102
race	-12.2106
▁trivially	-12.2109
▁situational	-12.211
▁mcs	-12.2113
coverage	-12.2113
▁explosive	-12.2114
▁obesity	-12.2114
▁accompanying	-12.2115
▁continually	-12.2116
miss	-12.2118
▁los	-12.2121
she	-12.2122
▁3.7	-12.2123
▁snow	-12.2123
▁profound	-12.2127
ato	-12.213
▁putative	-12.2131
▁predator	-12.2133
▁labs	-12.2134
▁exceptional	-12.2136
▁num	-12.2137
▁reform	-12.2138
▁camp	-12.214
mobile	-12.214
instance	-12.2141
▁permitting	-12.2146
▁photometric	-12.2146
▁→	-12.2146
▁comparator	-12.2146
▁assesses	-12.2149
▁dialogues	-12.2152
▁digitally	-12.2153
lia	-12.2157
▁-->	-12.2157
▁mined	-12.216
▁preferential	-12.216
▁illegal	-12.2161
▁producers	-12.2161
▁precipitation	-12.2161
▁definable	-12.2161
▁relativistic	-12.2161
▁asking	-12.2162
▁lmi	-12.2163
0.0	-12.2166
▁nir	-12.2169
▁10,000	-12.2175
activated	-12.2176
▁southern	-12.2176
▁apple	-12.2176
▁begun	-12.2176
tro	-12.2179
▁anns	-12.218
rat	-12.218
eds	-12.2182
▁multiplying	-12.2182
▁niche	-12.2183
▁1999,	-12.2186
▁hb	-12.2187
▁screens	-12.2189
recall	-12.219
iter	-12.219
▁amazon	-12.2191
▁trunk	-12.2192
▁incurring	-12.2192
▁spanned	-12.2192
▁additions	-12.2193
▁vagueness	-12.2193
▁proto	-12.2199
transform	-12.2204
▁washington	-12.2207
▁erlang	-12.2207
▁offshore	-12.2207
▁wastewater	-12.2207
▁decomposes	-12.2208
▁anticipate	-12.2209
▁wiring	-12.2209
derivative	-12.2211
▁compressing	-12.2214
dynamics	-12.2216
▁interferences	-12.2216
)+	-12.2217
classification	-12.2221
▁relied	-12.2223
▁therapies	-12.2223
▁lod	-12.2224
namely	-12.2224
▁ghost	-12.2228
▁comm	-12.223
▁cca	-12.2231
▁mosaic	-12.2231
▁cho	-12.2233
▁district	-12.2235
▁overlaps	-12.2237
▁inevitably	-12.2238
consistency	-12.2242
▁attract	-12.2243
ency	-12.2243
▁advertisements	-12.2246
▁resonator	-12.225
▁evaluator	-12.225
▁sheets	-12.2251
▁83	-12.2252
▁impressive	-12.2254
▁89	-12.2254
▁depict	-12.2254
insensitive	-12.2254
▁rss	-12.2256
gra	-12.226
pho	-12.2261
▁crawl	-12.2261
existing	-12.2263
▁librarians	-12.2266
▁yi	-12.2266
▁);	-12.2267
▁csma	-12.2268
▁thematic	-12.227
▁pencil	-12.227
▁standby	-12.2271
▁huang	-12.2271
▁160	-12.2274
▁enforces	-12.2274
equation	-12.2277
▁cancel	-12.2278
mathbb	-12.2281
▁airline	-12.2281
▁campaign	-12.2281
developed	-12.2281
▁minute	-12.2284
▁exemplified	-12.2285
▁differentiating	-12.2285
ssa	-12.2286
▁dac	-12.2286
▁discretize	-12.2287
▁telecom	-12.2287
▁lf	-12.2287
▁clues	-12.2291
▁suffering	-12.2293
▁deviate	-12.2297
▁chan	-12.2299
▁criminal	-12.23
▁zn	-12.2301
▁shapley	-12.2301
▁excluding	-12.2301
bas	-12.2302
▁todays	-12.2304
▁stent	-12.2304
gain	-12.2308
▁arms	-12.2309
▁altering	-12.2309
pcr	-12.231
▁convention	-12.231
▁resolves	-12.2312
▁intercept	-12.2314
▁poll	-12.2314
▁calendar	-12.2316
▁aqueous	-12.2316
▁4.3.	-12.2318
1/2	-12.232
equilibrium	-12.232
fft	-12.2322
▁transparently	-12.2328
▁sal	-12.2329
▁snake	-12.233
▁unconditional	-12.233
▁cation	-12.2331
▁emphasizing	-12.2332
▁monocular	-12.2332
▁bee	-12.2334
pel	-12.2336
▁depths	-12.2336
ometric	-12.2336
▁pit	-12.2338
▁[16].	-12.2339
▁confirming	-12.2341
▁cur	-12.2341
▁positioned	-12.2342
▁distributional	-12.2343
ligand	-12.2344
▁tertiary	-12.2348
▁emulator	-12.2348
▁cantilever	-12.2348
▁minkowski	-12.2348
▁clicks	-12.2348
▁ple	-12.2349
▁paradox	-12.2349
▁triangulated	-12.235
▁restricts	-12.235
slip	-12.235
▁cytokines	-12.2352
lite	-12.2353
▁ants	-12.2354
▁torsion	-12.2355
standing	-12.2355
▁css	-12.2356
▁rtt	-12.2362
▁survivable	-12.2363
▁audiovisual	-12.2365
▁bist	-12.2368
tau	-12.2369
▁secretion	-12.2372
content	-12.2375
▁seizure	-12.2375
▁schematic	-12.2376
▁ages	-12.2376
▁kit	-12.2377
▁chunk	-12.2377
emia	-12.2379
direction	-12.2383
▁mpc	-12.2384
cds	-12.2386
ji	-12.2389
▁automorphism	-12.2392
▁competencies	-12.2395
▁cumbersome	-12.2395
▁ethics	-12.2395
▁canopy	-12.2395
▁synchrony	-12.2395
▁hexahedral	-12.2396
▁asic	-12.2397
tre	-12.2398
▁constructors	-12.2398
▁analogues	-12.24
▁sns	-12.2401
dwt	-12.2401
α	-12.2406
▁dw	-12.2409
▁founded	-12.241
▁carotid	-12.2411
1.5	-12.2415
▁regulators	-12.2416
trace	-12.2416
▁subsurface	-12.2418
fixed	-12.2419
projection	-12.2421
▁elaboration	-12.2427
▁vortices	-12.2427
▁cursor	-12.2427
evolution	-12.2429
▁specialists	-12.2432
▁bis	-12.2432
▁ol	-12.2433
▁constraining	-12.2433
▁intentional	-12.2434
▁reformulated	-12.2436
▁rh	-12.2439
lie	-12.244
triggered	-12.244
▁retina	-12.244
communication	-12.2441
▁nvidia	-12.2442
▁turkey	-12.2443
▁asia	-12.2449
▁mst	-12.245
population	-12.2452
▁signer	-12.2452
antenna	-12.2454
2]	-12.2454
.29	-12.2457
▁aperiodic	-12.2458
▁inviscid	-12.2458
▁acknowledgement	-12.2459
singular	-12.2462
▁dfa	-12.2465
plan	-12.2465
▁dht	-12.2465
secure	-12.2467
host	-12.2467
▁pascal	-12.2469
tis	-12.247
▁listing	-12.247
weak	-12.247
▁executive	-12.2472
▁cascading	-12.2474
▁multitude	-12.2474
▁physiology	-12.2474
▁pendulum	-12.2474
▁recognizes	-12.2475
▁mhd	-12.2476
configuration	-12.2476
▁agrees	-12.2477
▁nsga	-12.2479
true	-12.2482
▁manageable	-12.2483
▁{1,	-12.2485
σ	-12.2486
silicon	-12.2487
▁69	-12.249
▁exciting	-12.249
▁dierence	-12.2491
▁orchestration	-12.2491
anfis	-12.2491
▁sigir	-12.2491
▁painting	-12.2491
▁prioritize	-12.2493
lagrangian	-12.2493
▁supplement	-12.2494
▁superlinear	-12.2495
▁1999.	-12.2496
▁leak	-12.2497
synthesis	-12.2499
▁floorplan	-12.2501
▁integro	-12.2501
▁0.02	-12.2501
▁quarter	-12.2505
▁illustrations	-12.2505
▁taguchi	-12.2506
▁telephony	-12.2506
▁cis	-12.2509
.24	-12.2509
1/	-12.251
▁130	-12.2512
▁patterning	-12.2512
▁dq	-12.2513
ind	-12.2514
▁matchings	-12.2514
war	-12.2521
▁eventual	-12.2521
▁protease	-12.2522
▁coincidence	-12.2522
▁mil	-12.2523
0.3	-12.2526
uri	-12.2528
▁rigidity	-12.2529
ifying	-12.253
sparse	-12.2531
subject	-12.2531
▁communicated	-12.2532
▁promoted	-12.2533
roi	-12.2535
▁consortium	-12.2538
▁netherlands	-12.2538
clock	-12.2542
▁dfs	-12.2544
▁16,	-12.2545
game	-12.2545
▁triples	-12.2553
▁subscription	-12.2553
▁quantifies	-12.2554
▁collusion	-12.2554
▁cerebellar	-12.2555
.26	-12.2559
▁topsis	-12.2559
▁frank	-12.2559
▁fsm	-12.256
ometer	-12.2563
ians	-12.2563
▁payoffs	-12.2563
▁radios	-12.2566
▁confidential	-12.257
▁unauthorized	-12.257
▁blended	-12.2573
binary	-12.2575
▁elasto	-12.2577
cmp	-12.258
accuracy	-12.258
▁powered	-12.2582
ural	-12.2582
▁till	-12.2585
▁achievements	-12.2586
centred	-12.2586
▁satisfactorily	-12.2586
▁pearson	-12.2588
▁clearance	-12.2589
▁86	-12.259
▁grating	-12.259
▁wishes	-12.2591
lot	-12.2591
distinguishable	-12.2597
▁lectures	-12.2598
▁'(	-12.2598
jo	-12.2602
prop	-12.2603
edges	-12.2603
eno	-12.2603
▁1(	-12.2603
▁cnc	-12.2603
▁[32]	-12.2603
classical	-12.2605
▁limb	-12.2608
kr	-12.2609
▁readability	-12.261
quot	-12.2612
stepping	-12.2616
▁degrading	-12.2619
hbox	-12.2619
qui	-12.2622
▁externally	-12.2623
modeling	-12.2624
▁abort	-12.2625
▁tableau	-12.2625
▁felt	-12.2625
▁snapshots	-12.2626
▁piles	-12.2626
▁contrasted	-12.2628
complex	-12.2629
▁transcripts	-12.2631
▁startup	-12.2631
▁counterexample	-12.2633
2).	-12.2636
▁affordable	-12.2636
▁compactly	-12.264
▁jit	-12.264
bridge	-12.2641
▁encapsulated	-12.2644
gmm	-12.2644
▁meso	-12.2646
▁comb	-12.2648
▁hopf	-12.2649
▁queried	-12.2651
▁apis	-12.2655
▁lcd	-12.2658
sections	-12.2659
▁streamline	-12.266
uwb	-12.2661
▁chest	-12.2661
cent	-12.2663
▁ocr	-12.2666
crossing	-12.2668
▁jamming	-12.2668
▁lymph	-12.2668
8%	-12.2668
week	-12.2668
▁reducible	-12.267
▁ascertain	-12.2671
▁stone	-12.2671
▁deforming	-12.2672
▁utilised	-12.2675
▁91	-12.2678
failure	-12.268
▁tls	-12.2681
elli	-12.2682
▁transmits	-12.2682
▁[9],	-12.2683
▁(1994)	-12.2684
▁recycling	-12.2684
▁(2.1)	-12.2685
ali	-12.2685
▁raid	-12.2686
▁prefixes	-12.2691
▁octree	-12.2691
hill	-12.2695
transition	-12.2697
▁portfolios	-12.2698
▁mechanistic	-12.27
▁ecology	-12.27
▁solvability	-12.2701
▁supercomputer	-12.2701
▁expands	-12.2702
▁reversed	-12.2704
▁mem	-12.2705
▁roof	-12.2705
▁ltd	-12.2706
▁tablet	-12.2708
▁nh	-12.2714
▁javascript	-12.2717
▁travelling	-12.2718
ay	-12.2718
▁computability	-12.2719
▁shortage	-12.2721
▁rbac	-12.2722
▁73	-12.2726
▁diff	-12.2727
▁roadmap	-12.273
▁inclusive	-12.2733
▁epithelial	-12.2733
▁aus	-12.2733
▁sen	-12.2735
▁shrinking	-12.2736
▁smoke	-12.2736
2%	-12.2738
▁winter	-12.2738
▁underground	-12.2741
here	-12.2744
▁bifurcations	-12.2745
▁mh	-12.2746
▁steep	-12.2749
▁che	-12.275
▁segmentations	-12.2752
▁detrimental	-12.2753
morph	-12.2753
▁trait	-12.2754
▁79	-12.276
▁researched	-12.276
▁kon	-12.2761
vrp	-12.2763
▁gra	-12.2765
▁oblique	-12.2765
▁omnidirectional	-12.2765
▁atrial	-12.2765
▁aluminum	-12.2766
▁unsaturated	-12.2766
95]	-12.2768
qc	-12.2769
▁lt	-12.277
▁bubbles	-12.2772
▁neo	-12.2776
▁interruptions	-12.2777
▁suffice	-12.2781
▁catchment	-12.2781
▁button	-12.2781
▁aerospace	-12.2782
▁dispersive	-12.2782
▁strips	-12.2783
vd	-12.2784
▁deadlocks	-12.2785
▁aps	-12.2787
images	-12.2788
▁lam	-12.2789
▁2006.	-12.279
▁deform	-12.2794
wavelength	-12.2795
▁patterned	-12.2796
▁violating	-12.2798
▁cavities	-12.2798
▁satises	-12.2799
▁govern	-12.2799
▁microphone	-12.2799
▁funded	-12.2802
▁sis	-12.2803
ull	-12.2805
▁sus	-12.2808
due	-12.2808
▁pyramidal	-12.2809
▁2).	-12.2811
▁[10],	-12.2815
▁specimen	-12.2815
▁advocate	-12.2817
▁zinc	-12.2817
▁workpiece	-12.2818
▁folded	-12.2821
▁dependable	-12.2826
▁3%	-12.2826
choice	-12.2827
black	-12.2829
▁kd	-12.2829
tail	-12.2831
▁dementia	-12.2831
▁positivity	-12.2831
▁verifiable	-12.2831
▁drainage	-12.2831
▁brown	-12.2832
▁phoneme	-12.2832
fix	-12.2833
.16	-12.2833
▁bandpass	-12.2834
▁chunks	-12.2834
sea	-12.2835
▁elliptical	-12.2836
▁richness	-12.2839
tuned	-12.284
lit	-12.2844
month	-12.2845
manets	-12.2847
▁sporadic	-12.2848
▁avg	-12.2848
▁dsl	-12.2849
▁110	-12.285
▁(13)	-12.2854
device	-12.2859
sion	-12.2861
▁hamilton	-12.2864
▁dempster	-12.2864
▁radiance	-12.2864
▁concealment	-12.2864
▁synchronizing	-12.2865
▁tomographic	-12.2865
▁architects	-12.287
▁fuse	-12.2874
.17	-12.2877
▁zno	-12.2877
determined	-12.2878
▁mega	-12.2879
▁permissions	-12.288
▁noticed	-12.288
▁ascending	-12.2881
▁timeliness	-12.2881
▁adiabatic	-12.2881
▁blurred	-12.2882
maker	-12.2882
▁conventions	-12.2884
▁qubit	-12.2886
▁homes	-12.2887
▁parking	-12.289
▁74	-12.289
▁workforce	-12.2892
dcs	-12.2893
▁associates	-12.2897
▁paramount	-12.2897
▁aromatic	-12.2898
▁bargaining	-12.2898
▁textural	-12.2899
▁coalitions	-12.29
logn	-12.2901
▁99%	-12.2901
▁contrasts	-12.2902
gpp	-12.2903
sam	-12.2907
▁tetra	-12.2913
▁bor	-12.2913
▁fragmented	-12.2914
▁crm	-12.2914
▁helicopter	-12.2914
▁redundancies	-12.2914
blocks	-12.2916
shell	-12.2918
▁comprehensively	-12.292
▁eta	-12.2921
ign	-12.2921
gue	-12.2923
▁polymers	-12.2924
-100	-12.2926
ogen	-12.2929
rw	-12.2929
quasi	-12.293
▁predecessor	-12.2931
▁circulating	-12.2931
▁agility	-12.2931
▁splice	-12.2931
ets	-12.2931
▁lps	-12.2933
▁bitstream	-12.2933
tile	-12.2934
▁storm	-12.2934
▁1998.	-12.2935
▁criticality	-12.2935
▁prototypical	-12.2936
▁validates	-12.2938
ars	-12.2942
nz	-12.2943
social	-12.2945
▁danger	-12.2947
fin	-12.2947
▁reproducibility	-12.2947
▁aodv	-12.295
▁familiarity	-12.295
▁relocation	-12.2951
▁attracting	-12.2952
going	-12.2953
▁cluttered	-12.2954
▁atomicity	-12.2956
[...]
