<unk>	0
<s>	0
</s>	0
▁the	-2.90384
.	-3.34049
,	-3.41063
▁of	-3.51269
▁a	-3.84377
▁and	-3.97356
▁in	-4.06519
▁to	-4.07885
▁is	-4.19148
-	-4.21361
▁for	-4.48542
▁that	-4.68829
▁(	-4.75939
▁we	-4.85623
)	-4.96274
▁are	-5.1362
▁this	-5.16881
▁be	-5.19064
▁on	-5.2034
▁with	-5.2142
▁by	-5.22703
s	-5.24413
▁as	-5.33622
▁an	-5.43359
▁can	-5.66509
▁it	-5.74109
▁from	-5.77024
(	-5.82028
:	-5.83454
▁i	-5.85956
▁which	-5.90194
▁2	-6.00409
▁not	-6.03648
▁,	-6.03672
▁n	-6.03815
▁p	-6.05878
▁at	-6.06688
;	-6.08833
▁if	-6.10402
▁have	-6.17483
▁1	-6.19276
▁data	-6.19411
▁each	-6.20898
▁time	-6.22778
▁algorithm	-6.22933
▁all	-6.23318
▁or	-6.2413
▁one	-6.30261
▁t	-6.32194
▁s	-6.33412
▁.	-6.3359
▁c	-6.34158
▁our	-6.34402
▁two	-6.34502
▁set	-6.34764
▁using	-6.36109
▁-	-6.36455
▁k	-6.3674
▁has	-6.39998
▁system	-6.40957
▁number	-6.42073
▁model	-6.42314
▁such	-6.43453
▁r	-6.47214
▁x	-6.48923
▁these	-6.49796
▁then	-6.52176
e	-6.52289
▁used	-6.54353
▁problem	-6.56736
▁f	-6.56902
▁m	-6.58659
▁also	-6.59198
▁d	-6.60157
'	-6.61172
▁0	-6.62319
▁results	-6.64455
).	-6.65006
▁v	-6.65576
▁only	-6.66354
a	-6.67325
▁method	-6.67876
▁e	-6.69863
▁when	-6.70103
d	-6.70107
▁j	-6.70733
▁b	-6.70793
▁more	-6.71441
i	-6.7178
▁paper	-6.72314
▁its	-6.7264
▁will	-6.73724
▁l	-6.76289
▁there	-6.76943
▁information	-6.76949
▁than	-6.77595
▁g	-6.79707
▁use	-6.79885
▁between	-6.80495
▁where	-6.80534
▁other	-6.80652
▁figure	-6.81244
n	-6.82925
▁based	-6.83024
▁case	-6.83245
▁\	-6.83816
"	-6.83836
▁some	-6.84041
▁"	-6.85711
▁first	-6.86039
▁any	-6.88601
▁new	-6.88986
/	-6.88998
▁systems	-6.89512
▁performance	-6.91083
▁may	-6.91139
▁given	-6.91207
▁function	-6.91691
▁3	-6.9215
▁approach	-6.96343
g	-6.97646
x	-6.98265
▁analysis	-7.00774
▁section	-7.00801
▁but	-7.0129
t	-7.01513
▁was	-7.02144
▁their	-7.02834
▁into	-7.03086
▁been	-7.05678
),	-7.05914
▁different	-7.06793
▁example	-7.08507
▁network	-7.11119
▁order	-7.11649
▁since	-7.12271
▁same	-7.13174
▁both	-7.13724
▁h	-7.13733
▁let	-7.14997
▁algorithms	-7.15317
▁process	-7.15741
▁show	-7.16401
c	-7.18643
1	-7.19138
▁value	-7.19895
▁so	-7.20479
▁no	-7.20987
▁)	-7.21558
▁q	-7.21821
2	-7.21851
▁however	-7.22153
b	-7.22956
▁y	-7.23417
▁proposed	-7.23718
▁over	-7.23922
▁methods	-7.24277
based	-7.24516
▁=	-7.2453
r	-7.25591
▁u	-7.25599
▁most	-7.25953
▁non	-7.27521
▁[	-7.27901
▁following	-7.28219
▁solution	-7.29665
▁node	-7.30059
▁state	-7.30313
▁they	-7.30568
▁size	-7.31199
▁w	-7.32084
▁design	-7.32213
▁thus	-7.32325
▁#	-7.33783
p	-7.3446
▁work	-7.35253
k	-7.36238
▁large	-7.3777
▁control	-7.38319
▁were	-7.38352
▁well	-7.38994
▁problems	-7.39102
▁point	-7.39354
m	-7.39534
▁o	-7.40281
▁4	-7.41365
▁values	-7.42779
▁models	-7.44414
▁theorem	-7.4449
▁matrix	-7.45617
▁graph	-7.46258
▁proof	-7.46601
▁z	-7.47538
▁linear	-7.49818
▁how	-7.50777
▁consider	-7.51762
▁user	-7.51919
▁nodes	-7.5246
▁space	-7.52928
▁program	-7.53177
▁high	-7.53271
▁three	-7.53306
▁result	-7.53381
▁because	-7.53758
▁type	-7.53772
▁while	-7.5446
▁do	-7.54675
▁query	-7.55287
▁possible	-7.56643
▁search	-7.56668
▁image	-7.57957
▁second	-7.58548
▁many	-7.59022
▁does	-7.59345
▁shown	-7.59695
▁application	-7.60112
▁applications	-7.606
▁table	-7.6079
▁test	-7.61117
▁functions	-7.61367
▁networks	-7.61894
▁local	-7.61988
▁must	-7.62089
▁cost	-7.62418
▁memory	-7.62833
▁real	-7.64148
▁single	-7.64235
▁object	-7.64426
▁structure	-7.64536
▁path	-7.64763
▁general	-7.64856
▁present	-7.65154
▁study	-7.65398
▁optimal	-7.6579
▁level	-7.65993
▁'	-7.67877
▁form	-7.68044
▁under	-7.68294
▁class	-7.68665
▁would	-7.6937
▁every	-7.69664
▁step	-7.70412
▁follows	-7.71129
▁learning	-7.71253
▁techniques	-7.71958
▁error	-7.72114
▁scheme	-7.7247
▁very	-7.72701
▁terms	-7.72908
▁5	-7.73096
▁tree	-7.73295
v	-7.74371
▁input	-7.74505
▁therefore	-7.75317
▁defined	-7.76073
▁distribution	-7.76126
▁points	-7.76183
▁distributed	-7.76465
gamma	-7.76649
▁through	-7.76848
▁code	-7.77695
▁lemma	-7.78252
▁about	-7.78371
▁simple	-7.786
▁above	-7.78721
▁parallel	-7.78742
▁probability	-7.78954
▁	-7.79042
j	-7.79228
▁note	-7.79507
▁obtained	-7.7969
▁now	-7.79888
▁multi	-7.79961
▁small	-7.80357
y	-7.80613
▁communication	-7.81159
▁several	-7.81316
ing	-7.81792
▁sequence	-7.8262
▁software	-7.8322
▁variables	-7.83324
▁sets	-7.84186
▁after	-7.84799
▁simulation	-7.84835
▁web	-7.87032
▁shows	-7.87431
▁constraints	-7.87463
f	-7.87599
▁vector	-7.87913
l	-7.88144
▁computation	-7.88366
▁bound	-7.88515
▁particular	-7.88665
▁out	-7.89122
▁multiple	-7.89836
▁1.	-7.89849
▁need	-7.89877
▁language	-7.89902
▁should	-7.90447
▁even	-7.90606
▁assume	-7.90812
▁support	-7.9104
time	-7.91164
▁presented	-7.91277
▁without	-7.91844
▁implementation	-7.91916
▁corresponding	-7.9221
▁properties	-7.92272
▁research	-7.9233
▁parameters	-7.92368
▁complexity	-7.92462
▁within	-7.92469
▁protocol	-7.93034
▁important	-7.94039
▁execution	-7.94343
▁6	-7.94484
▁similar	-7.94493
▁rate	-7.94622
▁task	-7.95554
▁optimization	-7.95732
in	-7.95911
▁provide	-7.95985
▁least	-7.96016
▁dynamic	-7.96404
▁way	-7.9654
▁total	-7.96559
▁computing	-7.97203
▁those	-7.97677
▁efficient	-7.97981
▁technique	-7.98115
o	-7.99116
▁computer	-7.99267
▁knowledge	-7.99801
▁next	-8.00126
▁part	-8.00576
▁conditions	-8.00687
▁current	-8.01152
▁due	-8.01831
▁applied	-8.03041
▁programming	-8.03268
u	-8.03316
▁during	-8.03609
▁power	-8.03699
▁message	-8.03828
▁framework	-8.04154
▁definition	-8.04291
▁lower	-8.04348
▁random	-8.04527
▁average	-8.0483
▁experiments	-8.05133
▁objects	-8.05278
▁here	-8.05305
▁cases	-8.05457
▁variable	-8.05557
▁database	-8.06185
▁hence	-8.06318
▁features	-8.06539
▁access	-8.06633
or	-8.06879
▁finite	-8.07013
▁called	-8.07145
▁theory	-8.07172
▁rules	-8.07346
▁see	-8.07906
▁up	-8.07917
▁+	-8.08245
▁agent	-8.08411
▁condition	-8.08556
▁length	-8.08629
▁described	-8.08664
ed	-8.08792
▁them	-8.09213
▁processor	-8.0936
▁flow	-8.09447
▁found	-8.09782
▁rule	-8.09853
▁domain	-8.10249
▁log	-8.10853
▁edge	-8.11104
to	-8.11147
▁better	-8.1139
▁could	-8.11403
▁operations	-8.11553
▁cache	-8.1191
▁low	-8.12152
▁global	-8.12762
▁required	-8.13435
3	-8.13512
▁equation	-8.13542
▁previous	-8.13811
▁standard	-8.13817
▁fact	-8.13825
▁group	-8.13884
▁evaluation	-8.13907
▁maximum	-8.14123
▁obtain	-8.14182
▁block	-8.14414
▁machine	-8.14773
▁types	-8.14779
▁find	-8.15166
▁service	-8.15272
▁elements	-8.15459
▁us	-8.15526
▁constant	-8.16132
]	-8.16611
▁?	-8.1688
▁best	-8.17148
▁further	-8.17341
q	-8.17422
▁procedure	-8.17906
▁queries	-8.17997
▁context	-8.18043
▁available	-8.1807
▁known	-8.18184
▁processing	-8.18256
▁times	-8.18272
▁processors	-8.19167
▁users	-8.19199
▁initial	-8.19237
▁either	-8.19393
▁another	-8.1954
▁2.	-8.197
▁representation	-8.20046
▁distance	-8.20055
▁components	-8.21177
▁ffl	-8.21542
▁numerical	-8.21551
h	-8.21553
▁8	-8.21706
▁decision	-8.21758
▁agents	-8.21814
▁scheduling	-8.22104
▁make	-8.22108
▁less	-8.22255
?	-8.22303
▁constraint	-8.22394
the	-8.2279
▁oe	-8.23018
▁behavior	-8.23129
▁computational	-8.23371
▁main	-8.2382
▁architecture	-8.24638
▁define	-8.24649
▁processes	-8.24711
▁solutions	-8.24767
▁line	-8.24927
▁element	-8.24989
▁developed	-8.25103
▁being	-8.25171
▁programs	-8.25235
▁finally	-8.25469
▁range	-8.25803
▁parameter	-8.25917
▁re	-8.25954
▁states	-8.26019
▁term	-8.2606
▁key	-8.26177
▁compute	-8.26266
▁related	-8.26402
▁associated	-8.26439
▁al	-8.26576
▁routing	-8.26589
▁event	-8.27003
▁source	-8.2721
\	-8.27238
▁propose	-8.27295
▁images	-8.27398
▁considered	-8.27439
▁uses	-8.27478
▁~	-8.27619
▁compared	-8.27919
#	-8.2802
▁environment	-8.28333
▁various	-8.28341
▁before	-8.28523
▁end	-8.28636
▁equations	-8.28677
▁among	-8.28856
▁feature	-8.29351
▁operation	-8.29398
▁much	-8.29483
▁accuracy	-8.29902
▁provides	-8.29984
▁strategy	-8.30231
▁examples	-8.30436
▁complex	-8.30457
▁logic	-8.30637
▁polynomial	-8.30662
▁proceedings	-8.30935
w	-8.30971
▁exists	-8.31305
▁component	-8.31589
▁approximation	-8.31642
▁7	-8.31912
▁et	-8.32082
▁original	-8.32097
▁output	-8.32729
▁cannot	-8.32858
▁respect	-8.33203
▁contains	-8.33388
▁per	-8.3353
▁higher	-8.33779
▁generated	-8.33856
▁minimum	-8.33915
▁call	-8.33965
▁loop	-8.34202
▁good	-8.34253
▁positive	-8.34676
▁property	-8.34885
▁energy	-8.35033
▁means	-8.3551
theta	-8.35799
▁selection	-8.36099
▁detection	-8.36102
▁experimental	-8.36262
z	-8.36368
▁quality	-8.36378
▁instance	-8.36624
▁development	-8.36631
▁edges	-8.36931
▁allows	-8.37185
th	-8.37525
▁computed	-8.37527
▁ff	-8.37589
dimensional	-8.3771
level	-8.38328
▁respectively	-8.39226
▁phase	-8.3929
▁load	-8.39302
▁approaches	-8.39334
▁addition	-8.39554
▁3.	-8.39683
▁measure	-8.3973
▁mobile	-8.39947
▁:	-8.40109
▁true	-8.40626
▁acm	-8.40892
▁pattern	-8.41006
▁denote	-8.41401
▁performed	-8.41463
▁;	-8.41914
ly	-8.41934
▁list	-8.41991
▁whether	-8.42018
▁bounds	-8.42019
▁describe	-8.42133
▁delay	-8.4215
▁management	-8.42164
▁basic	-8.42505
▁complete	-8.42678
▁like	-8.42767
see	-8.4324
▁fixed	-8.44125
▁10	-8.44532
[	-8.44645
▁relation	-8.4504
▁documents	-8.45056
▁convergence	-8.4525
▁requires	-8.45293
▁change	-8.45615
▁classification	-8.45639
▁prove	-8.45718
▁four	-8.46003
▁fig	-8.46045
▁independent	-8.46337
▁give	-8.46499
▁graphs	-8.46502
▁server	-8.4662
▁sub	-8.4665
▁run	-8.47505
▁version	-8.4751
▁sensor	-8.48201
▁mechanism	-8.48226
▁tasks	-8.48306
▁index	-8.48312
▁according	-8.48427
▁interface	-8.48498
▁view	-8.48583
▁boundary	-8.48796
▁expected	-8.48796
▁link	-8.48808
▁modeling	-8.48817
▁common	-8.49104
▁existing	-8.49739
▁interval	-8.49916
▁partial	-8.49982
▁often	-8.50379
delta	-8.50602
▁what	-8.50636
▁determine	-8.50711
▁hand	-8.50811
▁messages	-8.50891
▁effect	-8.51483
▁!	-8.51615
▁matrices	-8.51817
▁whose	-8.51842
▁zero	-8.51847
=	-8.51995
▁(1)	-8.52284
▁reduction	-8.52382
▁training	-8.52934
▁right	-8.52979
▁9	-8.53142
▁iteration	-8.53151
▁additional	-8.5371
▁necessary	-8.53759
▁retrieval	-8.53863
▁equal	-8.54001
▁vertex	-8.54103
▁resource	-8.54126
▁classes	-8.54205
▁specific	-8.54219
▁although	-8.54224
▁still	-8.54387
▁last	-8.54393
▁made	-8.54628
▁field	-8.54629
▁upper	-8.54858
▁requirements	-8.5492
▁take	-8.55045
+	-8.55122
▁location	-8.55137
▁useful	-8.5515
▁factor	-8.5549
▁structures	-8.55516
▁able	-8.55526
▁steps	-8.56177
▁bounded	-8.56489
▁|	-8.56504
▁document	-8.56523
▁comparison	-8.56728
▁vertices	-8.568
▁significant	-8.5724
▁holds	-8.57508
▁region	-8.57669
▁implemented	-8.57865
▁improve	-8.57906
▁packet	-8.58028
▁basis	-8.58099
▁resulting	-8.5832
▁paths	-8.58438
▁area	-8.58756
▁reduce	-8.58773
▁certain	-8.59061
▁perform	-8.59253
▁changes	-8.59442
▁address	-8.59553
▁video	-8.59735
▁degree	-8.5994
0	-8.60038
▁target	-8.60276
▁generation	-8.60411
▁via	-8.6047
▁effective	-8.60644
▁always	-8.60668
▁traffic	-8.60669
▁full	-8.60714
▁fuzzy	-8.60784
▁adaptive	-8.60875
▁provided	-8.60904
+1	-8.61424
▁events	-8.61566
▁relative	-8.61611
▁long	-8.61735
▁pages	-8.62321
▁get	-8.62336
▁estimate	-8.62383
▁assumption	-8.62427
▁words	-8.62564
and	-8.62759
▁motion	-8.62855
▁increase	-8.63419
▁patterns	-8.63593
_	-8.63731
▁product	-8.63819
▁update	-8.63912
▁conference	-8.64148
▁--	-8.64204
▁ratio	-8.6432
▁mean	-8.64381
▁gives	-8.64466
▁{	-8.64477
▁construction	-8.64643
▁pair	-8.64782
▁surface	-8.65134
▁difference	-8.65446
▁efficiency	-8.65595
▁left	-8.65749
▁estimation	-8.65804
▁base	-8.6585
▁instead	-8.65987
▁schemes	-8.66177
▁potential	-8.66475
▁fault	-8.66643
▁self	-8.66761
▁done	-8.66856
▁loss	-8.67234
▁unit	-8.67267
▁needed	-8.67317
▁consists	-8.67529
▁fast	-8.67532
▁matching	-8.67846
▁require	-8.68014
▁expression	-8.68056
▁larger	-8.68178
▁solving	-8.68247
▁array	-8.68767
▁including	-8.68783
▁4.	-8.68879
▁channel	-8.68995
▁suppose	-8.69076
▁future	-8.69232
▁semantics	-8.69281
▁signal	-8.69446
▁(2)	-8.69616
▁concept	-8.69655
▁page	-8.6973
▁international	-8.69773
▁human	-8.69901
▁testing	-8.69961
▁text	-8.70091
▁discussed	-8.70165
▁along	-8.70329
order	-8.70451
▁natural	-8.7064
▁cell	-8.70643
▁allow	-8.70683
▁moreover	-8.7074
▁collection	-8.70808
▁resources	-8.70822
▁presents	-8.70991
▁equivalent	-8.71073
▁introduced	-8.71118
▁solve	-8.71201
▁interaction	-8.7136
▁amount	-8.7139
er	-8.71489
▁aaaa	-8.71562
▁security	-8.71752
▁prediction	-8.71914
▁transactions	-8.7203
▁wireless	-8.72163
▁grid	-8.72264
▁below	-8.72536
▁formula	-8.72626
▁goal	-8.72806
▁continuous	-8.7288
▁<	-8.72998
▁operator	-8.73069
▁mapping	-8.73125
▁technology	-8.7337
▁reduced	-8.73459
4	-8.73539
▁bandwidth	-8.73603
▁appropriate	-8.73613
▁rather	-8.73734
▁derived	-8.73917
▁individual	-8.74104
▁subset	-8.74194
▁protocols	-8.74221
▁spatial	-8.74333
▁chosen	-8.74515
▁relevant	-8.74539
▁binary	-8.7463
▁special	-8.74863
▁specification	-8.74963
▁discrete	-8.74979
▁arbitrary	-8.75052
▁strategies	-8.75089
▁sum	-8.7509
▁might	-8.75366
▁furthermore	-8.75423
▁languages	-8.75492
▁represent	-8.75636
▁position	-8.7592
al	-8.76088
▁action	-8.76217
▁weight	-8.7635
▁just	-8.76856
▁frequency	-8.76881
▁choice	-8.76923
▁virtual	-8.7694
▁directly	-8.77046
▁novel	-8.77402
▁sequences	-8.77456
▁map	-8.77487
▁easily	-8.77554
▁include	-8.77632
▁active	-8.77649
▁approximate	-8.78206
▁tool	-8.78575
▁column	-8.78637
▁content	-8.78745
▁recognition	-8.78963
▁implies	-8.79289
▁reference	-8.7936
▁errors	-8.79364
of	-8.79451
▁introduce	-8.79593
▁achieve	-8.80098
▁trees	-8.80365
▁1,	-8.8043
▁transition	-8.80462
▁apply	-8.80687
▁request	-8.81348
▁selected	-8.81586
▁clustering	-8.81862
▁extended	-8.81921
▁blocks	-8.82096
▁hardware	-8.82277
▁response	-8.82515
▁construct	-8.82525
▁services	-8.82596
▁open	-8.82636
▁issues	-8.82669
▁description	-8.82818
▁levels	-8.8284
▁cluster	-8.82976
▁overhead	-8.83182
▁shared	-8.83271
▁direct	-8.83284
▁measures	-8.83354
▁generate	-8.83374
▁introduction	-8.83393
▁policy	-8.83634
▁scale	-8.83719
▁smaller	-8.84061
▁direction	-8.84107
▁once	-8.8422
▁neural	-8.84319
▁demonstrate	-8.84325
▁vectors	-8.84585
▁normal	-8.8459
▁word	-8.84758
▁sample	-8.84774
▁write	-8.85012
▁file	-8.85208
▁top	-8.85215
▁&	-8.8543
▁read	-8.85488
▁static	-8.85662
▁−	-8.85904
▁studies	-8.85909
▁de	-8.85966
▁cycle	-8.86077
▁effects	-8.86292
▁row	-8.86399
▁temporal	-8.86614
▁speed	-8.86617
▁noise	-8.86776
▁otherwise	-8.87071
▁nonlinear	-8.87274
▁objective	-8.87398
▁connected	-8.87675
▁significantly	-8.87743
▁determined	-8.87981
▁overall	-8.88119
▁factors	-8.8814
▁decomposition	-8.88165
▁makes	-8.88197
▁exact	-8.88547
▁few	-8.88646
▁bit	-8.88646
▁allocation	-8.8876
▁role	-8.88809
▁client	-8.88857
▁transformation	-8.89078
▁mesh	-8.89112
▁unique	-8.89396
▁functional	-8.89403
▁represented	-8.8948
▁partition	-8.89844
▁numbers	-8.90139
▁easy	-8.90279
▁lines	-8.90336
▁practical	-8.90466
▁running	-8.90474
▁schedule	-8.90511
▁correct	-8.90666
▁fi	-8.90687
▁finding	-8.90729
▁pre	-8.90866
▁takes	-8.90904
▁evaluate	-8.90976
,"	-8.91006
▁together	-8.91098
▁tools	-8.91377
▁increases	-8.9163
line	-8.91665
▁increasing	-8.91729
▁usually	-8.9178
▁designed	-8.92183
▁critical	-8.92317
▁generalized	-8.92354
▁side	-8.92449
▁accurate	-8.92472
▁integer	-8.92595
▁game	-8.92753
▁discuss	-8.93046
▁start	-8.93056
▁assignment	-8.93082
▁actual	-8.93176
▁engineering	-8.93267
▁storage	-8.93441
▁taken	-8.93587
▁feedback	-8.93643
▁min	-8.93793
▁machines	-8.93825
▁5.	-8.94471
▁sparse	-8.94501
▁impact	-8.94638
▁shape	-8.94719
▁observed	-8.94872
▁robust	-8.9491
▁/	-8.95055
▁instruction	-8.95375
▁achieved	-8.95441
▁queue	-8.95525
▁extension	-8.95576
▁>	-8.95972
▁exactly	-8.96047
▁represents	-8.96112
▁improved	-8.96135
▁compare	-8.96207
▁similarity	-8.96384
▁exist	-8.9639
▁failure	-8.96487
▁focus	-8.96489
▁having	-8.96548
▁simply	-8.96639
▁choose	-8.96832
▁limited	-8.96871
▁needs	-8.96909
▁journal	-8.96974
▁characteristics	-8.97063
▁becomes	-8.97145
▁again	-8.9715
▁until	-8.97167
▁abstract	-8.97316
▁relations	-8.97326
▁ordering	-8.97549
▁databases	-8.97582
▁links	-8.97601
▁modified	-8.98301
▁np	-8.98798
▁cells	-8.9887
▁convex	-8.98975
1,	-8.99073
▁ieee	-8.99333
▁applying	-8.99611
▁simulations	-8.99615
▁formal	-8.99711
▁max	-8.99838
▁minimal	-9.00122
▁combination	-9.00212
▁contain	-9.00271
▁regions	-9.00355
▁stage	-9.0045
▁difficult	-9.00539
▁statistical	-9.00634
▁idea	-9.00753
▁un	-9.00828
▁operators	-9.00836
▁issue	-9.01017
▁sense	-9.01093
▁recent	-9.01156
▁window	-9.01196
▁buffer	-9.01267
▁transmission	-9.0131
▁final	-9.01532
▁rank	-9.01536
▁studied	-9.01684
▁experiment	-9.01793
as	-9.01917
▁depends	-9.01955
▁already	-9.01972
▁@	-9.02101
▁identify	-9.0215
▁improvement	-9.02207
▁free	-9.02427
▁traditional	-9.02459
▁threshold	-9.02526
▁say	-9.02608
▁account	-9.02879
free	-9.03063
▁symmetric	-9.03098
|	-9.03263
▁physical	-9.03313
▁iterations	-9.03577
▁attributes	-9.03714
▁sequential	-9.03778
▁root	-9.03802
▁become	-9.03812
▁across	-9.03816
▁practice	-9.03851
▁setting	-9.03869
▁develop	-9.03876
▁inter	-9.03935
▁close	-9.04016
▁actions	-9.04046
▁density	-9.04047
▁regular	-9.04208
▁co	-9.04392
▁consistent	-9.0472
on	-9.04788
▁interesting	-9.04895
▁science	-9.05042
▁third	-9.05114
▁seen	-9.05273
▁layer	-9.05307
▁internet	-9.05312
▁packets	-9.05567
▁groups	-9.05912
▁occur	-9.06068
▁back	-9.06264
▁proposition	-9.06292
▁visual	-9.06298
▁pairs	-9.06318
▁register	-9.06408
);	-9.06991
▁literature	-9.0702
▁against	-9.07053
▁assigned	-9.07644
▁circuit	-9.07675
▁instances	-9.0774
▁theoretical	-9.07766
▁weights	-9.07801
▁frame	-9.07809
▁20	-9.07847
▁automatic	-9.07911
▁depth	-9.0798
▁making	-9.08177
▁integration	-9.08479
▁di	-9.08505
▁closed	-9.08508
▁interest	-9.08642
!	-9.08726
▁satisfy	-9.08749
▁compiler	-9.08802
▁mining	-9.08809
▁stability	-9.0905
▁effectiveness	-9.09111
▁costs	-9.09153
▁hold	-9.09221
log	-9.09371
▁period	-9.09428
▁online	-9.09521
▁disk	-9.09554
▁100	-9.09642
▁alternative	-9.09836
▁bits	-9.09951
▁mode	-9.09956
▁semantic	-9.10021
▁containing	-9.10054
▁branch	-9.10086
▁social	-9.10226
▁clearly	-9.10236
▁sufficient	-9.10538
-1	-9.1064
▁ae	-9.10691
▁mechanisms	-9.10711
▁underlying	-9.10718
▁distributions	-9.10863
es	-9.10964
▁dimension	-9.11048
▁boolean	-9.11247
▁stable	-9.11322
up	-9.11726
▁know	-9.11758
▁describes	-9.11911
▁purpose	-9.11958
▁11	-9.12008
▁uniform	-9.12261
▁).	-9.12304
▁starting	-9.12333
▁advantage	-9.12443
▁methodology	-9.12538
▁similarly	-9.12543
▁notion	-9.12565
▁cross	-9.12602
▁heuristic	-9.12865
▁far	-9.129
▁digital	-9.13099
▁combined	-9.13576
▁1:	-9.13591
▁itself	-9.1361
▁evaluated	-9.13813
▁explicit	-9.14018
▁relationship	-9.1415
▁greater	-9.14345
5	-9.14439
▁parts	-9.14481
▁constructed	-9.1449
▁enough	-9.1453
▁subject	-9.14555
▁negative	-9.14607
▁configuration	-9.14699
▁requests	-9.14929
▁return	-9.14934
▁check	-9.1497
▁corresponds	-9.15185
▁sizes	-9.15228
▁fully	-9.15261
▁estimates	-9.15353
▁presence	-9.15548
▁false	-9.15722
▁limit	-9.1582
▁indicate	-9.15877
▁environments	-9.15986
▁reasoning	-9.15995
▁occurs	-9.16091
▁feasible	-9.16298
▁highly	-9.16548
▁12	-9.16553
▁specified	-9.16748
▁kernel	-9.1679
▁string	-9.16876
▁satisfies	-9.17052
▁help	-9.17067
▁capacity	-9.17278
▁interactive	-9.174
▁probabilistic	-9.17424
for	-9.17522
▁tests	-9.17546
▁precision	-9.17589
▁1)	-9.17594
▁produce	-9.17661
▁checking	-9.17999
▁curve	-9.18045
▁recall	-9.18206
▁chain	-9.18337
▁hybrid	-9.18517
▁strong	-9.18626
▁too	-9.18797
▁question	-9.18882
))	-9.18935
▁solved	-9.19005
▁assumptions	-9.1906
▁major	-9.19168
▁concepts	-9.19427
▁argument	-9.19432
▁rst	-9.19513
▁recently	-9.19521
▁internal	-9.19555
▁clusters	-9.19576
▁written	-9.19641
▁computations	-9.19863
ii	-9.20073
▁consistency	-9.20076
▁includes	-9.20517
▁∈	-9.2052
▁details	-9.20554
▁instructions	-9.20592
tr	-9.20702
▁worst	-9.20798
▁world	-9.20852
▁had	-9.21026
oriented	-9.21311
▁classical	-9.21543
▁units	-9.21629
▁project	-9.21785
▁weighted	-9.21786
▁:=	-9.21864
▁wide	-9.21951
▁color	-9.21967
▁series	-9.2209
▁attribute	-9.22217
▁volume	-9.22223
▁later	-9.22618
▁place	-9.23023
▁sources	-9.23056
▁latency	-9.23068
▁face	-9.23206
▁short	-9.23251
▁assumed	-9.23411
▁typically	-9.23444
▁formulation	-9.2369
▁prior	-9.23814
▁dependence	-9.2387
▁leads	-9.23871
▁observe	-9.23912
▁criterion	-9.24085
▁add	-9.24228
▁desired	-9.24248
▁suitable	-9.24266
▁site	-9.24387
▁iterative	-9.24395
▁upon	-9.24427
▁contrast	-9.24498
▁rates	-9.2451
▁2:	-9.24511
▁measured	-9.24523
▁filter	-9.24545
▁denotes	-9.24758
▁automatically	-9.25211
▁transfer	-9.25227
▁criteria	-9.25237
▁almost	-9.25301
▁embedded	-9.25327
▁select	-9.2547
omega	-9.25501
▁supported	-9.25566
▁entries	-9.25755
▁inequality	-9.25785
▁lead	-9.25819
▁who	-9.25837
▁derive	-9.25882
▁hypothesis	-9.25938
▁hierarchical	-9.26009
▁verification	-9.26101
▁6.	-9.26125
▁stochastic	-9.26174
▁tested	-9.2619
▁likely	-9.26234
▁resolution	-9.26418
▁received	-9.26577
▁denoted	-9.26663
▁reported	-9.26768
▁added	-9.2694
▁expressions	-9.2696
▁observation	-9.271
▁create	-9.27268
sigma	-9.27492
▁name	-9.27586
▁sampling	-9.27642
▁conventional	-9.27651
▁proved	-9.27887
▁connection	-9.27918
▁efficiently	-9.27938
▁stored	-9.28006
▁analyze	-9.2801
▁ability	-9.28128
▁transform	-9.28344
▁combining	-9.28392
▁plane	-9.2854
▁metric	-9.28601
▁induction	-9.28706
▁),	-9.28748
▁synchronization	-9.28801
▁integrated	-9.28804
▁match	-9.2886
▁segmentation	-9.2889
▁situation	-9.29057
point	-9.29151
▁entire	-9.29252
▁regression	-9.29307
▁predicate	-9.29396
▁yields	-9.29401
▁maximal	-9.29475
▁primary	-9.29561
▁whole	-9.296
▁correlation	-9.29619
▁deterministic	-9.29765
▁semi	-9.29984
▁he	-9.29997
▁ffi	-9.30041
▁domains	-9.30084
▁store	-9.30175
▁illustrate	-9.30262
▁entry	-9.30299
▁topic	-9.30411
▁course	-9.30516
▁items	-9.30692
▁topology	-9.30714
▁taking	-9.30842
▁(3)	-9.30923
▁projection	-9.31168
▁works	-9.31209
▁module	-9.31262
▁trace	-9.31278
▁implement	-9.31771
▁aspects	-9.31968
▁ones	-9.32107
▁3.1	-9.32211
▁distinct	-9.3224
▁ensure	-9.32248
▁ranking	-9.32265
an	-9.32457
▁considering	-9.32508
▁valid	-9.32545
▁performs	-9.3256
▁partitioning	-9.32723
▁executed	-9.32878
▁geometric	-9.3307
▁clear	-9.33214
▁previously	-9.33292
▁quite	-9.33323
▁codes	-9.33327
▁relatively	-9.33397
▁investigate	-9.33439
▁notation	-9.3356
▁estimated	-9.33869
▁appear	-9.33924
▁logical	-9.33976
▁sent	-9.34034
▁transaction	-9.3405
▁discussion	-9.3405
▁extend	-9.34093
▁generating	-9.34316
▁statement	-9.34347
▁nature	-9.3439
▁inputs	-9.34473
▁quadratic	-9.34547
▁providing	-9.34549
▁avoid	-9.34683
▁translation	-9.34762
▁report	-9.34805
▁factorization	-9.34814
▁structural	-9.34896
▁dynamics	-9.35039
▁though	-9.35061
▁throughput	-9.3529
▁sharing	-9.35325
▁clock	-9.35414
▁cycles	-9.35465
▁actually	-9.35523
▁remaining	-9.35545
▁fl	-9.35567
▁family	-9.35659
▁generally	-9.35711
▁channels	-9.35721
▁stream	-9.3577
▁namely	-9.35819
▁especially	-9.35828
▁columns	-9.35831
▁hierarchy	-9.35895
▁priority	-9.36108
▁devices	-9.36181
▁simulated	-9.36288
▁candidate	-9.36328
▁library	-9.36337
▁currently	-9.36489
▁net	-9.36525
▁empty	-9.36552
▁etc	-9.36615
▁refer	-9.36704
▁indeed	-9.36712
▁hard	-9.3682
▁generic	-9.36907
▁job	-9.36917
▁interactions	-9.37059
▁send	-9.37061
▁2-	-9.37114
▁own	-9.37187
▁core	-9.37237
▁recursive	-9.3724
▁reason	-9.37297
▁building	-9.37328
▁understanding	-9.37562
▁article	-9.37568
▁involved	-9.37628
▁utility	-9.37811
▁15	-9.37914
▁existence	-9.37917
▁created	-9.38053
6	-9.3814
▁exponential	-9.38206
▁circuits	-9.38339
▁4.1	-9.38401
▁near	-9.3872
▁increased	-9.38764
▁yet	-9.38805
▁infinite	-9.38813
▁weak	-9.3884
▁ad	-9.38996
▁joint	-9.39102
▁interpretation	-9.39141
▁architectures	-9.39183
▁earlier	-9.39201
▁ii	-9.39225
▁controller	-9.39261
▁latter	-9.39412
▁detailed	-9.39441
▁coefficients	-9.39501
▁ip	-9.39603
▁propagation	-9.39802
▁empirical	-9.39813
▁dependent	-9.39843
▁turn	-9.40104
▁conditional	-9.40168
▁move	-9.40171
▁inverse	-9.40419
▁forward	-9.40435
▁extraction	-9.40615
▁ways	-9.40628
▁gaussian	-9.4074
▁relationships	-9.4079
▁differences	-9.40858
▁reducing	-9.40934
re	-9.41144
-2	-9.41241
▁representing	-9.41259
▁markov	-9.41398
scale	-9.4142
▁robot	-9.41533
▁reliability	-9.4154
by	-9.41568
▁produced	-9.4166
▁broadcast	-9.41672
▁minimize	-9.41685
▁university	-9.41685
▁requirement	-9.4178
▁fields	-9.41975
▁updates	-9.42077
▁around	-9.42172
▁handle	-9.4224
▁equilibrium	-9.42369
▁curves	-9.42386
▁multicast	-9.42407
▁servers	-9.42474
▁variety	-9.42512
▁segment	-9.42648
▁remains	-9.4267
▁mathematical	-9.4271
▁tracking	-9.42724
▁calls	-9.42754
▁bayesian	-9.4284
▁differential	-9.42943
pi	-9.42995
▁down	-9.43047
▁corollary	-9.43094
▁external	-9.43145
▁activity	-9.43206
▁influence	-9.43255
▁indicates	-9.433
▁java	-9.43396
▁towards	-9.43514
▁item	-9.43516
▁norm	-9.43636
▁gain	-9.43666
▁manner	-9.43752
▁policies	-9.44045
▁measurements	-9.44201
▁authors	-9.44245
▁label	-9.44318
▁except	-9.44377
▁invariant	-9.44385
phi	-9.44415
2,	-9.44429
▁dimensions	-9.44436
▁references	-9.4445
▁reduces	-9.44488
▁compression	-9.44562
▁showed	-9.44671
▁detect	-9.4494
▁intervals	-9.45047
▁implicit	-9.45171
▁whereas	-9.45446
▁relevance	-9.4549
▁transformations	-9.45505
▁restricted	-9.45615
▁generalization	-9.45675
▁body	-9.45796
▁typical	-9.45917
▁evolution	-9.46047
▁scenario	-9.46057
▁probabilities	-9.46124
▁faster	-9.46239
able	-9.46333
▁specifically	-9.46513
▁tcp	-9.46724
▁importance	-9.46727
▁public	-9.46777
▁faults	-9.46823
▁built	-9.46917
▁answer	-9.47087
▁gradient	-9.47272
▁3.2	-9.47335
▁benchmark	-9.47423
▁his	-9.47482
▁detail	-9.47509
▁identified	-9.47523
▁multimedia	-9.47565
▁2.1	-9.47654
▁depending	-9.47676
▁cut	-9.47867
tree	-9.47886
▁operating	-9.47982
▁round	-9.48125
▁did	-9.48141
▁concurrent	-9.48189
▁investigated	-9.48238
▁price	-9.48319
▁planning	-9.48442
▁synthesis	-9.48443
at	-9.48518
▁conclude	-9.48685
▁inference	-9.48728
▁explicitly	-9.48895
▁satisfied	-9.48903
▁variation	-9.49129
▁runs	-9.49522
▁attention	-9.49548
▁notice	-9.49667
▁monitoring	-9.4993
▁receiver	-9.5008
▁forms	-9.5025
▁classifier	-9.50371
▁symposium	-9.50458
▁demand	-9.50552
▁measurement	-9.50574
ness	-9.50698
if	-9.50831
▁experience	-9.5084
▁genetic	-9.50845
▁appears	-9.50913
▁dual	-9.50946
▁allowed	-9.50997
▁sites	-9.51039
▁identical	-9.51066
▁identification	-9.51088
▁little	-9.51126
▁expressed	-9.51343
▁satisfying	-9.51463
▁maps	-9.51509
▁representations	-9.5155
▁five	-9.51581
▁history	-9.51602
▁arguments	-9.51602
▁kind	-9.51666
▁areas	-9.51677
▁diagonal	-9.51774
▁signals	-9.51867
▁coverage	-9.51965
▁others	-9.51972
▁meta	-9.51974
}	-9.52006
▁algebraic	-9.52017
▁adding	-9.52052
▁7.	-9.52125
▁samples	-9.52169
▁destination	-9.52201
▁deal	-9.52461
▁depend	-9.525
▁route	-9.52724
▁remote	-9.52736
▁definitions	-9.52835
▁employed	-9.52973
▁build	-9.53083
end	-9.53114
▁correspond	-9.53122
▁games	-9.53142
▁variance	-9.5333
▁fundamental	-9.5337
▁views	-9.5338
▁constrained	-9.5354
▁expansion	-9.53572
▁rest	-9.53639
▁quantum	-9.53644
▁procedures	-9.53793
▁2005	-9.53814
▁want	-9.54063
▁off	-9.54152
▁assuming	-9.54175
▁transitions	-9.54196
▁timing	-9.54269
▁calculated	-9.54629
like	-9.54735
▁moving	-9.54745
▁14	-9.54777
▁equivalence	-9.54842
▁automata	-9.54879
▁working	-9.55016
▁carried	-9.55112
▁post	-9.55191
▁smallest	-9.55202
▁loops	-9.55266
▁graphics	-9.55371
▁3:	-9.5544
▁metrics	-9.55467
▁recovery	-9.55499
▁statistics	-9.55776
▁mixed	-9.55782
▁residual	-9.55893
▁consumption	-9.56101
▁longer	-9.56142
▁unknown	-9.56219
set	-9.56224
▁spaces	-9.56247
▁june	-9.56281
▁device	-9.56416
▁engine	-9.56476
▁join	-9.56493
▁included	-9.56496
▁comparing	-9.56517
▁market	-9.56549
▁demonstrated	-9.56603
▁lp	-9.56723
▁cause	-9.56754
▁copy	-9.56772
▁production	-9.56801
▁technologies	-9.56809
ff	-9.56849
▁conclusions	-9.57097
▁determining	-9.57144
▁flows	-9.57175
▁50	-9.5727
▁simultaneously	-9.57323
▁review	-9.57338
▁profile	-9.57432
▁6=	-9.57511
▁formulas	-9.57555
▁center	-9.57793
▁shall	-9.57861
▁specifications	-9.57907
▁early	-9.58071
▁eigenvalues	-9.58325
▁completely	-9.58393
▁2004	-9.58436
▁0,	-9.5849
▁consequently	-9.58581
▁bi	-9.5863
▁involves	-9.58758
▁analyzed	-9.59087
▁scaling	-9.59111
&	-9.59186
▁guarantee	-9.59266
▁improving	-9.59304
▁intermediate	-9.59304
▁segments	-9.59402
which	-9.59433
▁largest	-9.59493
▁id	-9.59558
▁camera	-9.59561
▁jobs	-9.59632
▁separate	-9.59672
▁16	-9.59686
▁integral	-9.59813
].	-9.59869
▁go	-9.59984
▁reliable	-9.59992
▁artificial	-9.60012
▁years	-9.60014
▁square	-9.60089
▁count	-9.60093
▁evidence	-9.603
▁capture	-9.60389
▁share	-9.60399
▁3,	-9.60567
▁dierent	-9.60577
▁locations	-9.60651
▁coding	-9.60686
▁lists	-9.60787
▁encoding	-9.60864
▁students	-9.60865
▁verify	-9.60948
state	-9.60961
▁texture	-9.61086
▁media	-9.61121
▁tables	-9.61158
▁orthogonal	-9.61312
▁lattice	-9.61345
▁minimization	-9.61381
▁4.2	-9.61519
▁effectively	-9.61527
▁split	-9.61609
▁visualization	-9.61618
▁half	-9.61798
▁observations	-9.61893
▁sensors	-9.61899
▁proofs	-9.61915
▁else	-9.61916
▁reconstruction	-9.61962
it	-9.61998
▁symbolic	-9.61999
▁labeled	-9.62298
▁surfaces	-9.62374
▁(1	-9.62385
▁rows	-9.62407
▁flexible	-9.62436
▁interfaces	-9.62551
▁principle	-9.6259
is	-9.6263
▁begin	-9.62794
▁allowing	-9.62844
▁july	-9.62883
space	-9.62914
▁cpu	-9.62965
case	-9.63035
▁claim	-9.63046
▁vision	-9.63058
▁usage	-9.63248
▁straightforward	-9.63323
▁exchange	-9.63328
▁products	-9.63393
▁scenarios	-9.63403
▁interior	-9.6356
▁shortest	-9.63728
▁ordered	-9.63747
.1,	-9.63758
▁signature	-9.64014
▁people	-9.64039
▁optical	-9.64065
▁4,	-9.6407
▁geometry	-9.64083
▁automated	-9.64099
▁light	-9.641
▁illustrated	-9.64121
▁business	-9.64165
▁spectral	-9.64366
▁produces	-9.64368
▁performing	-9.64423
▁examine	-9.64462
▁box	-9.64489
▁ir	-9.6452
▁2006	-9.64602
▁receive	-9.64631
▁sections	-9.64656
▁extensions	-9.64709
▁behaviour	-9.64764
▁advantages	-9.64909
▁central	-9.65
▁head	-9.65042
▁composition	-9.65083
{	-9.65109
▁intersection	-9.65112
▁host	-9.652
▁positions	-9.65296
▁directed	-9.6543
▁directions	-9.6547
▁analytical	-9.65609
known	-9.65657
▁fraction	-9.65729
▁randomly	-9.65777
▁versions	-9.65987
▁approximately	-9.65996
▁background	-9.66023
▁hidden	-9.66035
▁never	-9.66045
▁13	-9.66107
▁plan	-9.66297
▁contained	-9.66323
▁correctness	-9.66325
▁mentioned	-9.66364
▁established	-9.66524
▁generates	-9.66623
▁su	-9.66666
▁abstraction	-9.66719
▁particularly	-9.66761
▁delivery	-9.66783
▁2.2	-9.66789
▁discovery	-9.66876
▁technical	-9.66934
▁copies	-9.67138
▁specify	-9.67146
▁qos	-9.6715
▁induced	-9.67176
ic	-9.67416
▁extracted	-9.67531
▁proper	-9.67632
▁utilization	-9.67647
▁immediately	-9.67711
▁suggest	-9.67942
▁electronic	-9.6797
▁follow	-9.6802
▁inside	-9.68054
▁strongly	-9.68106
▁precisely	-9.68134
▁th	-9.68134
▁locality	-9.68162
▁parent	-9.68258
▁clients	-9.68291
▁summary	-9.68398
▁wavelet	-9.68492
▁arrival	-9.68493
▁decisions	-9.68529
▁slightly	-9.68543
▁decrease	-9.68649
▁trust	-9.68744
▁display	-9.68932
.2,	-9.68952
▁widely	-9.6909
▁relational	-9.69136
▁survey	-9.69169
▁category	-9.69201
▁returns	-9.69284
▁yield	-9.69365
en	-9.6951
▁enables	-9.69549
type	-9.69551
▁contribution	-9.69675
▁consisting	-9.6969
▁look	-9.69743
▁effort	-9.69872
▁extra	-9.69922
▁cover	-9.69992
▁association	-9.70011
▁adjacent	-9.70053
▁reasonable	-9.70158
▁entropy	-9.70198
▁likelihood	-9.70209
▁essential	-9.70221
▁conducted	-9.70252
▁player	-9.70381
▁pseudo	-9.7042
▁evaluating	-9.7053
▁computes	-9.70617
▁computers	-9.7064
▁essentially	-9.70744
▁modelling	-9.70819
▁annual	-9.70865
st	-9.71008
▁establish	-9.71068
▁labels	-9.71143
▁structured	-9.7117
1)	-9.71292
▁supports	-9.71388
▁st	-9.71417
▁registers	-9.71421
▁pr	-9.71447
7	-9.71526
one	-9.71527
▁singular	-9.71584
▁2007	-9.71619
▁smooth	-9.71713
▁periodic	-9.71721
min	-9.71863
▁competitive	-9.7188
▁subsets	-9.71953
▁force	-9.7202
▁algebra	-9.72021
▁dynamically	-9.72108
▁identity	-9.72172
▁addresses	-9.72256
▁whenever	-9.72373
▁scene	-9.72485
▁speech	-9.72516
▁frames	-9.72532
▁detected	-9.72553
▁successful	-9.72591
▁situations	-9.7263
▁refinement	-9.72633
▁stack	-9.72765
▁activities	-9.73003
▁implementations	-9.73171
▁combinatorial	-9.73446
ers	-9.73473
with	-9.73475
▁past	-9.73534
bit	-9.73591
▁heuristics	-9.73607
▁aggregation	-9.73645
▁heterogeneous	-9.73742
▁involving	-9.7394
▁modules	-9.7414
▁maintain	-9.74203
ctr	-9.74409
oe	-9.74447
▁filtering	-9.74454
▁dataset	-9.74562
▁benefit	-9.74582
▁affect	-9.74698
▁arc	-9.74792
ity	-9.74885
linear	-9.74964
▁safety	-9.74989
▁risk	-9.75081
▁developing	-9.75117
▁polynomials	-9.75124
▁dened	-9.75185
▁seconds	-9.75295
▁prototype	-9.75526
▁congestion	-9.7564
▁3-	-9.75868
▁failures	-9.75875
▁record	-9.75939
▁track	-9.75955
lt	-9.76056
▁miss	-9.76074
▁secure	-9.76143
▁calculation	-9.76339
▁relaxation	-9.76392
▁proposes	-9.76411
▁inner	-9.76571
▁scalable	-9.76603
▁confidence	-9.76604
▁union	-9.76605
▁customer	-9.76611
▁uncertainty	-9.76705
▁categories	-9.76705
out	-9.76816
):	-9.7692
▁execute	-9.76975
cs	-9.77008
▁uniformly	-9.77053
▁minimizing	-9.77114
▁aim	-9.77147
▁compact	-9.77167
▁intelligence	-9.77266
▁onto	-9.77287
*	-9.77294
▁outputs	-9.7731
▁modeled	-9.77359
ms	-9.775
▁neighbor	-9.77604
▁denition	-9.77676
▁formally	-9.77763
▁2002	-9.77861
▁]	-9.77885
▁play	-9.78015
▁success	-9.78036
▁neighbors	-9.78232
▁files	-9.78269
agent	-9.78376
▁atomic	-9.78403
▁interested	-9.78414
▁removed	-9.78505
▁permutation	-9.78506
▁scan	-9.7852
▁tuple	-9.78566
▁variations	-9.7868
▁incremental	-9.78766
▁controlled	-9.7878
▁bottom	-9.78819
▁22	-9.78871
▁coordinates	-9.7893
▁community	-9.78961
▁normalized	-9.78998
▁remark	-9.79091
▁ground	-9.79128
▁leaf	-9.79187
▁conclusion	-9.7929
▁understand	-9.79292
▁updated	-9.79362
▁connections	-9.79366
▁statements	-9.79372
▁indexing	-9.7938
▁possibility	-9.79442
▁vertical	-9.79528
▁datasets	-9.79578
▁runtime	-9.79587
▁conflict	-9.79726
▁guarantees	-9.7992
▁sender	-9.8002
▁pixel	-9.80086
▁4:	-9.80152
▁independently	-9.80156
▁predict	-9.80234
▁robustness	-9.80248
▁members	-9.80439
id	-9.80467
://	-9.80502
▁classifiers	-9.80507
▁5.1	-9.80571
complete	-9.8062
specific	-9.80675
▁switch	-9.80681
▁correctly	-9.80708
▁layout	-9.80774
▁arithmetic	-9.80783
▁velocity	-9.8092
▁parallelism	-9.80984
all	-9.81085
▁lock	-9.81091
dependent	-9.81191
▁diagram	-9.81272
▁necessarily	-9.81292
▁predicates	-9.81363
▁benefits	-9.81426
▁changing	-9.81569
▁score	-9.81582
▁showing	-9.81583
▁guaranteed	-9.81713
▁sensitivity	-9.81721
.3,	-9.81799
off	-9.81825
▁perspective	-9.819
▁constructing	-9.81933
▁asymptotic	-9.81989
▁varying	-9.82027
▁ideal	-9.82069
▁gate	-9.8208
▁equality	-9.82152
▁http	-9.82157
▁locally	-9.82349
▁precise	-9.82451
▁reuse	-9.82484
2)	-9.82496
▁adaptation	-9.82553
▁simplicity	-9.8258
valued	-9.82612
▁li	-9.82622
▁expensive	-9.82635
▁leading	-9.82651
▁session	-9.8266
▁optimized	-9.82665
▁successfully	-9.82821
ization	-9.82822
▁organization	-9.82921
▁improves	-9.82922
▁automaton	-9.8296
▁coefficient	-9.83099
▁binding	-9.83103
▁followed	-9.83212
▁predicted	-9.83318
▁population	-9.83423
▁termination	-9.83454
▁explore	-9.83492
▁children	-9.83506
▁delays	-9.83558
▁seems	-9.83567
▁streams	-9.83629
▁clause	-9.83645
▁november	-9.83779
▁2000	-9.83799
we	-9.838
▁communications	-9.83813
▁players	-9.83938
▁handling	-9.84004
▁*	-9.84088
▁keep	-9.84097
▁elimination	-9.84107
▁enable	-9.84184
▁percentage	-9.84193
▁partially	-9.84245
▁consequence	-9.84358
▁3.3	-9.84437
▁usa	-9.84505
▁trade	-9.84516
▁calculate	-9.84536
▁8.	-9.84541
▁choosing	-9.84545
▁applicable	-9.84547
▁believe	-9.84566
▁popular	-9.84595
▁frequent	-9.84635
▁march	-9.84657
▁six	-9.84663
characterization	-9.84668
▁strictly	-9.84731
▁examined	-9.84751
▁selecting	-9.84837
▁}	-9.84872
▁interpolation	-9.84877
▁intelligent	-9.8491
de	-9.84945
▁indices	-9.84993
],	-9.8508
▁replaced	-9.85148
▁caused	-9.85206
▁analyses	-9.8527
▁researchers	-9.85395
un	-9.85442
▁super	-9.85443
▁implementing	-9.85499
▁symbol	-9.85521
@	-9.85708
▁hoc	-9.85719
▁overview	-9.85742
▁fluid	-9.85753
▁ij	-9.85789
driven	-9.85835
▁participants	-9.85837
▁strings	-9.8585
▁receives	-9.85959
▁approximations	-9.86006
▁personal	-9.86223
−	-9.86252
▁topics	-9.86394
▁attempt	-9.86411
▁completion	-9.86425
▁initially	-9.86498
way	-9.86508
▁subsequent	-9.86566
▁moves	-9.86643
▁micro	-9.86777
▁[1]	-9.8685
▁asynchronous	-9.86912
▁designs	-9.86982
▁collaborative	-9.87035
▁names	-9.87148
▁coordinate	-9.87154
▁token	-9.87155
▁arrays	-9.8722
▁learn	-9.87253
▁highest	-9.87527
▁questions	-9.87573
▁exploit	-9.87592
▁reach	-9.87798
▁pp	-9.87811
▁partitions	-9.87865
▁disjoint	-9.88025
max	-9.88046
▁neighborhood	-9.88077
▁searching	-9.88136
▁redundant	-9.88198
▁accesses	-9.88265
▁principles	-9.88291
▁improvements	-9.8839
▁validation	-9.88391
▁inequalities	-9.88479
▁capabilities	-9.88537
▁adversary	-9.88594
▁counter	-9.88632
▁eigenvalue	-9.88652
▁achieves	-9.88689
8	-9.88733
▁expect	-9.88748
▁january	-9.88766
▁sends	-9.88793
▁limitations	-9.88831
▁fit	-9.88848
▁rendering	-9.88947
▁attacks	-9.89038
▁boundaries	-9.89057
▁derivation	-9.89059
▁greedy	-9.89114
▁modification	-9.89347
▁reasons	-9.8952
▁sufficiently	-9.89565
▁configurations	-9.8957
▁prefix	-9.89592
▁throughout	-9.89622
▁beyond	-9.89691
▁pass	-9.89694
▁shift	-9.89721
▁suggested	-9.89786
value	-9.89818
▁interference	-9.89932
▁newton	-9.89951
▁constants	-9.89961
cient	-9.89975
▁defining	-9.89981
▁default	-9.90049
▁divided	-9.90053
▁[2]	-9.90097
▁mobility	-9.90098
▁duration	-9.90227
▁pixels	-9.90264
▁realistic	-9.9045
▁bias	-9.90453
▁character	-9.90454
▁1-	-9.90466
▁5,	-9.90526
▁auction	-9.9059
▁fail	-9.90596
▁supporting	-9.90797
▁suggests	-9.90804
▁occurrence	-9.90815
▁temperature	-9.9087
▁figures	-9.90888
com	-9.90891
▁[3]	-9.91008
▁presentation	-9.91085
▁child	-9.91097
▁aspect	-9.91136
▁smoothing	-9.9126
▁possibly	-9.91342
▁splitting	-9.91406
▁xml	-9.91436
▁advanced	-9.91458
▁determines	-9.91553
▁findings	-9.91566
▁dependencies	-9.91625
▁bus	-9.91657
▁subspace	-9.91726
▁stages	-9.91789
▁powerful	-9.91818
▁growth	-9.91871
▁starts	-9.92038
▁switching	-9.92086
▁router	-9.92175
▁primitive	-9.92176
▁designing	-9.92213
▁absolute	-9.92255
▁overlap	-9.92363
▁obvious	-9.92375
▁double	-9.92417
▁collected	-9.9247
▁attack	-9.92501
▁symmetry	-9.92579
▁balance	-9.92586
▁implications	-9.92599
▁predictor	-9.9269
▁focused	-9.92715
▁caching	-9.92815
▁spectrum	-9.92935
▁kinds	-9.92997
▁%	-9.93089
▁quasi	-9.93127
▁why	-9.9319
▁goals	-9.93213
class	-9.93216
▁entities	-9.93294
▁[5]	-9.93378
▁randomized	-9.93437
▁simulator	-9.93439
▁schema	-9.93661
▁orientation	-9.93684
▁agreement	-9.93743
▁identifying	-9.93816
▁rational	-9.9394
=1	-9.94009
▁beginning	-9.94019
▁pure	-9.94058
▁lack	-9.94106
▁≤	-9.94142
▁autonomous	-9.9418
▁scientific	-9.94201
>	-9.94222
▁platform	-9.94291
▁[4]	-9.9438
▁speedup	-9.94383
▁diffusion	-9.9439
▁characteristic	-9.94535
▁challenges	-9.9467
▁dependency	-9.94691
▁rotation	-9.94701
▁extensive	-9.94727
▁width	-9.94729
▁hash	-9.94776
▁syntax	-9.94799
▁viewed	-9.94878
▁referred	-9.94936
▁pressure	-9.9497
▁applies	-9.95054
▁records	-9.95252
optimal	-9.95414
▁treatment	-9.95459
▁magnitude	-9.95519
▁mainly	-9.95605
▁defines	-9.95636
▁october	-9.95731
step	-9.95732
▁movement	-9.9577
▁addressed	-9.95785
▁availability	-9.95793
▁benchmarks	-9.95891
▁gap	-9.95893
world	-9.95934
θ	-9.95934
▁put	-9.96207
▁thread	-9.96325
▁negotiation	-9.96327
▁privacy	-9.96348
▁offer	-9.96475
▁·	-9.96475
▁remain	-9.96506
hard	-9.9652
▁remove	-9.96529
▁evolutionary	-9.96605
▁template	-9.9664
▁particle	-9.96648
man	-9.96749
▁misses	-9.96861
▁proportional	-9.972
▁variant	-9.97209
▁material	-9.97225
▁supply	-9.97306
▁potentially	-9.97427
▁maintenance	-9.9747
▁medical	-9.97473
▁[6]	-9.97478
▁00	-9.97493
▁discretization	-9.97643
▁connectivity	-9.97663
▁bar	-9.97802
▁si	-9.97833
called	-9.9804
▁subjects	-9.98096
▁illustrates	-9.9811
▁ideas	-9.98146
▁expert	-9.98216
▁purposes	-9.98254
▁restriction	-9.98279
▁usual	-9.98459
▁4.3	-9.98536
ally	-9.98558
()	-9.98588
▁clauses	-9.98638
▁25	-9.98777
▁water	-9.98803
▁graphical	-9.9885
▁placed	-9.98869
▁200	-9.98957
▁principal	-9.98957
▁combine	-9.98966
cf	-9.98988
▁meaning	-9.98998
▁op	-9.9901
▁leaves	-9.99046
(1)	-9.9907
▁law	-9.99251
▁dimensional	-9.99337
▁strict	-9.99521
▁analyzing	-9.99626
▁health	-9.99779
▁fusion	-9.99831
▁workload	-9.99835
▁composed	-9.99905
▁comparisons	-9.99928
▁modes	-9.99934
▁α	-10.0003
▁private	-10.0012
▁[10]	-10.0017
∗	-10.0023
▁scalar	-10.0027
▁tolerance	-10.0034
▁pointer	-10.0036
▁iff	-10.0036
▁immediate	-10.0044
▁express	-10.0045
▁estimating	-10.0046
▁said	-10.0054
▁membership	-10.0059
▁vs	-10.0062
▁introduces	-10.0064
▁decreases	-10.0066
▁tion	-10.0068
▁opt	-10.0069
▁matches	-10.0075
▁17	-10.0087
▁[8]	-10.0098
▁replace	-10.0106
▁sometimes	-10.0113
hand	-10.0117
▁lie	-10.0118
▁infrastructure	-10.0118
▁old	-10.0124
▁member	-10.0125
▁predictions	-10.013
▁planar	-10.0131
term	-10.0135
▁unfortunately	-10.0144
▁nor	-10.0145
▁customers	-10.015
▁(4)	-10.0157
▁repeated	-10.0163
▁scalability	-10.0163
▁con	-10.0165
▁extract	-10.0168
▁september	-10.017
▁causes	-10.0172
▁unlike	-10.0176
▁offers	-10.018
▁combinations	-10.0182
▁capability	-10.0183
▁outside	-10.0186
▁processed	-10.019
▁care	-10.02
▁nested	-10.0218
▁consideration	-10.0221
▁peer	-10.0224
▁choices	-10.0226
▁voltage	-10.0243
▁21	-10.0247
▁dense	-10.0253
ability	-10.0266
▁assign	-10.0267
▁simpler	-10.0269
deterministic	-10.0274
▁5:	-10.0275
▁angle	-10.0285
▁paradigm	-10.0289
▁workshop	-10.029
no	-10.0295
▁phases	-10.0296
▁frequently	-10.0297
▁separation	-10.031
▁layers	-10.0313
▁desirable	-10.0328
▁detecting	-10.0329
▁null	-10.0339
▁perfect	-10.0346
▁operational	-10.0348
▁calculus	-10.0356
▁safe	-10.0373
▁ma	-10.0379
▁degrees	-10.0381
art	-10.0381
▁integers	-10.0384
rs	-10.0388
▁decide	-10.0404
▁progress	-10.0406
▁challenge	-10.0412
▁eq	-10.0413
▁monotone	-10.0415
▁[9]	-10.0423
▁stress	-10.0424
▁flexibility	-10.0428
▁synthetic	-10.0441
os	-10.0444
▁balancing	-10.0449
▁reached	-10.0459
fi	-10.0462
▁coupled	-10.0464
▁aggregate	-10.0472
▁transformed	-10.0475
▁cognitive	-10.0475
▁filters	-10.0479
▁proc	-10.0479
▁lu	-10.0507
▁stationary	-10.051
▁sensitive	-10.0512
▁reader	-10.0517
▁merging	-10.0523
▁crucial	-10.0527
▁5.2	-10.0546
▁appendix	-10.055
▁solver	-10.0552
ca	-10.0555
▁derivative	-10.0559
▁solid	-10.0564
▁sorting	-10.0567
▁functionality	-10.0573
▁quantitative	-10.0575
▁exp	-10.0579
▁transport	-10.0592
▁wave	-10.0594
▁commonly	-10.0608
▁enhanced	-10.0622
▁tuples	-10.0625
ac	-10.0635
▁symbols	-10.0641
▁soft	-10.0656
▁deviation	-10.0662
▁generality	-10.0666
▁descriptions	-10.0666
▁db	-10.0679
▁quickly	-10.068
▁30	-10.0684
▁[7]	-10.0684
▁capable	-10.0687
▁parametric	-10.07
▁radius	-10.0714
▁proving	-10.0714
▁lies	-10.0718
▁black	-10.0721
▁learned	-10.0725
=2	-10.0729
▁slow	-10.073
path	-10.0732
▁embedding	-10.0746
▁sign	-10.075
▁optimizations	-10.0755
▁sort	-10.0757
▁accepted	-10.0765
▁placement	-10.0767
▁1000	-10.0768
▁slot	-10.0773
▁prefetching	-10.0779
▁wait	-10.078
co	-10.0781
▁optimum	-10.0791
▁estimator	-10.0795
▁generator	-10.0795
gt	-10.0795
▁derivatives	-10.0802
▁author	-10.0804
▁organized	-10.0807
▁mark	-10.0813
▁40	-10.0816
▁complicated	-10.0819
▁marked	-10.082
▁fewer	-10.0831
▁characterized	-10.0837
▁meshes	-10.0843
▁master	-10.0845
▁regarding	-10.0849
▁mutual	-10.0851
▁commercial	-10.0851
flow	-10.0852
▁accurately	-10.0853
▁2.3	-10.0855
▁axis	-10.0857
▁none	-10.0858
▁merge	-10.0861
▁conceptual	-10.0862
▁mass	-10.0864
▁backward	-10.0865
▁format	-10.0877
▁synchronous	-10.0886
▁[11]	-10.0907
▁topological	-10.0908
▁explain	-10.0914
▁life	-10.0914
▁scope	-10.0916
▁fine	-10.0931
▁replication	-10.0936
▁pc	-10.0938
▁dene	-10.0942
▁ensures	-10.0958
▁describing	-10.0959
▁modify	-10.0962
▁outcome	-10.0971
▁fails	-10.0976
▁executing	-10.098
▁august	-10.0981
iii	-10.1002
▁release	-10.1002
▁stated	-10.1005
▁meet	-10.101
▁19	-10.1011
▁traces	-10.1016
ation	-10.1017
▁great	-10.1026
▁distances	-10.1027
▁correspondence	-10.1028
▁complement	-10.1049
▁home	-10.105
▁nd	-10.1054
▁(\	-10.1062
▁bid	-10.1064
▁•	-10.1066
▁settings	-10.1066
▁θ	-10.1085
▁creating	-10.1087
▁exploiting	-10.1092
▁involve	-10.1094
▁status	-10.1095
▁baseline	-10.1099
▁concrete	-10.1106
▁caches	-10.1107
▁scheduled	-10.1107
▁changed	-10.1107
▁verified	-10.1109
▁converges	-10.1109
▁promising	-10.1116
▁theorems	-10.1117
▁ow	-10.1124
▁extent	-10.1129
%	-10.1145
▁assessment	-10.1151
▁orders	-10.1151
▁regularization	-10.1161
▁formed	-10.1165
▁missing	-10.1172
▁incomplete	-10.1173
▁contact	-10.1174
▁sp	-10.1174
(2)	-10.1175
us	-10.119
▁versus	-10.1196
▁partitioned	-10.1199
▁[13]	-10.121
▁successive	-10.1215
▁invariants	-10.1218
▁located	-10.1223
▁belongs	-10.1223
▁portion	-10.1224
▁constructs	-10.1225
▁reverse	-10.1227
▁closely	-10.1231
▁contour	-10.1231
▁roles	-10.1263
▁ca	-10.1265
▁waiting	-10.1265
▁diagnosis	-10.1268
▁station	-10.127
▁reports	-10.1271
▁indicated	-10.1293
▁united	-10.1303
▁arise	-10.1304
▁comparable	-10.1305
▁affine	-10.1305
www	-10.1309
▁contents	-10.1313
▁fair	-10.1317
0;	-10.1318
▁maintaining	-10.1318
▁ˆ	-10.132
▁limits	-10.1332
▁optimality	-10.1334
▁euclidean	-10.1334
▁representative	-10.1342
▁eliminate	-10.1345
▁24	-10.1348
▁consecutive	-10.1354
defined	-10.1356
▁entity	-10.1356
▁sending	-10.1367
▁auctions	-10.137
▁medium	-10.1371
▁0.5	-10.1388
▁explained	-10.1389
▁live	-10.1389
▁triangular	-10.1393
▁returned	-10.1394
▁scheduler	-10.1402
▁fourier	-10.1409
▁secondary	-10.1413
▁preconditioner	-10.1416
▁outperforms	-10.143
▁try	-10.1432
this	-10.1435
▁computationally	-10.1442
▁april	-10.146
▁pruning	-10.1468
nd	-10.1477
▁keys	-10.148
▁maximize	-10.1488
▁eventually	-10.149
▁correction	-10.1491
▁schedules	-10.1498
▁tight	-10.1504
▁height	-10.1513
▁distinguish	-10.1518
▁`	-10.152
ary	-10.1523
▁tag	-10.1532
▁allocated	-10.1533
▁hypotheses	-10.1542
▁proxy	-10.1542
▁[14]	-10.1556
▁thank	-10.1561
▁adopted	-10.1567
size	-10.1569
▁oracle	-10.1573
▁universal	-10.1585
▁package	-10.1599
▁closure	-10.1611
▁characterize	-10.1614
▁extremely	-10.1619
▁triangle	-10.1626
less	-10.1631
▁linearly	-10.1634
▁replacement	-10.1634
aware	-10.1638
▁introducing	-10.164
▁person	-10.1641
▁mapped	-10.1642
▁updating	-10.1648
▁odd	-10.1649
▁obviously	-10.165
▁patients	-10.1665
▁neither	-10.1683
▁belong	-10.1694
▁mac	-10.1708
▁piecewise	-10.1709
▁car	-10.1709
▁intended	-10.1709
▁considers	-10.1715
▁differ	-10.172
▁trajectory	-10.1724
▁28	-10.1724
▁lim	-10.1727
▁localization	-10.1731
▁ontology	-10.1732
▁homogeneous	-10.1732
▁nearest	-10.174
▁ring	-10.1743
▁away	-10.1747
▁radio	-10.1749
▁style	-10.1758
▁plus	-10.1771
▁scores	-10.1783
▁transient	-10.1785
▁coloring	-10.1791
▁authentication	-10.1793
3,	-10.1797
▁penalty	-10.1801
▁fashion	-10.1808
▁lengths	-10.1819
.4,	-10.1822
▁themselves	-10.1831
▁concerning	-10.1834
▁9.	-10.1836
▁her	-10.1845
▁nite	-10.1846
▁national	-10.1849
▁requiring	-10.1855
▁poisson	-10.1855
▁[12]	-10.1862
▁simplified	-10.187
▁simulate	-10.1876
▁branches	-10.1881
▁frequencies	-10.1886
▁giving	-10.1886
▁optimizing	-10.1886
▁augmented	-10.1886
▁26	-10.1889
▁extends	-10.1898
▁preference	-10.19
▁investigation	-10.1904
▁guide	-10.1906
▁collections	-10.1911
▁squares	-10.1911
▁manager	-10.1917
▁restrictions	-10.1918
▁contexts	-10.1921
▁nearly	-10.1923
▁overcome	-10.1928
▁preliminary	-10.1932
▁origin	-10.1946
▁challenging	-10.1956
memory	-10.1959
▁coordination	-10.1964
▁cellular	-10.1972
▁svm	-10.1981
▁threads	-10.1982
▁imply	-10.1984
▁cyclic	-10.1997
▁concerned	-10.1997
▁mpi	-10.2001
le	-10.2009
▁employ	-10.2014
▁grant	-10.2016
▁simultaneous	-10.2016
sub	-10.2018
▁carry	-10.2023
▁validity	-10.2028
▁additionally	-10.2033
▁int	-10.2035
▁pi	-10.2036
▁completed	-10.2036
▁exception	-10.2068
▁coarse	-10.2074
▁red	-10.2084
▁act	-10.2108
▁difficulty	-10.2111
▁variants	-10.2116
▁(2	-10.2116
▁≥	-10.2122
figure	-10.2133
▁prevent	-10.2134
▁feasibility	-10.2137
▁treated	-10.2139
▁molecular	-10.2146
▁balanced	-10.2147
▁continue	-10.2153
▁1).	-10.2166
▁vehicle	-10.2174
−1	-10.2174
node	-10.2183
▁attempts	-10.2187
▁multiplication	-10.219
▁toward	-10.219
▁cm	-10.2191
▁pa	-10.2191
▁arcs	-10.2197
▁despite	-10.2201
▁gene	-10.2203
$	-10.2207
▁secret	-10.2213
10	-10.2218
▁(5)	-10.2221
▁named	-10.2225
▁accept	-10.2226
▁mixture	-10.223
such	-10.2234
▁2001	-10.2235
▁accessed	-10.2235
▁unified	-10.2242
di	-10.2242
▁prime	-10.2248
▁bytes	-10.225
▁chains	-10.2251
9	-10.2261
▁contradiction	-10.2266
▁anti	-10.2268
▁vary	-10.2278
▁conjunction	-10.2278
▁discusses	-10.2286
▁majority	-10.2291
▁nets	-10.2293
ar	-10.2304
▁receiving	-10.2306
▁calculations	-10.2308
▁thereby	-10.2316
▁david	-10.233
▁cooperative	-10.2337
=0	-10.2338
▁unless	-10.234
▁steady	-10.2347
▁queues	-10.2369
▁come	-10.2371
▁preferences	-10.2376
▁occurrences	-10.2378
▁exhibit	-10.2382
▁composite	-10.2387
▁responses	-10.2388
▁satisfaction	-10.2404
▁shapes	-10.2406
0,	-10.2415
first	-10.2416
▁turns	-10.2417
▁tend	-10.242
op	-10.2422
▁affected	-10.2425
▁vi	-10.2436
++	-10.2449
▁optimize	-10.2455
▁3.4	-10.2457
▁comments	-10.2487
▁trivial	-10.2494
html	-10.2499
▁projects	-10.2499
▁easier	-10.2502
▁facilitate	-10.2504
▁ms	-10.2519
▁pro	-10.2525
▁engines	-10.2531
▁roughly	-10.2537
▁buffers	-10.254
ts	-10.2542
▁linked	-10.2545
(\	-10.2546
▁analogous	-10.255
▁diagrams	-10.2558
▁separately	-10.2573
▁[15]	-10.2597
vi	-10.2602
▁intensity	-10.2602
▁enhance	-10.2604
▁navigation	-10.2604
▁fragment	-10.2605
▁rely	-10.2616
▁san	-10.2627
▁creation	-10.2627
▁interpreted	-10.2629
▁reading	-10.265
▁monitor	-10.2652
▁0.2	-10.2654
▁communicate	-10.2655
▁industry	-10.266
▁outer	-10.2662
▁noted	-10.2671
▁[16]	-10.2672
▁department	-10.2683
▁candidates	-10.2688
▁sound	-10.2693
▁insertion	-10.2693
▁tensor	-10.2694
▁obtaining	-10.271
▁proven	-10.2718
▁noisy	-10.272
▁mathematics	-10.272
not	-10.2724
▁$	-10.2725
▁substitution	-10.2727
▁retrieved	-10.2729
▁oriented	-10.274
▁adapt	-10.2741
▁conservative	-10.2751
▁transmitted	-10.2753
▁gets	-10.2763
▁serve	-10.2766
▁nonzero	-10.2767
▁exploration	-10.2769
int	-10.2793
▁news	-10.2811
▁ex	-10.2812
▁checks	-10.282
▁perturbation	-10.2821
▁assignments	-10.2824
▁covering	-10.2829
▁δ	-10.2839
▁former	-10.2841
▁decreasing	-10.2848
▁detector	-10.2862
▁truth	-10.2873
▁analytic	-10.2879
▁activation	-10.2881
▁hit	-10.2881
▁behaviors	-10.2882
▁poor	-10.2887
▁barrier	-10.289
▁briefly	-10.2891
▁coupling	-10.2898
▁23	-10.2907
▁naturally	-10.2909
section	-10.2921
▁clinical	-10.2922
▁modifications	-10.2924
▁σ	-10.2926
▁comes	-10.2937
▁formulated	-10.2942
cl	-10.295
▁loads	-10.2951
▁sensing	-10.2959
▁modern	-10.2959
▁checkpoint	-10.2962
data	-10.2963
▁redundancy	-10.2967
▁band	-10.2976
▁manufacturing	-10.2976
▁grids	-10.2981
list	-10.2983
▁contract	-10.2987
▁stores	-10.2996
▁2.4	-10.3005
▁combines	-10.3012
▁leader	-10.3024
▁achieving	-10.3028
▁ray	-10.303
▁le	-10.3033
▁alignment	-10.3037
fl	-10.3048
▁branching	-10.305
▁imaging	-10.3054
▁classified	-10.3064
▁trec	-10.3069
▁passing	-10.307
▁systematic	-10.3073
▁arbitrarily	-10.308
▁brain	-10.3082
db	-10.3086
▁answers	-10.3086
▁leave	-10.309
▁slice	-10.309
▁subgraph	-10.3091
▁forces	-10.3094
ne	-10.3103
▁california	-10.3107
▁intuitively	-10.3109
▁restrict	-10.3109
cost	-10.3121
▁converge	-10.3129
▁petri	-10.3132
▁measuring	-10.3133
▁rapid	-10.314
▁bucket	-10.3142
▁grammar	-10.3143
▁6,	-10.3144
▁concurrency	-10.3151
▁assess	-10.3151
▁modular	-10.3158
▁64	-10.3158
▁primal	-10.3159
down	-10.3161
▁auxiliary	-10.3168
▁heap	-10.317
▁contributions	-10.3176
▁integrating	-10.3186
▁[17]	-10.3189
∈	-10.3189
sec	-10.319
▁2)	-10.3198
▁covered	-10.3201
▁audio	-10.3203
▁lowest	-10.3205
▁industrial	-10.3213
▁independence	-10.3216
▁scales	-10.3219
▁encryption	-10.3222
▁compatible	-10.3222
▁logics	-10.3228
▁worse	-10.323
▁december	-10.3231
▁[0;	-10.3232
▁day	-10.325
▁trained	-10.3251
▁acceptable	-10.3267
▁profiles	-10.3269
▁mod	-10.3274
▁rewriting	-10.3284
▁fortran	-10.3288
▁replacing	-10.3293
▁extending	-10.3303
▁em	-10.3305
▁colors	-10.3325
from	-10.3336
▁sorted	-10.3342
4,	-10.3342
▁aims	-10.3353
▁protein	-10.3376
▁adapted	-10.3377
▁ga	-10.3378
▁inclusion	-10.3385
▁motivated	-10.3386
▁concerns	-10.3397
▁horizontal	-10.3399
non	-10.3406
zero	-10.3409
▁multiprocessor	-10.3415
▁bases	-10.3417
▁viewpoint	-10.3418
▁se	-10.342
▁age	-10.3431
▁corpus	-10.3446
▁comprehensive	-10.3453
▁qualitative	-10.3453
▁greatly	-10.3458
▁setup	-10.3463
▁coherence	-10.3464
▁fairness	-10.3465
▁doing	-10.3465
▁assumes	-10.3482
▁faces	-10.3486
▁fill	-10.3487
▁canonical	-10.3501
▁collaboration	-10.3504
▁stop	-10.3509
▁consensus	-10.351
▁properly	-10.3514
▁ranges	-10.3517
▁superior	-10.3518
▁iii	-10.3523
▁published	-10.3529
▁architectural	-10.3546
▁papers	-10.3551
▁initialization	-10.3553
▁robots	-10.356
▁determination	-10.3565
▁date	-10.3568
▁inductive	-10.3572
▁demonstrates	-10.3588
▁completeness	-10.3589
▁axioms	-10.3591
▁sentence	-10.3594
▁formation	-10.3601
▁belief	-10.3605
▁γ	-10.3621
▁extreme	-10.3621
ps	-10.3626
▁triple	-10.3629
▁nevertheless	-10.3629
▁conf	-10.3632
▁maintained	-10.3635
▁32	-10.3638
ma	-10.3647
▁twice	-10.3648
▁sa	-10.3655
▁correlated	-10.3659
▁enabled	-10.366
▁bottleneck	-10.3661
▁protection	-10.3666
▁visible	-10.3666
▁quantity	-10.3675
▁recursion	-10.3679
▁ten	-10.3708
▁foundation	-10.371
▁remainder	-10.3713
▁manipulation	-10.3717
▁variational	-10.372
▁organizations	-10.3727
▁ml	-10.373
▁behind	-10.3731
6,	-10.3732
▁pipeline	-10.3733
▁lost	-10.3744
▁seem	-10.3751
▁-(	-10.3754
norm	-10.3757
▁wish	-10.3761
▁nash	-10.3765
el	-10.3766
▁manual	-10.3776
net	-10.378
▁individuals	-10.3781
▁bad	-10.3795
▁spanning	-10.3797
▁focuses	-10.3811
▁syntactic	-10.3814
▁alternatives	-10.3814
▁cs	-10.3815
▁plot	-10.3816
▁predictive	-10.3816
▁pose	-10.3828
▁programmer	-10.3833
▁evaluations	-10.3841
▁respective	-10.3844
▁priori	-10.385
▁finds	-10.386
▁checked	-10.3864
▁recursively	-10.3869
▁subsection	-10.387
▁multivariate	-10.3873
▁500	-10.3874
▁front	-10.3885
▁windows	-10.3896
▁eight	-10.3898
▁dr	-10.3905
iv	-10.3906
▁eliminated	-10.3907
▁peak	-10.3909
▁specifying	-10.3919
▁ordinary	-10.393
▁explored	-10.3932
▁en	-10.3936
▁carlo	-10.3939
that	-10.3942
▁port	-10.3943
▁ci	-10.3948
▁overlapping	-10.3949
be	-10.3953
▁conversion	-10.3955
ir	-10.3964
▁conflicts	-10.3966
▁responsible	-10.3968
independent	-10.397
▁removing	-10.3987
▁clique	-10.3994
▁theories	-10.3997
▁simplify	-10.4002
▁1.1	-10.4005
▁somewhat	-10.4018
▁places	-10.4029
▁drop	-10.4031
▁primitives	-10.4032
▁proceed	-10.4034
▁press	-10.4037
▁[18]	-10.4039
▁drawn	-10.4052
▁modal	-10.4069
)).	-10.407
▁increasingly	-10.4073
▁ready	-10.4074
wise	-10.408
▁moment	-10.4089
▁compressed	-10.4094
▁strength	-10.4096
▁poly	-10.41
▁networking	-10.4103
▁approximated	-10.4107
▁animation	-10.4109
▁receivers	-10.4116
nn	-10.4116
▁probe	-10.4119
▁intra	-10.4123
▁ever	-10.413
▁algorithmic	-10.4148
▁drawing	-10.4151
▁solves	-10.4153
▁chen	-10.4168
▁dealing	-10.417
▁rigid	-10.4178
▁matched	-10.4181
hop	-10.4182
ae	-10.4187
▁continuously	-10.4192
▁compilation	-10.42
▁patient	-10.4207
▁expressive	-10.4209
▁tuning	-10.421
▁amounts	-10.4211
▁lemmas	-10.4216
▁consist	-10.4216
▁handled	-10.4234
▁reflect	-10.4238
▁monte	-10.4252
▁motivation	-10.4255
▁traversal	-10.4266
▁atoms	-10.4273
▁slots	-10.4277
▁sophisticated	-10.4279
▁7:	-10.4281
▁sun	-10.4289
▁elliptic	-10.4296
▁pairwise	-10.43
▁goes	-10.4301
▁fourth	-10.4305
▁environmental	-10.4307
related	-10.4311
▁proposal	-10.4316
key	-10.4317
ized	-10.4319
ch	-10.432
▁maintains	-10.4322
▁0.1	-10.4328
▁[1,	-10.4336
▁relies	-10.4338
▁faulty	-10.4343
▁substantial	-10.4346
▁notions	-10.4346
▁impossible	-10.4358
▁white	-10.4358
▁(3	-10.4363
▁looking	-10.4367
▁option	-10.4371
bound	-10.4374
ffl	-10.4378
▁counting	-10.4387
▁divide	-10.4387
▁forwarding	-10.4389
▁^	-10.4396
▁command	-10.4397
▁objectives	-10.4406
▁removal	-10.4428
▁van	-10.4435
▁captured	-10.4436
▁john	-10.4437
mm	-10.4448
▁streaming	-10.445
▁acyclic	-10.4451
▁queueing	-10.4455
▁periods	-10.4457
▁writing	-10.4458
▁incorporate	-10.4464
layer	-10.4471
▁economic	-10.4475
erent	-10.448
▁incoming	-10.4482
▁definite	-10.4487
▁url	-10.4487
▁deadline	-10.4488
▁creates	-10.4488
▁[19]	-10.449
▁signatures	-10.4494
▁routine	-10.4495
▁assembly	-10.4498
▁fix	-10.4506
▁5.3	-10.4508
▁dominant	-10.4509
▁ibm	-10.4509
▁2.5	-10.451
▁behavioral	-10.451
▁libraries	-10.4518
length	-10.4529
▁options	-10.453
▁6.1	-10.4539
phase	-10.4553
▁air	-10.4557
per	-10.4558
▁alpha	-10.4563
▁designers	-10.4572
▁nonnegative	-10.4575
▁she	-10.4581
▁degradation	-10.4589
▁helpful	-10.4591
<	-10.4591
ive	-10.4601
am	-10.4606
▁alone	-10.4607
▁ratios	-10.4612
▁considerable	-10.4614
name	-10.4615
tolerant	-10.4616
▁growing	-10.4622
▁trans	-10.4627
ip	-10.4632
▁kernels	-10.4645
▁7,	-10.4645
▁tends	-10.4645
▁selects	-10.4649
▁registration	-10.465
▁interconnection	-10.4651
▁φ	-10.4653
▁prices	-10.4656
▁hyper	-10.466
▁sat	-10.4662
▁routers	-10.4669
▁reads	-10.4672
ai	-10.4675
▁team	-10.4681
▁percent	-10.4681
▁convenient	-10.4689
ti	-10.47
▁encoded	-10.4701
▁arises	-10.4713
▁inherent	-10.472
▁sphere	-10.4723
▁insert	-10.4726
▁arrive	-10.4728
▁chip	-10.473
▁rapidly	-10.4746
▁quorum	-10.4753
▁plans	-10.4757
▁elementary	-10.4757
▁argue	-10.4763
▁additive	-10.4764
▁bounding	-10.4765
▁inserted	-10.4767
▁plays	-10.4784
▁preserving	-10.4787
test	-10.4792
▁predicting	-10.4792
▁intuitive	-10.4793
▁batch	-10.4806
▁(6)	-10.4808
form	-10.481
▁routes	-10.4815
25	-10.4821
▁stronger	-10.4821
▁pe	-10.4824
▁heat	-10.4829
▁covers	-10.4834
▁disks	-10.4846
-3	-10.4848
▁train	-10.4849
▁fairly	-10.485
▁specialized	-10.485
▁validate	-10.4867
▁bank	-10.4874
▁rise	-10.4883
▁migration	-10.4889
▁subtree	-10.4895
▁ill	-10.4903
5,	-10.4904
▁student	-10.4908
▁circular	-10.491
▁0.4	-10.491
▁designer	-10.4917
▁quantities	-10.492
▁profit	-10.492
▁utilized	-10.492
▁materials	-10.4923
▁advance	-10.4927
▁im	-10.4931
▁contention	-10.4934
▁propositional	-10.4935
▁besides	-10.4936
▁going	-10.4952
▁absence	-10.4952
▁idle	-10.4957
▁4.4	-10.4958
bi	-10.4974
▁exponentially	-10.498
rd	-10.4984
▁normalization	-10.4987
▁hosts	-10.4988
▁specifies	-10.4994
▁loading	-10.4997
▁templates	-10.4998
▁tra	-10.5001
ga	-10.5005
▁enabling	-10.5005
▁conjugate	-10.5005
▁occurring	-10.5006
▁matter	-10.5007
▁sentences	-10.5014
▁generalize	-10.502
▁acknowledgments	-10.5028
▁biological	-10.5035
▁tr	-10.5037
▁acceptance	-10.5037
▁deployment	-10.5049
▁collision	-10.5049
▁scaled	-10.505
▁stereo	-10.5052
▁implicitly	-10.5054
▁mb	-10.5055
▁operate	-10.5058
hoc	-10.5062
▁irregular	-10.5066
▁hop	-10.507
▁globally	-10.5071
loop	-10.5078
▁efforts	-10.5078
▁interact	-10.5084
▁payment	-10.5092
▁outcomes	-10.5093
cm	-10.5099
▁granularity	-10.5112
▁gray	-10.5117
▁perhaps	-10.5123
▁today	-10.5124
▁covariance	-10.5124
pa	-10.5125
▁seven	-10.5127
▁classify	-10.5141
▁ensemble	-10.5146
▁formulae	-10.5146
▁90	-10.5148
si	-10.5149
▁xed	-10.5163
▁star	-10.5163
▁computable	-10.5166
▁freedom	-10.5166
▁voting	-10.5176
ion	-10.5181
▁neighboring	-10.5184
▁helps	-10.5202
▁passes	-10.5211
▁fragments	-10.5211
▁ranked	-10.5212
▁floating	-10.522
▁contribute	-10.522
▁dc	-10.5221
▁trial	-10.5223
▁suite	-10.5225
▁led	-10.5226
where	-10.523
▁strategic	-10.523
▁indicating	-10.523
▁anonymous	-10.5239
▁applicability	-10.5241
▁recorded	-10.5248
▁valuable	-10.5252
▁replicated	-10.5255
▁adopt	-10.5259
ra	-10.5263
▁minimizes	-10.5267
▁ram	-10.5269
performance	-10.5271
▁counts	-10.5284
▁fetch	-10.5288
▁acquisition	-10.5295
▁art	-10.5304
ab	-10.5305
▁automation	-10.5306
▁27	-10.5307
▁reaches	-10.5309
▁cg	-10.5309
▁closest	-10.5309
▁expectation	-10.531
▁cube	-10.5312
▁80	-10.5313
▁fractional	-10.5322
▁literals	-10.5323
▁equals	-10.5327
▁york	-10.5328
▁tape	-10.5333
▁reservation	-10.5342
▁education	-10.5349
▁preferred	-10.5352
▁failed	-10.5356
▁lot	-10.5358
▁smart	-10.5362
▁refers	-10.5363
▁discovered	-10.5375
stage	-10.5379
▁demands	-10.5385
mc	-10.5386
▁equally	-10.5388
1;	-10.5389
▁sup	-10.54
▁proves	-10.5401
▁median	-10.5405
▁break	-10.5407
)=	-10.541
resp	-10.5412
▁π	-10.5419
psi	-10.5425
▁3.1.	-10.543
theoretic	-10.5432
son	-10.5438
▁0;	-10.544
▁reveal	-10.5446
▁happens	-10.5447
8,	-10.5448
(-)	-10.5449
▁middle	-10.545
ine	-10.5452
▁integrate	-10.5452
▁recover	-10.5453
ri	-10.5455
▁february	-10.5461
▁62	-10.5465
▁metadata	-10.5467
▁60	-10.5475
▁integrity	-10.5483
▁hamiltonian	-10.5487
▁mappings	-10.549
▁considerably	-10.5496
▁fa	-10.5498
local	-10.5502
▁meeting	-10.5504
▁implements	-10.5504
▁preconditioners	-10.5505
server	-10.5506
mp	-10.5509
▁characters	-10.5513
▁closer	-10.5515
▁bids	-10.552
▁ic	-10.5527
▁polygon	-10.5528
▁10.	-10.5531
▁naive	-10.5537
▁itemsets	-10.5544
▁diversity	-10.555
▁zhang	-10.555
▁limiting	-10.5555
▁(0;	-10.5557
96	-10.5573
▁incident	-10.5574
▁cc	-10.5577
▁rewrite	-10.5588
▁deals	-10.5595
▁incorporating	-10.5595
▁complementary	-10.5595
▁vol	-10.5596
▁reachable	-10.5597
▁tail	-10.5597
▁comparative	-10.5604
+1)	-10.5609
▁mc	-10.5612
right	-10.5613
▁straight	-10.5617
▁calculating	-10.5617
▁ts	-10.5623
▁sessions	-10.5624
▁reaction	-10.5624
▁concern	-10.5626
▁incorporated	-10.5642
▁subsequently	-10.5644
▁bridge	-10.5645
▁1=	-10.5661
table	-10.5663
▁regardless	-10.5663
▁transmit	-10.5667
▁keeping	-10.5671
▁ng	-10.5674
▁newly	-10.5681
▁descriptors	-10.5687
▁disease	-10.569
negative	-10.5697
▁offset	-10.5699
chip	-10.5702
▁possibilities	-10.5708
▁magnetic	-10.5709
▁overlay	-10.5722
▁dialogue	-10.5725
▁illumination	-10.5731
▁decoding	-10.5731
▁commitment	-10.5736
▁significance	-10.5754
▁reductions	-10.5756
▁2006,	-10.5756
▁3.5	-10.5762
▁reality	-10.5765
16	-10.5767
▁exit	-10.5768
▁requested	-10.5771
11	-10.5771
▁cr	-10.5772
▁refined	-10.5773
▁parallelization	-10.5775
▁storing	-10.5777
▁gates	-10.578
▁marginal	-10.5784
▁preserve	-10.579
▁literal	-10.5792
▁tags	-10.5793
▁sc	-10.5799
▁uncertain	-10.5799
▁employing	-10.5817
▁you	-10.583
▁causal	-10.5832
▁broadcasting	-10.5835
▁deformation	-10.584
▁[20]	-10.5841
ml	-10.5842
▁fp	-10.5843
▁reactive	-10.5847
▁cl	-10.5848
▁driven	-10.5852
ce	-10.5856
▁approximating	-10.5857
▁advances	-10.5868
vector	-10.5869
▁imposed	-10.5877
▁arising	-10.588
▁accordingly	-10.5887
▁circle	-10.5887
▁division	-10.5887
bounded	-10.5889
▁ri	-10.5907
▁sn	-10.5908
ia	-10.5912
▁modulo	-10.5915
▁1999	-10.5923
▁4.1.	-10.5925
▁selective	-10.5926
▁manage	-10.5936
▁centralized	-10.5939
sat	-10.5942
3)	-10.5944
▁fx	-10.595
fs	-10.5958
map	-10.5962
▁sampled	-10.5963
im	-10.5963
▁numerically	-10.5974
▁recommendations	-10.5977
mb	-10.5983
▁cd	-10.5986
ad	-10.599
▁exploited	-10.5991
sensitive	-10.5993
▁triangles	-10.5995
▁organizational	-10.6
▁particles	-10.6001
▁transforms	-10.6002
▁1.2	-10.6006
▁2004,	-10.6007
▁labeling	-10.601
▁blocking	-10.601
▁1]	-10.6017
▁retrieve	-10.6017
▁lagrangian	-10.602
▁varies	-10.6023
parallel	-10.6028
▁fall	-10.6037
▁compares	-10.6039
▁green	-10.6043
▁1.0	-10.6045
▁lifetime	-10.6045
▁variability	-10.6056
▁cancer	-10.6062
▁ds	-10.6069
▁validated	-10.607
ns	-10.6073
▁2003.	-10.6073
np	-10.6075
code	-10.6076
▁heavy	-10.6079
▁hot	-10.6079
▁experts	-10.6081
ll	-10.6082
▁passed	-10.6085
▁(7)	-10.6089
▁permutations	-10.6103
▁spent	-10.6103
▁substantially	-10.6105
▁8,	-10.6109
▁curvature	-10.611
▁terminal	-10.6111
▁hull	-10.6112
▁admission	-10.6115
▁marking	-10.6117
▁rounds	-10.6121
▁emerging	-10.6127
um	-10.6132
▁rich	-10.6135
▁meaningful	-10.6136
▁adequate	-10.6148
over	-10.6149
▁implication	-10.6158
▁thermal	-10.616
▁0.8	-10.6161
▁[3].	-10.6166
▁grouping	-10.6169
▁searches	-10.6175
▁4-	-10.6175
▁tions	-10.6175
▁regularity	-10.6178
▁checker	-10.618
▁weighting	-10.62
9,	-10.6202
edu	-10.6206
▁calibration	-10.6211
▁sink	-10.6225
▁proceeds	-10.6226
▁controlling	-10.6227
▁met	-10.623
▁8:	-10.6232
▁solvers	-10.6232
▁bayes	-10.6234
▁english	-10.6234
▁margin	-10.6236
▁0.3	-10.6239
▁terminates	-10.6241
▁overflow	-10.6242
▁sides	-10.6244
▁directory	-10.6247
▁minor	-10.6247
▁routines	-10.6248
▁fitting	-10.6248
▁switches	-10.6248
▁cone	-10.625
▁com	-10.6255
▁phenomenon	-10.6258
▁lee	-10.6269
▁cardinality	-10.627
▁insight	-10.627
▁indirect	-10.6271
▁unbounded	-10.6272
cycle	-10.6274
▁repair	-10.6274
▁perception	-10.6278
▁affects	-10.6286
▁sql	-10.6291
▁kept	-10.6294
▁pointers	-10.6298
▁norms	-10.6299
▁legal	-10.63
▁_	-10.6306
▁minimized	-10.6311
▁chemical	-10.6313
▁formulate	-10.6316
▁laboratory	-10.6318
▁numerous	-10.6318
▁constructions	-10.632
▁jump	-10.632
▁aware	-10.6322
▁employs	-10.6325
learning	-10.6327
▁garbage	-10.633
▁chooses	-10.6337
▁pagerank	-10.6341
▁michael	-10.6343
▁displayed	-10.635
▁diameter	-10.6355
▁preconditioning	-10.6356
▁extracting	-10.6362
▁weakly	-10.6362
▁0.6	-10.6363
▁delete	-10.6364
▁collect	-10.6366
▁continuity	-10.6367
▁difficulties	-10.6368
▁executes	-10.6368
▁[2,	-10.6371
▁plots	-10.6373
▁conjecture	-10.6376
▁debugging	-10.6379
▁diverse	-10.6379
▁schur	-10.638
constrained	-10.6386
▁crawler	-10.6389
▁2005,	-10.6389
▁[21]	-10.639
/2	-10.6391
▁families	-10.6403
▁iv	-10.6406
▁outline	-10.6409
da	-10.6412
▁300	-10.6414
▁indexed	-10.6418
▁ti	-10.643
▁utilize	-10.6437
▁-1	-10.6448
▁[1].	-10.6464
7,	-10.6467
li	-10.6469
▁platforms	-10.6471
▁appearance	-10.6475
work	-10.6485
▁dictionary	-10.6489
▁monotonicity	-10.649
output	-10.6493
▁repeat	-10.6497
ian	-10.6499
▁distortion	-10.65
▁trajectories	-10.6501
▁categorization	-10.6501
▁considerations	-10.6502
▁macro	-10.6507
▁ct	-10.6507
▁reward	-10.6525
▁posterior	-10.6526
na	-10.6528
▁captures	-10.6538
▁examining	-10.6538
▁compile	-10.6541
▁regard	-10.6541
▁incorrect	-10.6543
▁belonging	-10.6545
▁cooperation	-10.6551
▁gains	-10.6553
xi	-10.6553
▁parameterized	-10.6555
▁sigplan	-10.6563
dm	-10.6564
sc	-10.6568
▁facts	-10.6571
▁explanation	-10.6573
let	-10.6575
▁18	-10.6579
▁think	-10.658
note	-10.658
ap	-10.6589
▁experiences	-10.659
▁revealed	-10.6591
▁atom	-10.6592
box	-10.6594
▁inconsistency	-10.6597
▁discover	-10.66
▁loaded	-10.6605
▁bipartite	-10.6612
▁serial	-10.6615
00	-10.6616
▁grows	-10.6618
▁phenomena	-10.6625
▁primarily	-10.6625
▁[8].	-10.6633
▁29	-10.6641
▁usefulness	-10.6644
▁subdivision	-10.6649
▁preceding	-10.665
▁lambda	-10.6652
dual	-10.6654
▁suffices	-10.6654
▁forest	-10.6661
▁perceived	-10.6666
cell	-10.6669
▁cutting	-10.6674
▁realized	-10.6678
▁remarks	-10.6688
▁pivoting	-10.6691
▁bio	-10.6693
demand	-10.6697
model	-10.6698
ant	-10.6709
▁ith	-10.671
▁displays	-10.6713
▁producing	-10.6713
empty	-10.6714
▁seek	-10.672
▁big	-10.6732
▁assigning	-10.6733
only	-10.6736
▁brief	-10.6736
▁flat	-10.6739
▁unstructured	-10.6739
▁normally	-10.6741
▁experimentally	-10.675
efficient	-10.675
▁dom	-10.6759
▁entirely	-10.676
▁[9].	-10.6761
user	-10.6766
▁auto	-10.6767
▁35	-10.6779
▁ab	-10.6783
(2	-10.6783
▁10%	-10.6787
▁triangulation	-10.6788
▁uniquely	-10.6789
▁facial	-10.679
▁sweep	-10.6797
▁confirm	-10.6805
▁span	-10.6809
▁savings	-10.6812
▁managing	-10.6814
rate	-10.6821
▁attractive	-10.6826
▁logarithmic	-10.6827
▁limitation	-10.684
▁discussions	-10.6841
cc	-10.6846
▁spread	-10.6848
▁academic	-10.6852
▁+1	-10.6856
uniform	-10.6865
▁[2].	-10.6871
speed	-10.6874
▁originally	-10.6876
▁title	-10.6878
▁depicted	-10.6879
▁developers	-10.6891
▁2003,	-10.6914
ls	-10.6915
▁harmonic	-10.6916
▁utilizing	-10.6916
▁reflection	-10.6917
▁yes	-10.692
domain	-10.692
▁drive	-10.6924
-4	-10.6924
▁ack	-10.6925
▁enhancement	-10.6929
ci	-10.6931
▁36	-10.6938
▁man	-10.6938
▁querying	-10.6943
▁dependences	-10.6945
▁accepts	-10.6948
but	-10.6958
▁dis	-10.696
▁standards	-10.6963
sp	-10.6968
▁mr	-10.6978
95	-10.6979
▁[22]	-10.6984
▁10,	-10.6984
do	-10.6987
▁rough	-10.6993
connected	-10.6995
core	-10.7005
▁lin	-10.7006
▁vlsi	-10.7007
▁asymptotically	-10.7008
▁screen	-10.7015
con	-10.7017
▁34	-10.7025
▁wang	-10.7029
▁broad	-10.7032
▁opportunities	-10.7033
▁cloud	-10.7033
▁hypercube	-10.7033
▁walk	-10.7039
▁moved	-10.7039
▁coe	-10.7041
▁mechanical	-10.7044
▁packing	-10.7047
▁controls	-10.7048
▁alphabet	-10.7061
▁laws	-10.7062
em	-10.7063
▁letters	-10.7066
▁assigns	-10.707
▁compatibility	-10.7072
▁tractable	-10.7072
▁(8)	-10.7074
▁50%	-10.7086
▁parties	-10.7088
▁understood	-10.7098
▁tracing	-10.7099
▁mix	-10.7106
▁gas	-10.7106
▁passive	-10.711
▁encountered	-10.7112
▁preprocessing	-10.7126
▁href	-10.7126
▁targets	-10.7129
▁2002.	-10.7129
izing	-10.713
▁mi	-10.7134
ba	-10.7146
▁completes	-10.7147
▁tries	-10.7151
▁connecting	-10.7154
89	-10.7154
▁deadlock	-10.7161
▁ran	-10.7162
ry	-10.7163
▁spin	-10.7167
resolution	-10.7169
▁pick	-10.7172
▁dec	-10.7172
▁controllers	-10.7187
▁la	-10.7188
▁simulating	-10.719
▁semidefinite	-10.7204
▁million	-10.7204
-5	-10.7205
frequency	-10.7205
▁delivered	-10.7206
▁par	-10.7211
▁mutation	-10.7218
▁multiplier	-10.7231
▁commit	-10.7231
▁checkpointing	-10.7236
▁dt	-10.7242
▁delta	-10.7246
▁cuts	-10.7249
▁mm	-10.7255
pass	-10.7256
▁typing	-10.7257
▁stations	-10.7258
ke	-10.7261
99	-10.7264
ist	-10.7267
▁competition	-10.7269
▁compilers	-10.7284
▁listed	-10.7287
▁writes	-10.7287
▁exploring	-10.7296
▁varied	-10.7297
▁weaker	-10.7302
▁gmres	-10.731
▁manually	-10.7313
90	-10.7328
▁studying	-10.7328
axis	-10.7332
▁conservation	-10.7336
▁voice	-10.7336
▁addressing	-10.7343
▁annealing	-10.735
▁alternating	-10.735
▁soon	-10.7352
▁visited	-10.7352
▁treat	-10.7358
▁*/	-10.7361
▁ra	-10.7366
▁decomposed	-10.737
▁qr	-10.7371
▁axiom	-10.7378
▁occlusion	-10.7379
▁summarize	-10.738
▁[4].	-10.7381
▁learner	-10.7382
ol	-10.7385
new	-10.7387
ies	-10.7387
▁dna	-10.7395
▁differs	-10.7401
opt	-10.7408
▁started	-10.7409
io	-10.7411
▁[11].	-10.7413
▁[4,	-10.7416
▁occurred	-10.7418
▁assertion	-10.7419
▁preconditioned	-10.7419
▁rectangular	-10.7431
▁3.2.	-10.7435
▁[6].	-10.744
▁middleware	-10.7444
▁thin	-10.7444
▁physics	-10.7444
▁knows	-10.745
left	-10.7453
▁ln	-10.7455
▁interpret	-10.7463
▁collector	-10.7463
▁continues	-10.7464
her	-10.7469
▁irrelevant	-10.7471
▁generators	-10.7477
▁recognized	-10.7483
▁100%	-10.7488
▁->	-10.7492
ton	-10.7492
▁notes	-10.7499
▁picture	-10.7501
te	-10.7503
▁hits	-10.7503
▁recognize	-10.7508
▁really	-10.7512
▁room	-10.7515
peer	-10.7517
▁//	-10.7519
▁translated	-10.752
▁deployed	-10.7526
▁atm	-10.7531
lp	-10.7542
▁identifier	-10.7542
▁mostly	-10.7543
▁gave	-10.7547
sum	-10.7549
▁statistically	-10.7552
▁projective	-10.7554
.5,	-10.7555
pt	-10.7558
using	-10.7562
01	-10.7563
▁separated	-10.7565
pr	-10.7567
▁blocked	-10.7568
edge	-10.7574
▁html	-10.7574
▁1998	-10.7577
▁company	-10.758
▁adds	-10.7582
▁inspection	-10.7583
ds	-10.7586
▁256	-10.7587
▁2004.	-10.7588
▁gf	-10.7588
▁eigenvectors	-10.7589
▁motions	-10.7589
▁budget	-10.7597
▁purely	-10.7599
▁ranging	-10.7608
ent	-10.7621
▁6.2	-10.7624
▁isolated	-10.7625
▁repeatedly	-10.7626
▁cumulative	-10.7635
▁longest	-10.7637
▁inversion	-10.7637
▁displacement	-10.7639
▁128	-10.7645
▁my	-10.7659
▁portable	-10.7664
▁browsing	-10.7677
▁[5].	-10.7678
▁dimensionality	-10.7678
▁suited	-10.7681
▁companies	-10.7691
▁xi	-10.7693
gen	-10.7695
▁usability	-10.7697
97	-10.7699
▁400	-10.7707
▁insights	-10.7709
▁estimators	-10.7711
▁ease	-10.7713
▁canada	-10.7718
▁unnecessary	-10.7719
▁sin	-10.7734
▁2001.	-10.7734
▁mis	-10.774
▁[10].	-10.7747
▁negligible	-10.7747
▁contextual	-10.7747
▁outliers	-10.7749
▁recurrence	-10.775
▁push	-10.7753
▁eliminating	-10.776
▁profiling	-10.776
▁topologies	-10.776
+2	-10.7772
pm	-10.7772
me	-10.7773
▁jacobi	-10.7775
▁boxes	-10.7779
▁browser	-10.778
▁hours	-10.7784
▁summarized	-10.7787
▁ambiguity	-10.7789
▁1=2	-10.7789
▁fitness	-10.779
▁pieces	-10.7793
▁inconsistent	-10.7793
▁dist	-10.7794
▁becoming	-10.7795
▁deliver	-10.7795
▁largely	-10.7798
▁wire	-10.78
▁pool	-10.7801
▁pay	-10.7802
▁begins	-10.7805
ffi	-10.7806
power	-10.7809
dr	-10.7811
▁collective	-10.7815
▁financial	-10.7817
link	-10.7817
▁exploits	-10.7818
▁[3,	-10.7819
▁happen	-10.7827
▁identifies	-10.783
▁2.1.	-10.7833
17	-10.7844
▁elastic	-10.7844
▁swarm	-10.7846
▁genes	-10.7847
▁rectangles	-10.7847
▁chose	-10.7848
▁tradeoff	-10.7852
▁admissible	-10.7859
▁analog	-10.786
▁λ	-10.7861
▁ends	-10.7867
▁held	-10.7876
▁br	-10.7882
▁multiprocessors	-10.7884
▁deleted	-10.7887
▁redistribution	-10.7888
▁protected	-10.7889
▁expanded	-10.789
▁executions	-10.7896
▁predictors	-10.7897
▁expand	-10.79
▁keyword	-10.7902
▁editing	-10.7904
mo	-10.7908
▁beam	-10.7912
cr	-10.7914
▁encode	-10.7919
▁histogram	-10.792
▁formalism	-10.7921
▁ap	-10.7921
ak	-10.7922
▁taxonomy	-10.7929
cp	-10.7934
ge	-10.7939
▁er	-10.7942
▁probably	-10.7944
▁maximizing	-10.7944
▁stopping	-10.7945
▁ne	-10.7945
▁native	-10.7949
▁invoked	-10.7951
▁nonempty	-10.7952
▁connect	-10.7954
▁gr	-10.7954
invariant	-10.7956
ro	-10.7956
ner	-10.7958
ta	-10.7961
64	-10.7963
▁gen	-10.7967
▁scenes	-10.7967
▁viewing	-10.7969
▁facilities	-10.7972
▁constructive	-10.7972
cut	-10.7975
▁terminate	-10.798
▁pipelined	-10.7992
ve	-10.7993
▁[12].	-10.7997
▁asymmetric	-10.7999
▁plant	-10.8001
▁neurons	-10.8001
▁extensively	-10.8006
▁ch	-10.8016
▁[7].	-10.8022
▁angles	-10.8027
▁avoiding	-10.8032
▁2002,	-10.8033
▁offered	-10.8037
▁chi	-10.8041
▁acts	-10.8045
▁shares	-10.8056
15	-10.8056
▁opposite	-10.8058
▁acoustic	-10.8059
▁ba	-10.8059
▁correlations	-10.8062
▁skew	-10.8066
▁2(	-10.8067
▁zone	-10.8067
ter	-10.8072
▁forming	-10.8082
98	-10.8085
▁evaluates	-10.8086
▁reachability	-10.8089
▁sig	-10.8096
▁preserved	-10.8103
▁road	-10.8113
▁readily	-10.8116
▁delayed	-10.812
▁payoff	-10.8123
▁trying	-10.8124
▁liu	-10.8125
▁beta	-10.8128
▁roots	-10.8128
▁spec	-10.8129
▁ada	-10.8137
▁ed	-10.8138
directed	-10.814
▁specialization	-10.8141
▁substituting	-10.8145
▁bin	-10.8155
▁simplest	-10.8159
▁repository	-10.816
▁contours	-10.8161
▁deep	-10.8161
▁eye	-10.8163
▁corner	-10.8166
▁communities	-10.8174
▁projected	-10.8175
et	-10.8177
processing	-10.8181
▁merged	-10.8185
lo	-10.8189
▁projections	-10.8189
▁[23]	-10.8192
ated	-10.8193
▁notices	-10.8195
▁dynamical	-10.8195
▁sim	-10.8198
▁var	-10.8198
preserving	-10.8199
▁irreducible	-10.8203
▁prefetch	-10.821
▁city	-10.8211
▁book	-10.8217
▁deciding	-10.8218
▁facility	-10.8218
la	-10.822
▁carefully	-10.8235
▁multigrid	-10.8235
ul	-10.8236
▁worth	-10.8244
▁consistently	-10.8245
▁resolve	-10.8246
▁supervised	-10.8249
▁linguistic	-10.8254
▁neuro	-10.8256
▁performances	-10.8259
▁proportion	-10.8267
▁conflicting	-10.8273
▁electrical	-10.8275
▁convolution	-10.8276
▁mind	-10.8283
▁9:	-10.8284
▁sec	-10.8288
▁save	-10.829
▁backup	-10.829
▁monotonic	-10.8292
▁accomplished	-10.8293
back	-10.8302
▁busy	-10.8302
ler	-10.8303
▁satisfiability	-10.8306
▁regarded	-10.831
▁recovered	-10.831
▁trends	-10.8325
▁vice	-10.8326
random	-10.8328
▁consumer	-10.8332
▁persistent	-10.8334
▁accessing	-10.8339
▁invariance	-10.8342
▁year	-10.8345
▁descent	-10.8351
▁serves	-10.8352
write	-10.8355
▁typed	-10.8366
▁::	-10.8369
▁intuition	-10.8373
▁fu	-10.8377
il	-10.8381
ka	-10.8381
▁consequences	-10.8386
objective	-10.8387
nm	-10.839
▁deadlines	-10.8397
▁markets	-10.8401
▁avoids	-10.8402
▁guess	-10.8402
ex	-10.841
▁discriminant	-10.841
▁4.5	-10.8417
▁slave	-10.8434
▁raw	-10.8439
▁me	-10.844
ment	-10.8446
▁mu	-10.8448
number	-10.8449
▁pricing	-10.8455
▁reconfigurable	-10.8455
▁slicing	-10.8455
▁similarities	-10.8458
▁exhibits	-10.846
▁euler	-10.847
▁compiled	-10.847
▁shorter	-10.8478
▁negation	-10.8478
▁timed	-10.8482
▁rounding	-10.8485
▁intention	-10.8491
▁cmos	-10.8494
▁4.2.	-10.8495
▁agree	-10.8496
block	-10.8496
▁bu	-10.8498
▁multipliers	-10.8498
20	-10.85
▁1997	-10.8505
ities	-10.8506
▁perceptron	-10.8508
▁indicator	-10.8508
▁transitive	-10.8513
▁mpeg	-10.8515
▁lazy	-10.8515
▁alternate	-10.8521
ect	-10.8522
▁11.	-10.8523
▁mask	-10.8529
▁letter	-10.8534
▁enter	-10.8543
06	-10.8545
▁intrinsic	-10.8545
(1	-10.8547
▁jj	-10.8549
▁resulted	-10.8553
▁pivot	-10.8553
▁peers	-10.8554
▁grammars	-10.8558
▁adjust	-10.8561
▁relaxed	-10.8562
▁du	-10.8567
▁draw	-10.8572
▁dedicated	-10.8576
▁/*	-10.8579
▁continuation	-10.8584
▁revenue	-10.8584
▁[15].	-10.8585
▁losses	-10.8586
ber	-10.8593
▁na	-10.8596
▁el	-10.8602
▁firstly	-10.8603
side	-10.8605
▁[13].	-10.8605
▁[14].	-10.8608
ig	-10.8619
▁transferred	-10.8622
▁unconstrained	-10.8622
▁equivalently	-10.8625
▁pointed	-10.8626
▁ask	-10.8628
▁permit	-10.8631
▁permission	-10.8646
mode	-10.8646
so	-10.8647
▁overheads	-10.865
▁(10)	-10.8655
)]	-10.8665
▁hope	-10.8665
▁2005.	-10.8666
▁inspired	-10.8668
fr	-10.8672
▁illustration	-10.8676
▁wrapper	-10.8676
▁divergence	-10.8677
▁thought	-10.8682
▁0:	-10.8682
ier	-10.8688
▁verifying	-10.8696
▁excellent	-10.8698
▁[0,	-10.8703
▁enterprise	-10.8707
▁trials	-10.8709
▁sciences	-10.8709
▁multilevel	-10.8716
▁mouse	-10.8729
▁accessible	-10.873
ciently	-10.8733
▁da	-10.8733
▁csp	-10.8733
▁sixth	-10.8735
▁vehicles	-10.8736
▁38	-10.8739
▁radial	-10.8741
▁→	-10.8744
▁smoothness	-10.8746
▁travel	-10.8747
▁chance	-10.8754
approximation	-10.8755
▁locking	-10.8756
sim	-10.8757
▁skip	-10.8761
▁keywords	-10.8762
▁rooted	-10.8763
04	-10.8765
pp	-10.8767
▁exposure	-10.8769
▁conduct	-10.8769
▁apparent	-10.8772
12	-10.8781
▁stands	-10.8784
▁locks	-10.8786
▁serious	-10.8788
▁sr	-10.8793
▁fpga	-10.8801
▁subsequence	-10.8801
▁transparent	-10.8804
▁relate	-10.8804
▁31	-10.8806
▁attached	-10.8806
ho	-10.8809
.6	-10.881
mi	-10.8812
▁clocks	-10.8813
ating	-10.8815
▁concentration	-10.8816
▁pm	-10.8819
▁terminology	-10.8821
▁reinforcement	-10.8821
▁sparsity	-10.8821
source	-10.8823
▁arrives	-10.8825
45	-10.8831
▁coherent	-10.8835
▁unchanged	-10.8837
ative	-10.8857
▁infeasible	-10.8858
▁card	-10.8859
▁dominated	-10.8859
dt	-10.886
▁convergent	-10.8868
(3)	-10.8869
▁piece	-10.8878
svm	-10.8879
▁wall	-10.8881
▁associate	-10.8882
▁inheritance	-10.8883
▁pareto	-10.8884
▁appropriately	-10.8886
▁(0)	-10.8891
▁phrase	-10.8895
▁gp	-10.8903
▁outgoing	-10.8916
search	-10.8918
▁33	-10.8922
▁[7,	-10.8925
▁moderate	-10.8925
▁stock	-10.8926
▁[5,	-10.8927
processor	-10.8932
▁endpoints	-10.8938
▁cp	-10.8939
▁rm	-10.8946
kb	-10.8952
▁don	-10.8957
▁lighting	-10.896
▁latent	-10.8962
object	-10.8967
50	-10.897
rank	-10.8973
input	-10.8986
▁reveals	-10.8988
▁hashing	-10.8988
▁1.5	-10.8989
▁recommendation	-10.8989
use	-10.8993
▁opposed	-10.8994
▁editor	-10.8994
▁charge	-10.8995
▁turing	-10.8998
adaptive	-10.8998
▁programmers	-10.9001
ha	-10.9002
▁ball	-10.9002
α	-10.9005
▁ignored	-10.9005
▁trend	-10.9007
▁ni	-10.901
▁res	-10.9011
▁providers	-10.9013
▁permits	-10.9016
▁empirically	-10.9019
▁credit	-10.9023
▁exclusive	-10.9023
▁seller	-10.9025
▁appearing	-10.9028
▁moments	-10.9031
(0)	-10.9043
▁preserves	-10.9049
▁3.6	-10.9051
▁ph	-10.9055
▁dissemination	-10.9057
▁bidders	-10.9058
▁aid	-10.9061
▁rr	-10.907
▁lanczos	-10.9073
▁outlined	-10.9073
▁unsupervised	-10.9073
▁ilp	-10.908
.11	-10.9082
σ	-10.9084
▁cores	-10.9088
▁avoided	-10.9103
▁kl	-10.9104
▁nothing	-10.9105
▁buyer	-10.911
▁[25]	-10.9113
▁music	-10.9117
▁defects	-10.9123
▁infer	-10.9123
▁scattering	-10.9123
▁grow	-10.9123
ng	-10.9124
▁abstractions	-10.9125
▁anchor	-10.9126
▁orderings	-10.9128
▁zeros	-10.9131
▁cached	-10.9133
fold	-10.9133
▁manifold	-10.9134
▁lagrange	-10.9136
▁tissue	-10.9142
▁violated	-10.9143
▁trading	-10.9153
▁practices	-10.9153
▁localized	-10.9164
▁heart	-10.9165
▁backbone	-10.9169
▁establishing	-10.9182
4.5	-10.9183
▁[24]	-10.9194
graph	-10.9196
▁lan	-10.92
▁hierarchies	-10.9201
▁species	-10.9202
▁emphasis	-10.9203
▁convert	-10.9206
ling	-10.9207
▁iteratively	-10.9213
▁patch	-10.9215
▁omitted	-10.9217
▁exceeds	-10.9218
▁fr	-10.9222
▁intersect	-10.9226
▁polygons	-10.9227
▁deletion	-10.9231
▁careful	-10.9232
▁deriving	-10.9234
.9	-10.9234
▁lookup	-10.9235
▁cf	-10.9236
mail	-10.9238
▁48	-10.9239
▁xy	-10.924
▁concludes	-10.9241
▁vocabulary	-10.925
▁omit	-10.9253
▁inverted	-10.9267
▁duplicate	-10.9267
▁laser	-10.9268
▁parity	-10.927
fig	-10.9272
▁witness	-10.9274
function	-10.9277
▁alternatively	-10.9279
▁days	-10.9285
▁reflects	-10.9287
▁der	-10.929
▁secondly	-10.9295
▁prob	-10.9303
▁modifying	-10.9308
lin	-10.9308
▁rectangle	-10.9312
▁slices	-10.9313
▁discontinuous	-10.9315
▁jacobian	-10.9317
▁formulations	-10.9319
▁took	-10.933
~	-10.9331
▁bluetooth	-10.9331
uk	-10.9332
▁crawling	-10.9333
▁commands	-10.9334
40	-10.9336
03	-10.9338
▁examines	-10.9339
▁acquired	-10.9342
commerce	-10.9343
ur	-10.9345
▁descriptor	-10.9345
▁minutes	-10.9347
▁43	-10.9347
▁matlab	-10.9347
▁wavelets	-10.9348
▁sure	-10.9356
▁parsing	-10.9364
action	-10.9367
▁(11)	-10.9367
▁instant	-10.9376
▁annotations	-10.938
▁achievable	-10.938
▁satisfactory	-10.938
▁sigir	-10.9381
▁ignore	-10.9382
▁'(	-10.9382
▁centers	-10.9385
ate	-10.9388
▁holding	-10.9389
▁slower	-10.9389
▁geographic	-10.9395
▁satises	-10.9397
▁rf	-10.9399
▁37	-10.9406
▁directional	-10.9409
▁appeared	-10.9412
▁flux	-10.9414
14	-10.9419
making	-10.9425
▁theoretically	-10.9428
error	-10.943
▁cubic	-10.943
▁huge	-10.943
▁conversely	-10.9431
▁concentrate	-10.9431
hi	-10.9432
matrix	-10.944
▁realization	-10.9442
▁summarizes	-10.9444
▁5.4	-10.9446
▁ui	-10.9451
query	-10.9458
▁invocation	-10.9468
squares	-10.947
bo	-10.9476
age	-10.948
▁802.11	-10.948
▁constitute	-10.9481
▁gui	-10.9483
▁distinguished	-10.9486
▁successor	-10.9488
▁focusing	-10.9491
▁simplification	-10.9494
▁dag	-10.9495
▁ensuring	-10.9496
▁defect	-10.9496
▁broken	-10.9497
▁incorporates	-10.9498
even	-10.9506
including	-10.9509
▁communicating	-10.9513
▁cosine	-10.9513
▁fs	-10.9516
▁intensive	-10.9519
▁owner	-10.9519
▁accepting	-10.9521
▁guard	-10.9521
▁dp	-10.9521
▁geo	-10.9523
▁uml	-10.9527
▁subjective	-10.9529
▁suggestions	-10.9529
▁interpreter	-10.953
▁150	-10.9531
▁val	-10.9534
▁9,	-10.9536
▁constructor	-10.9537
▁xor	-10.9541
▁2000.	-10.9545
▁converted	-10.9549
28	-10.955
▁(4	-10.9559
▁[6,	-10.956
▁alarm	-10.9562
▁cartesian	-10.9563
▁infinity	-10.958
▁methodologies	-10.9581
▁associative	-10.9581
▁rep	-10.9586
▁aimed	-10.9589
▁malicious	-10.9594
▁mg	-10.9596
▁dead	-10.96
▁suffer	-10.9604
100	-10.9605
▁transmissions	-10.9606
▁12.	-10.9612
▁textual	-10.9614
▁boosting	-10.9615
▁says	-10.9618
▁valuation	-10.9629
▁heavily	-10.963
▁guidelines	-10.9639
▁exceptions	-10.9639
▁bidder	-10.9646
▁optimistic	-10.9646
▁leaving	-10.9647
▁krylov	-10.9647
▁70	-10.965
▁synchronized	-10.9652
trivial	-10.9652
▁observable	-10.9664
▁reasonably	-10.9664
▁perturbations	-10.9665
▁presenting	-10.9671
▁operates	-10.9678
▁exclusion	-10.9681
▁accommodate	-10.9684
▁interacting	-10.9687
car	-10.969
rm	-10.9692
▁toolkit	-10.9696
▁teaching	-10.9698
▁office	-10.9699
▁exceed	-10.9706
])	-10.9707
▁...	-10.9711
▁replica	-10.9713
▁slope	-10.9714
▁reputation	-10.9715
▁peter	-10.9723
▁videos	-10.973
0)	-10.973
▁government	-10.9731
▁contrary	-10.9731
system	-10.974
▁judgments	-10.9741
text	-10.9742
▁tangent	-10.9748
▁awareness	-10.975
▁issued	-10.9751
▁reply	-10.9752
)),	-10.9764
▁cholesky	-10.9765
▁locate	-10.977
▁decreased	-10.9776
▁squared	-10.9781
dp	-10.9783
▁supercomputing	-10.9783
▁patches	-10.9784
▁driver	-10.9792
bb	-10.9792
varying	-10.9796
critical	-10.9797
▁equilibria	-10.98
▁enforce	-10.9804
▁mutually	-10.9805
▁apart	-10.9806
▁scanning	-10.9817
▁google	-10.9817
▁1),	-10.9821
▁interconnect	-10.9823
sch	-10.9825
▁centered	-10.9831
.29	-10.9832
▁drift	-10.9834
var	-10.9834
hr	-10.9838
05	-10.9838
▁annotated	-10.9838
degree	-10.9842
▁forced	-10.9845
purpose	-10.9847
▁assertions	-10.9848
▁subsystem	-10.9853
▁frameworks	-10.9864
▁quantify	-10.9865
▁aggressive	-10.9866
▁hu	-10.9867
▁opportunity	-10.9868
▁www	-10.987
word	-10.9871
▁impose	-10.9873
trees	-10.9877
87	-10.988
▁11,	-10.9885
▁motor	-10.9888
▁email	-10.9899
▁averaging	-10.9903
▁workloads	-10.9904
▁0.7	-10.9909
▁header	-10.991
▁spline	-10.991
sets	-10.9915
▁detects	-10.992
▁propagate	-10.9926
▁managers	-10.9932
▁pn	-10.9933
▁);	-10.9938
▁convenience	-10.9938
▁periodically	-10.994
▁os	-10.9947
pc	-10.9947
▁differentiable	-10.9958
▁asked	-10.9959
ance	-10.996
cluster	-10.996
rt	-10.9963
▁photo	-10.9964
▁outperform	-10.9964
.15	-10.9965
▁indexes	-10.997
▁annotation	-10.9977
.13	-10.9979
price	-10.9987
▁resolved	-10.9988
▁dirichlet	-10.999
▁urls	-10.9993
▁proposals	-10.9994
top	-10.9996
▁certainly	-10.9997
▁rotations	-10.9999
▁[1],	-11.0002
▁[16].	-11.0011
▁byte	-11.0013
▁keeps	-11.0015
▁rt	-11.0015
32	-11.0018
▁provider	-11.0021
▁ve	-11.0024
real	-11.0027
▁uniqueness	-11.0031
▁costly	-11.0036
temporal	-11.0038
▁20%	-11.0039
weight	-11.0041
▁beneficial	-11.0043
▁yu	-11.0045
▁reflected	-11.0048
elecommunication	-11.0053
▁realize	-11.0057
▁45	-11.0059
▁gauss	-11.006
▁society	-11.006
▁undirected	-11.0062
▁joins	-11.0068
▁crossing	-11.007
▁rare	-11.0074
▁pos	-11.0077
▁maximizes	-11.0078
▁speaking	-11.0079
▁sums	-11.0083
▁|=	-11.0091
▁capturing	-11.0096
om	-11.0101
▁2.0	-11.0103
▁recurrent	-11.0103
possibly	-11.0109
since	-11.0109
▁initialized	-11.0109
▁2.2.	-11.0116
▁[8],	-11.0129
▁complementarity	-11.0131
▁distinction	-11.0133
▁cope	-11.0137
rst	-11.0142
he	-11.0148
▁ontologies	-11.0148
▁sequencing	-11.0149
▁rc	-11.0152
▁guarded	-11.0152
.14	-11.0157
▁humans	-11.0157
▁[2],	-11.0163
▁adoption	-11.0167
88	-11.0171
▁acquire	-11.0173
▁ss	-11.0177
▁declarative	-11.0182
▁late	-11.0183
▁utilizes	-11.0188
▁versa	-11.019
▁thanks	-11.0192
▁sketch	-11.0195
▁infinitely	-11.0195
val	-11.0199
▁textures	-11.02
▁investigating	-11.0202
▁quantization	-11.022
se	-11.0226
sa	-11.0229
▁surprising	-11.0235
▁disparity	-11.0238
▁chapter	-11.0239
▁amplitude	-11.024
▁hypergraph	-11.024
▁β	-11.024
▁deduce	-11.0243
process	-11.0249
ij	-11.0256
▁answering	-11.0257
regular	-11.0261
▁yielding	-11.0271
res	-11.0272
▁90%	-11.0275
▁[26]	-11.0278
▁timestamp	-11.0283
grained	-11.0289
▁sliding	-11.0292
▁wavelength	-11.0295
94	-11.0301
▁concurrently	-11.0302
delay	-11.0306
▁click	-11.0308
▁sch	-11.0309
▁×	-11.0311
gr	-11.0311
▁cryptographic	-11.0318
▁trigger	-11.0324
▁artifacts	-11.0329
.27	-11.033
▁fe	-11.033
▁tri	-11.0335
▁(-)	-11.0338
▁linking	-11.0343
▁advertising	-11.0346
▁nonsingular	-11.0347
lu	-11.0348
▁signaling	-11.035
▁board	-11.0351
▁workstation	-11.0351
▁(9)	-11.0353
▁decided	-11.0361
▁intrusion	-11.0366
▁2).	-11.0369
▁seed	-11.0375
▁wrong	-11.038
▁justified	-11.0383
▁urban	-11.0387
▁skin	-11.0393
▁1.3	-11.0396
org	-11.0398
▁ho	-11.0399
▁maximization	-11.0401
▁dilation	-11.0401
▁transportation	-11.0401
▁adjustment	-11.0403
▁diagnostic	-11.0403
▁[3],	-11.0404
▁damage	-11.0406
▁iterate	-11.0409
▁suffix	-11.0418
▁enumeration	-11.0418
▁severe	-11.0421
ft	-11.0427
▁[6],	-11.0431
▁planes	-11.0431
ec	-11.0432
▁iterates	-11.0434
▁land	-11.0436
▁spherical	-11.0437
▁causing	-11.0437
▁coincide	-11.0439
▁testbed	-11.0441
▁website	-11.0442
▁saving	-11.0443
.10	-11.0444
▁investigates	-11.0448
▁blind	-11.045
▁̄	-11.0455
▁lipschitz	-11.0455
▁articles	-11.0455
▁avoidance	-11.0456
▁detectors	-11.0456
-8	-11.0462
ik	-11.0462
4)	-11.0466
▁visit	-11.0466
▁shifts	-11.0472
.7	-11.0472
▁confirmed	-11.0477
br	-11.0479
▁allocate	-11.0483
go	-11.0487
port	-11.0489
▁banks	-11.0491
▁horn	-11.0491
▁prolog	-11.0491
▁isolation	-11.0492
▁thomas	-11.0493
ag	-11.0499
▁ny	-11.05
34	-11.0501
2000	-11.0509
▁([	-11.051
▁restoration	-11.051
▁labelled	-11.0511
dc	-11.0514
field	-11.0516
},	-11.0518
▁induces	-11.0521
▁nsf	-11.0521
▁precedence	-11.0528
▁unstable	-11.0529
▁forecasting	-11.053
24	-11.0534
▁obtains	-11.0534
▁13.	-11.0535
▁13,	-11.0542
▁uncertainties	-11.0547
.6,	-11.056
13	-11.0562
▁0.9	-11.0564
ou	-11.0564
bs	-11.0565
▁visibility	-11.0565
▁evolving	-11.0566
▁sales	-11.0568
▁ports	-11.0571
forward	-11.0577
▁propagated	-11.0578
▁bidding	-11.0584
▁characterizing	-11.0585
bc	-11.0596
▁rigorous	-11.06
ru	-11.0602
▁hessian	-11.0602
▁comp	-11.0603
date	-11.0604
▁portions	-11.0605
means	-11.0607
▁increment	-11.0609
▁ll	-11.0616
▁10:	-11.0617
▁aggregated	-11.0618
po	-11.0619
▁resistance	-11.0621
▁mo	-11.0622
▁consumed	-11.0628
▁builds	-11.0628
▁kb	-11.0632
▁12,	-11.0633
calculus	-11.0635
86	-11.0638
▁informative	-11.0639
▁optimisation	-11.0639
▁[17].	-11.0641
▁qi	-11.0644
sided	-11.0647
▁pred	-11.0654
▁participating	-11.0658
▁(12)	-11.0658
▁discretized	-11.0662
▁logistic	-11.0664
▁3).	-11.0668
view	-11.0675
▁movements	-11.0685
▁martin	-11.0685
▁3.3.	-11.0691
symmetric	-11.0692
▁decentralized	-11.0696
▁plotted	-11.0696
▁1/	-11.0697
structure	-11.0697
▁executable	-11.07
est	-11.0707
▁cons	-11.0709
▁exhaustive	-11.0712
▁skills	-11.0713
▁certificate	-11.0719
▁sake	-11.0719
bl	-11.0725
fa	-11.0742
▁hi	-11.0743
▁refine	-11.0745
▁nice	-11.0746
▁[8,	-11.0746
▁[5],	-11.075
▁buckets	-11.0752
▁driving	-11.0752
dis	-11.0752
▁galerkin	-11.0753
▁teams	-11.0753
▁taylor	-11.0753
▁discarded	-11.0754
▁skeleton	-11.0757
body	-11.0757
▁notations	-11.076
▁modelled	-11.0761
▁clustered	-11.0762
▁foundations	-11.0764
▁tf	-11.0766
▁party	-11.0767
▁yang	-11.0769
cknowledgements	-11.077
▁rating	-11.0778
▁ha	-11.078
▁optimally	-11.0781
similar	-11.0784
▁pen	-11.0786
▁mention	-11.0789
26	-11.079
▁decidable	-11.079
▁hypertext	-11.079
27	-11.0794
▁ids	-11.0798
▁things	-11.0798
ct	-11.0798
▁fire	-11.0798
quality	-11.0799
▁served	-11.0799
variable	-11.0805
▁fading	-11.0809
▁robert	-11.0814
▁correspondences	-11.0814
▁speeds	-11.082
range	-11.0821
▁oc	-11.0826
▁chinese	-11.0828
▁backtracking	-11.083
▁slack	-11.0833
▁[4],	-11.0834
dl	-11.0835
▁european	-11.0847
mann	-11.085
▁fm	-11.0854
ko	-11.0854
ck	-11.0856
▁expectations	-11.0861
▁historical	-11.0864
▁interprocedural	-11.0866
tt	-11.0869
event	-11.0873
▁sequentially	-11.0883
▁workstations	-11.0883
▁statically	-11.0889
▁parse	-11.089
cd	-11.0895
▁hole	-11.0899
▁reconstruct	-11.0899
▁familiar	-11.0903
▁separable	-11.0905
▁degenerate	-11.0905
▁digit	-11.0906
cache	-11.0907
▁unix	-11.0911
.8	-11.0911
▁intel	-11.0918
φ	-11.0919
▁lexical	-11.0921
▁←	-11.0923
▁pipelining	-11.0923
▁james	-11.0923
▁ka	-11.0929
▁eld	-11.0931
▁intl	-11.0938
▁avg	-11.094
▁greatest	-11.0943
▁hops	-11.0943
▁multimodal	-11.0944
▁border	-11.0948
load	-11.0951
▁pop	-11.0955
▁distribute	-11.0957
▁nt	-11.0959
gs	-11.0963
▁adjusted	-11.0966
▁establishes	-11.0966
▁noting	-11.0968
▁perceptual	-11.0979
▁bring	-11.0983
▁discovering	-11.0987
▁instantiation	-11.0987
▁hong	-11.0988
▁incrementally	-11.0989
▁reaching	-11.0994
48	-11.0995
▁geographical	-11.1
ni	-11.1002
▁compositional	-11.101
ie	-11.1013
▁haskell	-11.1019
▁vortex	-11.102
▁des	-11.102
)}	-11.1024
▁hyperplane	-11.1026
-7	-11.1027
les	-11.1028
▁sharp	-11.103
▁pt	-11.1031
▁competing	-11.1039
▁simplex	-11.1043
cg	-11.1047
▁det	-11.105
su	-11.1052
▁cos	-11.1055
▁#(	-11.1061
▁reconstructed	-11.1061
▁arm	-11.1066
▁assist	-11.1076
▁colored	-11.1079
▁layered	-11.1083
ok	-11.1083
▁decoder	-11.1087
▁ratings	-11.1092
▁differentiation	-11.1099
▁mp	-11.1101
▁behave	-11.1104
▁deviations	-11.1108
▁playing	-11.1113
▁scans	-11.1117
▁replicas	-11.1118
▁accounts	-11.1121
▁workflow	-11.1122
▁reviews	-11.1123
▁[9,	-11.1129
▁unexpected	-11.1134
▁densities	-11.1136
▁crossover	-11.1138
▁geometrical	-11.1143
.24	-11.1145
▁stand	-11.1149
▁wu	-11.1154
▁young	-11.1157
▁disjunction	-11.1163
▁offline	-11.1163
▁gateway	-11.1165
▁eliminates	-11.1171
▁renaming	-11.1176
60	-11.1181
▁2001,	-11.1182
▁exponent	-11.1183
control	-11.1191
π	-11.1191
plane	-11.1191
▁multiplicative	-11.1195
▁summation	-11.1195
▁merely	-11.1196
▁checkpoints	-11.1196
▁firing	-11.1198
▁warehouse	-11.1202
▁drawback	-11.1203
▁prover	-11.1208
fuzzy	-11.1211
low	-11.1221
▁tried	-11.1222
▁quadrature	-11.1222
▁eigenvector	-11.1223
▁speedups	-11.1226
▁slight	-11.1226
base	-11.1236
▁reset	-11.1238
▁acceleration	-11.1242
▁mit	-11.1244
ack	-11.1248
machine	-11.125
▁affecting	-11.125
▁latencies	-11.1254
▁injection	-11.1255
▁decay	-11.1258
22	-11.1259
▁innovation	-11.1262
▁watermark	-11.1268
▁mas	-11.1268
▁multiagent	-11.1271
▁isomorphic	-11.1275
▁relating	-11.1275
000	-11.1279
▁trivially	-11.128
▁induce	-11.1284
▁(1.1)	-11.1286
▁popularity	-11.1296
product	-11.1297
▁nontrivial	-11.1302
red	-11.1312
▁symplectic	-11.1314
▁0.01	-11.1316
▁rejected	-11.1317
▁2.6	-11.132
▁analytically	-11.1325
▁expressing	-11.1326
▁wants	-11.1333
▁anisotropic	-11.1334
▁surprisingly	-11.1337
▁handles	-11.1343
▁ik	-11.1343
▁systematically	-11.1355
▁parents	-11.1355
▁latest	-11.1356
▁[11,	-11.1358
tic	-11.1363
▁school	-11.1363
▁speaker	-11.1363
92	-11.1365
.25	-11.1368
▁physically	-11.1372
▁ps	-11.1373
▁7!	-11.1373
▁sys	-11.138
▁mixing	-11.138
▁classic	-11.138
▁fan	-11.1383
▁integrates	-11.1388
▁dramatically	-11.1394
▁stabilization	-11.1395
ize	-11.1397
▁nine	-11.1398
▁[10],	-11.14
▁assessing	-11.1403
▁decides	-11.1409
▁ls	-11.141
▁rs	-11.141
▁rejection	-11.1415
lr	-11.1417
▁informal	-11.1419
▁calling	-11.1419
▁expense	-11.1435
▁scoring	-11.1435
▁influences	-11.1438
▁judgment	-11.1443
ard	-11.1445
▁[18].	-11.1451
▁gained	-11.1451
start	-11.1455
ous	-11.1458
▁timeout	-11.146
mac	-11.1462
ring	-11.1463
77	-11.147
▁transfers	-11.1475
▁dividing	-11.1475
▁toeplitz	-11.1475
▁subproblems	-11.1486
02	-11.1488
▁feed	-11.1489
▁spill	-11.1498
▁wi	-11.1503
▁molecules	-11.1503
▁subdomain	-11.1508
▁od	-11.1509
ep	-11.1513
▁6.3	-11.1513
▁observing	-11.1516
▁cues	-11.1516
▁perturbed	-11.1516
▁reporting	-11.1519
▁[9],	-11.1521
▁unable	-11.1522
▁unlikely	-11.1522
▁dierence	-11.1525
▁subproblem	-11.1525
vs	-11.1529
▁spectra	-11.1531
▁battery	-11.1536
▁surveillance	-11.1536
▁inventory	-11.1536
sup	-11.1538
▁4)	-11.1539
▁argumentation	-11.154
▁44	-11.1541
▁narrow	-11.1543
▁eect	-11.1544
▁void	-11.1546
.26	-11.1547
network	-11.1548
▁perspectives	-11.1549
▁strain	-11.1549
▁translate	-11.1554
▁adjacency	-11.1556
▁separating	-11.1556
▁tokens	-11.156
▁[27]	-11.1566
▁14,	-11.1569
high	-11.1573
▁generalizes	-11.1576
▁init	-11.1576
▁programmable	-11.1578
▁declared	-11.1582
validation	-11.1585
▁indicators	-11.1586
▁compound	-11.1586
▁def	-11.1587
▁poses	-11.1589
area	-11.1593
▁dispatch	-11.1595
▁anomaly	-11.1597
▁money	-11.1597
▁unification	-11.1599
▁[10,	-11.1601
▁circumstances	-11.1603
/1	-11.1604
isation	-11.1604
▁sk	-11.1608
▁institute	-11.1611
▁1999.	-11.1611
▁phone	-11.1611
acm	-11.1614
▁(2.1)	-11.1615
▁retrieving	-11.1618
▁modulation	-11.1618
▁educational	-11.1621
tm	-11.1623
▁iso	-11.1625
▁incompressible	-11.1638
▁compensation	-11.1638
▁explores	-11.1649
▁initiated	-11.1649
▁barriers	-11.166
▁cameras	-11.166
▁shock	-11.1669
mt	-11.1674
▁subspaces	-11.1675
run	-11.1679
▁nominal	-11.168
▁interests	-11.168
▁mechanics	-11.1682
▁gamma	-11.1686
▁perfectly	-11.1686
▁num	-11.1689
.17	-11.1692
▁1(	-11.1696
▁electric	-11.1699
▁[11],	-11.1699
▁transmitting	-11.1701
▁td	-11.1701
▁ranks	-11.1701
▁inexact	-11.1705
▁multiresolution	-11.1707
land	-11.1707
▁minimizer	-11.171
▁ultra	-11.171
▁bt	-11.1719
▁memories	-11.1721
▁submitted	-11.1721
.28	-11.1725
▁explains	-11.1728
▁highlight	-11.1729
▁shear	-11.1729
grid	-11.1732
▁lm	-11.1733
▁floor	-11.1733
mr	-11.1734
09	-11.1736
▁incurred	-11.1742
ism	-11.1743
▁fft	-11.1744
▁probes	-11.175
▁knowing	-11.1752
▁mhz	-11.1753
▁bl	-11.1755
▁tm	-11.1759
▁innite	-11.176
▁hyperbolic	-11.1762
▁∪	-11.1763
▁subdomains	-11.1775
▁cu	-11.178
▁traditionally	-11.1782
▁knapsack	-11.1784
normal	-11.1786
▁experienced	-11.1786
▁edit	-11.1787
▁lr	-11.179
▁thresholds	-11.179
au	-11.179
▁finitely	-11.1791
▁polygonal	-11.1794
▁firm	-11.1799
▁countries	-11.1805
▁silicon	-11.1807
▁substrate	-11.1816
▁looks	-11.1822
wide	-11.1824
▁emphasize	-11.1824
▁bridging	-11.1826
▁devoted	-11.1827
▁ce	-11.1827
▁thousands	-11.1832
▁po	-11.1836
▁prefer	-11.1842
▁1998.	-11.1845
▁numeric	-11.1845
▁committed	-11.1847
})	-11.1848
▁42	-11.1852
▁fd	-11.1866
▁equipped	-11.1868
▁unary	-11.1871
▁classifying	-11.1877
▁[20].	-11.1883
▁speculative	-11.1887
▁story	-11.1889
▁courses	-11.1891
▁cad	-11.1891
▁duality	-11.1892
▁facilitates	-11.1894
ley	-11.1895
▁te	-11.1896
ial	-11.1898
▁equipment	-11.19
.16	-11.1901
ting	-11.1915
▁drops	-11.1918
▁isomorphism	-11.1922
▁dot	-11.1935
▁yi	-11.1936
▁basically	-11.1938
▁16,	-11.1941
disjoint	-11.1948
▁7.1	-11.1949
root	-11.1949
▁proximity	-11.1952
19	-11.1952
▁discrepancy	-11.1952
▁subtrees	-11.1954
convex	-11.1962
▁powers	-11.1966
▁ep	-11.1967
▁envelope	-11.1968
▁pca	-11.1972
▁dominance	-11.1974
▁wind	-11.1975
▁constitutes	-11.1976
▁synthesized	-11.1979
region	-11.1979
▁gradients	-11.1987
▁guided	-11.1988
qi	-11.1989
▁attacker	-11.1991
recall	-11.1992
▁minima	-11.1993
▁loc	-11.1994
▁priorities	-11.1996
.30	-11.1997
")	-11.1998
pl	-11.1999
▁predefined	-11.1999
▁[19].	-11.1999
▁volumes	-11.2006
▁waves	-11.2007
▁md	-11.2008
▁(13)	-11.2009
▁innovative	-11.2016
▁discontinuities	-11.2016
▁compress	-11.2018
▁sw	-11.2018
▁[12,	-11.202
▁reject	-11.2021
▁hardness	-11.2022
▁respond	-11.2024
-10	-11.2025
▁referenced	-11.2025
part	-11.2029
bp	-11.203
▁iterated	-11.2031
7%	-11.2032
▁15,	-11.2034
rr	-11.2036
▁multiplexing	-11.2038
quot	-11.2041
-1)	-11.2046
▁examination	-11.205
▁1.4	-11.2053
▁sd	-11.2056
▁ubiquitous	-11.2059
▁ambiguous	-11.2059
▁enhancing	-11.2059
mod	-11.206
▁decoupled	-11.2061
▁multiscale	-11.2062
▁lab	-11.2071
▁4.3.	-11.2072
▁totally	-11.2073
▁converter	-11.2074
▁interpretations	-11.2076
▁parser	-11.208
mu	-11.208
▁gps	-11.2081
▁traverse	-11.2081
▁spatially	-11.2085
▁north	-11.2089
▁reordering	-11.2096
▁contributes	-11.2097
▁relay	-11.21
▁marketing	-11.2101
sized	-11.2101
▁dropped	-11.2102
▁recognizing	-11.2102
▁something	-11.2102
ger	-11.2108
▁download	-11.2109
▁tolerant	-11.2111
pe	-11.2112
▁nal	-11.2113
ek	-11.2117
▁learners	-11.2123
▁(#	-11.2136
▁citation	-11.2137
style	-11.2141
▁95	-11.2146
.12	-11.215
▁protect	-11.2151
parameter	-11.2152
▁obstacle	-11.2159
▁beliefs	-11.2159
bar	-11.216
ray	-11.2168
▁eval	-11.217
▁flash	-11.217
.39	-11.2176
ker	-11.2181
▁pulse	-11.219
▁satised	-11.219
tp	-11.219
▁individually	-11.2193
▁averaged	-11.22
▁custom	-11.2201
ut	-11.2204
▁dfs	-11.2207
▁washington	-11.2211
▁implied	-11.2211
▁disjunctive	-11.2211
▁warp	-11.2217
▁5.1.	-11.2218
▁ccr	-11.2222
▁39	-11.2222
▁ft	-11.2229
▁turned	-11.2229
▁ev	-11.223
▁itemset	-11.223
▁laplacian	-11.2233
▁readers	-11.2233
="	-11.2242
▁specic	-11.2245
▁discipline	-11.2246
▁targeted	-11.2253
coloring	-11.2253
▁terrain	-11.2255
▁bp	-11.2256
fp	-11.2257
▁commitments	-11.2267
▁crash	-11.2273
▁rp	-11.2273
▁packages	-11.2273
ey	-11.2274
▁tv	-11.2277
23	-11.2281
▁1;	-11.2281
wa	-11.2282
element	-11.2285
▁endpoint	-11.2286
▁twenty	-11.2298
▁saturation	-11.2298
▁mt	-11.2299
▁∧	-11.2299
han	-11.2299
▁ultimately	-11.2299
▁truncated	-11.23
▁compromise	-11.23
▁aligned	-11.2301
▁residuals	-11.2309
▁preemption	-11.2312
ev	-11.2315
▁[7],	-11.232
group	-11.2323
▁intersections	-11.233
▁switched	-11.2334
▁(14)	-11.2337
▁destinations	-11.2342
▁guidance	-11.2342
noise	-11.2343
▁rollback	-11.2357
36	-11.2363
▁extensible	-11.2365
▁axes	-11.2366
▁1/2	-11.2373
▁propositions	-11.2376
sh	-11.2376
▁plate	-11.2377
▁revision	-11.238
▁bag	-11.2387
▁participate	-11.2389
▁fifo	-11.2389
▁[21].	-11.2389
▁ob	-11.2393
▁alias	-11.2402
thetan	-11.2404
▁rec	-11.2405
web	-11.2406
▁simplifies	-11.2409
▁concluding	-11.2409
▁rewritten	-11.241
▁2000,	-11.2414
cult	-11.2421
▁algebras	-11.2424
induced	-11.2427
▁ko	-11.2427
▁5%	-11.2428
ee	-11.2428
▁stories	-11.2431
▁heterogeneity	-11.2431
▁south	-11.2431
▁supplied	-11.2432
▁soundness	-11.2433
▁[13],	-11.2443
▁rl	-11.2443
▁trusted	-11.2446
▁arrangement	-11.2446
ah	-11.2447
language	-11.2447
▁angular	-11.2454
▁biology	-11.2454
▁getting	-11.2455
computer	-11.2461
▁(3.1)	-11.2461
▁75	-11.2462
▁adapting	-11.2464
▁nest	-11.2464
▁blue	-11.2474
▁metal	-11.2475
also	-11.2476
▁containment	-11.2483
▁obstacles	-11.2484
▁signed	-11.2486
▁96	-11.2487
▁nc	-11.2489
spline	-11.2491
▁exchanged	-11.2493
aamas	-11.2494
▁viewpoints	-11.2494
▁grouped	-11.2499
▁dominating	-11.2499
▁dropping	-11.2499
▁springer	-11.2499
▁sl	-11.2503
wi	-11.2508
▁election	-11.2514
▁fat	-11.2514
▁eigen	-11.2515
29	-11.252
▁chebyshev	-11.2521
▁gathering	-11.2524
▁dialog	-11.2532
▁released	-11.2537
▁multiply	-11.254
▁advice	-11.2543
▁chaotic	-11.2543
▁accessibility	-11.2544
▁normative	-11.2544
▁collecting	-11.2551
▁1996	-11.2553
80	-11.2556
factor	-11.2558
▁jan	-11.2559
▁coded	-11.256
▁earliest	-11.2566
▁france	-11.2566
our	-11.2567
▁authority	-11.2568
▁tabu	-11.2571
design	-11.2573
▁assessed	-11.2573
diagonal	-11.2581
.31	-11.2582
▁tridiagonal	-11.2587
▁120	-11.2587
▁copying	-11.2588
▁dsp	-11.2588
▁accumulation	-11.2588
▁bn	-11.2588
passing	-11.259
▁managed	-11.259
▁influenced	-11.2597
▁soil	-11.2598
▁fc	-11.2603
▁participant	-11.2605
▁violation	-11.2605
▁surrounding	-11.2605
ieee	-11.2607
▁poorly	-11.2617
▁shifted	-11.2623
▁experimentation	-11.2625
▁grain	-11.263
▁locating	-11.2634
▁commerce	-11.264
▁transforming	-11.264
▁bb	-11.264
▁burst	-11.2642
▁documentation	-11.2643
▁consumers	-11.2646
▁snapshot	-11.2651
▁imperative	-11.2657
▁theoretic	-11.2663
channel	-11.2663
38	-11.2665
▁ancestor	-11.2671
▁[12],	-11.2672
69	-11.2672
▁valuations	-11.2681
▁mental	-11.2684
▁arriving	-11.2702
▁deleting	-11.2702
▁blood	-11.2702
▁tc	-11.2713
▁mirror	-11.2713
poly	-11.272
rep	-11.2725
▁productivity	-11.2726
07	-11.2727
▁reconfiguration	-11.2732
▁win	-11.2733
▁bilinear	-11.2734
cients	-11.2738
structured	-11.2739
▁bc	-11.2744
▁placing	-11.2748
▁submatrix	-11.2751
▁regularized	-11.2753
ors	-11.2753
▁engineers	-11.2757
▁universe	-11.2771
▁die	-11.2772
most	-11.2776
▁512	-11.2777
▁formalization	-11.2782
checking	-11.2788
good	-11.2791
call	-11.2792
▁instantaneous	-11.2793
add	-11.2794
▁kr	-11.2795
▁meets	-11.2801
▁coming	-11.2804
▁robotic	-11.2808
▁fee	-11.2809
exp	-11.2811
▁satellite	-11.2812
500	-11.2812
surface	-11.2813
▁drug	-11.2814
▁sector	-11.2816
▁morphological	-11.2818
▁corrupted	-11.2819
▁editors	-11.282
▁subclass	-11.2824
▁park	-11.2828
▁[15],	-11.2832
▁ru	-11.2834
▁opinion	-11.2835
▁recommender	-11.2836
▁gibbs	-11.2841
▁preservation	-11.2841
▁stiffness	-11.2841
ciency	-11.2844
91	-11.2844
▁logs	-11.2846
]).	-11.2848
width	-11.2848
va	-11.2852
▁ilu	-11.2856
▁tdt	-11.2863
08	-11.2865
▁observer	-11.2867
life	-11.2869
▁recording	-11.2877
ov	-11.2881
▁datalog	-11.2884
ph	-11.2885
consistent	-11.2885
▁neumann	-11.2888
▁expanding	-11.2894
▁30%	-11.2895
service	-11.2901
unit	-11.2905
▁identifiers	-11.2906
▁stuck	-11.2911
▁shot	-11.2911
▁req	-11.2914
▁cn	-11.2915
▁dn	-11.292
▁abort	-11.292
▁tuned	-11.2922
▁shadow	-11.2922
deltat	-11.2924
tuple	-11.2925
=3	-11.2929
depth	-11.2931
▁technological	-11.2934
▁buy	-11.2935
▁han	-11.2938
nt	-11.2939
▁argued	-11.2939
▁bundle	-11.294
▁american	-11.2941
3.	-11.2946
▁(16)	-11.2946
▁cap	-11.295
software	-11.2953
▁film	-11.2954
▁surveys	-11.2956
▁dashed	-11.2959
well	-11.296
=4	-11.2961
▁skewed	-11.2962
▁inserting	-11.2966
▁investigations	-11.2973
▁specication	-11.2977
▁cancellation	-11.2981
▁∀	-11.2982
▁daily	-11.2982
▁frontal	-11.2986
▁triggered	-11.2986
sm	-11.2987
edges	-11.2989
▁relates	-11.2989
▁datapath	-11.2993
▁splits	-11.3
▁nano	-11.3002
▁solely	-11.3005
▁unicast	-11.3007
▁paid	-11.3011
▁analogy	-11.3011
▁250	-11.3016
▁played	-11.3018
lc	-11.3019
▁ambient	-11.3029
▁participation	-11.3029
▁tagged	-11.3029
▁terminating	-11.3029
▁polyhedral	-11.303
bus	-11.3036
▁4.6	-11.3042
mn	-11.3042
▁dm	-11.3045
▁sdp	-11.3047
.5	-11.3047
▁kn	-11.3051
▁linux	-11.3052
▁tiling	-11.3053
▁1}	-11.3054
▁operands	-11.3054
▁mid	-11.3054
▁tile	-11.3054
▁hp	-11.3057
}.	-11.3062
▁++	-11.3063
▁saw	-11.3072
▁outlier	-11.3073
zi	-11.3074
▁unidirectional	-11.3076
▁tracks	-11.3078
▁positioning	-11.3079
.35	-11.3079
ins	-11.3082
▁0.05	-11.3083
▁differently	-11.3085
▁distinguishing	-11.3088
▁inefficient	-11.309
▁predicts	-11.3095
▁bisimulation	-11.31
ram	-11.31
▁monitors	-11.3104
▁activated	-11.3106
multi	-11.3108
37	-11.3108
dy	-11.3111
oo	-11.3116
task	-11.3117
▁antenna	-11.312
▁associations	-11.312
▁liquid	-11.3123
▁probing	-11.3129
▁networked	-11.3134
item	-11.3136
▁biased	-11.3138
.18	-11.3139
▁bifurcation	-11.3143
▁bulk	-11.3147
▁deformable	-11.3148
▁commutative	-11.3148
▁[14,	-11.3151
▁fixpoint	-11.3154
▁flight	-11.3157
▁tip	-11.316
▁termed	-11.3164
▁statistic	-11.3166
▁rel	-11.3167
▁developments	-11.3172
1000	-11.318
kin	-11.3187
▁script	-11.3189
▁informally	-11.3193
▁[14],	-11.3195
35	-11.32
▁evolve	-11.3204
▁falls	-11.3207
▁kth	-11.3207
theorem	-11.3215
▁payments	-11.3216
▁acknowledgment	-11.3216
▁denoting	-11.3219
▁pilot	-11.322
▁routed	-11.3222
▁multiplying	-11.3224
▁gi	-11.3232
▁importantly	-11.3235
''	-11.3239
.4	-11.324
▁discrimination	-11.3244
▁lyapunov	-11.3244
▁17,	-11.3244
▁dataflow	-11.3244
▁admits	-11.3254
frame	-11.3256
▁ref	-11.326
▁1)-	-11.326
▁contradicts	-11.326
static	-11.3261
more	-11.3265
▁3(	-11.3268
▁winning	-11.3268
▁oblivious	-11.3269
sen	-11.3274
▁(15)	-11.3276
▁dg	-11.3285
▁07)	-11.3288
((	-11.3288
▁subgraphs	-11.3291
▁breast	-11.3292
▁acknowledgement	-11.3294
▁feel	-11.3295
▁api	-11.3297
▁bins	-11.3298
▁cliques	-11.3299
▁gpu	-11.3299
▁worker	-11.3302
▁harder	-11.3304
▁boundedness	-11.3304
best	-11.3304
▁intervention	-11.331
▁comment	-11.331
▁))	-11.3312
▁centroid	-11.3313
▁plasma	-11.3317
▁lisp	-11.3323
▁decompose	-11.3325
▁adaptively	-11.3325
head	-11.3326
▁deformations	-11.3328
▁shifting	-11.3333
▁coincides	-11.3337
▁ongoing	-11.3338
▁subroutine	-11.3338
▁movie	-11.3338
page	-11.3341
▁prescribed	-11.3343
▁coordinated	-11.3345
pair	-11.3346
-6	-11.335
▁tackle	-11.3353
▁claims	-11.3357
▁randomness	-11.3361
▁lattices	-11.3362
▁vote	-11.3368
)))	-11.337
▁inherently	-11.337
har	-11.3373
▁removes	-11.3373
▁ttl	-11.3374
▁workers	-11.3377
▁finish	-11.3382
▁emotion	-11.3383
competitive	-11.3386
▁{0,	-11.3386
▁disadvantage	-11.3387
▁excess	-11.339
▁quantification	-11.339
▁bodies	-11.339
.22	-11.3391
85	-11.3392
▁race	-11.3392
▁instantiated	-11.3394
▁exposed	-11.3397
▁restricting	-11.3401
▁traversed	-11.3404
▁vibration	-11.3404
▁offering	-11.3406
▁concatenation	-11.3414
▁ω	-11.3416
▁[13,	-11.3418
▁analyse	-11.3421
▁optional	-11.3424
▁il	-11.3427
▁contraction	-11.3438
▁contracts	-11.3438
ty	-11.3439
▁solvable	-11.3439
▁(1.2)	-11.344
den	-11.3442
read	-11.3443
▁clean	-11.3448
▁exercise	-11.3449
▁rg	-11.345
.19	-11.3451
cube	-11.3462
▁ld	-11.3463
▁counters	-11.3463
▁burden	-11.3465
▁lc	-11.3468
ster	-11.3473
▁analysed	-11.3476
▁mat	-11.3477
▁1996)	-11.3477
version	-11.3478
λ	-11.3484
▁operand	-11.3487
▁reusable	-11.3488
mer	-11.3489
▁personalized	-11.3491
▁complexities	-11.3492
▁instability	-11.3496
true	-11.3497
▁manipulate	-11.3498
9%	-11.3502
tolerance	-11.3509
▁kinetic	-11.3511
▁hilbert	-11.3513
▁expertise	-11.3514
▁marks	-11.3518
^	-11.3519
▁pointing	-11.3521
47	-11.3527
▁rings	-11.3535
▁unfolding	-11.3537
▁progressive	-11.3537
ase	-11.3538
▁univariate	-11.3538
▁categorical	-11.3538
▁retiming	-11.3538
▁classroom	-11.3539
▁41	-11.3543
.21	-11.3547
▁inferred	-11.3549
af	-11.3552
▁succeeds	-11.3556
31	-11.3556
similarity	-11.3559
▁segmented	-11.3559
▁visually	-11.356
▁trip	-11.3561
66	-11.3562
▁̃	-11.3563
▁viscosity	-11.3563
▁ef	-11.3565
▁overload	-11.3566
▁older	-11.357
▁reserved	-11.3572
▁possess	-11.3582
▁collisions	-11.3585
▁frontier	-11.3587
▁transit	-11.3591
▁constructors	-11.3592
▁letting	-11.3598
▁46	-11.3599
▁unknowns	-11.36
▁ja	-11.3605
intensive	-11.3609
▁coalition	-11.361
hp	-11.361
▁wlan	-11.3617
pro	-11.3628
index	-11.3631
gi	-11.3631
pre	-11.3635
band	-11.3635
▁imaginary	-11.3638
▁reflectance	-11.3639
ht	-11.3639
▁col	-11.364
points	-11.3642
▁jitter	-11.3643
▁jumps	-11.3645
▁kim	-11.3646
▁ji	-11.3647
▁accomplish	-11.3649
▁(20)	-11.3656
▁excessive	-11.3661
▁quotient	-11.3662
▁contiguous	-11.3662
▁77	-11.3663
▁pentium	-11.3664
▁6.4	-11.3666
ung	-11.3668
▁3.8	-11.3669
▁slowly	-11.3671
▁granted	-11.3673
▁dominates	-11.3677
offs	-11.3677
chi	-11.3677
▁decompositions	-11.3678
▁books	-11.3678
▁notification	-11.368
through	-11.3684
▁permanent	-11.3687
aided	-11.3689
▁hiding	-11.3689
▁formats	-11.3691
▁rarely	-11.3692
sequence	-11.3694
ach	-11.3695
▁coin	-11.3696
▁wider	-11.3699
▁||	-11.3699
▁acting	-11.3702
▁1999,	-11.3703
▁msg	-11.3704
▁initialize	-11.3704
▁3.7	-11.3707
second	-11.3709
▁dim	-11.3709
constant	-11.3711
▁(18)	-11.3716
▁pg	-11.3718
▁unitary	-11.372
▁ec	-11.3721
▁raised	-11.3723
▁translations	-11.3725
▁14.	-11.3726
▁80%	-11.3726
▁hundreds	-11.3726
row	-11.3733
▁000	-11.3733
condition	-11.3734
paths	-11.3737
▁spam	-11.374
▁publication	-11.3741
ong	-11.3744
▁attributed	-11.3744
▁chang	-11.3744
▁semantically	-11.3744
▁china	-11.3745
▁traveling	-11.3746
2(	-11.3746
ny	-11.3751
▁invoke	-11.3752
berg	-11.3752
▁fits	-11.3756
▁convention	-11.3762
when	-11.3768
▁likewise	-11.3771
30	-11.3772
▁lg	-11.3772
▁regional	-11.3775
▁joining	-11.3789
▁stay	-11.3789
▁necessity	-11.379
▁paul	-11.3793
ens	-11.3796
▁-2	-11.3801
ini	-11.3801
▁[28]	-11.3804
▁institutions	-11.3804
▁99	-11.3805
.20	-11.3808
▁saved	-11.3812
▁concave	-11.3817
.32	-11.3822
▁quick	-11.3838
▁ro	-11.384
▁declaration	-11.384
▁develops	-11.3841
▁regulation	-11.3842
▁fiber	-11.3844
▁epsilon	-11.3844
posed	-11.3846
.33	-11.385
▁pac	-11.3853
▁bm	-11.3859
▁tradeoffs	-11.3859
];	-11.3864
▁resonance	-11.3867
▁...,	-11.3867
▁temporary	-11.3867
▁ethernet	-11.3867
▁laplace	-11.3868
▁carrier	-11.3868
▁germany	-11.3869
▁hall	-11.387
rp	-11.3875
ws	-11.3876
▁retain	-11.3877
▁5.5	-11.3881
▁neuron	-11.3885
tu	-11.3892
▁gl	-11.3895
lm	-11.39
▁[23].	-11.3901
▁bo	-11.3902
access	-11.3912
▁fresh	-11.3919
▁repositories	-11.3919
▁arg	-11.3923
▁11:	-11.3926
▁[17],	-11.3928
▁800	-11.3935
conditioned	-11.3942
▁subscript	-11.3942
▁indication	-11.3945
▁departure	-11.3945
▁fastest	-11.3947
18	-11.395
▁rtt	-11.3952
cast	-11.3953
▁exchanges	-11.3961
▁behaves	-11.3962
▁mismatch	-11.397
▁leakage	-11.3971
▁integrals	-11.3971
▁recommended	-11.3973
▁ict	-11.3973
▁handler	-11.3973
▁18,	-11.3974
▁consuming	-11.3974
▁subgroup	-11.3975
dg	-11.3979
.38	-11.3985
trip	-11.3988
▁queuing	-11.3997
.36	-11.3998
▁panel	-11.4001
▁strengths	-11.4006
▁analyzes	-11.401
▁carrying	-11.4011
▁sorts	-11.4011
▁capital	-11.4015
▁digits	-11.4015
ned	-11.4019
old	-11.402
▁vp	-11.4023
▁ownership	-11.4023
df	-11.4024
▁emission	-11.4026
algorithm	-11.4027
▁professional	-11.4032
▁disciplines	-11.4033
▁[22].	-11.4034
▁uni	-11.4041
od	-11.4044
▁incentive	-11.405
▁(3.2)	-11.405
▁causality	-11.405
▁accumulated	-11.4053
▁aliasing	-11.4054
▁viable	-11.4057
▁cascade	-11.4063
▁19,	-11.4065
▁formalize	-11.4065
▁stride	-11.4067
av	-11.4068
1(	-11.4072
▁receptor	-11.4076
39	-11.4076
▁frank	-11.4079
▁nding	-11.4081
▁promise	-11.4082
▁hmm	-11.4083
72	-11.4084
lf	-11.4096
http	-11.4098
▁gathered	-11.4104
▁approximates	-11.4105
vm	-11.4106
▁pu	-11.4107
1),	-11.4112
▁ge	-11.4112
▁ideally	-11.4112
▁simplifying	-11.4112
▁cast	-11.4113
▁sparc	-11.4117
▁insufficient	-11.4117
▁52	-11.4118
▁unity	-11.412
▁your	-11.4127
▁arrow	-11.4128
▁collocation	-11.4128
▁revised	-11.4131
▁rotational	-11.4133
▁animal	-11.4133
▁comprises	-11.4135
▁stops	-11.4139
▁seeking	-11.4139
ks	-11.414
▁circles	-11.4141
▁(2.2)	-11.4142
rf	-11.4143
nc	-11.4145
▁info	-11.4145
▁1995	-11.4147
each	-11.4148
▁evident	-11.4152
▁3)	-11.4154
▁dissipation	-11.4154
▁summaries	-11.4155
▁(2.3)	-11.4155
▁μ	-11.4157
▁learns	-11.4158
.23	-11.416
light	-11.416
ised	-11.4163
hs	-11.4166
▁inform	-11.4167
fm	-11.4171
specified	-11.4174
▁km	-11.4178
self	-11.4179
▁multiplicity	-11.4181
▁monotonically	-11.4182
▁sg	-11.4183
▁triangulations	-11.4183
▁grey	-11.4187
▁1997)	-11.4191
ot	-11.4192
image	-11.4194
partition	-11.4195
▁translates	-11.4195
ten	-11.4197
▁2.8	-11.4207
▁pervasive	-11.4208
▁instrumentation	-11.4208
▁smith	-11.4208
▁occluded	-11.4209
▁alice	-11.4209
program	-11.4209
▁suffers	-11.421
▁cue	-11.4211
▁electron	-11.4212
1%	-11.4215
▁prevents	-11.4221
▁proteins	-11.4228
approach	-11.423
▁wa	-11.4231
position	-11.4232
▁crack	-11.4232
▁[35]	-11.4234
▁volumetric	-11.4234
▁damping	-11.4234
▁impacts	-11.4235
▁rendered	-11.4237
▁divides	-11.4239
▁shop	-11.4241
▁terminals	-11.4244
▁handoff	-11.4246
▁firms	-11.4248
component	-11.4254
▁nn	-11.4266
▁uk	-11.4266
▁1%	-11.4267
21	-11.4268
▁[16],	-11.427
▁shell	-11.4273
▁dy	-11.4274
▁walking	-11.4274
some	-11.4275
▁mn	-11.4275
▁diff	-11.4277
▁spheres	-11.4289
▁novelty	-11.4289
▁bob	-11.4307
diffusion	-11.431
▁pes	-11.4311
▁fn	-11.4314
▁efficacy	-11.4315
▁declarations	-11.4316
▁actor	-11.4317
▁mediator	-11.4317
▁enters	-11.4327
fe	-11.4328
▁attempted	-11.4329
▁ut	-11.4334
▁600	-11.4336
▁ju	-11.4338
method	-11.4339
ja	-11.434
▁spatio	-11.4341
▁deductive	-11.4342
▁impulse	-11.4342
▁arrivals	-11.4342
▁texts	-11.4352
act	-11.4357
▁button	-11.4363
▁polynomially	-11.4365
▁cauchy	-11.4369
▁radiation	-11.4369
▁permitted	-11.4369
▁convection	-11.4369
▁diego	-11.4369
▁provision	-11.437
▁fractal	-11.4371
ise	-11.4371
▁roc	-11.4371
▁finished	-11.4372
▁lag	-11.4373
pos	-11.4378
▁singleton	-11.4381
▁elaborate	-11.4383
▁8-	-11.4386
▁pd	-11.4389
check	-11.4391
▁11]	-11.4393
▁proximal	-11.4396
▁daniel	-11.4396
▁modulus	-11.4396
▁practically	-11.4396
▁steering	-11.4397
▁restart	-11.4397
shaped	-11.4398
byte	-11.4399
▁devised	-11.4407
▁depicts	-11.4414
▁56	-11.4414
▁worlds	-11.4415
der	-11.4424
file	-11.4425
(#	-11.4426
rl	-11.4433
rc	-11.4437
▁tour	-11.4439
ron	-11.444
▁thickness	-11.445
▁women	-11.445
▁mandatory	-11.445
▁confusion	-11.445
▁carries	-11.4451
▁adaboost	-11.4451
▁tan	-11.4462
▁partly	-11.4464
▁cars	-11.4464
proc	-11.4471
▁hide	-11.4472
tion	-11.4474
▁7.2	-11.4477
▁pl	-11.4481
▁horizon	-11.4481
44	-11.4482
icroarchitecture	-11.4482
▁rankings	-11.45
nl	-11.4501
▁demonstrating	-11.4505
▁deduction	-11.4505
▁bidirectional	-11.4505
▁3.4.	-11.4506
▁tailored	-11.4506
▁classication	-11.4509
76	-11.4511
49	-11.4511
▁masking	-11.4513
say	-11.4513
1:	-11.4516
▁rpc	-11.4516
▁modest	-11.4518
▁goods	-11.452
▁maximized	-11.4523
53	-11.4526
▁cubes	-11.4526
▁gm	-11.4527
▁italy	-11.4533
▁2.7	-11.4534
▁torus	-11.4535
▁cylinder	-11.4536
nf	-11.4537
▁conditioned	-11.4542
face	-11.4543
ob	-11.4547
▁drawbacks	-11.455
</	-11.4551
centric	-11.4555
▁derives	-11.4556
-0	-11.4557
▁plausible	-11.456
▁disconnected	-11.4561
▁elsewhere	-11.4562
▁parallelizing	-11.4569
▁gaps	-11.4571
▁designated	-11.4575
mit	-11.4576
▁von	-11.4577
▁obj	-11.4577
bf	-11.4577
▁10000	-11.4577
▁5.2.	-11.4582
▁tune	-11.4582
γ	-11.4583
▁parabolic	-11.4588
sis	-11.4596
.40	-11.46
▁paradigms	-11.461
▁alter	-11.4611
▁́	-11.4615
▁playback	-11.4616
▁compaction	-11.4617
▁predecessor	-11.4619
▁attained	-11.4621
oy	-11.4621
▁15.	-11.4628
▁4.7	-11.463
▁evenly	-11.4636
▁shi	-11.4639
▁ahead	-11.4639
▁capacities	-11.4643
▁continuing	-11.4643
▁amortized	-11.4645
▁roll	-11.4647
▁buffering	-11.4661
md	-11.4668
▁replaces	-11.467
▁ta	-11.467
▁nil	-11.467
▁stimuli	-11.4671
▁biomedical	-11.4671
▁investment	-11.4675
▁downloaded	-11.4675
▁posed	-11.4677
▁risks	-11.468
▁53	-11.4681
gg	-11.4687
ick	-11.469
▁adder	-11.4691
▁gossip	-11.4695
200	-11.4696
weighted	-11.4698
▁anomalies	-11.4699
▁capacitance	-11.4699
▁restrictive	-11.47
▁publications	-11.4701
▁cancel	-11.4703
▁hs	-11.4708
▁xn	-11.4713
5-	-11.4713
values	-11.4714
▁thresholding	-11.4716
▁∗	-11.4717
matching	-11.472
▁(19)	-11.4722
▁generalizations	-11.4724
comp	-11.4724
▁existential	-11.4725
▁20]	-11.4725
document	-11.4726
▁porous	-11.4727
▁richard	-11.4727
▁cas	-11.4727
▁12:	-11.4731
▁membrane	-11.4731
deltay	-11.4733
▁emotional	-11.4738
▁25%	-11.4741
▁jointly	-11.4744
▁qp	-11.4746
▁counted	-11.4746
controlled	-11.475
▁converse	-11.4753
▁subtle	-11.4755
▁reception	-11.4755
▁healthcare	-11.4755
▁structuring	-11.4755
active	-11.4756
▁makespan	-11.4757
▁problematic	-11.476
▁tlb	-11.4761
▁adopting	-11.4765
▁breaking	-11.4766
▁constrain	-11.4771
▁orientations	-11.4771
▁suggesting	-11.4779
▁websites	-11.4779
▁andrew	-11.478
teroperability	-11.4783
▁brought	-11.4783
▁coalescing	-11.4783
▁imprecise	-11.4783
reduction	-11.4783
▁conjunctive	-11.4783
43	-11.4786
▁breakdown	-11.4788
▁intersects	-11.4789
▁(~	-11.4793
▁scatter	-11.4794
because	-11.4807
▁salient	-11.4811
▁hospital	-11.4816
▁determinant	-11.4816
▁physiological	-11.4817
▁recovering	-11.4822
▁returning	-11.4824
▁originality	-11.4825
eq	-11.4826
▁pcs	-11.4835
▁rb	-11.4836
▁quantified	-11.484
▁essence	-11.484
▁fifth	-11.484
▁abilities	-11.484
▁gis	-11.4841
67	-11.4841
rk	-11.4844
▁tumor	-11.4845
▁quantifier	-11.4845
▁1998,	-11.4845
▁acid	-11.4849
day	-11.4849
▁(17)	-11.4851
▁reg	-11.4857
▁sar	-11.4865
▁derivations	-11.4868
▁exploratory	-11.4868
▁focal	-11.4869
uc	-11.4872
▁convexity	-11.4876
▁66	-11.4878
▁searched	-11.4878
▁triples	-11.4883
▁acl	-11.4884
▁visits	-11.4892
33	-11.4892
▁crawl	-11.4893
ham	-11.4895
ani	-11.4896
▁breadth	-11.4897
mapped	-11.4897
▁chromatic	-11.4897
▁speculation	-11.4897
▁microsoft	-11.4897
▁monadic	-11.4898
▁strip	-11.49
du	-11.4903
▁oil	-11.4906
▁mar	-11.4912
▁diseases	-11.4913
▁producer	-11.4916
▁lru	-11.492
▁invalid	-11.4922
▁(0,	-11.4923
5)	-11.4924
▁ascending	-11.4925
▁⊆	-11.4926
▁95%	-11.4929
▁0.0	-11.494
▁pb	-11.4942
match	-11.4942
[1]	-11.4945
bin	-11.4946
analysis	-11.495
respectively	-11.495
effective	-11.4952
.34	-11.4953
▁interfere	-11.4953
)+	-11.4954
▁dispersion	-11.4954
▁reflective	-11.4955
ef	-11.4958
▁finer	-11.4958
▁transmitter	-11.496
▁20,	-11.4977
▁incurs	-11.4979
▁5).	-11.498
▁electro	-11.4981
▁traversing	-11.4982
▁hamming	-11.4983
▁preparation	-11.4983
▁satisfiable	-11.4983
ana	-11.4983
▁jones	-11.4985
par	-11.4986
▁[30]	-11.4987
▁pending	-11.4992
▁evolved	-11.4997
▁xu	-11.4997
.1-2	-11.5006
organizing	-11.5007
lambda	-11.5007
68	-11.5008
▁polar	-11.5009
63	-11.5011
▁hill	-11.5011
▁restructuring	-11.5011
▁faculty	-11.5012
▁summing	-11.5013
▁nm	-11.5013
▁render	-11.5015
▁interleaved	-11.5015
app	-11.5022
▁dx	-11.5026
lam	-11.5028
dd	-11.503
▁truthful	-11.5038
cv	-11.5038
pso	-11.5039
▁comprising	-11.504
▁electromagnetic	-11.504
▁undecidable	-11.504
col	-11.5043
▁watermarking	-11.5046
▁emerged	-11.5048
▁broadcasts	-11.5052
▁waits	-11.5053
▁breaks	-11.5057
81	-11.5058
▁gure	-11.5059
ann	-11.5061
programming	-11.5062
▁nl	-11.507
▁gold	-11.5072
▁adjusting	-11.5077
uni	-11.5079
nodes	-11.5081
▁signs	-11.5084
)|	-11.5094
arc	-11.5094
▁fb	-11.5094
complexity	-11.5094
▁staff	-11.5095
▁prune	-11.5096
▁counterpart	-11.5096
▁arrows	-11.5097
▁opening	-11.5098
▁discourse	-11.5098
▁superscalar	-11.5098
▁desktop	-11.5098
▁gradually	-11.5099
▁print	-11.5103
▁congruence	-11.5105
▁lose	-11.5107
reg	-11.5107
▁conceptually	-11.5107
▁informed	-11.5118
▁positively	-11.5121
▁prototyping	-11.5128
▁spurious	-11.5128
▁gather	-11.5128
▁possesses	-11.5129
▁τ	-11.513
▁nearby	-11.5134
▁relying	-11.5141
▁reviewers	-11.5141
▁imbalance	-11.5144
▁compensate	-11.5151
▁substitute	-11.5151
▁desire	-11.5151
▁developer	-11.5153
▁1.6	-11.5154
▁rn	-11.5159
store	-11.5161
ted	-11.5163
▁sellers	-11.5165
ski	-11.5166
▁filled	-11.5167
ln	-11.5171
ran	-11.5172
▁pat	-11.5181
founded	-11.5181
▁favor	-11.5184
two	-11.5191
▁navier	-11.5192
▁earth	-11.5192
▁authorization	-11.5195
▁pruned	-11.5198
standard	-11.5204
3%	-11.5209
▁hypercubes	-11.5215
▁gabor	-11.5216
▁byzantine	-11.5216
▁steiner	-11.5216
▁referring	-11.5217
once	-11.5218
ible	-11.5218
▁predictable	-11.522
▁concluded	-11.5221
▁spreading	-11.5225
▁fg	-11.5232
▁ter	-11.5234
▁brings	-11.5236
ki	-11.5237
▁knn	-11.5237
▁counterparts	-11.5239
▁centre	-11.524
color	-11.5241
are	-11.5241
▁superlinear	-11.5243
▁velocities	-11.5245
▁logging	-11.5245
▁colour	-11.5245
▁putting	-11.5246
▁(#)	-11.5249
sl	-11.525
▁virtually	-11.525
▁seeks	-11.5253
lines	-11.526
▁hair	-11.5265
▁styles	-11.5267
▁calculates	-11.5272
▁wormhole	-11.5275
▁unreliable	-11.5275
▁lightweight	-11.5276
▁waste	-11.5277
▁bars	-11.529
rich	-11.5295
tag	-11.5299
▁willing	-11.5301
▁superimposed	-11.5305
93	-11.5307
▁ode	-11.5309
entry	-11.531
.37	-11.531
▁overloaded	-11.531
▁intersecting	-11.5312
▁fed	-11.5314
▁monitored	-11.5315
fc	-11.5317
▁codeword	-11.5319
▁enforced	-11.5326
▁layouts	-11.5327
▁io	-11.5328
▁lps	-11.5329
▁perpendicular	-11.5334
▁naming	-11.5334
▁(0	-11.5338
tc	-11.5338
▁holes	-11.5338
▁orthonormal	-11.5343
▁ment	-11.5344
▁const	-11.5345
▁exhibited	-11.5345
▁98	-11.5345
▁winner	-11.5346
▁nat	-11.5346
▁df	-11.5348
▁populations	-11.5349
▁publicly	-11.5351
▁traders	-11.5352
▁dsm	-11.5352
▁svms	-11.5354
▁‘	-11.5364
▁leftmost	-11.5366
▁incur	-11.5367
van	-11.5367
▁unrelated	-11.5367
last	-11.537
▁entering	-11.5372
▁prop	-11.5372
▁corners	-11.5381
▁bugs	-11.5382
▁??	-11.5384
board	-11.5386
▁!!	-11.5387
▁honest	-11.5392
▁administration	-11.5394
▁(3.3)	-11.5395
can	-11.5395
▁modied	-11.5395
▁successors	-11.5398
pd	-11.5401
▁gc	-11.541
▁formalized	-11.5412
▁hpf	-11.5419
my	-11.5422
▁pipe	-11.5423
▁bigger	-11.5424
▁binomial	-11.5424
▁outstanding	-11.5425
▁adjoint	-11.5425
cycles	-11.5426
▁economics	-11.5428
consistency	-11.5428
▁equational	-11.5431
measure	-11.5433
ina	-11.544
des	-11.5441
▁cor	-11.5441
▁cal	-11.5442
▁tracked	-11.5442
▁missed	-11.5442
ium	-11.5444
▁combinational	-11.5446
distance	-11.545
▁preliminaries	-11.5454
▁clarity	-11.5454
▁ignoring	-11.5454
▁flag	-11.5455
▁succeed	-11.5455
▁specied	-11.5456
rule	-11.5459
▁bisection	-11.5459
▁flip	-11.547
▁devise	-11.5472
ay	-11.5472
▁2006.	-11.5474
deltax	-11.5475
square	-11.5476
▁concentrated	-11.5476
consuming	-11.548
▁procedural	-11.5485
▁constituent	-11.5493
2%	-11.55
lock	-11.5504
▁parallelized	-11.5505
▁hour	-11.5506
stokes	-11.551
▁massive	-11.5513
▁sha	-11.5514
without	-11.5514
▁translating	-11.5514
▁brightness	-11.5515
▁rfid	-11.5517
▁escape	-11.5517
▁paging	-11.5518
▁valued	-11.552
▁poset	-11.5523
▁interleaving	-11.5523
▁54	-11.5524
▁publishers	-11.5525
string	-11.5531
▁worked	-11.5533
mat	-11.5533
▁claimed	-11.5535
▁writer	-11.554
▁characterizes	-11.5541
▁country	-11.5547
ari	-11.5547
count	-11.555
▁expresses	-11.555
▁logarithm	-11.5553
75	-11.5555
2),	-11.5564
ya	-11.5569
▁tam	-11.5569
methodology	-11.5571
▁archive	-11.5572
here	-11.5573
▁generative	-11.5575
▁rotating	-11.5575
▁reynolds	-11.5576
▁filtered	-11.5576
▁votes	-11.5579
▁compounds	-11.5591
▁shots	-11.5591
▁[31]	-11.5592
▁[29]	-11.5592
▁australia	-11.5594
generation	-11.5596
▁ea	-11.5604
▁imp	-11.5605
▁encouraging	-11.5606
▁2.3.	-11.5607
▁rms	-11.5609
▁2003	-11.5609
▁bond	-11.5611
▁faced	-11.5611
fn	-11.5611
▁isosurface	-11.5615
▁supplier	-11.5616
sample	-11.5616
▁talk	-11.5627
.50	-11.5627
▁cold	-11.5627
▁usable	-11.563
▁initiate	-11.5634
▁sequel	-11.5637
▁splice	-11.5637
▁duplication	-11.5637
▁ctl	-11.5638
▁corba	-11.5638
▁ads	-11.5641
▁adequately	-11.5642
▁phrases	-11.5646
ib	-11.5651
og	-11.5653
its	-11.5657
▁attempting	-11.5658
▁ties	-11.566
▁hydro	-11.566
▁gu	-11.5663
▁violate	-11.5665
▁1995)	-11.5667
▁francisco	-11.5667
mon	-11.5668
ui	-11.567
▁4.8	-11.567
▁liveness	-11.567
▁bsp	-11.5672
▁nnf	-11.5672
▁conditioning	-11.5674
▁40%	-11.5674
▁polytope	-11.5678
▁justification	-11.5678
▁accelerated	-11.5679
▁scientists	-11.5679
▁(21)	-11.5685
▁smoothed	-11.5687
▁tableau	-11.5697
dec	-11.5698
▁cryptography	-11.5698
▁tomography	-11.5698
▁vital	-11.5699
▁denitions	-11.57
▁unsymmetric	-11.57
▁mem	-11.57
▁stencil	-11.5708
▁everywhere	-11.5711
▁app	-11.5713
▁identically	-11.5715
▁senses	-11.5716
▁tells	-11.5717
num	-11.5717
▁3.0	-11.5725
▁fo	-11.5729
message	-11.5735
▁voxel	-11.5739
▁pf	-11.574
▁hypernode	-11.574
▁raises	-11.5745
▁accounting	-11.5748
▁histograms	-11.5749
▁thesis	-11.5752
ning	-11.5759
▁telephone	-11.576
gl	-11.5767
▁jk	-11.5773
▁fy	-11.5777
▁doesn	-11.5778
▁timely	-11.5782
pf	-11.579
▁superiority	-11.5793
issue	-11.58
▁treating	-11.5801
shi	-11.5802
▁reused	-11.5803
▁comput	-11.5808
▁acc	-11.5808
▁grants	-11.581
▁organize	-11.5811
▁jth	-11.5814
men	-11.5815
▁facets	-11.5815
▁isotropic	-11.5816
stabilizing	-11.5818
▁47	-11.5819
=(	-11.582
▁delaunay	-11.5823
▁psychological	-11.5823
▁truly	-11.5823
▁sor	-11.5824
▁gb	-11.5825
▁establishment	-11.5826
stable	-11.5827
▁excluded	-11.5833
▁4.4.	-11.5834
▁chips	-11.5835
ahead	-11.5836
▁0.25	-11.5843
▁intractable	-11.5845
denoted	-11.585
▁walks	-11.5853
ino	-11.5854
▁accuracies	-11.5854
▁superposition	-11.5855
▁johnson	-11.5855
▁65	-11.5857
▁exploitation	-11.586
ano	-11.5868
used	-11.5872
▁ck	-11.5882
▁microarray	-11.5886
▁ws	-11.5887
▁substitutions	-11.589
▁entered	-11.5892
▁lift	-11.5892
▁lo	-11.5892
▁forwarded	-11.5894
▁fetched	-11.5894
▁0:5	-11.5901
▁97	-11.5902
ries	-11.5902
▁compromised	-11.5903
▁assistant	-11.5906
kl	-11.5909
words	-11.5913
▁freely	-11.5914
▁ple	-11.5915
▁agency	-11.5917
▁auctioneer	-11.5917
ji	-11.5918
▁drivers	-11.5919
▁arity	-11.5919
▁discard	-11.5921
▁mistakes	-11.5924
qos	-11.5925
▁rationale	-11.5926
▁55	-11.5934
ren	-11.5934
bt	-11.5936
simple	-11.5936
▁connects	-11.5937
▁increments	-11.5942
▁cnf	-11.5943
▁indirectly	-11.5945
ert	-11.5946
cal	-11.5948
▁shapley	-11.5949
▁affinity	-11.5949
▁[17,	-11.5949
▁ψ	-11.595
▁lifting	-11.5953
▁tighter	-11.5955
▁employees	-11.5957
▁facet	-11.596
ratio	-11.5961
ations	-11.5962
▁ending	-11.5966
▁0%	-11.598
▁rayleigh	-11.598
▁identities	-11.598
▁spite	-11.5981
▁flooding	-11.5983
▁singularity	-11.5984
▁evaluator	-11.5992
▁useless	-11.5996
(')	-11.5998
▁ki	-11.6001
▁seq	-11.6002
ence	-11.6002
tf	-11.6003
cu	-11.6004
▁[19],	-11.6007
▁joints	-11.6008
infinite	-11.6011
▁dotted	-11.6014
▁forcing	-11.6016
▁(23)	-11.6019
▁referees	-11.6028
ces	-11.603
▁sleep	-11.6041
hu	-11.6041
▁complexes	-11.6044
▁motivate	-11.6044
▁viscous	-11.6044
▁impedance	-11.6044
▁living	-11.6044
▁semiconductor	-11.6045
▁packed	-11.6046
fo	-11.6047
▁[16,	-11.605
▁[25].	-11.605
▁linearity	-11.605
▁conducting	-11.6052
▁audience	-11.6056
▁fortunately	-11.6056
▁vast	-11.6056
▁practitioners	-11.6057
▁instrument	-11.6057
definite	-11.606
▁pde	-11.6061
▁[32]	-11.6063
anti	-11.607
government	-11.6072
gram	-11.6073
▁justify	-11.6073
▁doubly	-11.6076
▁undesirable	-11.6076
▁foreign	-11.6076
▁assistance	-11.6076
▁tagging	-11.6077
▁titles	-11.6078
▁subsystems	-11.6079
▁ku	-11.608
aj	-11.6083
▁decade	-11.6089
ably	-11.6092
label	-11.6092
nes	-11.6096
▁wt	-11.6099
▁0:1	-11.6102
▁weather	-11.6107
▁provably	-11.6108
▁compiling	-11.6109
under	-11.611
0.00	-11.6113
race	-11.6115
▁converting	-11.6117
▁pspace	-11.6117
▁(22)	-11.6118
▁factorizations	-11.6123
▁gcc	-11.6123
▁3.9	-11.6134
global	-11.6134
▁au	-11.6134
54	-11.6134
▁cray	-11.6135
▁geometries	-11.6141
▁proxies	-11.6141
▁reliably	-11.6141
▁unpredictable	-11.6141
▁degrade	-11.6141
▁nb	-11.6143
doc	-11.6144
fit	-11.6146
6)	-11.6147
cons	-11.6148
▁$\	-11.615
▁omega	-11.615
▁him	-11.6152
open	-11.6158
▁[26].	-11.6159
▁resultant	-11.616
▁cat	-11.6162
▁reviewed	-11.6164
▁#)	-11.6169
integer	-11.6169
select	-11.6169
▁dramatic	-11.6173
▁polymorphism	-11.6173
▁scott	-11.6173
▁{1,	-11.6173
▁purchase	-11.6174
▁reducible	-11.6175
▁oscillations	-11.618
▁experimented	-11.6181
▁safely	-11.6184
▁bdd	-11.6185
▁imagery	-11.6186
▁sam	-11.6186
haracterizations	-11.6191
▁mon	-11.6191
ful	-11.6192
▁4(	-11.6194
-11	-11.6194
ez	-11.6198
▁timer	-11.6199
▁].	-11.6202
update	-11.6202
▁imposing	-11.6205
▁inconsistencies	-11.6205
▁discontinuity	-11.6205
▁unused	-11.6207
▁bug	-11.6213
▁analogously	-11.6214
▁aging	-11.6215
▁actors	-11.6217
▁nonsymmetric	-11.6217
▁genome	-11.6219
▁tp	-11.6221
▁76	-11.6226
ver	-11.6229
▁regime	-11.6231
4.	-11.6233
▁voronoi	-11.6238
▁widespread	-11.6238
▁shallow	-11.6242
▁[21],	-11.6243
79	-11.6245
▁robotics	-11.6246
▁tightly	-11.6248
(4)	-11.6251
▁merit	-11.6252
▁supernode	-11.6253
▁handover	-11.6257
▁tell	-11.6257
▁ward	-11.6259
▁jose	-11.6262
balancing	-11.6266
▁comprehension	-11.6271
▁fracture	-11.6271
▁pessimistic	-11.6271
▁singularities	-11.6272
▁encrypted	-11.6273
▁retained	-11.6275
▁ver	-11.6276
▁78	-11.6279
▁prepared	-11.6281
▁3.1,	-11.6291
▁2]	-11.6292
cor	-11.6294
▁?-	-11.6295
formed	-11.6296
▁buyers	-11.6297
continuous	-11.6298
▁schemas	-11.6298
▁hol	-11.6299
▁clicks	-11.6299
−1)	-11.63
▁encodings	-11.63
▁60%	-11.6302
▁emergency	-11.6303
▁ourselves	-11.6303
▁welfare	-11.6303
▁supposed	-11.6305
96]	-11.6306
▁orbit	-11.6314
▁sizing	-11.6316
ao	-11.6322
▁summarization	-11.6336
lg	-11.6337
▁logically	-11.6339
▁subjected	-11.634
▁cbr	-11.634
▁landscape	-11.635
▁spring	-11.6351
▁bands	-11.6351
57	-11.6355
▁chunk	-11.6358
▁analyzer	-11.6359
▁5.6	-11.636
get	-11.6361
closed	-11.6362
polynomial	-11.6365
sharing	-11.6365
59	-11.6369
▁riemann	-11.6369
▁spirit	-11.6369
▁encapsulation	-11.6369
▁yahoo	-11.637
▁sigmod	-11.637
▁(2.4)	-11.637
▁lip	-11.6371
▁tolerate	-11.6371
▁loosely	-11.6371
▁crystal	-11.6372
▁multiobjective	-11.6378
0.5	-11.6379
▁committee	-11.6383
▁demonstration	-11.6383
5.	-11.6386
▁stub	-11.6386
ward	-11.6389
▁(4.1)	-11.639
ble	-11.6391
eg	-11.6397
newton	-11.6399
prone	-11.64
▁huffman	-11.6402
▁imposes	-11.6403
▁multiplied	-11.6403
▁mortar	-11.6403
▁consequent	-11.6409
▁thinking	-11.6413
▁obdd	-11.6418
▁atp	-11.6427
▁13:	-11.6428
▁caller	-11.6428
▁mumps	-11.6436
▁neutral	-11.6436
▁upstream	-11.6439
▁[15,	-11.644
hl	-11.6449
ish	-11.645
▁analogue	-11.6451
▁microprocessor	-11.6451
buffer	-11.6461
▁quad	-11.6461
▁relax	-11.6462
▁jf	-11.6465
▁1997.	-11.6467
▁manipulating	-11.6469
cells	-11.6469
▁(28)	-11.6473
▁triggering	-11.6476
▁uniformity	-11.6477
▁sinks	-11.648
▁1024	-11.6481
▁cv	-11.6481
▁str	-11.6485
mos	-11.6488
▁fin	-11.649
relevant	-11.649
▁yielded	-11.649
ub	-11.649
5%	-11.649
km	-11.6492
▁mad	-11.6496
▁terminated	-11.6498
▁pan	-11.6502
▁explosion	-11.6503
▁immune	-11.6503
▁6.1.	-11.6505
▁polling	-11.6506
▁(24)	-11.6508
▁registered	-11.6509
▁fuel	-11.6509
party	-11.6511
▁pdf	-11.6517
▁potentials	-11.6517
▁muscle	-11.6518
▁implying	-11.6519
▁bindings	-11.652
94]	-11.6521
▁(8	-11.6521
▁1990	-11.6527
▁imagine	-11.6528
except	-11.6529
▁94	-11.6531
▁thorough	-11.6534
▁illustrative	-11.6536
▁fraud	-11.6536
▁propagating	-11.6536
▁2.9	-11.6538
▁nodal	-11.6538
▁sell	-11.6538
tal	-11.6539
▁augmenting	-11.654
▁institution	-11.6544
▁opinions	-11.6544
cyclic	-11.6548
▁meant	-11.6551
ification	-11.6552
▁simulates	-11.6559
ris	-11.6561
▁leg	-11.6562
rg	-11.6564
▁europe	-11.6569
▁controllability	-11.657
upsilon	-11.657
▁(1997)	-11.657
▁(1;	-11.6572
▁nonzeros	-11.6573
▁arrived	-11.6576
▁ei	-11.6576
▁math	-11.6578
law	-11.6579
▁5000	-11.6585
stream	-11.6585
▁16.	-11.6593
▁swap	-11.6593
bd	-11.6594
▁episodes	-11.6598
▁morph	-11.66
▁extracts	-11.6601
▁symmetries	-11.6603
▁saddle	-11.6603
▁aircraft	-11.6604
▁broadband	-11.6604
▁enforcement	-11.6604
▁allocating	-11.6604
▁controllable	-11.6604
▁tele	-11.6605
▁pq	-11.6608
▁biases	-11.661
del	-11.6616
▁stall	-11.6617
▁questionnaire	-11.6619
▁1].	-11.662
▁piconet	-11.662
▁mathematically	-11.6624
▁dbms	-11.6624
▁ann	-11.6626
▁sigma	-11.6629
70	-11.6629
▁pet	-11.6632
▁ret	-11.6634
▁concise	-11.6634
▁chan	-11.6634
56	-11.6637
▁disambiguation	-11.6637
▁sigkdd	-11.6637
oc	-11.6637
▁pram	-11.6638
gm	-11.6638
▁boltzmann	-11.6638
▁rd	-11.6639
▁(2.5)	-11.6639
-9	-11.664
▁disadvantages	-11.6641
▁turning	-11.6641
▁dominate	-11.6642
▁disc	-11.6643
▁ot	-11.6644
lib	-11.6644
rn	-11.6645
ras	-11.6645
▁violations	-11.6647
▁clutter	-11.665
▁lessons	-11.665
▁struct	-11.6652
▁residue	-11.6654
chain	-11.6658
▁reside	-11.666
▁vcg	-11.6664
dom	-11.6665
effort	-11.6667
▁interestingly	-11.6667
small	-11.6668
▁enforcing	-11.6671
kn	-11.6672
▁raise	-11.6678
logic	-11.6681
ze	-11.6682
▁perceptions	-11.6682
▁college	-11.6687
mark	-11.6688
▁continued	-11.6689
▁pictures	-11.6699
mesh	-11.67
41	-11.6702
▁compete	-11.6705
▁elicitation	-11.6706
▁months	-11.6706
▁seeds	-11.6711
▁fj	-11.6711
▁moore	-11.6711
▁::=	-11.6711
▁72	-11.6713
pattern	-11.6714
▁attitudes	-11.6719
▁peaks	-11.6721
site	-11.6724
positive	-11.6727
93,	-11.6731
▁loose	-11.6731
▁quantifiers	-11.6734
▁consume	-11.6737
65	-11.6738
▁cultural	-11.6739
▁],	-11.6739
▁discriminative	-11.674
acc	-11.674
▁modalities	-11.674
▁exclusively	-11.6744
▁pin	-11.6745
▁1999)	-11.6745
▁edf	-11.6748
dynamic	-11.6749
▁[18],	-11.6751
ising	-11.6755
▁primes	-11.6755
▁mail	-11.6756
▁diag	-11.6757
▁preventing	-11.6757
▁xiao	-11.6762
parametric	-11.6763
▁[20],	-11.6763
▁bone	-11.6763
▁trader	-11.677
initiated	-11.677
▁encoder	-11.6774
▁decidability	-11.6774
▁illustrating	-11.6774
▁refining	-11.6774
▁anything	-11.6774
▁distant	-11.6777
0.0	-11.6778
stack	-11.6778
▁customized	-11.6778
▁cited	-11.6778
▁corrected	-11.6789
▁highlights	-11.6791
▁reactions	-11.6795
▁publish	-11.6799
ele	-11.6803
center	-11.6803
black	-11.6805
▁invoking	-11.6809
▁polyhedron	-11.6809
▁administrative	-11.6809
▁[24].	-11.6809
sson	-11.6809
▁downstream	-11.6809
▁multifrontal	-11.681
▁suit	-11.6811
air	-11.6813
▁races	-11.682
▁49	-11.6823
▁sm	-11.6825
▁retransmission	-11.6827
▁waveform	-11.6827
▁slowdown	-11.6828
▁rays	-11.6836
▁variances	-11.6837
.48	-11.6839
▁dl	-11.6841
ell	-11.6841
balanced	-11.6843
blocking	-11.6843
▁morphology	-11.6843
▁η	-11.6845
▁resolving	-11.6845
▁conversation	-11.6849
300	-11.6853
▁screening	-11.6854
▁kkt	-11.6854
▁functionals	-11.6858
▁hundred	-11.6861
▁transistor	-11.6861
▁answered	-11.6871
▁1.8	-11.6873
δ	-11.6874
▁sv	-11.6875
▁spacing	-11.6878
▁japan	-11.6878
▁requesting	-11.6878
▁indoor	-11.6879
water	-11.6879
▁shaded	-11.6883
▁echo	-11.6883
▁nesting	-11.6884
▁openmp	-11.6887
▁indefinite	-11.6888
▁specificity	-11.6891
oh	-11.6891
▁ok	-11.6895
▁factoring	-11.6899
▁decades	-11.6899
▁dnf	-11.6905
▁discussing	-11.6905
volume	-11.6907
▁{(	-11.6907
split	-11.6909
▁proceeding	-11.691
▁imperfect	-11.6911
vis	-11.6912
▁advection	-11.6913
▁descriptive	-11.6913
▁pvm	-11.6914
▁normalizing	-11.6917
▁stokes	-11.6918
▁32-	-11.6919
ming	-11.692
▁inductively	-11.6921
▁interconnected	-11.6922
▁vn	-11.6925
▁reflecting	-11.6927
▁blas	-11.6928
▁deque	-11.6929
▁friction	-11.6929
▁culture	-11.6934
▁touch	-11.6934
mean	-11.6937
▁lateral	-11.6939
approximate	-11.6941
likelihood	-11.6944
▁maxima	-11.6945
▁erroneous	-11.6946
difference	-11.6946
▁subscripts	-11.6948
▁hermitian	-11.6949
▁lam	-11.6952
▁wishes	-11.6953
▁iris	-11.6954
inter	-11.6956
▁consisted	-11.6959
ica	-11.6962
▁opponent	-11.6966
▁buses	-11.6966
fd	-11.6972
▁6:	-11.6972
▁==	-11.6974
β	-11.6979
.7,	-11.6979
▁visualize	-11.6981
▁seamless	-11.6981
▁expressiveness	-11.6985
▁highlighted	-11.6988
pg	-11.6989
loc	-11.6989
▁mono	-11.6991
▁repeating	-11.6994
▁precondition	-11.6994
▁interrupt	-11.6994
modal	-11.7005
▁compose	-11.7008
;&	-11.7011
▁incidence	-11.7018
▁decoupling	-11.7018
▁weaknesses	-11.7019
▁death	-11.702
▁undefined	-11.7024
▁reserve	-11.7025
▁partners	-11.7025
▁uv	-11.7031
▁bd	-11.7038
58	-11.7038
62	-11.7042
▁forum	-11.7043
fly	-11.7046
typed	-11.7049
▁codewords	-11.7049
▁signicant	-11.7051
▁10,000	-11.7052
▁initiation	-11.7053
▁continuum	-11.7054
▁copyright	-11.7056
mhz	-11.7056
▁foot	-11.7057
▁5.3.	-11.7066
▁1993)	-11.7068
bits	-11.707
▁nonconvex	-11.7071
▁ows	-11.7082
▁2.1,	-11.7086
centered	-11.7088
▁legitimate	-11.7089
▁impractical	-11.7089
▁modularity	-11.7091
▁gossiping	-11.7094
both	-11.7097
▁augment	-11.7099
▁forecast	-11.7101
▁multiplications	-11.7106
▁obs	-11.7106
directional	-11.7107
average	-11.7108
▁expansions	-11.7117
▁1996.	-11.7117
knowledge	-11.712
then	-11.7121
▁vc	-11.7123
▁79	-11.7123
▁cambridge	-11.7124
▁spanned	-11.7125
▁huang	-11.7125
▁accelerate	-11.7131
▁authenticated	-11.7131
ada	-11.7138
▁allocations	-11.7138
▁(5	-11.7139
▁morphism	-11.7144
bm	-11.7145
year	-11.715
queue	-11.7152
yl	-11.7153
▁fluctuations	-11.7154
information	-11.7157
▁procurement	-11.716
▁successively	-11.7171
ping	-11.7178
mas	-11.7189
robot	-11.7195
▁longitudinal	-11.7196
▁bivariate	-11.7196
trace	-11.7198
▁[18,	-11.7199
▁rdf	-11.72
▁minus	-11.7203
▁deletions	-11.7203
▁eective	-11.7204
▁jv	-11.7207
▁defense	-11.7216
win	-11.7217
▁51	-11.7219
▁endif	-11.7219
ied	-11.7225
▁inaccurate	-11.7226
player	-11.7227
precision	-11.7227
▁14:	-11.7228
▁plug	-11.7229
▁copied	-11.7232
▁epipolar	-11.7232
▁geodesic	-11.7232
▁assurance	-11.7232
lan	-11.7232
▁scanned	-11.7233
▁inf	-11.7233
▁exam	-11.7235
▁extremal	-11.7237
▁alleviate	-11.7239
▁gender	-11.724
▁geometrically	-11.7241
.10,	-11.7241
▁announcement	-11.7245
▁cones	-11.7252
▁zones	-11.7254
▁spend	-11.7258
scheduling	-11.7261
▁invalidation	-11.7266
ons	-11.7266
▁pj	-11.7268
▁unlabeled	-11.7269
fer	-11.7271
gb	-11.7271
▁visualizing	-11.7271
▁algo	-11.7277
▁dealt	-11.7278
ants	-11.7281
▁sf	-11.7282
▁68	-11.7283
=0,	-11.7284
▁bw	-11.7289
▁password	-11.729
▁admit	-11.729
▁linearized	-11.729
generated	-11.729
▁ks	-11.7292
▁carbon	-11.7293
▁6).	-11.7294
▁insensitive	-11.7296
▁asks	-11.7297
▁remember	-11.7299
▁mal	-11.7302
▁reformulation	-11.7304
▁epidemic	-11.7304
▁kolmogorov	-11.7305
▁subtraction	-11.7305
▁simplicial	-11.7305
▁distributing	-11.7305
▁serialization	-11.7306
▁[20,	-11.7308
▁invocations	-11.7309
fast	-11.7318
▁encounter	-11.7318
▁coordinator	-11.7325
▁[22],	-11.7325
▁gram	-11.7325
▁forwards	-11.7326
ide	-11.7327
yan	-11.7333
▁stretch	-11.7334
address	-11.7336
safe	-11.7338
▁corpora	-11.7341
▁completing	-11.7341
▁polymorphic	-11.7341
▁cmp	-11.7341
▁tutorial	-11.7341
▁siggraph	-11.7341
55	-11.7342
▁momentum	-11.7342
▁eg	-11.7343
▁noticed	-11.7347
▁enhances	-11.7348
▁sgi	-11.7348
▁ht	-11.7348
▁inexpensive	-11.7353
▁journals	-11.7354
▁pyramid	-11.7357
▁oa	-11.7358
ses	-11.736
▁portfolio	-11.7361
▁counterexample	-11.7362
▁mk	-11.7377
▁hypermedia	-11.7377
▁cohen	-11.7379
▁contradicting	-11.7379
▁vanishing	-11.7381
▁ur	-11.7386
▁5)	-11.7389
▁tunnel	-11.7395
▁lb	-11.7396
amp	-11.7397
▁sensory	-11.7404
▁rsa	-11.7409
▁wired	-11.7411
▁millions	-11.7411
▁58	-11.7413
▁curriculum	-11.7414
▁interpolating	-11.7414
▁therapy	-11.7414
▁preferable	-11.7415
▁gn	-11.7415
ros	-11.7417
▁fragmentation	-11.7417
▁markovian	-11.7417
▁splines	-11.7418
pn	-11.7419
rel	-11.7422
ology	-11.7422
▁msp	-11.7425
▁gcd	-11.7425
▁jp	-11.7427
▁mixtures	-11.743
▁92	-11.7437
▁shortcomings	-11.7438
motion	-11.7439
1.0	-11.744
▁67	-11.7445
▁div	-11.7447
▁infrastructures	-11.7449
▁subtyping	-11.7451
.41	-11.7451
▁kalman	-11.7451
▁rendezvous	-11.7451
▁compliance	-11.7451
▁imprecision	-11.7451
▁thick	-11.7453
▁ol	-11.7455
▁thing	-11.7456
▁configured	-11.7456
▁disturbances	-11.7457
▁87	-11.7458
▁discretizations	-11.746
metric	-11.746
;2	-11.7461
completeness	-11.7463
▁74	-11.7464
▁dem	-11.7466
▁agrees	-11.7467
equation	-11.7468
▁bear	-11.7469
6%	-11.7472
▁alex	-11.7477
▁7.3	-11.7477
scaling	-11.7481
▁para	-11.7482
▁lens	-11.7482
mg	-11.7484
gp	-11.7486
minimal	-11.7486
▁occupancy	-11.7487
▁survival	-11.7487
▁neighbourhood	-11.7487
▁debugger	-11.7487
▁clickthrough	-11.7488
▁88	-11.7488
=1,	-11.7493
▁remarkable	-11.7493
▁provisioning	-11.7493
▁suboptimal	-11.7504
▁surrogate	-11.7509
▁5-	-11.751
▁schedulability	-11.7524
.42	-11.7525
▁sab	-11.7526
▁ion	-11.7527
▁visiting	-11.7532
||	-11.7535
▁cards	-11.7538
1.2	-11.7544
due	-11.7544
▁reversal	-11.7547
hal	-11.7549
▁chart	-11.7553
▁persons	-11.7556
▁svd	-11.7558
▁extrapolation	-11.7562
▁(1995)	-11.7562
▁tedious	-11.7562
▁subsumption	-11.7562
▁unrestricted	-11.7562
▁governing	-11.7563
oa	-11.7564
▁schwarz	-11.7564
▁discounted	-11.7565
▁ticket	-11.7567
▁reconstructing	-11.7569
▁quantitatively	-11.7574
▁outlines	-11.7576
2;	-11.7582
▁tu	-11.7584
▁molecule	-11.7585
-01	-11.759
▁simon	-11.7593
▁grateful	-11.7597
▁political	-11.7597
▁diamond	-11.7599
▁emergence	-11.7599
▁denoising	-11.7599
▁scratch	-11.76
tl	-11.76
▁preemptive	-11.7601
▁deeper	-11.7603
▁(1996)	-11.7604
▁couple	-11.7605
don	-11.7612
▁optimizer	-11.7616
▁denominator	-11.7622
▁attitude	-11.7622
concept	-11.7632
▁randomization	-11.7633
tri	-11.7634
computation	-11.7634
▁histories	-11.7636
▁penalties	-11.7636
▁commutativity	-11.7637
bid	-11.7638
▁massively	-11.7639
▁spot	-11.764
▁(27)	-11.764
▁broader	-11.7641
join	-11.7641
▁arranged	-11.7642
▁hd	-11.7644
either	-11.7646
▁react	-11.7652
▁sta	-11.7655
functional	-11.7659
▁worm	-11.766
▁functor	-11.766
systems	-11.7661
▁displacements	-11.7665
▁>=	-11.7669
▁averages	-11.7672
▁cam	-11.7672
▁reciprocal	-11.7674
▁composing	-11.7674
▁mary	-11.7675
▁mbps	-11.7677
▁promote	-11.7677
▁prototypes	-11.7685
▁84	-11.7685
1-3	-11.7691
▁wan	-11.7692
vo	-11.7694
▁pointwise	-11.7698
▁vendor	-11.7698
▁kd	-11.7701
▁[33]	-11.7704
vertex	-11.7707
▁bootstrap	-11.7712
▁diabetes	-11.7712
▁occupied	-11.7712
▁energies	-11.7712
▁utilities	-11.7712
▁oxygen	-11.7712
▁lem	-11.7712
▁texas	-11.7712
▁appealing	-11.7714
▁arnoldi	-11.7715
95]	-11.7725
▁sand	-11.7725
spec	-11.7726
attribute	-11.7727
▁sb	-11.7727
▁behavioural	-11.7729
gu	-11.7731
▁=2	-11.7733
▁separator	-11.7736
lab	-11.7738
▁23]	-11.7739
▁numbered	-11.774
request	-11.7746
▁modifies	-11.775
▁originating	-11.7751
▁multinomial	-11.7751
▁schematic	-11.7752
▁resilient	-11.7752
▁alarms	-11.7753
▁whereby	-11.7754
▁cooperate	-11.7754
next	-11.7755
wei	-11.7758
52	-11.7758
▁interpreting	-11.7761
▁restore	-11.7765
▁dram	-11.7765
▁preorder	-11.7765
▁intend	-11.7765
ade	-11.7766
78	-11.7766
▁5(	-11.7773
▁pso	-11.7774
long	-11.7775
▁fly	-11.7775
support	-11.7777
400	-11.7779
▁predecessors	-11.7783
▁durations	-11.7783
▁cylindrical	-11.7788
▁medicine	-11.7788
▁jpeg	-11.7789
▁drives	-11.7789
ordered	-11.779
▁river	-11.7791
hz	-11.7793
▁rhs	-11.7798
▁generations	-11.7799
occurrence	-11.7807
2+	-11.7807
▁broker	-11.7807
send	-11.7808
▁amongst	-11.7809
▁85	-11.7812
▁startup	-11.7812
▁allocator	-11.7812
large	-11.7814
▁poll	-11.7814
▁del	-11.7816
dominated	-11.7817
▁blur	-11.7817
tier	-11.782
extended	-11.7822
▁discount	-11.7822
▁[36]	-11.7824
▁excitation	-11.7826
▁tendency	-11.7826
▁suppression	-11.7826
▁portability	-11.7828
▁fisher	-11.7829
▁oscillatory	-11.7829
0.6	-11.7831
▁86	-11.7833
loss	-11.7833
▁markers	-11.7837
gamman	-11.7839
wave	-11.784
▁permissions	-11.7841
▁minimax	-11.7843
▁ipc	-11.7851
▁redistribute	-11.7852
▁interactively	-11.7856
▁vm	-11.7861
▁idf	-11.7863
▁lexicographic	-11.7864
▁anonymity	-11.7865
▁insertions	-11.787
▁fds	-11.7874
▁encodes	-11.788
▁simulators	-11.7887
uses	-11.7887
led	-11.7888
/3	-11.7889
supervised	-11.7897
▁triggers	-11.79
siam	-11.7902
▁hypothetical	-11.7903
▁thirty	-11.7903
▁victim	-11.7903
▁prominent	-11.7903
▁accordance	-11.7903
▁opportunistic	-11.7903
▁(4.2)	-11.7904
▁denite	-11.7905
▁(26)	-11.7906
▁stating	-11.7907
▁selectively	-11.791
▁nonparametric	-11.7911
▁equi	-11.7911
▁believed	-11.7912
pca	-11.7914
▁160	-11.7918
2).	-11.7918
94,	-11.7919
how	-11.7921
▁dark	-11.7921
▁6(	-11.7925
▁transversal	-11.7928
▁prepare	-11.793
conversion	-11.7937
▁pathways	-11.7941
▁boston	-11.7941
▁kumar	-11.7942
▁[\	-11.7944
▁simd	-11.7945
▁generalisation	-11.795
▁exclude	-11.7954
▁collapse	-11.7955
▁18]	-11.7956
96,	-11.7958
▁linguistics	-11.7962
round	-11.7964
▁payoffs	-11.7964
▁import	-11.7964
▁ant	-11.7966
▁jean	-11.7966
▁bor	-11.7967
ow	-11.7969
▁automate	-11.7973
verlag	-11.7976
math	-11.7976
▁printed	-11.7977
▁bind	-11.7979
▁1.00	-11.798
▁contemporary	-11.798
▁exchanging	-11.798
▁suitably	-11.798
▁jordan	-11.798
▁lookahead	-11.7981
▁(3.4)	-11.7981
matic	-11.7983
▁eu	-11.7983
▁nondeterminism	-11.7984
▁[19,	-11.7985
▁fem	-11.7987
▁pitch	-11.7991
ˆ	-11.7992
▁dd	-11.7994
▁tracker	-11.7996
▁phones	-11.8
▁inverses	-11.8003
▁suffice	-11.8006
▁motif	-11.8006
▁oct	-11.8007
▁wanted	-11.8009
.9,	-11.8013
colorable	-11.8016
italic	-11.8017
ator	-11.8017
▁nursing	-11.8019
▁securities	-11.8019
▁agenda	-11.8019
▁rescheduling	-11.8022
▁aborted	-11.8024
oid	-11.8028
bn	-11.8028
▁sea	-11.8029
▁sampler	-11.8031
finite	-11.8032
▁ke	-11.8038
close	-11.8042
▁2\	-11.8043
▁healthy	-11.8044
▁vr	-11.8049
▁threat	-11.8051
0.8	-11.8053
▁hx	-11.8054
▁elegant	-11.8056
▁responsibility	-11.8058
▁57	-11.8058
▁radix	-11.8058
▁definable	-11.8059
▁salesman	-11.8059
▁synchronize	-11.8059
▁scattered	-11.8062
▁mst	-11.8065
▁films	-11.8067
▁les	-11.8069
▁prone	-11.8071
▁food	-11.8071
▁pk	-11.8074
▁1995.	-11.8074
▁cho	-11.8075
(#)	-11.8077
▁sect	-11.808
▁adi	-11.8082
▁multiclass	-11.8085
▁actuator	-11.8085
.11,	-11.8088
▁dan	-11.8092
▁mri	-11.8094
▁aforementioned	-11.8097
▁transparency	-11.8097
▁vliw	-11.8097
▁repetitive	-11.8097
▁elapsed	-11.81
▁bgp	-11.81
▁surely	-11.8102
ati	-11.8107
▁<=	-11.8109
51	-11.8111
▁[27].	-11.8111
▁pda	-11.8112
rom	-11.8115
▁george	-11.8119
▁chunks	-11.812
▁positives	-11.8123
▁transposition	-11.8124
que	-11.8134
▁proactive	-11.8135
▁adequacy	-11.8137
▁autonomy	-11.8137
▁incorporation	-11.8137
▁perimeter	-11.8137
▁gupta	-11.8137
();	-11.8137
fu	-11.8139
▁mimo	-11.814
▁rightmost	-11.814
93]	-11.8144
▁deg	-11.8144
▁optima	-11.8144
▁priors	-11.8145
dot	-11.8149
dn	-11.8151
▁manipulated	-11.8156
▁nr	-11.8157
▁offsets	-11.8161
▁pole	-11.8161
▁thousand	-11.8164
87]	-11.8167
izable	-11.8168
robust	-11.817
ene	-11.8171
nat	-11.8172
▁pseudospectra	-11.8173
▁sigsoft	-11.8176
cb	-11.8177
▁(25)	-11.8185
▁lying	-11.8186
ical	-11.8189
tan	-11.8195
▁bh	-11.8203
▁joined	-11.8205
▁ensembles	-11.8208
alpha	-11.8211
array	-11.8211
tailed	-11.8212
leaf	-11.8212
location	-11.8215
▁verifier	-11.8216
▁staircase	-11.8216
▁associativity	-11.8216
7)	-11.8217
▁serving	-11.8217
▁functionalities	-11.8219
▁orbits	-11.8222
▁evolves	-11.8222
▁extractor	-11.8223
ku	-11.8223
▁phi	-11.8223
after	-11.8227
▁0.02	-11.8228
▁tls	-11.823
▁realizing	-11.823
hy	-11.8239
▁aggregates	-11.8243
▁downward	-11.8244
▁embed	-11.8244
▁digraph	-11.8246
▁ments	-11.825
links	-11.8254
▁posteriori	-11.8255
▁datatype	-11.8255
▁everything	-11.8256
▁[19	-11.8263
▁stabilized	-11.8263
▁prefixes	-11.8264
▁3000	-11.8273
▁raid	-11.8278
response	-11.8278
▁planner	-11.8285
place	-11.8285
equivalent	-11.8289
bandwidth	-11.8291
interested	-11.8293
periodic	-11.8295
▁1997,	-11.8295
▁sought	-11.8296
▁enclosing	-11.8296
▁became	-11.8296
▁excluding	-11.8297
▁augmentation	-11.8298
▁(2000)	-11.83
▁dct	-11.8307
▁93	-11.8312
ama	-11.8313
rec	-11.8316
▁dialogues	-11.8317
mar	-11.8318
column	-11.832
▁1994	-11.8321
▁mitigate	-11.8323
ordering	-11.8324
▁advantageous	-11.8326
▁mission	-11.8328
▁esp	-11.8329
▁differentiate	-11.8329
▁2;	-11.833
proof	-11.8333
▁truncation	-11.8336
▁turbulence	-11.8336
▁taiwan	-11.8336
▁intuitionistic	-11.8336
ite	-11.8337
▁colony	-11.8338
cy	-11.8339
▁folding	-11.834
▁altered	-11.834
▁reactor	-11.8342
▁helping	-11.8352
▁smp	-11.8355
▁motivates	-11.8361
▁interviews	-11.8368
.49	-11.8368
▁normed	-11.837
▁boost	-11.8371
epsilon	-11.8372
▁subnet	-11.8373
▁va	-11.8374
▁nowadays	-11.8376
▁seattle	-11.8376
▁vulnerable	-11.8376
▁drastically	-11.8376
▁radar	-11.8376
▁fabrication	-11.8377
distinguishable	-11.838
▁ber	-11.838
▁severely	-11.8381
▁bearing	-11.8381
▁olap	-11.8381
▁retaining	-11.8382
▁bold	-11.8383
▁viewer	-11.8383
▁plain	-11.8384
▁specially	-11.8384
ding	-11.8386
dh	-11.8391
▁macros	-11.8392
▁ghz	-11.8392
▁photos	-11.8393
▁dam	-11.8398
▁refinements	-11.84
▁west	-11.8404
▁delivers	-11.8404
bu	-11.8408
▁paired	-11.8409
itt	-11.8409
▁180	-11.841
▁subtransactions	-11.8413
partial	-11.8415
0%	-11.8415
97]	-11.8416
▁stemming	-11.8417
▁wn	-11.8418
▁fitted	-11.8418
▁publishing	-11.8421
;1	-11.8424
71	-11.843
▁revealing	-11.8432
▁substituted	-11.8434
2:	-11.8436
▁recommend	-11.8436
tin	-11.8443
▁cutoff	-11.8446
▁mor	-11.845
▁presentations	-11.8455
▁pause	-11.8456
▁abnormal	-11.8457
▁whilst	-11.8457
▁timestamps	-11.8457
▁radiosity	-11.8457
▁autocorrelation	-11.8457
▁brown	-11.8458
▁attracted	-11.8458
▁rbf	-11.8459
▁pad	-11.8459
▁tie	-11.846
▁sectors	-11.8467
88,	-11.847
▁plates	-11.8473
▁trs	-11.8475
▁:::;	-11.8476
there	-11.8477
▁transcription	-11.848
hn	-11.8483
▁21,	-11.8485
.43	-11.8488
.53	-11.8488
topic	-11.8492
associative	-11.8494
▁vulnerabilities	-11.8498
▁pollution	-11.8498
▁verifies	-11.8498
▁enormous	-11.8498
▁unsteady	-11.8498
▁adversarial	-11.8498
▁representatives	-11.85
▁22,	-11.8502
▁house	-11.8503
▁2000)	-11.8504
▁fun	-11.8506
▁rotated	-11.8507
▁=>	-11.8508
ql	-11.8508
▁interchange	-11.8516
▁nonsmooth	-11.8517
▁consumes	-11.8519
▁8.1	-11.8522
▁instruments	-11.8523
▁beams	-11.8527
▁2008	-11.8527
▁plants	-11.8527
▁inadequate	-11.8528
▁monad	-11.8528
▁internally	-11.8529
▁employee	-11.853
jj	-11.853
cn	-11.8531
▁snr	-11.8531
star	-11.8534
rie	-11.8536
▁decomposing	-11.8539
▁invertible	-11.8539
▁lapack	-11.8539
▁reversible	-11.854
▁entailment	-11.854
▁tiles	-11.8541
bank	-11.8541
ita	-11.8542
▁stale	-11.8542
nu	-11.8542
▁regulatory	-11.8542
▁saturated	-11.8543
-12	-11.8544
▁23,	-11.8547
98]	-11.8547
▁hub	-11.8552
▁generalizing	-11.8554
▁comprise	-11.8557
▁sel	-11.8559
▁filling	-11.8559
▁stacks	-11.8562
▁tal	-11.8562
▁bell	-11.8563
▁59	-11.8564
▁es	-11.8576
▁chord	-11.8579
▁engineer	-11.8579
grain	-11.858
▁deficiency	-11.858
▁(3.5)	-11.8582
▁apparently	-11.8586
normalized	-11.8587
▁warping	-11.8588
▁soc	-11.8588
▁dispatching	-11.8588
▁lod	-11.8588
5.0	-11.859
semi	-11.8592
hc	-11.8594
▁aperiodic	-11.8595
▁formalisms	-11.8607
friendly	-11.8618
▁anywhere	-11.8619
▁clarify	-11.8621
▁surgery	-11.8622
▁sized	-11.8622
▁interconnects	-11.8622
▁closing	-11.8623
▁submatrices	-11.8623
▁installed	-11.8623
▁helped	-11.8625
▁18.	-11.8625
▁maker	-11.8625
▁guards	-11.8626
▁constantly	-11.8627
▁cities	-11.8628
▁week	-11.8636
▁0.04	-11.8637
▁converged	-11.8638
▁sqp	-11.8645
▁entails	-11.8648
▁smt	-11.8649
monotonic	-11.8651
▁sh	-11.8652
▁71	-11.8655
ves	-11.8656
enabled	-11.8661
▁stimulation	-11.8663
▁adaptivity	-11.8663
▁customization	-11.8664
many	-11.8665
▁confirms	-11.8666
print	-11.867
cap	-11.8673
az	-11.8675
▁widths	-11.8683
fg	-11.8685
ea	-11.8691
ective	-11.8691
▁instantiations	-11.8692
▁font	-11.8695
▁patent	-11.8701
▁elevation	-11.8705
▁initiator	-11.8705
▁alexander	-11.8705
▁violating	-11.8705
▁legacy	-11.8705
▁transitivity	-11.8705
▁lawrence	-11.8705
▁whatever	-11.8706
▁attain	-11.8706
▁backpropagation	-11.8706
▁favorable	-11.8706
.1-3	-11.8715
▁delivering	-11.8716
1.5	-11.8718
za	-11.8718
▁trap	-11.8722
▁allowable	-11.8723
▁communicated	-11.8724
med	-11.8726
▁lecture	-11.8729
gh	-11.8729
▁syn	-11.873
ret	-11.8731
▁eeg	-11.8736
▁substring	-11.8739
▁codebook	-11.874
μ	-11.8742
▁ultimate	-11.8744
▁verb	-11.8745
▁cyber	-11.8746
▁cardiac	-11.8746
▁turbulent	-11.8746
▁peripheral	-11.8747
▁enhancements	-11.8748
▁actively	-11.8753
▁cond	-11.8754
.65	-11.8754
▁converts	-11.8755
▁schedulers	-11.8756
splines	-11.8756
▁4000	-11.8756
▁cheng	-11.8758
iz	-11.8758
▁multilayer	-11.8761
▁fixing	-11.8763
▁draws	-11.8764
3:	-11.8766
▁differing	-11.8768
0.2	-11.8769
▁discharge	-11.8776
iteration	-11.8777
▁directives	-11.878
▁sheet	-11.8781
ects	-11.8782
▁5.8	-11.8783
priority	-11.8784
signal	-11.8786
▁animals	-11.8787
▁[39]	-11.8788
▁stimulus	-11.8789
▁ρ	-11.8789
▁unbiased	-11.8789
▁(29)	-11.8792
▁hr	-11.8792
▁materialized	-11.8793
▁teachers	-11.8794
▁0-1	-11.8794
▁contacts	-11.8795
▁multipath	-11.8796
▁sur	-11.8798
ei	-11.8798
▁buffered	-11.88
▁transactional	-11.8808
▁xpath	-11.8811
▁3.5.	-11.8814
▁incorrectly	-11.8818
▁skeletons	-11.882
▁dielectric	-11.8821
▁oscillation	-11.8821
▁17.	-11.8822
▁diffuse	-11.8822
▁aiming	-11.8822
▁prex	-11.8822
▁jian	-11.8823
target	-11.8823
▁pays	-11.8824
▁3]	-11.8826
decomposition	-11.8827
ure	-11.8829
dga	-11.8829
▁ultrasound	-11.8831
▁[23,	-11.8831
wt	-11.8832
▁fabricated	-11.8833
▁wrap	-11.8834
▁mine	-11.8835
▁ice	-11.8835
▁assembled	-11.8836
▁contributed	-11.8836
▁runge	-11.8837
▁0.35	-11.884
▁judged	-11.8841
oni	-11.8847
▁func	-11.8849
str	-11.8849
media	-11.8849
▁enumerate	-11.8851
▁spi	-11.8855
▁structurally	-11.8858
▁stem	-11.8864
quadratic	-11.8869
coverage	-11.8869
-100	-11.8869
total	-11.8871
▁amd	-11.8871
istic	-11.8871
▁machining	-11.8873
▁retains	-11.8874
▁commodity	-11.8874
▁unlimited	-11.8874
▁jr	-11.8875
▁benchmarking	-11.8875
plus	-11.8875
▁15%	-11.8876
erman	-11.8876
▁unifying	-11.8876
▁intent	-11.8877
▁nonuniform	-11.8879
▁scripts	-11.888
▁ample	-11.8882
10,	-11.8882
kar	-11.8883
▁releases	-11.8885
▁professor	-11.8885
▁picking	-11.8886
▁curved	-11.8888
▁ocean	-11.8889
73	-11.8891
95,	-11.8894
▁mistake	-11.8895
▁16-	-11.8898
sel	-11.89
ang	-11.89
.51	-11.8901
▁voxels	-11.8902
▁noun	-11.8903
segment	-11.8907
dag	-11.8908
▁rna	-11.8911
3-4	-11.8914
▁4.1,	-11.8915
▁unseen	-11.8916
▁payload	-11.8916
▁handwritten	-11.8917
▁invokes	-11.8917
▁animated	-11.892
▁accounted	-11.8926
▁aided	-11.8932
▁pivots	-11.8934
▁bottlenecks	-11.8941
▁89	-11.8943
wan	-11.8945
▁fold	-11.895
▁knot	-11.8951
▁unroll	-11.8953
▁asymmetry	-11.8955
▁discriminate	-11.8958
▁proposing	-11.8958
▁converging	-11.8958
▁decryption	-11.8959
▁specically	-11.8959
▁adapts	-11.8963
▁disabled	-11.8964
▁quadtree	-11.8964
play	-11.8965
gov	-11.8967
gan	-11.8969
▁(6	-11.897
▁1.9	-11.8976
▁manages	-11.8978
▁comm	-11.8979
▁lung	-11.8979
tz	-11.898
▁pid	-11.8987
▁backtrack	-11.8989
▁accelerator	-11.8992
▁antecedent	-11.8992
▁uniprocessor	-11.8992
▁transducer	-11.8992
▁footprint	-11.8992
sparse	-11.8993
interface	-11.8993
nearest	-11.8997
▁um	-11.8999
.67	-11.8999
king	-11.9
▁cortex	-11.9001
▁inertia	-11.9001
▁automating	-11.9002
▁informatics	-11.9002
▁neglected	-11.9003
▁unweighted	-11.9003
ified	-11.9004
coded	-11.9005
▁restarted	-11.9006
▁chris	-11.9008
▁bringing	-11.901
▁came	-11.901
▁marker	-11.9011
▁63	-11.9011
▁abc	-11.9013
▁enterprises	-11.9017
▁gs	-11.902
4%	-11.9024
via	-11.9027
▁east	-11.9028
▁[]	-11.9029
▁shaped	-11.9029
▁kong	-11.9035
▁bypass	-11.9038
automatic	-11.9039
▁subtask	-11.9039
copy	-11.9039
eld	-11.9042
▁associating	-11.9044
▁afterwards	-11.9044
▁torque	-11.9044
▁measurable	-11.9045
mes	-11.9045
▁partner	-11.9046
td	-11.9048
bad	-11.905
▁organizing	-11.9051
▁25,	-11.9051
▁distinguishes	-11.9051
▁0).	-11.9055
▁associates	-11.9058
▁embeddings	-11.9065
▁(2),	-11.9067
(~	-11.9073
ue	-11.9074
▁align	-11.9074
ops	-11.9077
▁ros	-11.9079
▁reservoir	-11.9079
+3	-11.908
▁treats	-11.9082
▁goto	-11.9082
although	-11.9085
▁70%	-11.9085
2-3,	-11.9086
▁messaging	-11.9088
▁navigate	-11.9088
▁homology	-11.9088
▁economy	-11.9088
▁outdoor	-11.9089
▁harmonics	-11.9089
▁[22,	-11.9093
1.1	-11.9097
thread	-11.91
▁abstracted	-11.9101
▁degraded	-11.9104
▁subsequences	-11.9104
▁expose	-11.9111
▁degrades	-11.9114
150	-11.9116
▁engage	-11.9119
▁amplifier	-11.9123
▁7(	-11.9129
▁lter	-11.913
ich	-11.913
▁nonetheless	-11.9131
▁brownian	-11.9131
▁divisible	-11.9132
▁ospf	-11.9132
▁glass	-11.9133
▁bool	-11.9133
▁dsr	-11.9136
▁5.7	-11.9137
▁3.2,	-11.914
▁machinery	-11.9141
▁universally	-11.9144
▁kg	-11.9145
▁wires	-11.9146
▁singh	-11.9149
▁intentions	-11.9151
erence	-11.9152
formula	-11.9158
cover	-11.9159
ship	-11.916
▁buer	-11.916
▁navigational	-11.9162
▁kinematic	-11.9167
rw	-11.9169
energy	-11.9171
▁reed	-11.9171
▁9]	-11.9171
▁0.03	-11.9174
▁61	-11.9174
▁facilitating	-11.9175
▁corporate	-11.9175
▁berkeley	-11.9176
▁descending	-11.9176
▁sid	-11.9176
▁revisited	-11.9177
▁fulfilled	-11.9178
▁linearization	-11.918
▁[21,	-11.918
▁optimizes	-11.9188
▁chaos	-11.919
▁ee	-11.9192
eh	-11.9193
▁nasa	-11.9194
▁dh	-11.9198
2.5	-11.9202
▁hardly	-11.9203
101	-11.9203
▁sci	-11.9203
▁[23],	-11.9204
▁disturbance	-11.9211
▁mes	-11.9211
▁flood	-11.9212
distributed	-11.9213
window	-11.9214
▁classiers	-11.9214
client	-11.9215
sw	-11.9215
▁fol	-11.9217
kutta	-11.9219
▁laurent	-11.9219
▁attraction	-11.9219
▁fidelity	-11.922
▁vanishes	-11.922
▁articulated	-11.9221
▁subclasses	-11.9222
▁smoother	-11.9226
▁bf	-11.9228
▁hyperblock	-11.9228
▁aaa	-11.9232
any	-11.9232
▁multicore	-11.9233
ld	-11.9237
▁(1994)	-11.9238
▁junction	-11.924
▁gross	-11.9245
pixel	-11.9248
▁';	-11.925
decreasing	-11.9252
stationary	-11.9252
▁descendant	-11.9256
▁selector	-11.9256
lb	-11.9256
propagation	-11.9257
▁fv	-11.9258
▁precedes	-11.9259
▁upward	-11.9259
war	-11.926
▁eqn	-11.9261
▁mfa	-11.9262
▁vulnerability	-11.9263
▁analysing	-11.9263
▁selectivity	-11.9264
▁governed	-11.9264
▁unbalanced	-11.9266
▁med	-11.9268
▁(*	-11.927
▁picked	-11.9273
▁0.18	-11.9275
▁je	-11.9277
ates	-11.9281
ication	-11.9285
1]	-11.9286
▁locked	-11.9289
▁assert	-11.9293
[]	-11.9293
▁ensured	-11.9297
▁negatively	-11.9298
▁uid	-11.9298
ord	-11.9298
correlation	-11.9302
assuming	-11.9303
▁linkage	-11.9305
▁und	-11.9305
▁unambiguous	-11.9305
.57	-11.9306
▁entanglement	-11.9307
▁virtue	-11.9307
▁nuclear	-11.9308
▁transferring	-11.9309
▁graphic	-11.9309
▁multithreaded	-11.931
▁calibrated	-11.9311
▁6.5	-11.9319
▁pull	-11.9325
▁wins	-11.9328
▁cur	-11.9332
▁explaining	-11.9332
▁mild	-11.9335
yi	-11.9338
iso	-11.934
book	-11.9341
▁interacts	-11.9345
.63	-11.9348
▁guaranteeing	-11.9348
▁corrections	-11.935
▁speci	-11.935
▁(30)	-11.9351
▁apprentice	-11.9351
▁calculi	-11.9352
?"	-11.9352
92,	-11.9354
800	-11.9355
(1):	-11.9356
▁factorial	-11.9356
91]	-11.9358
▁explanations	-11.9359
▁protecting	-11.936
hm	-11.9361
models	-11.9364
->	-11.9365
ivity	-11.9367
▁responds	-11.937
.44	-11.9373
▁conform	-11.9375
▁ops	-11.9375
▁[34]	-11.9378
▁suites	-11.9388
▁traced	-11.9388
distribution	-11.939
▁subexpressions	-11.9391
series	-11.9392
reference	-11.9393
1/	-11.9393
▁portal	-11.9396
▁circulant	-11.9396
2/	-11.9397
stein	-11.9397
▁scatternet	-11.9398
▁signicantly	-11.9399
other	-11.9399
▁abr	-11.9402
▁standing	-11.9407
gar	-11.9408
▁testable	-11.9411
▁std	-11.9412
▁behaviours	-11.9416
▁retransmissions	-11.9418
▁tube	-11.9421
▁container	-11.9421
▁additions	-11.9425
arg	-11.9426
▁fingerprint	-11.943
▁trapezoid	-11.9432
▁quadrant	-11.9434
▁dates	-11.9436
1.4	-11.9438
▁unusual	-11.9439
▁kleene	-11.9441
▁feedforward	-11.9441
▁suitability	-11.9441
▁modality	-11.9444
.47	-11.9445
([	-11.9447
▁char	-11.9449
89]	-11.9451
▁ship	-11.9452
▁los	-11.9455
▁generalised	-11.9456
▁hq	-11.9462
▁acknowledge	-11.9464
▁leverage	-11.9467
rad	-11.9472
8%	-11.9472
▁5.0	-11.9478
▁ridge	-11.948
▁spike	-11.948
redundant	-11.9481
ists	-11.9482
tv	-11.9483
▁irrespective	-11.9485
▁supplies	-11.9486
▁docking	-11.9486
gn	-11.9486
▁epistemic	-11.9487
▁hands	-11.949
▁incompatible	-11.9495
]:	-11.9495
nk	-11.9496
▁mv	-11.95
ug	-11.9501
▁hm	-11.9502
▁violates	-11.9517
▁elds	-11.9521
▁24,	-11.9524
▁conguration	-11.9525
clusters	-11.9526
×	-11.9527
att	-11.953
▁83	-11.9531
▁exterior	-11.9531
▁absorption	-11.9531
▁compressible	-11.9531
▁catalog	-11.9531
▁inferior	-11.9531
▁inhibition	-11.9532
ranking	-11.9532
▁8(	-11.9536
station	-11.9537
(1),	-11.9544
▁decoded	-11.9544
▁latch	-11.9546
▁ib	-11.9548
16,	-11.9548
▁ker	-11.9548
▁masks	-11.9551
▁failing	-11.9562
▁neighbours	-11.9573
▁bullet	-11.9573
labeled	-11.9574
▁bytecode	-11.9575
▁stopped	-11.9577
▁bagging	-11.9577
▁∩	-11.9577
▁dissimilarity	-11.9577
▁prevention	-11.9578
▁probable	-11.9579
▁oxide	-11.9579
▁jvm	-11.9579
▁eager	-11.9583
0.4	-11.9583
▁est	-11.9587
▁69	-11.9588
▁sj	-11.9588
sur	-11.9589
▁conic	-11.959
▁=1	-11.9591
▁har	-11.9591
▁1],	-11.9591
90]	-11.9592
tog	-11.9594
blocks	-11.9595
▁smoothly	-11.9597
▁subsections	-11.96
▁vj	-11.9607
▁reversed	-11.9608
2.1	-11.9609
▁resist	-11.9609
▁puts	-11.9612
▁export	-11.9614
▁ellipse	-11.9616
gate	-11.9618
release	-11.9618
hd	-11.9621
▁wiresizing	-11.9623
▁latches	-11.9623
▁separates	-11.9624
false	-11.9625
▁ly	-11.9627
42	-11.9629
▁relaxations	-11.9631
▁tech	-11.9634
90,	-11.9636
thus	-11.9637
▁spots	-11.9641
▁inferences	-11.9647
▁transmits	-11.9649
▁initiates	-11.9654
2.0	-11.9656
▁1994.	-11.9661
▁tapes	-11.9661
▁infection	-11.9662
▁1998)	-11.9664
decision	-11.9664
child	-11.9664
▁cohesion	-11.9668
▁contributing	-11.9668
▁demanding	-11.9669
indexed	-11.967
▁conventions	-11.967
0.1	-11.9673
▁hn	-11.9673
▁nge	-11.9673
▁emotions	-11.9674
.46	-11.9675
▁milliseconds	-11.9676
miss	-11.9677
▁ken	-11.968
▁crew	-11.968
▁lda	-11.9681
▁1+	-11.9681
che	-11.9682
rat	-11.9689
▁targeting	-11.969
▁replicate	-11.9697
sampling	-11.9698
▁workflows	-11.97
▁transpose	-11.9702
▁got	-11.9703
.52	-11.9707
▁epoch	-11.9708
▁truck	-11.9708
hf	-11.9709
▁mutant	-11.9709
▁paragraph	-11.9709
strategy	-11.971
▁wp	-11.9711
▁factored	-11.9714
▁acquiring	-11.9714
▁verication	-11.9714
▁senders	-11.9714
▁tractability	-11.9714
▁deferred	-11.9714
▁undergraduate	-11.9715
▁frozen	-11.9715
▁occasionally	-11.9715
▁elasticity	-11.9716
▁absorbing	-11.9716
▁neighborhoods	-11.9717
▁eigenspace	-11.9718
tuples	-11.972
▁tension	-11.972
▁asserts	-11.9722
91,	-11.9722
▁anticipated	-11.9723
▁chordal	-11.9724
median	-11.9724
▁song	-11.9725
▁complements	-11.9726
▁ul	-11.9728
▁loader	-11.9728
.8,	-11.9728
▁prof	-11.973
▁banded	-11.9731
▁tsp	-11.9731
▁holder	-11.9733
▁pcp	-11.9734
▁/(	-11.9738
ox	-11.9743
▁hyperplanes	-11.9746
itz	-11.975
▁displaying	-11.9753
sensor	-11.9753
▁laptop	-11.9755
▁bubble	-11.9755
assisted	-11.9757
▁initiative	-11.9757
slice	-11.9758
▁submit	-11.9758
▁unconditional	-11.9759
▁listing	-11.976
▁leveraging	-11.9761
▁foreground	-11.9761
▁unavailable	-11.9761
▁dht	-11.9762
▁cortical	-11.9762
▁facing	-11.9763
▁inherited	-11.9763
bra	-11.9765
▁conforming	-11.9766
algebraic	-11.9767
▁clip	-11.9768
▁stone	-11.9769
▁till	-11.9769
cdma	-11.977
▁methodological	-11.9771
avg	-11.9773
▁connectives	-11.9774
▁standardized	-11.9774
▁sag	-11.9779
▁stepsize	-11.9781
take	-11.9782
gf	-11.9786
▁looked	-11.979
▁[25],	-11.9792
▁nov	-11.9793
kr	-11.9794
0.3	-11.9794
▁1980	-11.9795
resource	-11.98
bytes	-11.9801
▁emerge	-11.9801
▁haptic	-11.9802
▁tang	-11.9802
▁teacher	-11.9803
kernel	-11.9803
▁industries	-11.9807
▁manuscript	-11.9807
▁quaternion	-11.9807
▁queried	-11.9807
▁heads	-11.9808
▁henceforth	-11.9808
▁crashes	-11.981
▁isolate	-11.981
▁syntactically	-11.981
1=2	-11.9811
▁equalities	-11.9813
▁13]	-11.9815
▁descendants	-11.9815
▁weeks	-11.982
89,	-11.982
▁01,	-11.9822
▁fpgas	-11.9823
▁vendors	-11.9825
▁behalf	-11.9828
▁che	-11.9834
1).	-11.9835
▁gsm	-11.9838
3.5	-11.9839
▁deduced	-11.9839
▁hc	-11.9839
monotone	-11.9842
ala	-11.9845
▁mer	-11.9848
▁4.5.	-11.9849
▁coarser	-11.9849
▁correcting	-11.9849
▁catch	-11.985
▁spine	-11.9851
▁ren	-11.9852
given	-11.9854
▁overlapped	-11.9854
▁solids	-11.9854
▁altogether	-11.9855
▁cavity	-11.9855
▁91	-11.9855
▁street	-11.9855
▁26,	-11.9857
▁uplink	-11.9858
▁spans	-11.9858
▁vod	-11.986
grams	-11.9861
tg	-11.9865
▁restored	-11.987
▁absolutely	-11.9871
▁magic	-11.9871
▁[38]	-11.9873
▁dma	-11.9873
▁mlp	-11.9874
▁award	-11.9875
▁subword	-11.9876
▁brackets	-11.9876
▁lesser	-11.9877
▁residues	-11.9878
▁zi	-11.9879
merge	-11.9883
▁graduate	-11.9883
▁disjunctions	-11.9884
scan	-11.9884
▁grown	-11.9886
▁suppliers	-11.9886
interval	-11.9889
▁logistics	-11.989
▁temperatures	-11.9892
▁refresh	-11.9893
▁corporation	-11.9896
def	-11.9896
▁misprediction	-11.9896
.45	-11.9897
▁cj	-11.9898
lemma	-11.9898
▁robustly	-11.99
▁)).	-11.9901
▁congested	-11.9901
▁chemistry	-11.9902
▁diagonals	-11.9902
▁relaxing	-11.9906
▁meanings	-11.9908
ref	-11.9908
-20	-11.991
▁prefetched	-11.991
▁acknowledged	-11.9914
▁bridges	-11.9928
▁dns	-11.993
inc	-11.9933
shift	-11.9934
▁shortly	-11.9935
zz	-11.9938
qp	-11.9939
▁allocates	-11.994
▁nf	-11.9941
▁alg	-11.9942
▁gesture	-11.9943
▁restricts	-11.9943
▁semiring	-11.9946
▁30-	-11.9946
lv	-11.9947
▁bijection	-11.9948
▁calendar	-11.9948
▁receipt	-11.9948
▁fur	-11.9949
▁stanford	-11.9949
tra	-11.9949
activity	-11.995
-13	-11.9951
▁prefetches	-11.9952
▁progressively	-11.9952
▁rob	-11.9952
score	-11.9956
▁originated	-11.9956
▁4]	-11.9957
▁collects	-11.9961
▁draft	-11.9962
97,	-11.9972
▁exits	-11.9973
uck	-11.9976
ics	-11.9977
terms	-11.9978
ans	-11.9979
▁bdds	-11.998
▁superset	-11.9982
▁fulfill	-11.9984
▁parallelize	-11.9987
▁eects	-11.9988
relative	-11.9989
▁matroid	-11.9991
▁commits	-11.9991
▁alive	-11.9992
▁cayley	-11.9995
▁curvilinear	-11.9995
▁florida	-11.9995
▁butterfly	-11.9996
▁duty	-11.9996
▁chkr	-11.9997
hellman	-11.9998
▁4.9	-11.9998
▁defocus	-12.0004
▁distortions	-12.0005
▁minimality	-12.0007
▁fluids	-12.0009
▁paris	-12.001
▁markings	-12.0013
▁backwards	-12.0014
xy	-12.0018
allocation	-12.002
98,	-12.0023
▁saying	-12.0025
lets	-12.0026
▁decode	-12.003
▁inhibitors	-12.0031
▁(1999)	-12.0032
▁wolf	-12.0037
ern	-12.0038
density	-12.0039
▁(1993)	-12.0043
▁adversaries	-12.0043
▁persistence	-12.0043
▁promotion	-12.0043
▁predetermined	-12.0044
▁mips	-12.0047
kel	-12.0055
(0;	-12.0059
▁ritz	-12.006
▁multistage	-12.0061
pls	-12.0064
▁morphisms	-12.0066
▁dfa	-12.0069
▁microprocessors	-12.007
▁(10	-12.007
84	-12.0072
▁hf	-12.0072
dimension	-12.0074
kh	-12.0076
▁notably	-12.0078
division	-12.0085
▁append	-12.0087
trans	-12.0088
▁dae	-12.0088
▁philosophy	-12.0091
▁replies	-12.0091
▁``	-12.0091
▁√	-12.0091
▁(1.3)	-12.0093
char	-12.0095
▁undertaken	-12.0096
.54	-12.0098
▁incremented	-12.0099
▁interpolated	-12.0101
▁animations	-12.0107
▁nonlinearity	-12.0109
▁lastly	-12.0113
▁asking	-12.0113
▁declare	-12.0123
▁activate	-12.0123
▁ldl	-12.0127
solving	-12.0132
threshold	-12.0133
▁ser	-12.0134
▁artifact	-12.0135
▁repetition	-12.0135
▁automorphism	-12.0136
contract	-12.0136
adi	-12.0137
turn	-12.0137
dx	-12.0137
▁receptors	-12.0138
▁homotopy	-12.0139
▁anomalous	-12.0139
▁rocchio	-12.0139
▁crisp	-12.0139
▁denial	-12.014
▁73	-12.0141
▁handbook	-12.0141
▁charles	-12.0141
▁6.2.	-12.0142
▁losing	-12.0143
▁dependability	-12.0144
▁compactness	-12.0146
▁zhu	-12.0149
qr	-12.015
▁bandwidths	-12.0153
lic	-12.0158
▁synthesize	-12.0159
▁rock	-12.0161
▁remained	-12.0162
.62	-12.0164
▁critics	-12.0168
yes	-12.0169
82	-12.0171
▁ov	-12.0172
▁stat	-12.0177
▁textured	-12.0179
▁voltages	-12.018
private	-12.0181
▁mh	-12.0182
▁polymer	-12.0183
▁picks	-12.0184
▁posture	-12.0184
▁rw	-12.0186
shown	-12.0186
corrector	-12.0187
▁reuters	-12.0187
▁cognition	-12.0187
▁amenable	-12.0187
▁(2.6)	-12.0188
▁validating	-12.019
tel	-12.0192
▁inactive	-12.0193
▁mice	-12.0201
▁pack	-12.0201
▁slip	-12.0202
▁multihop	-12.0208
▁transformer	-12.0208
▁preconditions	-12.0211
▁normalize	-12.0214
▁0.75	-12.0217
▁pathological	-12.0217
▁blog	-12.0217
▁resolutions	-12.0224
▁authorizations	-12.0225
far	-12.0225
logical	-12.0225
▁tens	-12.0228
projection	-12.023
61	-12.023
▁socket	-12.0233
▁adult	-12.0233
▁hv	-12.0233
▁mip	-12.0233
▁passage	-12.0234
▁vague	-12.0235
▁radiance	-12.0236
▁breakpoint	-12.0236
▁approx	-12.0237
▁meanwhile	-12.0237
▁nth	-12.0238
▁renewal	-12.024
▁mcmc	-12.0241
ud	-12.0243
▁lossless	-12.0247
▁jl	-12.0248
▁steven	-12.0248
▁2.4.	-12.025
▁thermo	-12.0252
▁ancestors	-12.0253
▁prevented	-12.0254
define	-12.0266
▁matcher	-12.0267
▁cation	-12.027
▁5.4.	-12.0272
what	-12.0272
increasing	-12.0273
yu	-12.0274
123	-12.0274
orthogonal	-12.0276
▁bs	-12.0277
▁qa	-12.0278
▁16]	-12.0278
▁organisation	-12.028
context	-12.0282
.64	-12.0283
3.1	-12.0284
▁elevator	-12.0284
▁immersed	-12.0284
▁macroscopic	-12.0284
▁audit	-12.0284
▁situated	-12.0285
▁aggregating	-12.0285
▁inferring	-12.0285
▁freshness	-12.0286
▁outperformed	-12.0293
aki	-12.0295
▁qualitatively	-12.0296
▁#=	-12.0297
▁threats	-12.0301
0000	-12.0303
selection	-12.0304
oi	-12.0306
▁lf	-12.0307
ill	-12.0307
▁[24],	-12.031
▁connectionist	-12.0313
era	-12.0313
▁2%	-12.032
▁pascal	-12.0324
▁pile	-12.0329
▁indian	-12.033
ua	-12.033
▁reals	-12.0334
▁dummy	-12.0334
▁(2.8)	-12.0334
▁¬	-12.0335
▁tetrahedral	-12.0337
wait	-12.0338
▁orthogonality	-12.0341
▁ignores	-12.0341
▁denotational	-12.0344
▁happened	-12.0344
▁pushed	-12.0344
mis	-12.0345
▁stems	-12.0345
▁7)	-12.0347
len	-12.0348
▁xk	-12.0351
sorted	-12.0354
▁bending	-12.0355
ort	-12.0357
▁transistors	-12.0358
micro	-12.0358
▁sol	-12.0358
▁manipulations	-12.0361
▁wdm	-12.0362
ata	-12.0362
▁grounded	-12.0363
sta	-12.0365
▁friends	-12.0366
pol	-12.0368
▁(32)	-12.037
direction	-12.037
times	-12.0372
▁ica	-12.0375
▁:-	-12.0378
▁8]	-12.0379
▁ellipsoid	-12.0379
▁vehicular	-12.0383
▁menu	-12.0384
ments	-12.0384
▁distributive	-12.0385
▁planned	-12.0385
▁04-0	-12.0385
▁involvement	-12.0386
▁progression	-12.0387
▁gestures	-12.0388
idf	-12.0388
▁encapsulated	-12.0389
▁stresses	-12.0391
.60	-12.0393
▁crawlers	-12.0396
▁gait	-12.0397
mv	-12.04
▁kh	-12.0401
variables	-12.0405
▁fsm	-12.0406
▁inappropriate	-12.0406
88]	-12.0412
▁1.7	-12.0416
▁nj	-12.0419
▁strips	-12.0424
stop	-12.0424
▁7]	-12.0425
neighbor	-12.0426
▁bj	-12.0426
▁predicated	-12.0426
▁therein	-12.0427
▁tetrahedra	-12.0428
▁foster	-12.0428
mf	-12.0429
▁notable	-12.043
▁dijkstra	-12.0432
▁synthesizing	-12.0432
▁vhdl	-12.0432
▁(3.8)	-12.0433
▁stays	-12.0434
▁injected	-12.0435
▁deploying	-12.0436
▁grade	-12.0438
▁geographically	-12.0439
▁interpreters	-12.044
.75	-12.0441
▁clearing	-12.0443
▁midpoint	-12.0443
ess	-12.0443
▁assisted	-12.0444
▁1991)	-12.0447
users	-12.0449
▁streamline	-12.045
▁xx	-12.045
▁2),	-12.0451
▁abstracts	-12.0452
▁1994]	-12.0456
▁checkers	-12.046
▁exponents	-12.0464
.70	-12.0464
▁steel	-12.0468
▁1995]	-12.047
overlapping	-12.0471
▁subtype	-12.0471
▁deploy	-12.0474
▁sem	-12.0475
differential	-12.0476
▁qu	-12.0476
mediated	-12.0477
[2]	-12.0477
ω	-12.0478
▁selections	-12.0481
▁steepest	-12.0482
▁bernoulli	-12.0482
▁facebook	-12.0483
▁labelling	-12.0484
▁tau	-12.049
3.3	-12.0491
▁75%	-12.0492
ideal	-12.0495
inner	-12.0499
mw	-12.0503
▁continuations	-12.0503
▁german	-12.0505
person	-12.051
▁ya	-12.0514
gue	-12.0516
46	-12.0518
▁1996,	-12.0519
shape	-12.052
functions	-12.0523
τ	-12.0528
business	-12.0528
interactive	-12.0528
feature	-12.053
▁advertisement	-12.053
▁scanner	-12.0532
▁ternary	-12.0532
▁unclear	-12.0532
▁davis	-12.0533
ids	-12.0534
▁formulating	-12.0536
cam	-12.0541
ric	-12.0542
▁noticeable	-12.0542
11,	-12.0544
▁actuators	-12.0548
lia	-12.0549
▁udp	-12.0552
▁rejects	-12.0553
▁[28].	-12.0568
▁duplicated	-12.057
ets	-12.0575
example	-12.0576
strict	-12.0577
74	-12.0578
ford	-12.0579
▁pol	-12.0579
▁grasp	-12.058
ney	-12.058
600	-12.0581
▁professionals	-12.0581
▁brevity	-12.0582
▁companion	-12.0582
▁vicinity	-12.0582
▁∅	-12.0583
▁zhou	-12.0583
▁coord	-12.0584
▁css	-12.0586
▁stephen	-12.0586
▁adv	-12.0586
▁padding	-12.0588
▁cart	-12.0591
▁:::	-12.0592
▁implementable	-12.0594
▁cong	-12.0598
86,	-12.0598
▁acks	-12.0606
▁agreements	-12.0611
▁maximally	-12.0617
hash	-12.0619
▁classifications	-12.0622
▁judge	-12.0622
▁dft	-12.0624
▁herein	-12.0625
▁den	-12.0625
▁cylinders	-12.0627
rb	-12.063
▁dqdb	-12.0631
▁propagates	-12.0632
▁hamilton	-12.0633
▁intractability	-12.0633
▁deemed	-12.0633
▁zhao	-12.0633
▁ftp	-12.0635
ended	-12.0636
eval	-12.064
)-(	-12.0642
▁weakness	-12.0642
▁rewards	-12.0642
▁quantifying	-12.0644
.55	-12.0646
▁motivations	-12.0646
▁comprised	-12.0648
▁differentiated	-12.0649
▁pairing	-12.065
find	-12.0651
.56	-12.0651
▁oid	-12.0654
▁1990)	-12.0655
▁stepwise	-12.0656
▁merits	-12.0663
▁aug	-12.0665
ara	-12.0669
▁smo	-12.0675
▁hai	-12.0675
83	-12.0681
▁trades	-12.0683
▁kronecker	-12.0684
▁massachusetts	-12.0684
▁aperture	-12.0684
▁finishes	-12.0686
▁month	-12.0687
▁predictability	-12.0688
▁robin	-12.0692
▁interestingness	-12.0699
▁sept	-12.0699
aka	-12.0702
▁lossy	-12.0704
▁jxj	-12.0704
▁eyes	-12.0705
▁compensated	-12.0706
▁shen	-12.0707
direct	-12.0709
▁rtl	-12.071
▁resides	-12.071
▁ghc	-12.0712
▁sync	-12.0715
▁desk	-12.0717
types	-12.0718
▁institutional	-12.072
▁cfd	-12.0723
▁marc	-12.0726
").	-12.0728
destination	-12.073
▁homomorphism	-12.0734
▁ergodic	-12.0734
▁council	-12.0735
▁logged	-12.0735
▁[41]	-12.0735
▁[24,	-12.0735
press	-12.0735
vl	-12.0736
▁brdf	-12.0736
▁prc	-12.0743
▁resp	-12.0744
▁winter	-12.0745
▁pic	-12.0748
vr	-12.075
▁tw	-12.0755
▁15:	-12.0755
has	-12.0756
▁fw	-12.0762
3-3	-12.0763
-?	-12.0765
las	-12.0769
▁optic	-12.0775
criteria	-12.0777
▁17]	-12.078
▁warm	-12.0783
ali	-12.0783
.59	-12.0783
▁iterators	-12.0784
▁multiset	-12.0784
▁manipulator	-12.0785
▁hausdorff	-12.0786
▁influential	-12.0786
▁̈	-12.0786
▁[40]	-12.0786
▁universities	-12.0786
▁explanatory	-12.0786
▁issuing	-12.0786
▁intranet	-12.0787
▁attachment	-12.0788
▁certainty	-12.079
▁grammatical	-12.079
0.7	-12.0791
▁ming	-12.0791
▁twofold	-12.0791
▁dier	-12.0792
▁subroutines	-12.0792
▁ext	-12.0794
▁nondecreasing	-12.0794
▁men	-12.0797
▁axial	-12.08
▁12]	-12.0802
late	-12.0803
shot	-12.0803
▁4.0	-12.0804
▁nas	-12.0806
dependence	-12.0811
cas	-12.0815
3.2	-12.0817
▁goodness	-12.0818
cnf	-12.0821
chen	-12.0823
▁hierarchically	-12.0823
▁forth	-12.0824
▁ramp	-12.0824
▁81	-12.0829
▁buttons	-12.0833
▁inject	-12.0836
▁gravity	-12.0837
▁intensities	-12.0837
▁quicksort	-12.0837
▁vorticity	-12.0838
▁frobenius	-12.0838
▁pushdown	-12.0839
▁blending	-12.0839
▁witnesses	-12.0841
▁transducers	-12.0848
▁pushing	-12.0852
1/2	-12.0853
yer	-12.0853
▁01	-12.0856
▁oo	-12.0857
▁compositions	-12.0858
▁conjunctions	-12.0859
lis	-12.086
may	-12.0864
▁(5.1)	-12.0864
▁sq	-12.0868
▁trick	-12.0868
▁aids	-12.0875
▁dev	-12.0876
▁migrate	-12.0877
▁determinants	-12.0881
than	-12.0881
▁hydrogen	-12.0882
▁metaphor	-12.0888
▁ambiguities	-12.0889
▁summarizing	-12.0889
▁agglomerative	-12.0889
▁qualified	-12.0889
▁vivo	-12.089
▁(2.7)	-12.089
▁anatomical	-12.089
▁-#	-12.089
ender	-12.0891
▁(2001)	-12.0892
▁(%)	-12.0895
▁antennas	-12.0898
▁nak	-12.0899
▁traverses	-12.0911
ile	-12.0913
correct	-12.0913
▁comparator	-12.0913
▁rand	-12.0915
▁fused	-12.0922
▁overlaps	-12.0925
/4	-12.0926
project	-12.0932
fault	-12.0933
▁1'	-12.0935
assignment	-12.0936
category	-12.0937
execution	-12.0937
guided	-12.094
▁dictionaries	-12.0941
▁influencing	-12.0941
▁redundancies	-12.0941
▁stiff	-12.0941
▁jin	-12.0941
▁sibling	-12.0942
▁mimd	-12.0942
▁radii	-12.0942
▁exposition	-12.0942
▁tangential	-12.0942
▁xj	-12.0942
▁07-1	-12.0944
house	-12.0944
full	-12.0945
▁minres	-12.0945
▁electronics	-12.0945
▁unrolling	-12.0946
tw	-12.0947
namely	-12.0948
▁everyday	-12.0952
robin	-12.0954
xj	-12.0962
wer	-12.0968
▁hint	-12.0974
nested	-12.0982
▁lay	-12.0984
▁suppress	-12.0985
.61	-12.0985
▁xm	-12.0986
▁pathway	-12.0986
▁betting	-12.0986
arrival	-12.0988
87,	-12.0989
register	-12.0989
following	-12.099
▁suspect	-12.0991
▁military	-12.0994
▁matthew	-12.0994
▁republish	-12.0994
▁worthwhile	-12.0994
▁doc	-12.0994
▁serializability	-12.0994
▁digest	-12.0995
▁smalltalk	-12.0996
▁suggestion	-12.0997
▁tiny	-12.0998
▁periodicity	-12.1
ella	-12.1
▁categorized	-12.1003
▁das	-12.1007
▁stakeholders	-12.1007
3),	-12.101
▁preview	-12.1014
▁blast	-12.1016
human	-12.1016
▁memo	-12.1017
▁cdma	-12.102
▁jg	-12.1021
▁tiled	-12.1021
▁forums	-12.1022
▁dept	-12.1025
pairs	-12.1026
▁spaced	-12.1028
wo	-12.1029
▁makers	-12.1032
▁centres	-12.1034
▁adopts	-12.1034
▁0.15	-12.1035
▁(31)	-12.104
▁odds	-12.1041
effect	-12.1041
conquer	-12.1042
▁tier	-12.1043
solid	-12.1043
▁bra	-12.1045
▁sporadic	-12.1046
▁bilateral	-12.1047
▁dirty	-12.1047
lk	-12.1047
▁inducing	-12.1048
▁gadget	-12.1049
mel	-12.105
▁bpp	-12.1051
inf	-12.1053
connectivity	-12.1055
▁dissection	-12.1055
▁gaze	-12.1057
jf	-12.1057
▁translational	-12.1059
home	-12.106
▁injective	-12.106
▁5]	-12.1063
▁chat	-12.1064
pb	-12.1065
eng	-12.1066
period	-12.1072
.66	-12.1077
▁(3),	-12.1088
ien	-12.109
unique	-12.1095
seidel	-12.1095
entropy	-12.1095
iel	-12.1098
▁psychology	-12.1099
▁ordinal	-12.1099
▁french	-12.1099
▁accompanied	-12.11
▁cheap	-12.1104
ola	-12.1109
dar	-12.1112
▁wood	-12.1114
▁notational	-12.1126
eterministically	-12.1127
▁coll	-12.1127
▁27,	-12.1129
▁tem	-12.1129
▁unsafe	-12.1129
▁!1	-12.1132
▁yan	-12.1133
▁pfu	-12.1141
▁landmarks	-12.1143
▁rice	-12.1143
▁asset	-12.1145
▁responder	-12.1146
▁hypergraphs	-12.1147
▁vanish	-12.1148
▁documented	-12.1151
pet	-12.1151
▁confluence	-12.1152
▁extensibility	-12.1152
▁constitutive	-12.1152
▁surplus	-12.1153
▁decompression	-12.1153
▁expressible	-12.1153
▁inserts	-12.1154
▁chess	-12.1154
▁genomic	-12.1154
computed	-12.1154
▁reducibility	-12.1155
▁groupware	-12.1155
▁guesses	-12.1157
▁permuted	-12.116
▁cpn	-12.1163
atomic	-12.1169
▁8.2	-12.1171
atom	-12.1172
▁crop	-12.1172
.68	-12.118
▁(4),	-12.1181
(1;	-12.1188
▁3;	-12.119
▁9(	-12.1191
▁6].	-12.1191
▁nally	-12.1198
▁vis	-12.1199
▁jt	-12.12
ctl	-12.1201
▁spare	-12.1201
▁london	-12.1206
▁synopsis	-12.1206
▁climate	-12.1206
▁arabic	-12.1206
▁entertainment	-12.1206
▁ontological	-12.1207
▁hoare	-12.1207
▁whom	-12.1207
▁enforces	-12.1207
▁renement	-12.1207
▁billion	-12.1207
▁iterator	-12.1209
▁strongest	-12.1209
▁1993	-12.1209
▁fanout	-12.1209
▁temporally	-12.1209
▁edition	-12.1209
▁organic	-12.121
▁7.4	-12.121
▁cb	-12.121
▁sounds	-12.1211
▁personality	-12.1212
▁minute	-12.1213
▁mil	-12.1213
▁richer	-12.1213
▁collectively	-12.1214
▁bundles	-12.1217
▁lans	-12.1221
ators	-12.1222
mal	-12.1226
post	-12.1227
gon	-12.1232
▁ijk	-12.1237
▁overcomes	-12.124
(|	-12.1241
compatible	-12.1245
card	-12.1247
▁encourage	-12.1249
she	-12.1249
▁reproduce	-12.125
faulty	-12.1253
▁skill	-12.1255
▁tactile	-12.126
rest	-12.126
▁hopfield	-12.126
▁(2.9)	-12.126
▁thm	-12.1261
▁temp	-12.1262
▁900	-12.1264
▁walker	-12.1264
▁risc	-12.1264
▁plugin	-12.1267
▁stabilizing	-12.1267
▁1.1.	-12.1267
▁dots	-12.1268
▁unions	-12.127
▁aborts	-12.1271
▁dose	-12.1273
▁hue	-12.1274
▁closeness	-12.1276
classical	-12.1276
typically	-12.1277
▁balls	-12.1279
▁workspace	-12.1285
▁slaves	-12.1285
▁technically	-12.1285
arch	-12.1285
6.	-12.1286
▁wrt	-12.1287
parent	-12.1287
▁jack	-12.1291
▁functionally	-12.1292
rim	-12.1293
▁[29].	-12.1293
▁gateways	-12.1294
▁certificates	-12.1301
som	-12.1303
▁privilege	-12.1304
▁son	-12.1304
bed	-12.1307
oli	-12.1309
▁polyhedra	-12.1309
optimization	-12.1309
synthesis	-12.1309
▁19]	-12.131
▁eligible	-12.1314
▁forbidden	-12.1314
▁kripke	-12.1314
▁ganesh	-12.1314
▁spiral	-12.1314
▁catalogue	-12.1314
▁seismic	-12.1314
▁hmms	-12.1314
▁innermost	-12.1315
▁−→	-12.1317
avi	-12.1318
▁treewidth	-12.1324
▁detectable	-12.1325
0.9	-12.1326
▁wheel	-12.1329
▁graphically	-12.1337
▁jos	-12.1342
▁mw	-12.1345
.264	-12.1348
3.4	-12.1351
▁consult	-12.1355
▁resume	-12.1359
nets	-12.1359
▁conn	-12.136
lower	-12.1361
▁hb	-12.1362
_1	-12.1364
▁[[	-12.1364
symmetry	-12.1368
▁oregon	-12.1368
fem	-12.1368
▁hydraulic	-12.1368
▁unrealistic	-12.1368
▁regenerative	-12.1368
▁identied	-12.1369
▁alu	-12.1371
▁ago	-12.1371
clock	-12.1371
▁rated	-12.1371
▁profitable	-12.1372
-15	-12.1372
▁inspector	-12.1373
▁14].	-12.1374
));	-12.1374
▁selling	-12.1375
garch	-12.1375
▁bends	-12.1376
▁rao	-12.1378
▁readings	-12.1379
force	-12.138
▁anchors	-12.1381
▁1994,	-12.1382
ju	-12.1382
▁programmed	-12.1385
▁gra	-12.1388
▁compactly	-12.1391
▁visualized	-12.1394
▁1995,	-12.1396
▁triplet	-12.1398
▁mul	-12.1399
(0,	-12.1402
▁appl	-12.1403
schedule	-12.1406
▁pools	-12.1406
ions	-12.1407
▁kj	-12.1408
▁fh	-12.141
ave	-12.141
▁kluwer	-12.1423
▁motivating	-12.1423
▁spoken	-12.1423
▁erasure	-12.1423
▁(2002)	-12.1425
▁affective	-12.1426
▁ron	-12.1426
▁wine	-12.1428
▁apriori	-12.1429
14,	-12.1431
▁antecedents	-12.1434
▁spain	-12.1435
▁err	-12.1436
▁specializer	-12.1442
▁mini	-12.1443
equal	-12.1443
▁encounters	-12.1446
relation	-12.1448
▁remotely	-12.1453
gis	-12.1453
bel	-12.1458
3).	-12.1458
cos	-12.1459
▁dst	-12.1462
▁lt	-12.1464
▁(=	-12.1464
▁lease	-12.1466
▁125	-12.1467
▁agreed	-12.1468
▁)=	-12.1468
ious	-12.1471
clique	-12.1472
▁assets	-12.1473
▁tin	-12.1473
biased	-12.1474
▁deadlocks	-12.1474
▁dest	-12.1475
▁secrecy	-12.1478
▁distillation	-12.1478
▁axiomatic	-12.1478
gammak	-12.1478
▁350	-12.1478
▁eulerian	-12.1479
lar	-12.148
hardness	-12.148
cad	-12.148
▁selfish	-12.148
▁obligation	-12.1481
▁felt	-12.1481
▁bioinformatics	-12.1481
▁stefan	-12.1482
▁personalization	-12.1483
▁respects	-12.1483
writer	-12.1486
▁compressing	-12.1488
▁seeing	-12.1488
▁rie	-12.1491
▁vari	-12.1495
onic	-12.1497
4.3	-12.1498
▁invisible	-12.15
ula	-12.1503
▁)(	-12.1505
env	-12.1505
▁photographs	-12.1509
▁rights	-12.151
▁corrector	-12.151
▁owing	-12.1512
▁sis	-12.1515
▁theta	-12.1518
▁neuronal	-12.1518
stat	-12.152
assign	-12.1525
▁heights	-12.1529
sequences	-12.1529
expression	-12.153
sphere	-12.1531
msg	-12.1532
2.2	-12.1532
▁sees	-12.1532
▁museum	-12.1533
▁skipped	-12.1533
▁uncalibrated	-12.1533
▁conductivity	-12.1533
▁unreachable	-12.1533
▁reflexive	-12.1533
▁portland	-12.1534
▁walls	-12.1534
▁rationality	-12.1538
12,	-12.1538
▁conditionally	-12.1539
▁martingale	-12.1539
▁cont	-12.154
ency	-12.1541
121	-12.1542
▁wing	-12.1542
▁jm	-12.1544
▁cha	-12.1546
▁pursue	-12.1547
vd	-12.1551
96].	-12.1552
▁multiuser	-12.1555
▁meth	-12.1558
▁wsn	-12.1559
▁exhibiting	-12.156
▁za	-12.156
(1=	-12.1561
▁rba	-12.1561
tive	-12.1562
ration	-12.1563
▁authoring	-12.1564
share	-12.1565
▁emphasized	-12.1565
▁resembles	-12.1569
▁lacking	-12.1569
.85	-12.1573
▁michel	-12.1574
▁gar	-12.1575
▁minimally	-12.1584
▁replay	-12.1585
▁admitted	-12.1586
nal	-12.1587
▁oscillator	-12.1588
▁pronounced	-12.1588
▁emergent	-12.1589
▁congruent	-12.1589
▁shading	-12.1589
▁cycling	-12.1589
▁follower	-12.159
▁meyer	-12.159
▁ligand	-12.1593
roc	-12.1594
ory	-12.1595
▁(33)	-12.1596
▁duplicates	-12.1599
▁[26],	-12.16
▁looping	-12.1601
insensitive	-12.1601
▁overloading	-12.1601
▁tenth	-12.1602
▁fsa	-12.1603
▁wild	-12.1606
gas	-12.1606
▁nests	-12.1607
▁merges	-12.161
95].	-12.161
▁inlining	-12.1611
▁threaded	-12.1619
(ˆ	-12.1621
▁speakers	-12.1622
ax	-12.1626
▁topical	-12.1634
feedback	-12.164
august	-12.164
ude	-12.1641
▁crossings	-12.1643
▁somewhere	-12.1644
constraint	-12.1644
▁regulator	-12.1644
▁flit	-12.1644
▁cascading	-12.1644
▁tomcatv	-12.1644
▁bregman	-12.1644
▁arbiter	-12.1644
▁jensen	-12.1645
▁sustainable	-12.1645
▁virus	-12.1645
▁householder	-12.1645
▁inherit	-12.1646
▁maxwell	-12.1646
ura	-12.165
▁crawled	-12.165
scope	-12.165
▁multicasting	-12.1651
▁pls	-12.1653
▁nonterminal	-12.1654
▁flops	-12.1659
▁pcc	-12.1661
▁pseudorandom	-12.1662
cip	-12.1664
eal	-12.1665
▁chaining	-12.1666
▁percentages	-12.1668
▁treatments	-12.1668
▁rat	-12.1668
vc	-12.1669
▁fbdd	-12.1669
▁yao	-12.167
▁william	-12.1671
▁fundamentally	-12.1675
▁pw	-12.1677
▁learnt	-12.1678
▁10].	-12.168
nov	-12.168
▁photon	-12.1682
▁15].	-12.1682
ware	-12.1684
▁140	-12.1691
▁typ	-12.1691
jp	-12.1691
dw	-12.1692
▁sen	-12.1694
aps	-12.1694
discrete	-12.1696
▁hh	-12.1699
▁netherlands	-12.17
▁please	-12.1701
about	-12.1701
▁maple	-12.1702
los	-12.1703
sense	-12.1705
▁atomicity	-12.1707
▁departments	-12.171
▁mediated	-12.171
▁repeats	-12.1712
around	-12.1714
sar	-12.1716
▁snp	-12.1716
lap	-12.1717
▁pcr	-12.1718
▁motifs	-12.1719
▁joe	-12.1728
hyper	-12.1731
▁(1992)	-12.1732
result	-12.1733
▁21]	-12.1734
▁4.2,	-12.1734
▁sla	-12.1736
▁som	-12.1739
111	-12.174
4.1	-12.1741
▁male	-12.1746
▁env	-12.1751
▁inherits	-12.1753
▁churn	-12.1754
=10	-12.1755
▁reusability	-12.1757
▁antonio	-12.1757
▁guiding	-12.1757
▁absent	-12.1757
▁infrared	-12.1758
▁(3.7)	-12.1758
▁synaptic	-12.1758
▁acute	-12.1758
▁pragmatic	-12.1759
java	-12.1759
▁gaining	-12.1762
▁bursty	-12.1767
▁underflow	-12.1775
106	-12.1776
▁socio	-12.1777
▁fetching	-12.1778
▁incomparable	-12.178
▁denes	-12.1783
▁110	-12.1787
▁csrs	-12.1791
wp	-12.1795
▁64-	-12.1799
sse	-12.18
ind	-12.18
dev	-12.1801
variant	-12.1802
15,	-12.1802
recursive	-12.1803
▁uci	-12.1803
▁precede	-12.1804
77,	-12.1806
▁hz	-12.1806
ifferentiability	-12.1806
▁29]	-12.1807
und	-12.1808
▁amplitudes	-12.1808
voltage	-12.181
▁lexicon	-12.1814
▁qualities	-12.1814
▁nisan	-12.1814
▁doubling	-12.1814
subject	-12.1814
▁compliant	-12.1816
▁cooling	-12.1816
▁neighbour	-12.1816
nr	-12.1816
▁sight	-12.1816
▁opens	-12.1817
▁crossbar	-12.1817
▁700	-12.1817
▁organisations	-12.1817
▁thoroughly	-12.1817
▁pencil	-12.1819
met	-12.1819
▁1992)	-12.1819
▁overfitting	-12.1819
▁buying	-12.1824
125	-12.1825
▁cent	-12.1829
▁fundamentals	-12.183
▁wh	-12.1832
▁fractions	-12.1832
256	-12.1833
▁recalling	-12.1836
▁1993]	-12.1837
▁contracting	-12.184
▁82	-12.1843
▁saves	-12.1845
▁mbytes	-12.1845
▁standardization	-12.1846
bil	-12.1851
polar	-12.1851
▁1200	-12.1853
▁sale	-12.1854
(5)	-12.1854
ological	-12.1854
written	-12.1855
ected	-12.1857
illa	-12.186
▁pir	-12.1862
matrices	-12.1865
limited	-12.1866
content	-12.1867
calibration	-12.1867
subscribe	-12.1867
tracking	-12.1868
▁bou	-12.187
▁[42]	-12.1871
▁unsuccessful	-12.1871
▁resilience	-12.1871
▁configurable	-12.1872
▁cts	-12.1872
▁eric	-12.1872
▁roughness	-12.1874
▁xslt	-12.1876
▁subtransaction	-12.1878
shared	-12.188
smooth	-12.188
lh	-12.188
▁jun	-12.1883
ghz	-12.1884
ering	-12.1886
▁foreach	-12.1887
▁las	-12.1889
▁australian	-12.1894
change	-12.1898
cha	-12.1899
107	-12.1901
ening	-12.1902
pin	-12.1907
▁recurrences	-12.1912
▁era	-12.1912
kp	-12.1914
▁convey	-12.1916
switch	-12.1917
sf	-12.1921
dss	-12.1921
between	-12.1924
pen	-12.1926
sequential	-12.1928
▁triplets	-12.1928
▁susceptible	-12.1928
▁proliferation	-12.1928
▁impossibility	-12.1929
▁electrostatic	-12.1929
▁toronto	-12.1929
▁advertisements	-12.193
▁(1998)	-12.1931
▁deposition	-12.1932
▁dif	-12.1932
▁relocation	-12.1932
2]	-12.1933
hel	-12.1934
▁2.5.	-12.1934
▁adaptable	-12.1935
▁clips	-12.1936
▁hypothesized	-12.1936
▁eng	-12.1936
▁assessments	-12.1939
▁highlighting	-12.1939
▁pomp	-12.194
ice	-12.1942
▁recordings	-12.1942
kg	-12.1945
▁ty	-12.1946
etti	-12.1947
▁drawings	-12.1947
rating	-12.1948
▁retrieves	-12.1952
▁1/3	-12.1956
mpi	-12.1957
super	-12.1961
hence	-12.1962
▁1998).	-12.1962
▁brian	-12.1963
▁(9	-12.1966
▁diagrammatic	-12.1966
abs	-12.1967
▁rom	-12.1968
info	-12.1975
bert	-12.1976
▁17].	-12.1978
manifold	-12.198
▁invalidate	-12.198
usually	-12.1981
virtual	-12.1982
speech	-12.1982
▁erp	-12.1983
▁veri	-12.1984
▁coordinating	-12.1986
▁schedulable	-12.1986
▁insurance	-12.1986
▁aerial	-12.1986
▁offspring	-12.1986
▁certified	-12.1986
▁timeliness	-12.1987
▁∨	-12.1987
seq	-12.1991
▁circuitry	-12.1991
▁axiomatization	-12.1992
▁lk	-12.1992
▁104	-12.1993
▁movies	-12.1994
▁flame	-12.1995
▁redesign	-12.1997
▁nonmonotonic	-12.1998
▁10-	-12.1999
▁musical	-12.2003
▁wm	-12.2003
▁subsumes	-12.2007
▁productions	-12.201
92]	-12.2011
tes	-12.2014
fra	-12.2015
lda	-12.2016
▁resort	-12.2017
▁sports	-12.2017
hit	-12.2018
nite	-12.2022
▁dss	-12.2022
▁dv	-12.2026
▁ross	-12.2028
▁charged	-12.2031
▁sram	-12.2032
▁dfg	-12.2033
[0]	-12.2034
31,	-12.2039
▁gil	-12.204
(1/	-12.2041
▁destined	-12.2044
▁scarce	-12.2044
▁versatile	-12.2044
▁blurring	-12.2045
▁subgroups	-12.2046
▁105	-12.2046
▁mergesort	-12.2046
▁classifies	-12.2047
bg	-12.2047
▁miller	-12.2048
▁[1;	-12.2048
▁sequent	-12.205
ole	-12.205
▁biometric	-12.2051
▁mus	-12.2051
▁dags	-12.2053
▁mature	-12.2054
.58	-12.2054
▁markup	-12.2055
plan	-12.2063
▁ltl	-12.2066
▁classier	-12.2069
▁observational	-12.2072
dan	-12.2072
▁tick	-12.2074
▁piconets	-12.2075
fb	-12.2081
.12,	-12.2081
94].	-12.2084
dep	-12.2085
▁liver	-12.2087
current	-12.2093
▁endfor	-12.2097
visual	-12.2098
aggregator	-12.2099
▁multilinear	-12.2099
▁nfa	-12.2099
▁gmm	-12.21
physical	-12.2102
▁introductory	-12.2103
▁pertinent	-12.2103
▁suspension	-12.2103
▁winnow	-12.2103
▁piercing	-12.2103
▁cursor	-12.2103
▁surgical	-12.2103
▁spider	-12.2103
xx	-12.2103
▁minkowski	-12.2104
▁(3.9)	-12.2104
▁interactivity	-12.2105
these	-12.2105
▁copper	-12.2107
▁drag	-12.2109
▁appointment	-12.2109
▁clp	-12.211
uri	-12.211
▁ste	-12.211
2.4	-12.2112
▁mrf	-12.2113
toplas	-12.2115
▁rbac	-12.2119
▁gloss	-12.212
▁bfs	-12.2125
▁10]	-12.2125
▁wrappers	-12.2126
▁spe	-12.2127
1-4	-12.2128
▁esti	-12.213
pdf	-12.2132
oul	-12.2147
▁posets	-12.2148
▁19.	-12.2149
▁perceive	-12.2149
steps	-12.215
▁destroy	-12.2155
bottom	-12.2157
▁appeal	-12.2158
▁cps	-12.2158
▁circumvent	-12.2158
weak	-12.2159
▁bill	-12.216
▁tournament	-12.2162
▁trellis	-12.2162
transaction	-12.2162
sort	-12.2163
▁cheaper	-12.2163
▁inst	-12.2164
▁supervisor	-12.2165
▁manifest	-12.2165
cation	-12.2167
▁4%	-12.2168
?1	-12.2169
▁zipf	-12.217
▁applet	-12.2172
▁casting	-12.2172
▁28,	-12.2174
▁achievement	-12.2174
mine	-12.2183
▁nan	-12.2185
+06	-12.2186
▁magnitudes	-12.2186
▁mach	-12.2187
sig	-12.2189
▁(5),	-12.2197
▁ptr	-12.2201
▁hl	-12.2207
▁dea	-12.2209
vp	-12.2211
▁blow	-12.2212
2.3	-12.2214
eas	-12.2216
▁jx	-12.2218
▁emulator	-12.2221
▁temporarily	-12.2221
▁occluding	-12.2221
▁georgia	-12.2221
▁buildings	-12.2222
upper	-12.2224
▁enclosed	-12.2226
▁conjunct	-12.2228
▁prioritized	-12.2228
▁recipient	-12.2228
▁solar	-12.2229
▁instants	-12.223
▁subexpression	-12.2231
▁shadows	-12.2234
▁forever	-12.2234
▁chung	-12.2235
cond	-12.2237
-90	-12.2238
elle	-12.2239
duc	-12.2239
sha	-12.224
.73	-12.2241
▁thereafter	-12.2241
▁estimations	-12.2252
▁cpus	-12.2254
jun	-12.2255
span	-12.2258
▁constituents	-12.2263
▁cable	-12.2266
▁anyway	-12.227
▁oracles	-12.2273
▁heaps	-12.2274
graphs	-12.2275
▁profits	-12.2276
optimized	-12.2277
▁embodied	-12.228
▁hysteresis	-12.228
▁initiating	-12.2281
▁(4.6)	-12.2281
▁(3.6)	-12.2281
▁(4.4)	-12.2282
▁fcfs	-12.2282
▁(!	-12.2286
▁installation	-12.2288
▁utterance	-12.2288
▁snippet	-12.2289
▁ssl	-12.229
▁cipher	-12.2291
▁communicates	-12.2291
▁pri	-12.2295
▁clr	-12.2295
][	-12.2295
▁bursts	-12.2297
▁magneto	-12.2299
compact	-12.2299
1+	-12.23
▁overly	-12.2303
▁(7	-12.2305
wl	-12.2311
▁vo	-12.2314
ement	-12.2315
compare	-12.2324
▁nonce	-12.2331
▁kar	-12.2332
▁occlusions	-12.2332
▁interpolate	-12.2336
∞	-12.2336
gaussian	-12.2336
culty	-12.2337
▁decrement	-12.2338
▁gradual	-12.2338
▁eco	-12.234
▁elderly	-12.234
▁virginia	-12.234
▁chronic	-12.234
▁yellow	-12.2341
▁lewis	-12.2341
▁pearson	-12.2341
▁dierential	-12.2343
▁enriched	-12.2343
▁unspecified	-12.2343
▁philip	-12.2344
kov	-12.2344
-1,	-12.2347
▁quadrilateral	-12.2348
▁deviate	-12.2348
▁cdfg	-12.2349
▁operated	-12.235
▁labor	-12.235
3;	-12.2352
route	-12.2354
001	-12.2356
▁finger	-12.236
main	-12.2361
▁falling	-12.2361
4]	-12.2361
▁counterexamples	-12.2366
8)	-12.2371
▁tar	-12.2372
▁14]	-12.2372
ser	-12.2374
▁uc	-12.238
▁0.95	-12.2381
▁annotate	-12.2388
circuit	-12.2393
▁wavelengths	-12.2393
markov	-12.2396
3]	-12.2397
▁ent	-12.2398
▁plural	-12.24
▁hints	-12.24
▁bruijn	-12.24
▁metabolic	-12.24
▁narrative	-12.24
▁shu	-12.24
▁severity	-12.2401
▁morgan	-12.2401
▁hat	-12.2401
▁hip	-12.2402
▁stringent	-12.2405
ben	-12.2405
▁nand	-12.2407
▁striping	-12.2409
▁subscription	-12.241
▁trapezoids	-12.241
▁pain	-12.2415
▁graded	-12.2418
!1	-12.2421
nb	-12.2421
▁[30].	-12.2421
▁thi	-12.2425
▁cw	-12.2427
▁dba	-12.2428
null	-12.2433
▁disorders	-12.2434
▁(1991)	-12.2436
▁zip	-12.2438
problem	-12.2441
▁war	-12.2441
-02	-12.2448
128	-12.2449
determinism	-12.245
▁manufacturers	-12.245
singular	-12.2453
▁encrypt	-12.2454
inv	-12.2454
▁7.5	-12.2456
pruning	-12.2457
▁mate	-12.246
▁atmospheric	-12.2461
▁christian	-12.2461
▁inquiry	-12.2461
▁syndrome	-12.2461
▁staging	-12.2461
▁unnecessarily	-12.2461
▁cilk	-12.2461
▁elmore	-12.2462
85,	-12.2462
supported	-12.2462
▁wcet	-12.2462
▁cscw	-12.2462
▁(4.7)	-12.2462
▁dilemma	-12.2463
▁spelling	-12.2463
▁amino	-12.2463
▁(4.3)	-12.2463
▁summed	-12.2463
▁mismatches	-12.2464
sam	-12.2464
▁rigidity	-12.2465
▁spai	-12.2465
▁precomputed	-12.2466
▁locus	-12.2466
▁flex	-12.2466
lived	-12.2468
▁wordnet	-12.2472
▁nk	-12.2475
url	-12.2476
▁coecients	-12.2477
imp	-12.248
▁lhs	-12.2481
▁vertically	-12.2487
disk	-12.2487
▁1500	-12.249
▁aak	-12.2491
▁mq	-12.2492
▁pdes	-12.2492
ami	-12.2495
▁wright	-12.2497
▁distributes	-12.2499
▁logarithms	-12.2504
▁qm	-12.2505
hole	-12.2505
stamp	-12.2506
▁inhibit	-12.2511
science	-12.2518
mic	-12.2518
▁8].	-12.2519
▁flits	-12.2519
▁111	-12.2521
▁kingdom	-12.2522
▁trapped	-12.2522
▁superlu	-12.2524
▁30,	-12.2524
▁adaptability	-12.2525
▁0.001	-12.253
clustering	-12.253
▁roundoff	-12.2531
▁episode	-12.2532
▁pebble	-12.2532
▁lane	-12.2532
▁flags	-12.2533
isclassification	-12.2536
▁functioning	-12.2537
▁infrequent	-12.2539
▁assure	-12.254
▁multidatabase	-12.254
▁epi	-12.2549
13,	-12.2552
▁ilut	-12.2557
▁0.45	-12.2557
▁regimes	-12.2558
▁positioned	-12.256
algebra	-12.2564
▁retail	-12.2565
▁bal	-12.2566
▁correspondingly	-12.2566
prop	-12.2566
akis	-12.2567
▁obtainable	-12.2569
▁bre	-12.257
▁multicomputers	-12.2571
▁supercomputers	-12.2572
▁regularly	-12.2576
complex	-12.2579
hybrid	-12.2579
▁obligations	-12.258
rbf	-12.2581
gra	-12.2581
▁intellectual	-12.2583
▁qualification	-12.2583
▁helmholtz	-12.2584
▁numerator	-12.2584
▁lithography	-12.2584
▁unmarked	-12.2584
▁remarkably	-12.2584
▁∆	-12.2585
▁standby	-12.2586
▁adults	-12.2588
▁specialisation	-12.2588
▁distinctive	-12.2589
ale	-12.2591
sem	-12.2592
-00	-12.2593
▁defective	-12.2593
▁hy	-12.2594
▁asia	-12.2595
▁downloading	-12.2595
120	-12.2597
▁won	-12.2599
▁icon	-12.26
cj	-12.2605
1.3	-12.2605
▁strengthen	-12.2607
▁valve	-12.2607
database	-12.2618
82,	-12.2619
▁scc	-12.2621
▁[31].	-12.2621
move	-12.2622
▁abuse	-12.2622
vf	-12.2624
▁fish	-12.2626
slot	-12.2627
▁anderson	-12.2631
hour	-12.2633
▁shuffle	-12.2633
▁alt	-12.2636
▁browse	-12.2638
choice	-12.2641
linked	-12.2641
▁quarter	-12.2644
▁stick	-12.2645
▁collaborate	-12.2645
▁anatomy	-12.2645
▁pursuit	-12.2645
▁emulation	-12.2645
correcting	-12.2646
▁barnes	-12.2646
sky	-12.2647
application	-12.2651
ria	-12.2652
▁(4.5)	-12.2652
fun	-12.2654
subset	-12.2656
▁opcode	-12.2657
▁manifolds	-12.266
▁snapshots	-12.2662
-16	-12.2663
320	-12.2664
▁emphasizes	-12.2674
▁williams	-12.2677
▁opened	-12.2677
[3]	-12.2677
▁kbytes	-12.2683
peak	-12.2687
▁130	-12.2688
▁rotate	-12.2688
▁1989)	-12.2689
▁steve	-12.2694
▁attach	-12.2697
▁owned	-12.2702
▁relief	-12.2704
▁incentives	-12.2706
ose	-12.2706
▁british	-12.2707
▁remedy	-12.2707
▁paragon	-12.2707
▁kdd	-12.2707
▁myopic	-12.2708
▁contradictory	-12.2708
▁hermite	-12.2708
▁uncompressed	-12.2708
fin	-12.2708
finding	-12.2708
▁maria	-12.2709
▁(2003)	-12.2709
▁funded	-12.271
pad	-12.271
▁slopes	-12.2711
▁obey	-12.2711
▁segmenting	-12.2713
▁shrink	-12.2714
▁staged	-12.2719
▁8).	-12.2723
hon	-12.2727
cher	-12.2727
▁commute	-12.2727
▁separators	-12.273
▁dening	-12.273
▁numa	-12.2732
▁flaws	-12.2735
eu	-12.2744
▁[1	-12.2747
▁allen	-12.2748
▁coast	-12.2748
▁browsers	-12.2752
iss	-12.2756
▁brand	-12.2758
▁apple	-12.2761
though	-12.2762
general	-12.2763
▁eff	-12.2763
▁tmr	-12.2764
▁rts	-12.2764
gel	-12.2765
spatial	-12.2765
rather	-12.2766
seconds	-12.2768
vol	-12.2769
▁attenuation	-12.277
▁emitted	-12.277
▁erlang	-12.277
▁pump	-12.2771
▁(1.4)	-12.2772
▁instrumented	-12.2776
packet	-12.2776
operator	-12.2776
▁pvs	-12.2776
▁rolling	-12.2779
▁leaders	-12.2779
104	-12.278
transfer	-12.278
▁broadly	-12.278
▁superscript	-12.2781
▁adl	-12.2781
▁ciphertext	-12.2781
going	-12.2781
▁speak	-12.2782
▁exceeding	-12.2782
pat	-12.2782
gc	-12.2786
▁arrangements	-12.279
▁sir	-12.2791
▁computerized	-12.2791
▁sym	-12.2795
bag	-12.2797
▁wong	-12.2798
▁19].	-12.2802
▁lacks	-12.2804
▁symmetrical	-12.2808
▁mill	-12.2809
hot	-12.2809
4.4	-12.281
▁meetings	-12.2811
rows	-12.2811
.72	-12.2812
▁instructional	-12.2813
▁connectors	-12.2813
▁datatypes	-12.2815
ima	-12.2817
tj	-12.282
5.3	-12.2824
hong	-12.2825
implicit	-12.2827
0.0%	-12.2827
derived	-12.2829
▁efficiencies	-12.2833
▁benign	-12.2833
▁banach	-12.2833
▁κ	-12.2833
▁stratified	-12.2834
▁condensed	-12.2834
▁enjoy	-12.2835
▁superclass	-12.2837
▁zoom	-12.2839
▁printf	-12.284
coordinate	-12.284
▁enzyme	-12.2844
▁fluctuation	-12.2844
▁verier	-12.2846
▁manufacturer	-12.2848
▁leases	-12.2853
▁wherein	-12.2854
▁projecting	-12.2854
▁charts	-12.2858
00]	-12.2858
2001	-12.2861
ality	-12.2862
▁-5	-12.2862
▁0.06	-12.2863
▁analysts	-12.287
▁depths	-12.2874
▁*)	-12.2874
terminal	-12.2885
▁interferences	-12.2891
simulation	-12.2891
▁privileges	-12.2893
hen	-12.2894
research	-12.2895
▁kullback	-12.2896
▁unwanted	-12.2896
▁holistic	-12.2896
▁derivable	-12.2896
▁satis	-12.2896
▁engagement	-12.2896
_{	-12.2897
▁aodv	-12.2897
▁district	-12.2898
aw	-12.2899
▁prism	-12.2899
▁nurbs	-12.29
▁learnability	-12.2901
▁confined	-12.2902
▁99%	-12.2903
▁float	-12.2904
0:	-12.2905
▁landmark	-12.2908
▁reusing	-12.2908
▁supercomputer	-12.2909
▁eort	-12.2914
▁commercially	-12.2916
▁!-	-12.2916
▁tap	-12.2916
▁15]	-12.2923
(2))	-12.2923
▁raster	-12.2924
85]	-12.2929
▁0:2	-12.293
boxes	-12.2939
vectors	-12.2942
zer	-12.2943
▁kan	-12.2944
▁dj	-12.2946
▁6000	-12.2948
▁hospitals	-12.2949
)?	-12.2952
ulation	-12.2954
differentiable	-12.2955
generic	-12.2956
2.6	-12.2956
▁corrupt	-12.2956
established	-12.2957
▁chicago	-12.296
▁alternation	-12.296
▁coxeter	-12.296
▁sigcomm	-12.296
▁therapeutic	-12.296
▁quorums	-12.296
▁crosstalk	-12.296
▁polarity	-12.2961
▁interarrival	-12.2961
-50	-12.2961
▁worldwide	-12.2963
1-5	-12.2963
▁101	-12.2963
▁keyboard	-12.2965
▁confirmation	-12.2966
▁rotor	-12.2967
▁bonding	-12.2968
▁disappear	-12.2968
▁mimic	-12.2971
▁exceptional	-12.2971
^{	-12.2972
▁elect	-12.2975
als	-12.2976
▁16].	-12.2978
bot	-12.2979
▁phys	-12.298
▁negotiations	-12.2982
sv	-12.2982
▁tl	-12.2983
auto	-12.2988
▁converters	-12.2988
uch	-12.2994
▁stubs	-12.2996
▁notify	-12.2997
▁equivalences	-12.2999
cent	-12.2999
▁24]	-12.3
▁sip	-12.3001
▁lh	-12.3004
▁door	-12.3008
▁10(	-12.3014
▁localize	-12.3015
exponential	-12.3015
▁adjustments	-12.3017
▁tank	-12.3018
filter	-12.3018
infinity	-12.3019
mentioned	-12.3019
corresponding	-12.3019
property	-12.302
maximal	-12.302
threaded	-12.302
otherwise	-12.302
▁prohibitive	-12.3022
mus	-12.3022
▁biggest	-12.3024
▁starvation	-12.3024
▁survive	-12.3024
▁croft	-12.3024
▁creative	-12.3024
▁observability	-12.3024
▁wsmp	-12.3024
▁dierentiable	-12.3025
▁recombination	-12.3025
▁(5.2)	-12.3025
▁umts	-12.3025
▁mutator	-12.3025
▁retinal	-12.3026
sion	-12.3027
▁coins	-12.3028
▁manageable	-12.3028
▁cpc	-12.3028
▁repetitions	-12.3029
▁sweeps	-12.3029
lot	-12.3031
▁modulated	-12.3032
▁exec	-12.3032
▁displayable	-12.3034
▁passenger	-12.3036
▁premise	-12.3036
▁1:0	-12.3036
▁homepage	-12.3037
▁zu	-12.3038
dv	-12.3038
2005	-12.3039
eur	-12.3042
▁factorized	-12.3043
hill	-12.3045
bas	-12.3045
▁directive	-12.3045
▁bg	-12.3047
▁mdp	-12.3047
▁homo	-12.3053
▁3.10	-12.3055
▁voters	-12.3065
lists	-12.307
▁santa	-12.3073
ple	-12.3074
video	-12.3083
exchange	-12.3084
▁borrow	-12.3085
else	-12.3087
▁jo	-12.3087
▁piezoelectric	-12.3088
▁saliency	-12.3088
▁sobolev	-12.3088
▁(3.12)	-12.3088
▁auditory	-12.3088
▁famous	-12.3088
▁outsourcing	-12.3089
▁friedman	-12.3089
▁conjectured	-12.3089
▁rcm	-12.3089
ups	-12.309
▁reflections	-12.3091
▁mel	-12.3093
▁penalized	-12.3097
▁concentrates	-12.3097
▁altering	-12.3099
▁kinematics	-12.31
▁realizations	-12.3101
▁multiplexer	-12.3101
inputs	-12.3102
▁2.2,	-12.3103
▁subtasks	-12.3103
▁nu	-12.3106
10000	-12.3108
▁-0.4	-12.311
▁rj	-12.311
▁batching	-12.3113
▁1988	-12.3114
dense	-12.3126
103	-12.3131
▁reservations	-12.3135
)\	-12.3136
▁13].	-12.314
▁korea	-12.3141
ifying	-12.3142
▁obeys	-12.3142
▁=0	-12.3143
determined	-12.3144
]),	-12.3146
)$	-12.3147
▁#1	-12.3147
enhanced	-12.3149
tuning	-12.315
▁cumbersome	-12.3153
▁unacceptable	-12.3153
▁systolic	-12.3154
▁swapping	-12.3154
▁elicited	-12.3156
▁bk	-12.3157
▁milling	-12.3158
▁dge	-12.316
▁bloom	-12.316
▁wake	-12.3161
▁hart	-12.3162
▁msec	-12.3162
▁gpus	-12.3164
▁disaster	-12.3166
▁stroke	-12.3166
▁subgoal	-12.3168
▁vessel	-12.3172
=2)	-12.3179
▁nfs	-12.3179
put	-12.3186
=5	-12.3193
▁archives	-12.3199
▁ipv	-12.3199
▁gy	-12.32
▁lsas	-12.3204
swap	-12.3205
▁interview	-12.3205
1.8	-12.3207
▁extrema	-12.3209
▁snippets	-12.321
front	-12.3213
▁ranged	-12.3213
expert	-12.3215
▁450	-12.3215
toms	-12.3218
▁sine	-12.3218
▁locomotion	-12.3218
▁phantom	-12.3218
▁striking	-12.3218
▁synchronizing	-12.3219
▁jet	-12.3219
34,	-12.3223
▁2=3	-12.3223
▁2001)	-12.3224
▁nds	-12.3224
▁0.08	-12.3226
▁quadratically	-12.3228
deltas	-12.3229
▁relaying	-12.3231
▁intersected	-12.3231
▁halt	-12.3231
▁fruitful	-12.3232
▁modication	-12.3233
62,	-12.3235
ean	-12.3236
-30	-12.3236
▁ics	-12.3236
eman	-12.3239
▁island	-12.3249
alone	-12.3249
5.5	-12.325
bor	-12.3256
▁0.00	-12.3257
ahl	-12.3257
▁lang	-12.3259
5]	-12.3263
▁timings	-12.3264
tab	-12.3265
▁ess	-12.3266
fixed	-12.3266
▁bent	-12.3266
angle	-12.3268
▁1989	-12.3269
▁wasted	-12.327
▁7.1.	-12.327
tail	-12.3271
▁premises	-12.3272
▁1995;	-12.3275
branch	-12.3276
"),	-12.3277
}$	-12.3277
testing	-12.328
dependency	-12.328
protein	-12.328
single	-12.328
▁prod	-12.3282
▁tremendous	-12.3282
boundary	-12.3283
▁accelerating	-12.3284
▁damped	-12.3284
▁spatiotemporal	-12.3285
▁erosion	-12.3285
▁lfsr	-12.3285
▁ecg	-12.3286
▁trapezoidal	-12.3287
▁len	-12.3289
▁clone	-12.329
▁rocch	-12.3291
▁determiner	-12.3291
▁[25,	-12.3292
▁mutants	-12.3293
.69	-12.3296
▁hans	-12.3296
wf	-12.3297
▁daemon	-12.3298
▁rod	-12.3304
rus	-12.3311
▁vii	-12.3314
training	-12.3315
▁schools	-12.3323
▁inversely	-12.3325
▁1;1	-12.3327
▁tems	-12.3331
▁noc	-12.3333
fst	-12.3334
ili	-12.3336
]]	-12.3336
▁lar	-12.3337
▁rounded	-12.3337
▁surprise	-12.3338
▁(19	-12.3342
lev	-12.3343
▁matters	-12.3344
▁phonetic	-12.3344
nurbs	-12.3346
maximum	-12.3346
technical	-12.3346
▁/2	-12.3347
▁highway	-12.3348
▁adverse	-12.3349
mor	-12.3349
wire	-12.335
▁trouble	-12.335
▁trigonometric	-12.335
▁megabytes	-12.3351
▁phylogenetic	-12.3351
▁disclosure	-12.3351
▁shrinkage	-12.3351
▁maryland	-12.3351
▁presumably	-12.3351
▁generational	-12.3352
▁simplices	-12.3352
hai	-12.3354
▁exported	-12.3355
iate	-12.3357
▁observes	-12.336
▁hw	-12.3361
▁exceeded	-12.3362
▁100,000	-12.3364
▁rithm	-12.3365
▁somehow	-12.3369
▁enumerated	-12.337
▁eighth	-12.337
▁hotel	-12.3371
▁tab	-12.3373
ven	-12.3376
▁8000	-12.3377
▁multicomputer	-12.3377
instance	-12.3377
▁tower	-12.3382
▁andreas	-12.3383
▁waveforms	-12.3384
▁brie	-12.3387
▁participated	-12.3388
▁3%	-12.3392
/~	-12.3392
▁burn	-12.3392
▁sion	-12.3394
▁stabilize	-12.3394
▁jaj	-12.3394
sections	-12.3396
bal	-12.3396
san	-12.3397
·	-12.3397
▁reconstructions	-12.3401
250	-12.3402
.80	-12.3403
▁3.2.1	-12.3403
▁renders	-12.3404
▁subgoals	-12.3404
▁mult	-12.3411
natural	-12.3412
qs	-12.3412
derivation	-12.3414
▁srg	-12.3414
▁unify	-12.3415
▁radical	-12.3415
binding	-12.3415
▁blank	-12.3416
theory	-12.3416
▁tetrahedron	-12.3417
▁pocket	-12.3417
▁inclusive	-12.3418
▁debate	-12.3418
▁intensional	-12.3418
▁skewness	-12.3421
mps	-12.3423
▁agile	-12.3423
▁fetches	-12.3424
▁constraining	-12.3427
▁euro	-12.3427
tting	-12.3429
▁posting	-12.343
▁definitely	-12.3432
▁roads	-12.3432
▁seventh	-12.3432
▁female	-12.3433
▁pv	-12.3433
▁expires	-12.3435
▁fragmented	-12.3441
1}	-12.3444
▁dlog	-12.3446
mobile	-12.3447
▁abs	-12.3448
▁conversations	-12.3451
gammat	-12.3452
▁meters	-12.3457
▁succ	-12.346
▁cai	-12.3464
▁cy	-12.3471
▁discretize	-12.3472
▁jim	-12.3472
▁electrodes	-12.3473
cpc	-12.3474
▁tid	-12.3475
▁dcg	-12.3476
izer	-12.3477
▁town	-12.3479
distortion	-12.348
suited	-12.3482
switched	-12.3484
states	-12.3484
▁indivisible	-12.3484
▁refactoring	-12.3484
▁amazon	-12.3484
▁compromising	-12.3484
▁agencies	-12.3484
▁cloning	-12.3485
▁confidentiality	-12.3485
▁warehousing	-12.3485
almost	-12.3485
▁conferencing	-12.3485
▁prevalent	-12.3485
hol	-12.3486
▁monoid	-12.3487
▁sustained	-12.3487
▁bitstream	-12.3487
▁harvesting	-12.3487
▁wsns	-12.3487
▁competitiveness	-12.3495
▁3.6.	-12.3495
▁afford	-12.3496
▁assured	-12.3498
qam	-12.3498
▁prerequisite	-12.35
ilp	-12.35
jm	-12.3502
dia	-12.3504
▁joachims	-12.3509
▁cfsm	-12.3514
die	-12.3515
▁guo	-12.3518
▁rk	-12.3521
▁architect	-12.3523
▁traits	-12.3526
pk	-12.3528
▁18-2	-12.353
▁oh	-12.3531
74,	-12.3533
▁ideals	-12.3533
▁jia	-12.3536
▁(?	-12.3537
▁mos	-12.3537
[4]	-12.3538
▁marco	-12.3541
roll	-12.3542
▁ehr	-12.3543
focus	-12.3545
xml	-12.3547
binary	-12.3549
▁austria	-12.3552
▁automotive	-12.3552
▁crisis	-12.3552
▁official	-12.3552
▁(2.10)	-12.3552
▁century	-12.3552
▁turbine	-12.3552
▁japanese	-12.3552
▁cooperating	-12.3553
▁certifying	-12.3553
▁diusion	-12.3553
▁unequal	-12.3553
▁volatile	-12.3553
▁spice	-12.3554
phone	-12.3554
▁christopher	-12.3555
▁strategically	-12.3555
▁complementation	-12.3558
▁rev	-12.356
▁verbal	-12.356
▁metasearch	-12.3561
meta	-12.3563
▁parking	-12.3564
▁countable	-12.3565
▁xt	-12.3565
▁modem	-12.3567
▁hazard	-12.3568
[...]
